<unk>	0
<s>	0
</s>	0
,	-2.79649
.	-3.42086
▁the	-3.54175
▁of	-3.79118
▁and	-4.08186
-	-4.10867
▁(	-4.12529
▁a	-4.21466
)	-4.26316
▁to	-4.36339
▁in	-4.47703
H	-4.67238
▁or	-4.73294
▁is	-4.87374
),	-4.91244
▁	-4.93848
▁was	-5.01313
▁The	-5.01568
s	-5.09661
▁with	-5.14901
▁1	-5.17199
▁for	-5.18303
▁as	-5.22657
▁by	-5.3449
▁be	-5.38551
2	-5.49446
▁at	-5.5552
▁are	-5.59953
▁an	-5.6071
▁C	-5.6095
/	-5.63788
:	-5.65661
▁from	-5.77876
;	-5.79399
▁acid	-5.80669
▁2	-5.81989
C	-5.83521
▁In	-5.87276
m	-5.90932
▁that	-5.92996
1	-5.97268
).	-6.03535
3	-6.04201
▁may	-6.05142
▁can	-6.08216
▁R	-6.09685
d	-6.0986
(	-6.09872
▁compound	-6.14658
▁were	-6.1678
▁which	-6.17289
▁J	-6.17368
▁group	-6.18558
▁invention	-6.20069
▁such	-6.21123
▁A	-6.21659
▁g	-6.22418
g	-6.23635
yl	-6.25479
▁3	-6.26243
▁one	-6.27746
e	-6.3219
▁mixture	-6.37103
▁used	-6.38624
▁reaction	-6.39162
4	-6.4037
▁mg	-6.42399
▁Hz	-6.4244
▁mmol	-6.42651
▁solution	-6.43819
S	-6.46439
▁mL	-6.46912
N	-6.47784
]	-6.49875
▁about	-6.50831
R	-6.53253
O	-6.57367
▁added	-6.58959
▁example	-6.5985
▁N	-6.61262
▁present	-6.61291
▁on	-6.62005
▁Example	-6.62408
▁5	-6.6384
▁cells	-6.64466
M	-6.65236
▁sequence	-6.69618
methyl	-6.69919
▁more	-6.71095
a	-6.71434
-2-	-6.72078
▁H	-6.72224
▁using	-6.73572
▁described	-6.74267
▁m	-6.74562
▁amino	-6.76187
▁4	-6.80535
▁embodiments	-6.82073
6	-6.8311
”	-6.84024
▁not	-6.84615
▁compounds	-6.84669
▁“	-6.84993
▁include	-6.86708
5	-6.86885
▁(1	-6.87076
▁cell	-6.8775
▁temperature	-6.89842
▁herein	-6.90512
or	-6.9225
▁antibody	-6.93537
▁protein	-6.94851
▁ml	-6.95929
▁least	-6.96159
▁then	-6.96351
▁water	-6.98042
A	-6.98463
▁10	-6.98801
▁other	-6.99468
▁ID	-7.00037
▁also	-7.02158
▁—	-7.04094
▁embodiment	-7.04711
▁under	-7.04836
-1	-7.06064
▁this	-7.07512
▁formula	-7.11124
▁NO	-7.11215
▁alkyl	-7.12415
-4-	-7.12769
▁substituted	-7.14322
CH	-7.15281
▁wherein	-7.15389
▁into	-7.15392
▁6	-7.15739
-1-	-7.16339
-3-	-7.16773
▁stirred	-7.17137
▁preferably	-7.17379
b	-7.17521
▁al	-7.18664
▁above	-7.18739
t	-7.19345
▁et	-7.20007
▁each	-7.20216
phenyl	-7.22083
▁B	-7.22856
);	-7.22877
▁any	-7.23717
)-	-7.23826
▁product	-7.24019
▁method	-7.24288
▁obtained	-7.24561
▁some	-7.25016
+	-7.25879
▁having	-7.25972
▁thereof	-7.2774
L	-7.2878
▁μ	-7.29797
7	-7.30402
amino	-7.30593
▁solid	-7.32902
▁selected	-7.33752
▁sodium	-7.34959
▁(2	-7.3525
▁prepared	-7.35282
▁organic	-7.36231
▁SEQ	-7.36266
▁binding	-7.36563
▁than	-7.3893
▁M	-7.39016
8	-7.39548
▁hours	-7.40077
▁it	-7.40398
▁form	-7.40907
▁e	-7.40916
▁ethyl	-7.41636
▁have	-7.4196
I	-7.42256
▁s	-7.44622
▁dried	-7.44994
▁solvent	-7.45482
▁I	-7.4602
▁comprising	-7.46054
▁δ	-7.46262
▁but	-7.46269
▁T	-7.46482
▁washed	-7.46799
▁has	-7.46995
▁For	-7.47119
▁containing	-7.47325
▁two	-7.47562
▁residue	-7.48017
c	-7.48054
▁acetate	-7.48353
▁over	-7.48699
▁human	-7.48884
▁groups	-7.49536
▁NMR	-7.49769
B	-7.50338
▁concentrated	-7.50486
▁DNA	-7.50676
▁[	-7.50838
▁2-	-7.51854
▁further	-7.52363
▁according	-7.52546
▁following	-7.53855
1-	-7.53881
▁expression	-7.54039
D	-7.54479
▁room	-7.54548
▁20	-7.54932
▁S	-7.55084
▁hydrogen	-7.55568
▁known	-7.55603
▁purified	-7.56063
▁antibodies	-7.56698
▁another	-7.56768
▁methods	-7.56868
z	-7.56951
▁polypeptide	-7.57999
▁activity	-7.58343
▁carbon	-7.58438
▁non	-7.59742
▁anti	-7.60625
▁h	-7.60849
▁gene	-7.61374
▁d	-7.61576
▁To	-7.61643
▁sequences	-7.61793
9	-7.61899
▁L	-7.62134
▁same	-7.62215
▁amount	-7.62369
ethyl	-7.63184
▁aqueous	-7.6344
▁acids	-7.63693
▁After	-7.65596
▁nucleic	-7.65814
▁chain	-7.66275
▁composition	-7.66665
▁-	-7.66769
▁30	-7.6681
'	-7.67415
▁art	-7.67906
l	-7.67945
▁MHz	-7.68989
▁use	-7.699
▁between	-7.70605
▁min	-7.7084
▁chromatography	-7.71208
▁will	-7.7175
▁D	-7.71774
▁chloride	-7.718
▁pressure	-7.72069
▁This	-7.72702
-5-	-7.72986
▁salt	-7.72997
▁column	-7.73085
▁addition	-7.7353
▁agent	-7.73645
▁well	-7.7515
p	-7.75481
▁peptide	-7.76117
▁X	-7.76227
▁give	-7.76404
butyl	-7.76799
▁treatment	-7.76994
▁15	-7.77199
▁layer	-7.77374
▁including	-7.77428
▁methyl	-7.77828
▁those	-7.77972
▁7	-7.78152
▁As	-7.78792
▁8	-7.78913
▁yield	-7.78934
▁100	-7.7907
i	-7.79122
▁atoms	-7.79333
F	-7.79501
▁optionally	-7.79515
3,	-7.81051
▁minutes	-7.81196
▁p	-7.81384
▁preferred	-7.81427
▁shown	-7.81695
▁these	-7.82158
▁agents	-7.82262
▁been	-7.82535
▁filtered	-7.83183
▁like	-7.83342
▁suitable	-7.83484
▁process	-7.83505
n	-7.83563
ing	-7.83835
▁comprises	-7.84366
▁title	-7.84375
▁reduced	-7.84411
▁50	-7.85171
▁weight	-7.85207
▁E	-7.85533
▁(3	-7.86031
▁resulting	-7.86314
▁U	-7.86771
▁conditions	-7.87098
0	-7.87139
ed	-7.87836
2,	-7.88074
):	-7.88195
▁4-	-7.88493
P	-7.88681
▁region	-7.88912
▁gel	-7.88934
E	-7.8906
▁active	-7.89719
-2	-7.89897
▁after	-7.90101
▁term	-7.90212
▁P	-7.90277
▁No	-7.90382
▁Formula	-7.9059
▁F	-7.9083
▁CH	-7.9146
chloro	-7.92054
—	-7.92325
▁cancer	-7.92388
▁limited	-7.9286
alkyl	-7.93066
▁material	-7.9325
"	-7.93346
▁9	-7.9474
▁proteins	-7.94824
▁specific	-7.95039
▁disease	-7.95101
▁first	-7.95165
▁when	-7.95425
▁ring	-7.95678
▁Compound	-7.95797
10	-7.96245
▁molecule	-7.96537
▁step	-7.96716
▁certain	-7.96855
▁catalyst	-7.97102
▁Examples	-7.97563
one	-7.97775
▁light	-7.98358
▁administration	-7.98376
▁through	-7.98457
3)	-7.98975
▁time	-7.99482
▁dissolved	-7.99849
▁n	-7.99971
▁oil	-8.00658
▁MS	-8.00742
▁antigen	-8.00753
hydroxy	-8.01115
▁all	-8.01244
▁CD	-8.01285
ly	-8.01722
▁particular	-8.01878
▁3-	-8.0355
▁target	-8.03701
▁"	-8.03916
▁ester	-8.04455
▁concentration	-8.04545
▁mM	-8.04943
▁ether	-8.05024
▁out	-8.05099
▁extracted	-8.05513
▁pH	-8.05642
▁phase	-8.05691
▁provided	-8.06425
▁Step	-8.06472
▁compositions	-8.06677
▁different	-8.06925
▁domain	-8.072
▁G	-8.07644
▁presence	-8.07695
▁silica	-8.07714
▁O	-8.08948
▁its	-8.09448
▁administered	-8.09576
▁acceptable	-8.1
▁high	-8.10715
▁12	-8.10841
▁system	-8.11108
▁where	-8.11184
▁It	-8.11516
T	-8.12519
▁second	-8.12637
▁PA	-8.12812
▁atom	-8.12972
▁refers	-8.13064
dd	-8.13516
▁treated	-8.13951
methoxy	-8.14316
▁desired	-8.14409
▁receptor	-8.14452
▁aryl	-8.14621
▁within	-8.15068
▁liquid	-8.15261
▁EXAMPLE	-8.15884
▁combined	-8.16112
▁PAC	-8.16354
▁defined	-8.16597
▁less	-8.167
▁said	-8.16856
▁independently	-8.16857
fluoro	-8.17024
▁t	-8.17821
oxo	-8.17848
▁removed	-8.17857
▁13	-8.18274
▁consisting	-8.1832
in	-8.18502
▁subject	-8.18594
▁K	-8.19151
dimethyl	-8.1928
▁nitrogen	-8.19577
▁includes	-8.20322
▁pharmaceutical	-8.20846
▁found	-8.21028
▁number	-8.21269
▁followed	-8.21498
▁single	-8.21637
▁both	-8.22184
▁below	-8.22805
▁Table	-8.22876
1,	-8.22934
▁per	-8.23466
▁combination	-8.23921
pharmaceutically	-8.24129
▁their	-8.24634
▁control	-8.24945
▁5-	-8.25244
[	-8.25774
▁procedure	-8.26254
▁molecules	-8.26325
▁fragment	-8.26342
▁examples	-8.26703
▁base	-8.26799
▁three	-8.27334
▁methanol	-8.27401
▁provides	-8.2771
▁comprise	-8.28018
G	-8.28398
MS	-8.28562
SEQ	-8.28754
4,	-8.2884
▁RNA	-8.28921
▁metal	-8.29117
▁sample	-8.2928
▁16	-8.29324
▁Preparation	-8.29671
▁vector	-8.29792
________________	-8.29858
▁salts	-8.29967
▁structure	-8.30281
▁general	-8.3039
dihydro	-8.30658
▁saturated	-8.30771
▁cooled	-8.30811
▁performed	-8.31151
▁crude	-8.31221
6)	-8.31565
Cl	-8.31636
▁results	-8.31947
▁reference	-8.32407
▁means	-8.32645
▁sulfate	-8.32906
▁range	-8.32981
▁without	-8.33495
▁heated	-8.33537
▁encoding	-8.34079
-6-	-8.34291
▁determined	-8.34607
▁lower	-8.35291
▁=	-8.35589
▁being	-8.35842
)-2-	-8.35861
▁IL	-8.36124
v	-8.36308
▁useful	-8.36383
pyridin	-8.37926
▁assay	-8.39031
▁either	-8.39041
▁effective	-8.39058
▁various	-8.39495
▁produced	-8.39576
▁carried	-8.39795
▁di	-8.39865
▁nucleotide	-8.39923
▁host	-8.40029
▁provide	-8.40267
▁medium	-8.40314
▁buffer	-8.40367
▁residues	-8.40643
▁isolated	-8.40646
▁analysis	-8.40877
▁V	-8.41232
o	-8.41497
SO	-8.41903
▁unsubstituted	-8.42161
▁no	-8.422
K	-8.42342
▁0	-8.42942
▁phenyl	-8.43128
▁similar	-8.43145
▁therapeutic	-8.43185
▁(10	-8.43241
▁Y	-8.43321
▁aspect	-8.43372
▁These	-8.43677
▁1-	-8.43693
ml	-8.44009
▁site	-8.44138
▁manner	-8.44327
di	-8.44464
▁An	-8.44647
amine	-8.44967
▁disclosed	-8.45479
▁corresponding	-8.45669
▁tumor	-8.45705
▁white	-8.45822
▁contain	-8.45984
▁(400	-8.46085
X	-8.46349
▁diluted	-8.46423
11	-8.46741
▁preparation	-8.46754
▁type	-8.46843
▁evaporated	-8.47136
▁test	-8.47238
▁(5	-8.478
▁25	-8.48581
oxy	-8.48762
]-	-8.49019
12	-8.4903
2-	-8.4934
▁24	-8.49629
NMR	-8.50047
▁mol	-8.50164
▁fragments	-8.50524
▁40	-8.50616
▁represented	-8.50703
carboxylic	-8.51094
▁surface	-8.5122
propyl	-8.51352
▁only	-8.52459
bromo	-8.53227
▁DMSO	-8.53339
▁obtain	-8.53415
▁14	-8.54209
▁modified	-8.54314
V	-8.54365
ol	-8.54789
▁appropriate	-8.54816
▁tissue	-8.5491
▁portion	-8.54941
▁recombinant	-8.54945
▁particularly	-8.55021
α	-8.55292
▁Synthesis	-8.55538
▁anhydrous	-8.55541
▁Such	-8.55775
▁tert	-8.55922
▁ethanol	-8.56258
▁0.5	-8.56612
▁mice	-8.56762
▁additional	-8.57013
▁polypeptides	-8.57097
▁ppm	-8.57103
▁0°	-8.57168
al	-8.57195
▁synthesis	-8.57217
▁%	-8.57437
▁etc	-8.5747
=	-8.57579
▁i	-8.57691
▁dose	-8.58131
▁separated	-8.58248
▁brine	-8.58258
▁stirring	-8.58426
▁Z	-8.58758
br	-8.59176
trifluoromethyl	-8.59257
▁via	-8.59406
h	-8.5961
▁fusion	-8.59921
▁growth	-8.59995
▁production	-8.60091
▁11	-8.60182
▁complex	-8.60375
carbonyl	-8.60378
20	-8.60695
}	-8.60696
▁II	-8.60809
tert	-8.60819
▁forms	-8.60831
▁overnight	-8.61021
▁HPLC	-8.61073
▁18	-8.61076
▁heavy	-8.61184
▁up	-8.61287
▁Pat	-8.61355
▁if	-8.61693
▁effect	-8.61718
▁vacuo	-8.61868
▁set	-8.61994
▁EtOAc	-8.62016
▁ratio	-8.62105
tetrahydro	-8.62177
▁poly	-8.62202
NH	-8.62903
▁formed	-8.62951
▁halogen	-8.63379
▁so	-8.63447
kg	-8.6358
▁based	-8.63803
▁hour	-8.63817
II	-8.63974
▁moiety	-8.64151
▁derived	-8.64503
50	-8.64686
▁times	-8.64791
▁dichloromethane	-8.64872
▁rate	-8.64908
▁yellow	-8.64966
▁peptides	-8.6511
▁##	-8.6523
▁potassium	-8.65271
▁carbonate	-8.65307
r	-8.65337
▁0.1	-8.6542
▁afford	-8.65613
J	-8.65639
▁gas	-8.65718
▁W	-8.6577
▁represents	-8.65809
2)	-8.65896
▁molecular	-8.66068
▁position	-8.66372
▁disclosure	-8.66399
▁days	-8.6642
ic	-8.66954
▁patient	-8.67064
▁Thus	-8.67182
▁heteroaryl	-8.67298
▁60	-8.67652
f	-8.67881
▁THF	-8.67944
▁most	-8.68178
▁alcohol	-8.68204
▁incorporated	-8.68223
▁purification	-8.68498
▁aromatic	-8.68665
▁200	-8.68784
carboxylate	-8.68807
▁variable	-8.69014
▁oligonucleotide	-8.6906
▁generally	-8.6923
▁employed	-8.69254
▁measured	-8.69516
▁starting	-8.69766
▁10%	-8.69887
▁CDCl	-8.70003
STR	-8.7003
▁derivatives	-8.70135
▁made	-8.70175
▁materials	-8.70313
NR	-8.70349
CO	-8.71101
y	-8.71181
▁compared	-8.71334
en	-8.71674
er	-8.71876
▁Na	-8.71961
▁standard	-8.72098
▁culture	-8.72328
18	-8.7234
▁techniques	-8.72458
Y	-8.72572
CD	-8.72579
CDCl	-8.72621
▁promoter	-8.72647
▁virus	-8.72693
▁dosage	-8.7295
▁expressed	-8.73147
▁total	-8.73251
▁they	-8.73367
▁substituents	-8.73948
-3	-8.7412
▁response	-8.74147
▁mixed	-8.74336
pyridine	-8.74347
▁alkoxy	-8.74358
▁When	-8.74613
▁suspension	-8.74686
▁associated	-8.7472
ESI	-8.7481
▁cycloalkyl	-8.74951
▁enzyme	-8.75108
▁--	-8.75235
▁respectively	-8.75262
1-6	-8.75283
▁(4	-8.75333
▁drug	-8.75367
▁blood	-8.75465
▁regions	-8.75573
▁genes	-8.75604
▁level	-8.75821
▁reactor	-8.75859
▁nm	-8.75991
)-3-	-8.76056
▁vacuum	-8.7622
▁levels	-8.7635
▁chemical	-8.77187
▁low	-8.77654
▁hydroxide	-8.77896
Z	-8.77969
▁specifically	-8.78375
▁against	-8.78437
)-1	-8.7903
3-	-8.7926
▁derivative	-8.7964
▁available	-8.79692
▁carrier	-8.79744
▁case	-8.79776
▁PCR	-8.79808
▁6-	-8.79881
▁hydrochloride	-8.80009
▁off	-8.80124
▁order	-8.80374
(1	-8.80377
▁functional	-8.80391
▁free	-8.80609
▁skilled	-8.80613
13	-8.80691
▁c	-8.807
▁collected	-8.80737
▁part	-8.80797
▁magnesium	-8.81063
▁IgG	-8.81389
▁(20	-8.81406
▁products	-8.81419
▁mass	-8.82001
▁volume	-8.82593
▁(100	-8.8279
▁polynucleotide	-8.82903
-4	-8.83219
▁WO	-8.83348
OH	-8.83457
▁thus	-8.83464
-(	-8.83707
▁produce	-8.83766
▁there	-8.83995
x	-8.84007
▁function	-8.8424
▁while	-8.84447
▁together	-8.84476
see	-8.84748
alpha	-8.84749
▁ligand	-8.85378
14	-8.85523
▁diseases	-8.85899
▁typically	-8.86172
▁greater	-8.86213
▁data	-8.86382
benzyl	-8.86606
▁(50	-8.86614
▁Fc	-8.86615
▁allowed	-8.86705
▁plant	-8.86711
▁contains	-8.86834
▁bond	-8.8709
▁treating	-8.87097
▁during	-8.87319
▁toluene	-8.87621
▁amine	-8.87698
w	-8.87789
▁affinity	-8.87911
▁re	-8.88307
▁signal	-8.89067
▁incubated	-8.89246
▁HCl	-8.89431
▁condition	-8.89519
▁result	-8.89561
▁co	-8.89614
▁higher	-8.89755
-5	-8.90182
▁mm	-8.90291
ation	-8.90311
▁identified	-8.90397
▁length	-8.90416
15	-8.90447
ene	-8.90448
▁flow	-8.90911
▁value	-8.91323
pyrimidin	-8.9138
W	-8.91502
▁point	-8.91689
▁substrate	-8.91724
▁immune	-8.9184
▁inhibitors	-8.9185
▁ice	-8.91852
▁vectors	-8.91983
▁increase	-8.92216
▁oxygen	-8.92544
▁line	-8.92563
▁filtration	-8.9257
▁synthesized	-8.92653
▁animal	-8.92781
▁polymer	-8.92829
▁dropwise	-8.92849
bis	-8.92898
▁bind	-8.93157
▁biological	-8.93753
▁samples	-8.93814
▁inhibitor	-8.93843
▁phosphate	-8.9405
es	-8.94136
▁LC	-8.94231
▁given	-8.94308
▁capable	-8.9473
q	-8.94888
▁NUM	-8.94918
▁observed	-8.9502
▁claim	-8.95036
▁application	-8.9513
containing	-8.95166
▁mouse	-8.95203
▁tri	-8.95276
▁small	-8.95395
▁serum	-8.9542
6-	-8.95498
▁cDNA	-8.9597
▁injection	-8.96036
▁17	-8.96168
▁stream	-8.96198
▁formation	-8.96251
)-4-	-8.96396
▁increased	-8.96484
▁1.5	-8.96646
▁hydroxy	-8.9721
▁attached	-8.97443
▁DMF	-8.97681
▁unit	-8.97994
binding	-8.98067
▁DCM	-8.98438
▁substituent	-8.98577
-7-	-8.9863
▁membrane	-8.99086
▁indicated	-8.99175
▁conventional	-8.99198
min	-8.99347
▁tetrahydrofuran	-8.99381
▁hydrocarbon	-8.99385
ate	-8.9954
▁components	-8.99605
▁substantially	-8.99773
▁eq	-8.99852
ethoxy	-8.99957
▁dry	-9.0003
▁synthetic	-9.00082
▁CDR	-9.00202
16	-9.00495
▁intermediate	-9.00594
▁before	-9.00735
▁day	-9.00793
▁acetic	-9.00851
▁assays	-9.00967
▁properties	-9.01216
▁filtrate	-9.01218
▁relates	-9.0134
▁solvents	-9.01541
▁powder	-9.01746
▁b	-9.01898
40	-9.02135
▁500	-9.02164
▁wt	-9.02486
5,	-9.02527
▁cm	-9.0259
▁linked	-9.02788
▁size	-9.03026
▁disorder	-9.03057
▁α	-9.0306
6,	-9.03241
▁ammonium	-9.03438
▁glycol	-9.0358
▁end	-9.04474
mL	-9.04477
17	-9.04636
▁upon	-9.04691
▁5%	-9.04931
▁Q	-9.05155
▁pre	-9.05345
▁side	-9.05437
▁component	-9.0545
▁alkenyl	-9.05698
▁flask	-9.05881
▁Alternatively	-9.05923
▁variant	-9.06076
▁(300	-9.06385
19	-9.0646
▁resin	-9.06518
▁individual	-9.06642
)-1-	-9.06643
▁sites	-9.06719
▁oxide	-9.06884
▁relative	-9.06934
▁monoclonal	-9.06942
▁species	-9.07097
▁acetonitrile	-9.07324
DMSO	-9.07384
an	-9.07929
▁LCMS	-9.08018
▁vivo	-9.08221
▁mRNA	-9.08523
▁1.0	-9.08537
▁nucleotides	-9.08559
▁prior	-9.08731
▁identity	-9.08768
specific	-9.0878
▁introduced	-9.08948
▁had	-9.09132
carboxamide	-9.09219
▁mono	-9.093
▁ability	-9.09865
▁constant	-9.09966
▁layers	-9.09978
▁should	-9.10004
TM	-9.10077
▁body	-9.10124
▁variety	-9.10505
▁However	-9.10579
▁final	-9.10597
▁directly	-9.10887
▁possible	-9.10888
Hz	-9.10977
▁19	-9.10982
▁NH	-9.11008
▁formulation	-9.11035
▁intended	-9.11164
▁factor	-9.11339
▁disorders	-9.11524
▁animals	-9.11525
▁approximately	-9.11859
▁bound	-9.12479
▁percent	-9.1251
▁plasmid	-9.12579
▁MeOH	-9.12632
▁normal	-9.12744
beta	-9.12806
▁RT	-9.12866
▁four	-9.12892
▁plate	-9.13108
▁taken	-9.13488
▁would	-9.13552
▁Preferably	-9.13682
▁otherwise	-9.13909
▁4,	-9.1407
▁identical	-9.14073
▁inhibition	-9.14164
▁procedures	-9.14347
benzo	-9.14486
▁shows	-9.14596
▁reflux	-9.14909
▁branched	-9.15141
▁de	-9.15359
▁domains	-9.15393
▁period	-9.15801
)-5-	-9.16051
substituted	-9.16629
▁nM	-9.16648
▁Chem	-9.16649
▁methylene	-9.16662
▁tested	-9.16725
▁atmosphere	-9.16922
▁300	-9.17094
(2	-9.17256
▁steps	-9.17452
▁reacted	-9.17472
▁linker	-9.17616
▁effects	-9.17619
tri	-9.17663
▁solutions	-9.17915
▁calculated	-9.18237
1-4	-9.18288
▁hydrochloric	-9.18479
▁concentrations	-9.1856
21	-9.18867
U	-9.1888
▁referred	-9.1892
▁terms	-9.19045
▁therapy	-9.19213
▁multiple	-9.19249
▁binds	-9.19295
-6	-9.19352
OR	-9.19534
Q	-9.19671
▁Compounds	-9.19681
▁values	-9.19782
▁until	-9.19804
▁(1)	-9.19828
▁Other	-9.20044
hexane	-9.20155
4)	-9.2033
▁variants	-9.20334
▁III	-9.20532
▁forth	-9.20618
▁required	-9.20656
▁One	-9.20726
25	-9.20875
piperidin	-9.20935
terminal	-9.21216
▁(6	-9.21738
▁does	-9.22044
▁several	-9.22143
▁double	-9.22259
▁complete	-9.2271
▁calcium	-9.22755
4-	-9.22855
▁mixtures	-9.23273
▁content	-9.23321
thio	-9.23381
▁150	-9.23745
▁primary	-9.23807
for	-9.23809
30	-9.23985
▁parts	-9.24135
▁80	-9.24161
▁48	-9.24235
′	-9.24284
▁ion	-9.24334
▁35	-9.24349
▁understood	-9.24473
III	-9.24543
▁All	-9.24833
▁flash	-9.24913
type	-9.24951
▁viral	-9.25012
▁included	-9.25023
▁50%	-9.25039
▁reagent	-9.25231
▁Suitable	-9.25303
▁patients	-9.25385
▁vitro	-9.254
▁release	-9.25534
th	-9.2559
▁subjected	-9.25797
▁benzyl	-9.26283
acetyl	-9.26297
▁scope	-9.26318
▁could	-9.26333
▁esters	-9.26355
well	-9.26465
▁Cell	-9.26596
▁interest	-9.26714
▁detected	-9.26913
▁formulations	-9.26917
▁Further	-9.26967
▁systems	-9.27037
▁400	-9.27259
▁coding	-9.27267
▁halo	-9.27286
▁administering	-9.27298
▁reduction	-9.27496
▁determine	-9.27593
on	-9.27678
▁probe	-9.27772
▁Cl	-9.28122
▁detection	-9.28191
▁Methods	-9.28193
amide	-9.28434
▁skill	-9.28583
k	-9.28588
24	-9.2863
▁45	-9.28794
▁accordance	-9.28828
▁diethyl	-9.29007
▁oral	-9.29139
▁applied	-9.29272
pyrazol	-9.29346
▁heterocyclic	-9.29354
▁Intermediate	-9.2942
▁hydroxyl	-9.29476
▁mole	-9.29556
▁CO	-9.29622
▁immunoglobulin	-9.29834
▁showed	-9.29929
▁reactions	-9.29982
▁cooling	-9.30023
▁Ar	-9.30179
▁generated	-9.30256
▁purity	-9.30461
▁placed	-9.30466
▁r	-9.30625
▁plates	-9.30733
▁37°	-9.30851
▁device	-9.30906
sulfonyl	-9.31382
▁conversion	-9.3145
▁previously	-9.31544
▁pure	-9.3164
▁PRO	-9.31656
▁analyzed	-9.31703
▁except	-9.32097
▁infection	-9.32193
%	-9.32292
▁6,	-9.32334
▁media	-9.3242
▁separation	-9.32665
fluorophenyl	-9.3267
▁positive	-9.32789
▁radical	-9.32815
▁Then	-9.33008
▁2.5	-9.33067
▁ingredient	-9.33096
▁long	-9.33307
▁gradient	-9.33449
▁even	-9.33665
▁thereby	-9.33781
▁activation	-9.34122
▁(30	-9.34204
▁producing	-9.3446
▁By	-9.34584
CN	-9.34655
▁follows	-9.34675
▁chloroform	-9.34699
▁fused	-9.34719
ES	-9.35008
▁thereto	-9.35077
▁dd	-9.35232
▁substance	-9.35467
▁epitope	-9.35594
▁______	-9.35721
▁hexane	-9.35757
CF	-9.35879
phenoxy	-9.36312
28	-9.3632
▁contained	-9.3652
▁According	-9.3689
▁VH	-9.36917
▁related	-9.3696
7,	-9.37069
▁support	-9.37103
cyclopropyl	-9.37111
[2,3-	-9.37123
▁triethylamine	-9.3713
▁way	-9.3728
▁lines	-9.37428
▁hr	-9.37474
3):	-9.37527
▁inhibit	-9.37584
based	-9.37721
▁primer	-9.3809
▁particles	-9.38243
▁need	-9.38284
▁70	-9.38454
▁modifications	-9.38469
▁converted	-9.38491
▁transcription	-9.3866
acetic	-9.38679
▁large	-9.38735
▁plants	-9.38772
▁natural	-9.38815
methanol	-9.38924
▁100%	-9.38925
▁precipitate	-9.39129
▁90	-9.39158
benzene	-9.39319
▁expressing	-9.3934
▁delivery	-9.39552
▁usually	-9.39654
▁replaced	-9.39676
▁amounts	-9.3978
▁linear	-9.39925
▁pyridine	-9.40054
▁reacting	-9.40158
▁cyclic	-9.40458
▁labeled	-9.4073
such	-9.40767
membered	-9.4079
▁PBS	-9.40803
▁necessary	-9.40809
▁(500	-9.41008
▁construct	-9.41008
▁substitution	-9.41065
nitro	-9.41158
▁distillation	-9.41389
pyrimidine	-9.4152
▁do	-9.41557
▁equivalent	-9.41599
▁alkynyl	-9.41641
−	-9.41888
▁receptors	-9.419
able	-9.41918
▁charged	-9.42028
▁positions	-9.4214
:1	-9.42364
▁due	-9.42508
▁remove	-9.42647
-7	-9.42736
▁hybridization	-9.42772
▁full	-9.43127
at	-9.4317
▁If	-9.43205
▁primers	-9.43211
us	-9.43409
▁fatty	-9.43536
▁characterized	-9.43565
▁chains	-9.43891
▁dimethyl	-9.43994
as	-9.4409
▁bath	-9.44195
▁encoded	-9.44257
▁distilled	-9.44395
▁sufficient	-9.44506
▁cases	-9.44545
▁x	-9.44755
▁ethylene	-9.4478
▁heat	-9.44885
fold	-9.44896
piperidine	-9.44904
▁fraction	-9.45249
▁°	-9.453
▁cleavage	-9.45333
▁feed	-9.45395
▁carboxylic	-9.45518
IV	-9.45527
▁soluble	-9.45569
pyrrolo	-9.45941
▁conducted	-9.45959
▁novel	-9.45963
water	-9.46029
▁significant	-9.46131
-8-	-9.46255
▁crystalline	-9.46356
to	-9.46395
▁crystals	-9.46447
▁TFA	-9.46483
▁processes	-9.46489
▁chimeric	-9.46533
▁stability	-9.466
▁therefore	-9.46678
▁kinase	-9.46847
▁0.2	-9.46854
Chloro	-9.47109
▁cyano	-9.47114
difluoro	-9.47188
▁equiv	-9.47459
▁21	-9.47504
cyano	-9.47559
dimethylamino	-9.47663
▁still	-9.4771
▁inert	-9.47935
▁state	-9.48495
)—	-9.48704
▁resistance	-9.4872
▁mammalian	-9.48741
▁coli	-9.48762
-1,3-	-9.48837
▁(15	-9.48918
human	-9.4894
]+	-9.48975
imethylformamide	-9.49001
▁lithium	-9.49043
▁alone	-9.49082
ine	-9.49147
▁benzene	-9.49249
▁plasma	-9.49366
▁Another	-9.49368
▁7-	-9.49412
▁tube	-9.49459
▁aliphatic	-9.49468
aryl	-9.49496
2—	-9.49592
▁Co	-9.49684
▁factors	-9.4971
▁bromide	-9.49864
▁un	-9.49894
▁adding	-9.50058
▁library	-9.50084
▁reducing	-9.50161
mol	-9.50162
▁heterocyclyl	-9.5019
▁tissues	-9.50201
▁At	-9.50345
▁acetone	-9.50419
▁Found	-9.50455
▁Scheme	-9.50585
▁naturally	-9.50686
▁spectrum	-9.5087
▁sterile	-9.50968
▁combinations	-9.5097
cyclohexyl	-9.51136
▁Inc	-9.51141
▁ambient	-9.51414
OD	-9.51418
▁Method	-9.51499
▁250	-9.5156
ase	-9.51565
▁weeks	-9.51599
22	-9.516
▁reagents	-9.51716
▁post	-9.51727
▁alpha	-9.5178
▁filter	-9.51939
▁crystal	-9.5196
▁heating	-9.51972
▁aspects	-9.52027
▁film	-9.52198
▁(200	-9.52254
the	-9.52324
▁activated	-9.52377
▁extract	-9.52386
▁protecting	-9.52501
▁alkali	-9.52512
▁substitutions	-9.52598
▁many	-9.52602
▁model	-9.52696
▁mentioned	-9.52787
▁fractions	-9.52885
8,	-9.52944
▁poured	-9.53124
▁20%	-9.53268
Na	-9.53509
▁v	-9.53683
▁gave	-9.53829
▁depending	-9.53868
▁bases	-9.54101
▁PAL	-9.54303
cell	-9.5439
▁excess	-9.54412
Compound	-9.54456
▁polynucleotides	-9.54486
▁mutant	-9.54518
▁units	-9.54544
▁coupling	-9.54565
▁sulfur	-9.54568
▁especially	-9.54719
▁stable	-9.5483
▁bis	-9.55077
▁USA	-9.55151
▁reverse	-9.55237
▁quenched	-9.55265
▁—(	-9.55327
▁trans	-9.55355
▁readily	-9.55568
▁source	-9.55633
▁VL	-9.55883
▁cellulose	-9.55908
▁structural	-9.5595
-(2-	-9.5598
▁cross	-9.56048
▁elements	-9.56172
▁eluting	-9.56187
▁preparing	-9.56302
▁types	-9.56508
▁Cells	-9.56524
▁twice	-9.56653
▁onto	-9.56708
alkoxy	-9.56728
▁secondary	-9.5679
▁IV	-9.56796
5-	-9.5681
▁colorless	-9.56904
▁Also	-9.56926
▁moieties	-9.56937
▁kit	-9.57089
▁cellular	-9.57125
▁complementary	-9.57209
23	-9.57257
▁antisense	-9.57294
▁separate	-9.57423
▁br	-9.57425
60	-9.57447
▁carriers	-9.57513
dichloro	-9.57604
IL	-9.57744
▁Using	-9.57896
▁nitro	-9.57972
▁See	-9.5798
▁0.01	-9.57988
9,	-9.58008
▁immuno	-9.58033
▁maintained	-9.58105
like	-9.58118
▁amide	-9.58156
▁50°	-9.58187
biphenyl	-9.58294
▁Accordingly	-9.5871
▁strain	-9.58788
▁Biol	-9.58819
▁formulated	-9.5882
▁(2)	-9.5887
▁exemplary	-9.58878
▁adjusted	-9.589
▁Reference	-9.58923
▁NaCl	-9.58963
▁molar	-9.59045
▁bicarbonate	-9.59485
▁glucose	-9.59577
▁75	-9.59648
▁22	-9.59722
▁fluid	-9.59781
▁wild	-9.59797
▁Yield	-9.59833
-9	-9.59857
and	-9.59925
▁Sci	-9.6065
27	-9.60764
▁selection	-9.6077
▁yeast	-9.60991
▁basic	-9.61038
▁sub	-9.61043
▁OF	-9.61147
▁very	-9.6118
▁membered	-9.61334
▁inorganic	-9.61417
7-	-9.61511
▁absence	-9.61524
▁complexes	-9.61533
▁bacterial	-9.6173
▁Rf	-9.61742
isopropyl	-9.6212
acetamide	-9.62152
▁five	-9.62174
chlorophenyl	-9.62212
▁native	-9.62231
▁amplification	-9.6224
▁2.0	-9.62519
▁element	-9.62554
▁enzymes	-9.62576
yloxy	-9.62577
_	-9.62652
▁structures	-9.62792
▁0.1%	-9.6281
▁occurring	-9.62829
acetate	-9.63056
▁class	-9.63068
▁screening	-9.63274
]+.	-9.63338
▁polymers	-9.63482
▁1%	-9.63538
▁marker	-9.6354
▁28	-9.63678
▁100°	-9.63709
re	-9.63722
▁potential	-9.63759
▁Following	-9.63762
▁yet	-9.63888
▁conjugate	-9.63972
▁therapeutically	-9.63993
▁extraction	-9.6401
▁Fab	-9.64253
▁new	-9.64259
▁lung	-9.64389
methoxyphenyl	-9.64528
▁directed	-9.64876
NO	-9.64878
▁anhydride	-9.64905
ated	-9.64909
imidazo	-9.65037
▁mutations	-9.65168
▁show	-9.65223
▁designated	-9.65242
▁resultant	-9.65395
▁90%	-9.654
▁isopropyl	-9.65424
including	-9.6561
pyrrolidin	-9.6568
▁mutation	-9.6571
▁because	-9.65721
▁place	-9.65721
▁extracts	-9.6574
▁study	-9.65834
▁commercially	-9.65848
▁palladium	-9.65864
}-	-9.6588
+)	-9.66201
▁changes	-9.6623
▁Furthermore	-9.66375
▁tumors	-9.66515
▁achieved	-9.66617
delta	-9.66638
▁Pd	-9.66663
▁vessel	-9.66799
▁tetra	-9.66856
▁25°	-9.67017
▁Patent	-9.67082
▁Each	-9.6715
▁polyethylene	-9.67387
▁unsaturated	-9.675
▁once	-9.67569
▁instance	-9.67601
▁incubation	-9.67717
▁95%	-9.67825
▁5′	-9.67909
▁alkylene	-9.6792
▁glass	-9.6794
▁whether	-9.67986
▁TLC	-9.68006
▁w	-9.68052
▁slowly	-9.68155
▁strand	-9.68223
▁genetic	-9.68281
▁portions	-9.68346
ylmethyl	-9.68348
ally	-9.68436
imidazol	-9.68482
indol	-9.68812
▁3′	-9.68838
▁NaHCO	-9.68869
▁Analysis	-9.68985
▁reduce	-9.68986
▁lipid	-9.69055
▁washing	-9.69056
-8	-9.69087
dione	-9.69139
ii	-9.69139
▁99%	-9.6921
mu	-9.69325
▁next	-9.69367
▁ng	-9.6937
▁forming	-9.69411
▁studies	-9.69417
▁dryness	-9.6953
▁carcinoma	-9.69643
▁PD	-9.69678
▁transfer	-9.69703
▁proliferation	-9.69737
▁represent	-9.69765
▁experiments	-9.69922
▁refer	-9.70004
▁saline	-9.70064
▁reported	-9.70095
▁respect	-9.70117
▁fluorescent	-9.70131
▁transferred	-9.7018
▁catalytic	-9.70212
▁equal	-9.70286
▁80°	-9.70294
ur	-9.70333
▁iso	-9.70654
▁tablets	-9.7074
▁skin	-9.70824
)(	-9.70824
▁transformed	-9.70882
▁60°	-9.71011
▁development	-9.71038
▁instead	-9.71285
▁half	-9.71426
▁inflammatory	-9.71493
-(4-	-9.71526
ppm	-9.71644
▁eluted	-9.71702
▁fluorescence	-9.71735
ating	-9.71774
▁alternatively	-9.71855
▁interaction	-9.72052
[1,2-	-9.72095
▁Preferred	-9.72103
▁express	-9.72186
chain	-9.72393
▁restriction	-9.72499
▁particle	-9.72512
]-2-	-9.72543
▁family	-9.72707
26	-9.72738
▁1,4-	-9.72765
▁ELISA	-9.72768
▁doses	-9.72783
▁32	-9.72922
▁modification	-9.72926
▁electron	-9.72929
▁removal	-9.73026
▁treat	-9.73092
▁highly	-9.73114
▁induced	-9.73137
carbamate	-9.73366
▁change	-9.73571
35	-9.73592
▁average	-9.73597
▁hydride	-9.73675
▁IR	-9.73829
▁Protein	-9.73878
OC	-9.73897
▁prevent	-9.74082
▁negative	-9.74199
31	-9.74217
▁oxidation	-9.7422
ization	-9.74287
(3	-9.74405
limiting	-9.74437
ion	-9.74684
▁however	-9.74717
▁(25	-9.74781
is	-9.74796
benzyloxy	-9.74822
▁improved	-9.74874
ity	-9.74875
▁l	-9.74909
▁mean	-9.7495
▁preferable	-9.75038
▁probes	-9.75142
▁drugs	-9.75164
▁specificity	-9.75265
▁aluminum	-9.75345
▁(8	-9.7535
▁significantly	-9.75376
▁MgSO	-9.75401
▁bone	-9.75423
ab	-9.75462
▁beta	-9.75469
▁conjugated	-9.75478
pyridyl	-9.75608
▁isomers	-9.7564
▁+	-9.75735
▁reactive	-9.7575
▁clinical	-9.75779
▁direct	-9.75913
▁Human	-9.75922
▁rt	-9.76032
▁air	-9.76157
▁precursor	-9.76198
piperazin	-9.76235
)+.	-9.76266
benzamide	-9.76333
▁brain	-9.76338
▁liver	-9.7634
▁inhibiting	-9.76421
▁supernatant	-9.76569
heterocycloalkyl	-9.76576
▁36	-9.76595
-15	-9.76637
38	-9.76756
▁protected	-9.76813
▁(0.5	-9.76816
▁Nos	-9.7685
butoxycarbonyl	-9.76924
co	-9.7694
▁THE	-9.77113
▁More	-9.77129
▁zone	-9.77246
▁utilized	-9.77302
▁29	-9.77407
▁straight	-9.77429
▁chloro	-9.7743
▁Mass	-9.77459
thiazol	-9.77488
▁characteristics	-9.775
29	-9.77672
▁antigens	-9.77692
▁genome	-9.77787
▁suspended	-9.77863
▁sugar	-9.77889
▁(9	-9.77932
▁120	-9.77945
▁iodide	-9.78008
tetramethyl	-9.78117
▁equivalents	-9.78238
▁purposes	-9.78264
▁symptoms	-9.78289
)-6-	-9.78408
▁population	-9.78432
▁analogous	-9.78482
▁carboxy	-9.78524
pyrazolo	-9.78538
▁ingredients	-9.7855
▁acyl	-9.78565
▁area	-9.78596
carbamoyl	-9.78622
▁insulin	-9.78638
1)	-9.78789
▁designed	-9.78831
▁HIV	-9.78837
ED	-9.791
cycloalkyl	-9.79204
indole	-9.79264
▁Form	-9.79359
Amino	-9.79382
▁pro	-9.7969
▁26	-9.79798
%)	-9.80008
▁23	-9.80126
terminus	-9.80255
▁polymerase	-9.8027
▁repeated	-9.80301
▁allow	-9.80516
▁argon	-9.80549
▁determining	-9.80633
▁recovered	-9.80731
ar	-9.80738
100	-9.80758
▁Br	-9.80807
▁route	-9.80973
▁7,	-9.80985
▁(1.0	-9.81108
▁catalysts	-9.81128
sulfonamide	-9.81154
um	-9.81326
▁Acad	-9.81361
▁Therefore	-9.8139
▁mammal	-9.81405
▁dioxane	-9.81438
▁completion	-9.8144
▁clones	-9.8147
▁absorption	-9.81514
▁targeting	-9.81544
▁1.2	-9.81545
▁31	-9.81586
▁peak	-9.81669
▁drying	-9.81692
▁specification	-9.81707
pyran	-9.81731
▁humanized	-9.81811
▁considered	-9.81856
▁indicates	-9.81916
▁chronic	-9.81993
▁substances	-9.81999
▁decrease	-9.82036
▁temperatures	-9.82065
▁syndrome	-9.82071
▁pain	-9.82168
▁stage	-9.82373
-10	-9.82374
6):	-9.82382
▁NaOH	-9.82422
▁six	-9.82501
▁Acid	-9.82533
▁ordinary	-9.82565
▁hydrocarbons	-9.8263
▁expected	-9.82676
▁bacteria	-9.82726
▁third	-9.82749
▁important	-9.82756
▁bonds	-9.82897
▁essentially	-9.82941
▁exchange	-9.8295
▁comparison	-9.82988
▁IC	-9.83064
▁genomic	-9.83091
▁subsequent	-9.83736
le	-9.83786
▁micro	-9.83918
▁preparations	-9.84019
▁cultured	-9.84113
▁55	-9.8413
benzoic	-9.84187
▁pattern	-9.84214
▁generate	-9.84271
▁see	-9.84289
▁integer	-9.84458
▁Proc	-9.8447
▁mixing	-9.84509
▁injected	-9.84794
▁description	-9.84851
▁o	-9.84901
▁promoters	-9.84954
▁partially	-9.84998
▁transfected	-9.85078
▁f	-9.8511
▁starch	-9.8525
u	-9.85402
▁ESI	-9.85439
2;	-9.85533
▁coating	-9.85618
▁Exemplary	-9.85641
▁illustrated	-9.85752
Br	-9.85782
▁degree	-9.8584
▁matrix	-9.85877
▁presented	-9.85912
ium	-9.85963
▁occur	-9.86017
benzoyl	-9.86048
▁ammonia	-9.86228
▁contacting	-9.86337
▁confirmed	-9.86352
▁alkaline	-9.86479
▁ligands	-9.86506
Example	-9.86606
-1,2-	-9.86648
▁(40	-9.86716
▁preparative	-9.86961
▁applications	-9.87071
3;	-9.8729
PD	-9.87327
▁0.05	-9.87447
▁signaling	-9.87634
▁among	-9.87639
trans	-9.87639
▁haloalkyl	-9.87684
el	-9.87762
▁propylene	-9.87818
▁prepare	-9.8795
▁antagonist	-9.87979
▁vary	-9.88031
▁transgenic	-9.8805
▁clear	-9.88123
▁loss	-9.8844
▁27	-9.88444
▁context	-9.88472
▁Ser	-9.8853
▁identify	-9.88548
▁analogs	-9.88591
de	-9.88666
-9-	-9.88678
▁kg	-9.88684
▁1,2-	-9.88794
▁listed	-9.88879
▁72	-9.88905
▁parent	-9.89103
▁desirable	-9.8917
▁1000	-9.89231
▁brown	-9.89232
CR	-9.89246
[3,4-	-9.89316
▁involved	-9.89422
▁increasing	-9.89462
▁alternative	-9.89497
45	-9.89521
▁codon	-9.89536
ized	-9.8962
▁Chemical	-9.89644
▁density	-9.89732
▁unless	-9.89733
▁carboxyl	-9.89818
▁PEG	-9.8995
▁protease	-9.90038
mediated	-9.90114
Me	-9.90204
▁contact	-9.90434
quinolin	-9.90465
▁internal	-9.90482
▁TNF	-9.90513
▁clone	-9.90522
times	-9.90577
ide	-9.907
▁Antibodies	-9.90772
▁initial	-9.9079
▁albumin	-9.90811
▁phage	-9.90833
▁Calif	-9.90855
▁terminal	-9.90953
▁subsequently	-9.91031
▁claims	-9.91079
▁evaporation	-9.9114
▁round	-9.91181
▁q	-9.91306
▁rat	-9.91363
pyrrolidine	-9.91385
▁125	-9.91392
▁Tris	-9.91398
▁extracellular	-9.91491
-1,4-	-9.91539
▁acidic	-9.91621
▁action	-9.91751
piperazine	-9.9189
Methyl	-9.92041
▁specified	-9.9205
▁85%	-9.92342
▁coated	-9.92435
▁Res	-9.92528
▁preventing	-9.92553
(2-	-9.92569
▁80%	-9.92597
▁chosen	-9.92616
▁multi	-9.92693
▁down	-9.92799
▁2-(	-9.92834
▁1:1	-9.92895
st	-9.92934
-(3-	-9.92943
▁SDS	-9.92951
-17	-9.92975
▁isomer	-9.93008
▁every	-9.93025
▁:	-9.93068
▁constructs	-9.93111
▁4°	-9.9323
ive	-9.93306
▁Natl	-9.93322
▁short	-9.9339
▁regulatory	-9.93505
▁nature	-9.93549
▁detectable	-9.93619
▁Non	-9.93639
×	-9.93714
▁chlorine	-9.93804
(4-	-9.93815
▁37	-9.93839
▁vaccine	-9.9387
▁Molecular	-9.93905
▁remaining	-9.93975
▁engineered	-9.94086
′-	-9.94198
▁inserted	-9.94234
▁OH	-9.94267
il	-9.94355
up	-9.94378
iodo	-9.94397
▁96	-9.94486
OCH	-9.94523
▁pathway	-9.94548
▁stem	-9.94629
▁complement	-9.94639
▁34	-9.94691
methylene	-9.94749
▁controlled	-9.94773
▁rings	-9.94778
▁General	-9.94782
▁hydrolysis	-9.94783
▁copper	-9.94827
MH	-9.94899
iso	-9.95103
▁capsules	-9.95125
▁8-	-9.95125
▁vehicle	-9.95139
▁halide	-9.95271
▁bottom	-9.95358
▁mp	-9.95429
-2,3-	-9.95436
▁refluxed	-9.95505
▁fluorine	-9.95626
10,	-9.95698
▁excipients	-9.95893
▁SO	-9.9595
▁common	-9.96004
▁0.3	-9.96073
methylphenyl	-9.96149
▁coupled	-9.96192
▁Purification	-9.96483
▁antagonists	-9.96508
32	-9.96573
wherein	-9.96576
▁selective	-9.966
=8.4	-9.96687
33	-9.97016
▁cloned	-9.97046
▁Nature	-9.97311
▁efficiency	-9.97314
▁demonstrated	-9.97316
▁alcohols	-9.97364
▁1,3-	-9.9738
▁monomer	-9.9739
▁40°	-9.97395
ray	-9.97447
▁experiment	-9.97478
▁again	-9.9756
▁evaluated	-9.97596
▁libraries	-9.97892
▁Reaction	-9.98056
▁grams	-9.98068
=7.2	-9.98144
▁33	-9.98156
▁breast	-9.9833
▁47	-9.98346
▁zinc	-9.98377
▁energy	-9.98403
▁suspensions	-9.98433
▁Science	-9.98475
▁leukemia	-9.98481
▁left	-9.98644
▁UV	-9.98768
▁noted	-9.98788
▁detail	-9.98794
▁polymerization	-9.9889
▁dye	-9.98971
▁cycle	-9.98978
90	-9.99076
▁precipitated	-9.9908
▁Mol	-9.99111
▁melting	-9.99173
pentyl	-9.99175
▁whole	-9.99241
34	-9.99338
▁often	-9.99355
▁homology	-9.9947
▁intravenous	-9.99557
▁inhibitory	-9.99618
et	-9.99749
▁partial	-9.9984
Fc	-10.0002
▁CF	-10.0014
▁rats	-10.0026
▁homologous	-10.003
phosphate	-10.0035
=8.0	-10.0039
▁49	-10.0058
bs	-10.0063
▁chiral	-10.0088
▁calcd	-10.0092
dimethoxy	-10.0099
free	-10.01
propan	-10.0113
▁38	-10.0116
triazol	-10.0117
▁purpose	-10.0121
▁(7	-10.0129
-12	-10.0132
▁limitation	-10.0139
id	-10.0145
▁radicals	-10.0146
HCl	-10.0149
=2	-10.0161
ac	-10.0162
▁65	-10.0172
▁cysteine	-10.0176
▁(3)	-10.0177
▁amines	-10.0183
▁we	-10.0188
▁since	-10.0198
▁encodes	-10.0199
alkenyl	-10.0201
pyrazole	-10.0202
▁thio	-10.0209
▁processing	-10.022
▁physical	-10.022
▁Press	-10.0228
▁On	-10.023
▁heteroatoms	-10.0243
▁prevention	-10.0243
▁exhibit	-10.026
53	-10.026
▁commonly	-10.0275
=8	-10.0276
▁NR	-10.0282
▁trifluoroacetic	-10.0285
▁providing	-10.0297
57	-10.0306
vinyl	-10.0306
▁New	-10.031
▁Bio	-10.0321
▁apparent	-10.0333
▁FIG	-10.0359
▁(1.5	-10.0359
▁entirety	-10.036
▁detecting	-10.0364
▁caused	-10.0368
▁efficacy	-10.0388
▁amplified	-10.0401
▁Expression	-10.0409
▁electrode	-10.042
length	-10.0425
-20	-10.0429
▁grown	-10.0432
▁cold	-10.0435
▁transport	-10.044
▁phases	-10.0446
▁located	-10.0447
▁fluoro	-10.0449
▁IFN	-10.0452
ethanol	-10.0456
▁series	-10.0458
▁effector	-10.0462
▁Gene	-10.0467
it	-10.0478
▁patent	-10.0479
▁optical	-10.0491
▁56	-10.0491
]-3-	-10.0498
lower	-10.0501
▁framework	-10.0509
▁monitored	-10.0513
▁label	-10.0517
2),	-10.0521
-18	-10.0524
▁gelatin	-10.0526
▁relatively	-10.0532
▁42	-10.054
▁There	-10.054
MeOH	-10.0543
▁color	-10.0554
hydroxymethyl	-10.0556
ul	-10.0558
▁make	-10.0558
▁wells	-10.0577
▁Anti	-10.058
47	-10.0582
▁acute	-10.0585
▁pale	-10.0586
36	-10.0598
ous	-10.0609
▁replication	-10.0611
▁able	-10.0613
▁member	-10.0627
▁Moreover	-10.0632
▁slurry	-10.0636
un	-10.064
▁discussed	-10.0644
▁stored	-10.0648
▁Re	-10.0654
▁display	-10.0666
PO	-10.0682
trifluoro	-10.0687
dependent	-10.0688
▁template	-10.0689
▁diameter	-10.0692
propoxy	-10.0706
▁DESCRIPTION	-10.0706
▁39	-10.071
▁30%	-10.0717
▁46	-10.0727
pH	-10.0737
44	-10.0742
▁contemplated	-10.0744
▁hydrogenation	-10.0748
▁accomplished	-10.0749
▁solubility	-10.0753
▁carbonyl	-10.0755
▁making	-10.0756
▁Pharmaceutical	-10.0759
-1,2,4-	-10.076
▁(“	-10.0762
j	-10.0765
[1,5-	-10.0773
▁ketone	-10.0777
▁agonist	-10.0778
▁methoxy	-10.0782
oxa	-10.0782
▁Et	-10.0783
▁technique	-10.0785
▁NOs	-10.0795
▁daily	-10.0796
Butyl	-10.08
▁Rt	-10.0809
▁phenol	-10.082
PE	-10.0821
[3,2-	-10.0826
quinoline	-10.0831
▁apparatus	-10.0843
▁propyl	-10.0847
▁charge	-10.0849
▁intracellular	-10.0859
▁4-(	-10.0861
▁vinyl	-10.0868
naphthyl	-10.0868
▁diagnostic	-10.0873
▁parenteral	-10.0886
μ	-10.0892
bi	-10.0896
▁INVENTION	-10.0897
▁endogenous	-10.0902
▁Any	-10.0902
▁murine	-10.0914
about	-10.0927
▁Although	-10.0935
)-2-(	-10.0938
▁solids	-10.0943
linked	-10.095
phenol	-10.095
▁magnetic	-10.0975
▁pair	-10.0977
man	-10.0988
-11	-10.0992
butoxy	-10.1
▁hydrophobic	-10.1006
▁mode	-10.1006
▁substituting	-10.1009
▁cloning	-10.1009
▁8,	-10.1015
▁fully	-10.1017
▁hetero	-10.1024
stranded	-10.1031
▁99	-10.1038
▁parameters	-10.1043
▁58	-10.1043
37	-10.1046
PA	-10.1056
▁transfection	-10.1058
▁members	-10.1059
—,	-10.1063
▁3.0	-10.1067
▁While	-10.1069
enyl	-10.1073
▁cause	-10.1074
▁section	-10.1083
▁bonded	-10.1084
▁CAR	-10.1086
▁Group	-10.1091
▁Production	-10.1101
▁major	-10.1105
ia	-10.111
▁heterologous	-10.111
position	-10.1112
▁(150	-10.1115
▁measurement	-10.1116
Bromo	-10.112
▁1.1	-10.113
▁continued	-10.1133
▁eluent	-10.1141
▁maximum	-10.1147
▁course	-10.1149
dioxo	-10.1157
mer	-10.1159
▁consists	-10.1163
▁targeted	-10.1163
▁54	-10.1176
▁Typically	-10.1183
▁HLA	-10.1186
aR	-10.1191
▁achieve	-10.1194
=8.8	-10.1194
▁With	-10.1195
▁20°	-10.1216
70	-10.1222
▁selectivity	-10.1235
▁VGAM	-10.1235
▁must	-10.1235
▁induce	-10.1241
▁block	-10.1249
▁enhanced	-10.1252
▁centrifugation	-10.1262
▁90%,	-10.1265
▁cis	-10.1266
-2-(	-10.1269
-4-(	-10.1275
▁activities	-10.1281
▁fixed	-10.1285
▁diluent	-10.129
▁instances	-10.1292
▁beads	-10.1305
▁red	-10.1306
cm	-10.1315
EtOAc	-10.1324
▁continuous	-10.133
▁sec	-10.1365
11,	-10.1375
▁developed	-10.1381
▁Additionally	-10.1383
▁information	-10.1388
▁plurality	-10.139
▁95	-10.1391
▁segment	-10.1394
silica	-10.1398
▁7.5	-10.1403
RS	-10.1407
▁did	-10.1407
▁protocol	-10.142
▁sulfuric	-10.1425
▁respective	-10.1428
▁humans	-10.143
ylamino	-10.1431
▁siRNA	-10.1435
▁organism	-10.1442
▁Water	-10.1444
▁responses	-10.1444
▁disulfide	-10.1462
▁viruses	-10.1464
▁approach	-10.1485
▁hexanes	-10.1491
▁although	-10.1495
▁51	-10.1495
=1	-10.1505
▁translation	-10.1508
▁occurs	-10.1508
+).	-10.1509
▁percentage	-10.1511
▁functions	-10.1513
▁Cancer	-10.1513
=5	-10.1515
▁strains	-10.152
▁44	-10.1529
▁dilution	-10.1533
ent	-10.1546
▁detect	-10.1553
▁supra	-10.1562
propane	-10.1566
2°	-10.1568
mentioned	-10.1569
-3-(	-10.1572
▁Ra	-10.1573
▁features	-10.1584
▁epitopes	-10.1601
▁moles	-10.1604
▁react	-10.1607
cyclohexane	-10.1607
▁aforementioned	-10.1608
[4,5-	-10.1611
Method	-10.1616
day	-10.1623
line	-10.1629
▁butyl	-10.1641
▁strong	-10.1655
8-	-10.1658
▁foregoing	-10.1659
▁Methyl	-10.1661
▁bar	-10.1661
ant	-10.1676
▁allows	-10.1678
▁solvate	-10.1701
▁week	-10.1704
▁partitioned	-10.1711
▁Assay	-10.1732
▁measuring	-10.1734
▁mediated	-10.1751
2/	-10.1757
induced	-10.1759
▁1:	-10.1763
▁boiling	-10.1763
▁bi	-10.177
▁equipped	-10.1775
▁age	-10.1783
▁US	-10.1794
▁enhance	-10.1805
prop	-10.1809
▁dioxide	-10.181
ra	-10.1811
pyrido	-10.1818
3),	-10.1827
▁markers	-10.1827
▁emission	-10.1828
▁oils	-10.1831
▁limit	-10.1836
▁Specific	-10.1838
-2,4-	-10.1844
▁3.5	-10.1845
▁blocking	-10.1854
▁Generally	-10.1855
▁monocyclic	-10.1864
▁TBL	-10.1866
▁wide	-10.1867
▁wash	-10.1867
trimethyl	-10.1881
▁warm	-10.1884
▁storage	-10.1885
▁decreased	-10.1885
1-3	-10.1886
▁0.4	-10.1887
▁tag	-10.1894
protein	-10.1894
▁glycerol	-10.1897
▁meant	-10.1897
=7.6	-10.1907
▁indicate	-10.1912
′,	-10.1931
HPLC	-10.1931
▁contrast	-10.1939
▁5.0	-10.1942
▁57	-10.1945
=7.5	-10.1945
▁polar	-10.1951
VI	-10.196
related	-10.1962
▁hrs	-10.1964
▁chemically	-10.1965
▁inflammation	-10.1969
▁donor	-10.1979
▁assessed	-10.1982
▁Publication	-10.1982
▁Pro	-10.1984
▁muscle	-10.1986
▁kidney	-10.1997
carboxy	-10.1998
▁elution	-10.2005
▁enzymatic	-10.2008
▁sequencing	-10.2009
▁aldehyde	-10.2021
▁vial	-10.2022
▁52	-10.2028
▁We	-10.2029
▁transformation	-10.2039
▁seen	-10.2046
▁completely	-10.2047
200	-10.205
▁lysine	-10.2056
per	-10.2064
▁cyclohexyl	-10.2065
3°	-10.2065
thiophene	-10.2067
carbon	-10.207
)+	-10.2076
80	-10.2076
▁adjacent	-10.2086
▁acetyl	-10.2087
▁arthritis	-10.2101
▁role	-10.2107
oxide	-10.2113
▁Me	-10.2113
▁entire	-10.2116
=4	-10.2121
▁analog	-10.2128
▁crystallization	-10.2132
▁70%	-10.214
▁EP	-10.2146
ir	-10.215
▁altered	-10.215
▁mature	-10.2153
▁now	-10.2154
▁lymphoma	-10.2156
▁encode	-10.2158
▁60%	-10.2163
▁intermediates	-10.217
▁along	-10.2171
▁CDRs	-10.2171
▁59	-10.2174
▁Ab	-10.2178
▁aralkyl	-10.2179
▁Additional	-10.2181
▁prostate	-10.2183
▁toxin	-10.2184
▁risk	-10.2195
▁sucrose	-10.2196
▁43	-10.2198
▁basis	-10.2207
39	-10.221
▁Procedure	-10.2212
▁Ethyl	-10.2216
derived	-10.2221
-3,4-	-10.2236
▁object	-10.2243
▁Di	-10.2246
ton	-10.2247
4),	-10.2255
▁70°	-10.2262
▁tertiary	-10.2272
hexyl	-10.2276
▁current	-10.2281
▁stir	-10.2292
▁Immunol	-10.2293
'-	-10.2301
pro	-10.2307
▁container	-10.2315
▁reporter	-10.232
▁tyrosine	-10.2322
▁photo	-10.2323
▁53	-10.2328
▁hole	-10.2331
−1	-10.2339
halo	-10.234
▁variations	-10.234
▁physiological	-10.234
▁heart	-10.2342
▁isolation	-10.2352
▁core	-10.2357
▁exposure	-10.2364
Ra	-10.2364
▁secretion	-10.2365
]-4-	-10.2369
▁sealed	-10.2371
▁Med	-10.2376
▁Si	-10.2378
▁linkage	-10.238
4°	-10.2382
BP	-10.2389
▁bromine	-10.2391
▁minute	-10.2401
▁rpm	-10.2405
▁2%	-10.2409
5%	-10.241
dioxane	-10.2412
associated	-10.2412
▁diabetes	-10.2414
▁bispecific	-10.2416
▁kDa	-10.2419
▁therein	-10.2429
▁41	-10.2443
urea	-10.2445
▁run	-10.246
▁recrystallized	-10.2469
▁thin	-10.247
▁pp	-10.2473
▁immobilized	-10.2477
Fluoro	-10.2482
▁improve	-10.249
▁bovine	-10.2495
▁Embodiment	-10.2506
▁Some	-10.2512
▁Laboratory	-10.2518
▁retention	-10.252
▁radiation	-10.2522
7.8	-10.2522
▁prodrug	-10.2525
but	-10.2531
▁110	-10.2531
▁good	-10.2551
▁vapor	-10.2552
▁afforded	-10.2552
2(	-10.2567
diamine	-10.2577
▁centrifuged	-10.2579
▁cyclopropyl	-10.2579
▁ranging	-10.258
dihydroxy	-10.2582
▁staining	-10.2593
7.9	-10.2599
▁easily	-10.2604
tetra	-10.2607
▁attachment	-10.2608
▁5′-	-10.2609
▁warmed	-10.2616
▁transition	-10.262
▁extent	-10.262
▁formulae	-10.2627
Table	-10.2629
▁Al	-10.2637
▁0.25	-10.2639
2+	-10.264
▁subcutaneous	-10.2645
▁experimental	-10.2647
▁constructed	-10.2679
▁degradation	-10.2686
▁95%,	-10.2687
=7.8	-10.2696
▁Similarly	-10.2697
ex	-10.2698
▁Anal	-10.2699
▁bio	-10.2703
▁cytokine	-10.2704
▁CR	-10.2719
▁back	-10.273
▁heterocycle	-10.2732
41	-10.2739
▁distribution	-10.274
▁configuration	-10.2744
▁ranges	-10.2746
▁CHO	-10.2749
▁30°	-10.2749
▁autoimmune	-10.2756
▁66	-10.2764
▁toxicity	-10.2769
▁(60	-10.2778
▁infected	-10.2785
carbonitrile	-10.2792
pon	-10.2793
▁scheme	-10.2799
▁iron	-10.2803
1;	-10.2807
ite	-10.2811
phase	-10.2811
spiro	-10.2814
=7	-10.2821
▁mineral	-10.2824
▁involves	-10.2828
▁powders	-10.2832
iv	-10.2846
▁(0.1	-10.2864
▁cytotoxic	-10.2865
▁2,4-	-10.2869
▁olefin	-10.2876
▁loaded	-10.2884
hydroxyphenyl	-10.2889
▁devices	-10.2896
ose	-10.2898
▁sense	-10.2903
▁2:	-10.2903
▁80%,	-10.2908
▁cancers	-10.2912
▁divided	-10.2917
▁immediately	-10.2921
diphenyl	-10.2921
CSF	-10.2922
▁−78°	-10.2925
▁operation	-10.2929
▁exposed	-10.293
▁conjugates	-10.2933
2-6	-10.2953
▁residual	-10.2956
▁VEGF	-10.2968
ne	-10.2973
▁silicon	-10.2979
▁neutral	-10.2983
▁generation	-10.2984
▁mutagenesis	-10.2988
▁inter	-10.2994
hexahydro	-10.2999
Gly	-10.3
▁0.8	-10.3
▁thiol	-10.3003
no	-10.3004
▁bicyclic	-10.3019
▁subjects	-10.3021
▁fed	-10.3022
▁difference	-10.3025
▁seconds	-10.3027
▁2,6-	-10.3029
▁bp	-10.3036
described	-10.3048
▁encompasses	-10.3057
▁3-(	-10.3061
▁deletion	-10.3064
▁67	-10.3065
▁68	-10.3068
]-1	-10.3072
▁(4)	-10.3073
▁Antibody	-10.3075
ca	-10.3078
▁stearate	-10.3084
hydroxyethyl	-10.3088
▁adjuvant	-10.3089
▁dependent	-10.3111
▁recognized	-10.3111
▁phosphorus	-10.3112
AD	-10.3112
▁software	-10.3113
naphthalene	-10.3113
▁stated	-10.3121
ox	-10.3123
▁hyper	-10.3126
▁64	-10.3129
▁agonists	-10.3129
▁69	-10.3132
▁manufacture	-10.3141
phenylphosphine	-10.315
▁1.6	-10.3156
▁table	-10.3158
▁85	-10.3159
▁program	-10.3162
▁candidate	-10.3162
▁Application	-10.3164
▁7.0	-10.3168
▁covalently	-10.317
▁lactose	-10.3174
▁passed	-10.3176
▁EDTA	-10.3177
SR	-10.3177
0.2	-10.3179
nitrophenyl	-10.3185
▁cultures	-10.322
▁uses	-10.3227
▁eukaryotic	-10.3235
▁cyclo	-10.3242
▁Nucleic	-10.3247
3.1	-10.3254
benzoate	-10.3258
methylamino	-10.3263
▁urea	-10.3268
▁removing	-10.3277
▁yields	-10.3282
▁theory	-10.3288
▁interactions	-10.3288
aza	-10.3288
▁dispersion	-10.3296
▁quantity	-10.3312
▁survival	-10.3317
▁topical	-10.3342
▁seed	-10.3343
▁hybrid	-10.3351
izing	-10.3352
▁earth	-10.3354
▁De	-10.3358
▁fluoride	-10.3362
▁open	-10.3373
RA	-10.3389
peptide	-10.339
▁association	-10.3394
▁later	-10.3394
▁electrophoresis	-10.3395
▁fold	-10.3397
-13	-10.3398
benzofuran	-10.3408
▁resulted	-10.3409
=3	-10.3409
▁glycine	-10.3414
▁pairs	-10.3415
furan	-10.3415
▁acidified	-10.3418
DNA	-10.3428
▁62	-10.343
49	-10.3436
▁From	-10.3437
7.0	-10.3437
▁signals	-10.3438
1.0	-10.3444
ment	-10.3445
AB	-10.3446
▁introducing	-10.3447
▁cation	-10.3447
▁itself	-10.3451
end	-10.3456
propionic	-10.3469
▁0.6	-10.347
▁increases	-10.347
▁peripheral	-10.3471
42	-10.3473
▁serine	-10.3479
▁composed	-10.3482
▁hormone	-10.3492
im	-10.3498
-5-(	-10.3499
▁intensity	-10.3503
emitting	-10.3506
cis	-10.351
▁selectively	-10.3518
▁exist	-10.3521
▁90°	-10.3533
▁facilitate	-10.3538
MgSO	-10.3545
age	-10.3548
▁carrying	-10.3549
▁longer	-10.3557
0.1	-10.3559
▁orally	-10.3562
meth	-10.3573
▁normally	-10.3575
▁plasmids	-10.3589
▁VI	-10.3596
▁broad	-10.3615
75	-10.3616
▁technology	-10.3619
▁mAb	-10.363
▁Results	-10.3632
PCR	-10.3645
′′	-10.3648
▁peroxide	-10.365
▁thermal	-10.3654
▁(2.0	-10.3663
▁origin	-10.3669
▁para	-10.3676
▁intra	-10.3677
▁mechanism	-10.3678
79	-10.3687
[4,3-	-10.3687
▁imaging	-10.3688
▁inventors	-10.3689
▁peaks	-10.369
▁membranes	-10.3693
▁exemplified	-10.3696
▁EtOH	-10.3697
▁Ca	-10.3707
imidazole	-10.371
Si	-10.3715
▁performance	-10.3717
▁Organic	-10.3726
▁connected	-10.3727
▁Test	-10.3727
▁Two	-10.3729
▁suitably	-10.373
▁7.	-10.3732
▁strength	-10.3734
▁typical	-10.3734
)-3-(	-10.3736
▁oily	-10.3738
▁Where	-10.3738
▁40%	-10.3748
all	-10.375
▁metals	-10.3755
▁monomers	-10.3756
aromatic	-10.3761
yield	-10.3763
▁affect	-10.3763
methane	-10.3766
methylsulfonyl	-10.3767
Lys	-10.3769
▁hybridoma	-10.377
tin	-10.3776
9.0	-10.378
▁scale	-10.3784
▁identification	-10.3784
Ala	-10.3785
▁hydrate	-10.3788
▁600	-10.3791
▁excipient	-10.3797
▁commercial	-10.3798
)-7-	-10.38
▁citrate	-10.3802
)2,	-10.3803
▁4.0	-10.3807
7.5	-10.3808
ter	-10.3816
▁alignment	-10.3823
▁diisopropyl	-10.3823
1°	-10.3825
)-(	-10.3829
ting	-10.3848
▁96-	-10.3849
▁61	-10.3861
▁York	-10.3871
life	-10.3877
2.0	-10.3878
▁thickness	-10.3884
▁injury	-10.3886
▁chromatographed	-10.3888
▁channel	-10.3891
48	-10.3897
▁infusion	-10.3907
▁months	-10.3908
IR	-10.391
▁medical	-10.391
▁Li	-10.3911
▁person	-10.3916
iii	-10.3921
cyclopentyl	-10.3927
IP	-10.3937
▁VIII	-10.3941
▁screened	-10.3946
▁recovery	-10.3948
▁elevated	-10.3948
▁recognition	-10.3953
▁MHC	-10.3953
▁1.3	-10.3958
▁foam	-10.3961
▁controls	-10.3964
▁systemic	-10.3965
▁precipitation	-10.3968
2.8	-10.397
▁−	-10.3982
][1,4]	-10.3984
▁77	-10.3986
▁inhibits	-10.3987
12,	-10.3996
heteroaryl	-10.3997
▁microwave	-10.3998
▁AAV	-10.3999
In	-10.4004
propanol	-10.4006
0.5	-10.401
▁instructions	-10.401
▁immunogenic	-10.4012
▁lead	-10.4019
▁scFv	-10.4022
▁manufacturer	-10.4024
▁benzo	-10.4027
=7.0	-10.4029
▁larger	-10.4035
▁act	-10.4035
alkynyl	-10.4037
▁obtaining	-10.4039
▁design	-10.4043
white	-10.4045
▁condensation	-10.4047
▁contents	-10.405
▁depicted	-10.4051
▁corn	-10.4051
▁linking	-10.4061
▁delivered	-10.4066
▁amorphous	-10.4067
▁simultaneously	-10.4069
▁AD	-10.4077
▁subunit	-10.4083
benzonitrile	-10.4088
▁injectable	-10.41
est	-10.4111
cyclo	-10.4115
51	-10.4115
▁63	-10.4118
▁insertion	-10.4123
▁Since	-10.413
▁CN	-10.4131
▁appreciated	-10.4132
▁kept	-10.4143
▁trifluoromethyl	-10.4147
8°	-10.4148
▁4.5	-10.4156
▁occurrence	-10.4162
EP	-10.4162
▁whereas	-10.4164
▁They	-10.4166
▁literature	-10.4167
▁supplemented	-10.4168
aniline	-10.4169
=8.5	-10.4171
▁capacity	-10.4181
▁bed	-10.4185
▁ethers	-10.419
▁cool	-10.4191
▁k	-10.4192
▁120°	-10.4207
▁testing	-10.4212
▁DETAIL	-10.4215
▁(2.5	-10.4221
pyridinyl	-10.4222
▁death	-10.4223
▁dark	-10.4232
▁insoluble	-10.4232
Pro	-10.4233
▁140	-10.4234
anti	-10.4239
▁cleaved	-10.424
▁biologically	-10.424
▁iodine	-10.4246
▁2,3-	-10.4252
▁induction	-10.4255
▁done	-10.4257
▁comprised	-10.426
8)	-10.4272
▁EXAMPLES	-10.4272
▁heteroatom	-10.4276
01	-10.4277
▁covalent	-10.4278
▁profile	-10.4297
86	-10.4298
▁Mo	-10.43
ester	-10.4301
δ	-10.4306
▁8.0	-10.4308
heptane	-10.4312
▁meaning	-10.4318
—(	-10.4323
1.5	-10.4324
▁aq	-10.4327
▁whose	-10.4327
▁digested	-10.433
▁overall	-10.433
▁phosphoric	-10.4341
ethylene	-10.4342
▁recognize	-10.4343
▁anion	-10.4344
14,	-10.4351
▁characteristic	-10.4352
3)2	-10.436
non	-10.4364
▁#	-10.4372
▁measure	-10.4374
:1)	-10.4377
▁examined	-10.4378
diyl	-10.438
▁(12	-10.438
▁Pa	-10.4384
ethylamine	-10.4385
1.1	-10.4388
dt	-10.4392
▁Comparative	-10.4407
▁sequentially	-10.4409
▁PCT	-10.4419
▁central	-10.4428
hexanes	-10.4431
SP	-10.4436
▁tetrahydro	-10.4436
61	-10.4448
▁describes	-10.445
▁glycosylation	-10.4455
▁1.8	-10.4459
2.2	-10.446
2.1	-10.4461
▁lyophilized	-10.4463
naphthalen	-10.4467
▁1.4	-10.4474
▁ions	-10.4475
▁130	-10.4475
▁optically	-10.448
▁Calcd	-10.4483
1-10	-10.4484
▁curve	-10.4487
▁numbers	-10.4489
ro	-10.4492
=8.1	-10.4493
▁naphthyl	-10.4493
-100	-10.4499
▁degrees	-10.45
▁introduction	-10.4503
▁racemic	-10.4507
labeled	-10.4508
▁resuspended	-10.4514
Hydroxy	-10.4519
▁protection	-10.452
46	-10.4521
4.2	-10.4527
▁78	-10.4534
▁Of	-10.454
▁self	-10.4551
▁likely	-10.4554
▁deposited	-10.4554
▁depend	-10.4561
AT	-10.4566
▁collagen	-10.4576
oxycarbonyl	-10.4578
max	-10.458
ether	-10.4583
CA	-10.4589
=8.3	-10.4594
▁sources	-10.4599
300	-10.46
▁severity	-10.4606
55	-10.4607
▁bromo	-10.4612
▁Binding	-10.4622
AA	-10.4627
oma	-10.4631
▁1.00	-10.4631
ted	-10.4634
pyrazin	-10.4639
▁Type	-10.4639
▁0,	-10.464
▁%,	-10.4644
▁liposomes	-10.4645
methoxycarbonyl	-10.4652
Leu	-10.4657
▁hydro	-10.4665
▁harvested	-10.4672
▁manufactured	-10.4676
▁reading	-10.4682
Phe	-10.4687
Ph	-10.4696
ers	-10.4699
▁raw	-10.47
AP	-10.4705
▁limiting	-10.4706
▁segments	-10.4707
▁apoptosis	-10.4708
▁ES	-10.4714
▁environment	-10.4717
=8.7	-10.4721
=6.8	-10.4723
compound	-10.4727
known	-10.4729
trimethylsilyl	-10.473
▁whereby	-10.4732
▁insect	-10.4739
▁top	-10.4752
ap	-10.4753
▁hand	-10.4754
▁9.	-10.4755
▁0.02	-10.4756
-(1-	-10.4764
▁citric	-10.4768
▁76	-10.4768
aS	-10.4775
li	-10.4776
Di	-10.4786
89	-10.4788
alkylene	-10.4803
▁practice	-10.4804
toxic	-10.4808
ip	-10.4813
▁transmembrane	-10.4817
▁demonstrate	-10.4819
65	-10.482
▁organ	-10.4821
▁monovalent	-10.4821
▁loop	-10.4822
▁ex	-10.4822
▁protective	-10.4823
▁unique	-10.4823
▁called	-10.4839
ph	-10.4854
ve	-10.4856
▁believed	-10.4857
▁predicted	-10.4865
▁semi	-10.4865
▁polyclonal	-10.4865
▁TGF	-10.4867
▁spp	-10.4869
▁chamber	-10.4875
▁differentiation	-10.4877
▁105	-10.4877
▁claimed	-10.488
▁isopropanol	-10.4881
▁HA	-10.489
▁BINDING	-10.4901
son	-10.4903
PEG	-10.4908
lin	-10.4919
▁spectra	-10.4928
▁wavelength	-10.4928
▁74	-10.4937
▁Factor	-10.4955
▁substrates	-10.4972
▁frequency	-10.4972
▁nuclear	-10.4978
▁98	-10.498
▁oxo	-10.4981
▁backbone	-10.4984
RP	-10.4985
▁matter	-10.4989
azabicyclo	-10.4991
▁Specifically	-10.4994
thieno	-10.4998
trifluoromethoxy	-10.4998
500	-10.4999
▁SITE	-10.5003
▁resistant	-10.5007
▁tablet	-10.501
TA	-10.5013
▁requires	-10.5015
▁isobutyl	-10.5016
▁con	-10.5017
bicyclo	-10.5017
nless	-10.5024
8.3	-10.5027
ner	-10.5034
▁colon	-10.5035
▁zeolite	-10.5047
▁GC	-10.5052
▁illustrates	-10.5052
6°	-10.5054
triazolo	-10.5056
▁field	-10.5057
▁targets	-10.5059
▁throughout	-10.5059
▁160	-10.5064
▁established	-10.5066
ary	-10.5073
Arg	-10.5073
ethane	-10.5081
4.0	-10.5085
▁emulsion	-10.5092
▁Boc	-10.5098
▁index	-10.5105
8.2	-10.5107
▁allowing	-10.5112
▁94	-10.5114
▁73	-10.5121
▁vascular	-10.5122
▁advantageous	-10.5124
▁0.5%	-10.513
▁assayed	-10.5135
morpholino	-10.5139
▁diluents	-10.514
▁upper	-10.5146
▁corresponds	-10.5147
▁HRMS	-10.5155
▁2.4	-10.5156
benzaldehyde	-10.5159
▁Ltd	-10.516
▁spray	-10.5161
▁(250	-10.5167
▁surfactant	-10.5171
62	-10.5178
ch	-10.5178
56	-10.5187
▁granules	-10.5195
difluorophenyl	-10.5197
poly	-10.52
oc	-10.5201
treated	-10.5205
-1)	-10.5206
▁consist	-10.5207
▁start	-10.5211
▁25%	-10.5214
73	-10.5217
▁alkylation	-10.5221
▁polymeric	-10.5222
▁mmole	-10.5231
▁Ed	-10.5234
=8.2	-10.5244
thiazole	-10.5245
6.0	-10.5261
Ar	-10.5262
▁2-(4-	-10.5262
▁infections	-10.5268
silyl	-10.5269
▁carbons	-10.527
▁antigenic	-10.5271
▁indicating	-10.5278
▁diffraction	-10.5278
▁renal	-10.5281
▁damage	-10.5284
▁leaving	-10.5285
morpholin	-10.5289
▁1.7	-10.5294
▁nickel	-10.53
▁distinct	-10.5301
▁mutants	-10.5308
▁dosing	-10.5309
ak	-10.5315
▁Sequence	-10.5316
▁diagnosis	-10.532
▁much	-10.5322
▁differences	-10.5323
▁pharmacological	-10.5323
=7.3	-10.5323
7.7	-10.5329
00	-10.533
87	-10.5337
▁BSA	-10.5338
=6	-10.5343
▁phosphorylation	-10.5346
▁computer	-10.5346
LC	-10.5348
▁nitrate	-10.5348
indazol	-10.5349
2.5	-10.5351
▁98%	-10.5353
▁formic	-10.5355
ell	-10.5356
▁chromosome	-10.5356
▁points	-10.5359
-21	-10.5361
▁Sodium	-10.5362
▁consistent	-10.5364
▁cytokines	-10.5368
▁ten	-10.537
▁uptake	-10.5373
▁6.0	-10.5384
▁heptane	-10.5388
▁surfactants	-10.5393
▁2′-	-10.5393
ta	-10.5396
▁absolute	-10.5396
▁Treatment	-10.5398
1.6	-10.54
deoxy	-10.5406
▁Part	-10.5415
99	-10.5418
-14	-10.5425
▁endothelial	-10.5427
6.8	-10.5427
▁Fmoc	-10.5429
▁enantiomers	-10.5434
▁Among	-10.5437
▁9,	-10.5438
▁models	-10.5442
▁Vol	-10.5458
1.4	-10.5461
72	-10.5467
▁sulphate	-10.5469
▁TCR	-10.547
2.7	-10.5472
▁utilizing	-10.5472
▁emulsions	-10.5474
▁chemistry	-10.5476
▁vol	-10.5476
▁additives	-10.5477
▁metabolic	-10.5481
▁alumina	-10.5487
▁gum	-10.5491
CL	-10.5495
▁FR	-10.5497
▁arginine	-10.5498
▁ATCC	-10.5502
PAGE	-10.551
▁determination	-10.5511
▁293	-10.5511
▁cycles	-10.5513
▁Cu	-10.5513
ness	-10.5513
3.2	-10.5515
▁allyl	-10.5516
(3-	-10.5518
ty	-10.5519
▁79	-10.5523
▁contiguous	-10.5527
▁orange	-10.5538
▁lymphocytes	-10.5549
acetamido	-10.555
58	-10.5555
▁intact	-10.5555
74	-10.5561
▁initiation	-10.5563
91	-10.5565
▁excellent	-10.5566
▁EC	-10.557
3.8	-10.5572
=8.6	-10.5577
43	-10.558
▁myeloma	-10.5582
▁stimulation	-10.5587
▁influenza	-10.5594
▁representative	-10.5601
▁locus	-10.5602
mg	-10.5603
▁0.15	-10.5603
▁(80	-10.5605
3.0	-10.561
▁blot	-10.5615
▁kb	-10.5626
BD	-10.5626
▁tubes	-10.5629
AR	-10.5631
▁impurities	-10.5642
▁Prepared	-10.5646
▁critical	-10.5646
nd	-10.5647
▁property	-10.5649
101	-10.5649
▁ed	-10.5671
▁illustrative	-10.5671
▁green	-10.5674
▁(0.2	-10.5675
▁better	-10.5677
-16	-10.5684
▁pyridyl	-10.5697
lo	-10.5697
formyl	-10.571
▁previous	-10.571
IC	-10.5711
▁secreted	-10.5711
▁97	-10.5712
▁2000	-10.5715
8.6	-10.5718
▁6.	-10.572
-25	-10.573
▁deletions	-10.5738
▁Various	-10.5745
▁stress	-10.5749
▁progression	-10.5752
▁1,1-	-10.5754
▁frame	-10.5763
▁imidazole	-10.5764
▁sulfoxide	-10.577
▁interferon	-10.5776
▁10-	-10.578
▁Spring	-10.5785
▁cyclohexane	-10.5785
5)	-10.5788
3.3	-10.5789
18,	-10.5789
▁screen	-10.5792
59	-10.5796
▁medicament	-10.5796
▁neutralized	-10.5798
▁halogenated	-10.5801
▁divalent	-10.5803
▁intramuscular	-10.5805
▁Wiley	-10.5817
▁separately	-10.5817
4+	-10.5818
▁silver	-10.5827
5.0	-10.5827
▁transcript	-10.5829
▁condensed	-10.583
▁viscosity	-10.5835
(4	-10.5836
▁downstream	-10.5839
▁processed	-10.584
imino	-10.5842
op	-10.5848
▁main	-10.5849
▁2.2	-10.5855
▁efficient	-10.5855
▁published	-10.5856
▁(5)	-10.5857
▁identifying	-10.5859
▁motif	-10.586
1.7	-10.5862
▁Con	-10.5866
▁platinum	-10.5866
▁complementarity	-10.5866
▁gamma	-10.5866
▁who	-10.5869
▁150°	-10.5878
▁pump	-10.588
▁recombination	-10.5884
▁food	-10.5884
inflammatory	-10.5886
1.9	-10.5891
▁few	-10.5892
▁106	-10.5894
▁original	-10.59
▁Harbor	-10.5901
-23	-10.5902
▁cyclopentyl	-10.5904
te	-10.5905
°	-10.5908
▁denotes	-10.5909
EC	-10.591
▁drop	-10.5912
▁references	-10.5912
▁2,2-	-10.5919
▁replacement	-10.592
na	-10.5924
]-5-	-10.5937
▁inhibited	-10.5938
▁operably	-10.594
▁regard	-10.5941
▁0.03	-10.5942
▁71	-10.5949
▁Under	-10.5952
form	-10.5952
▁buffers	-10.5965
▁turn	-10.5969
Al	-10.5975
Sigma	-10.5976
▁insert	-10.5977
▁conserved	-10.5977
▁9-	-10.5984
▁contacted	-10.5989
Invitrogen	-10.5991
-22	-10.5995
▁maintain	-10.5996
▁sp	-10.5998
▁blue	-10.6
▁Column	-10.6008
▁Ph	-10.6009
]-1-	-10.6014
▁Ni	-10.6017
▁volumes	-10.6023
diol	-10.6025
▁70%,	-10.603
thiophen	-10.6031
▁eye	-10.6032
7.1	-10.6035
▁St	-10.6045
1.2	-10.6046
1.3	-10.6051
pyrrol	-10.6056
▁HCV	-10.6059
64	-10.6061
▁Next	-10.6064
▁Lys	-10.6067
▁petroleum	-10.6075
=7.1	-10.6077
▁2.1	-10.6081
▁0.7	-10.6096
▁Rb	-10.6098
▁1-3	-10.6105
▁digestion	-10.6109
▁cationic	-10.6109
-[	-10.611
▁(1.2	-10.611
-(5-	-10.6116
▁latter	-10.612
▁pore	-10.6122
Glu	-10.6123
EA	-10.6123
)-4-(	-10.6124
▁rotary	-10.6124
▁around	-10.6125
6.9	-10.6125
cyclopropane	-10.613
ST	-10.6134
Re	-10.6137
aminomethyl	-10.6137
▁pulmonary	-10.6138
▁dissolving	-10.6142
▁sulfonyl	-10.6142
▁plus	-10.6143
▁melanoma	-10.6146
▁serve	-10.6147
▁1-(	-10.6149
▁space	-10.6151
▁Representative	-10.6151
▁dosages	-10.6152
71	-10.6157
▁generating	-10.6161
▁alkylamino	-10.6161
83	-10.6162
which	-10.6164
▁band	-10.6172
▁copolymer	-10.6172
▁15%	-10.6174
thienyl	-10.6177
▁resins	-10.6178
7°	-10.6179
ot	-10.6182
▁7.4	-10.6184
-5.	-10.6191
▁early	-10.6197
▁piperidine	-10.6197
ability	-10.62
▁VII	-10.6205
ER	-10.6207
▁alkoxycarbonyl	-10.6211
▁cycloalkenyl	-10.622
▁potent	-10.6224
▁resonance	-10.6229
▁revealed	-10.623
▁azide	-10.6242
CI	-10.6243
▁quantitative	-10.6245
ane	-10.6252
NP	-10.6253
▁immunization	-10.6253
▁hot	-10.6254
▁Western	-10.6255
▁International	-10.6256
2.3	-10.626
cells	-10.6263
-2(1	-10.6266
▁linkers	-10.6271
(=	-10.6271
dichlorophenyl	-10.6274
▁filed	-10.6276
soluble	-10.6278
con	-10.6281
▁funnel	-10.6287
▁steam	-10.6287
isoquinolin	-10.6289
▁fresh	-10.629
▁Both	-10.6291
▁employing	-10.6293
▁alkylthio	-10.6298
▁alanine	-10.6299
8.4	-10.6305
quinazolin	-10.6306
▁agarose	-10.6308
▁Am	-10.6314
▁array	-10.6317
▁variation	-10.6318
RNA	-10.6318
▁needed	-10.632
▁Ig	-10.6325
▁cut	-10.6335
ID	-10.6338
pyrrole	-10.6344
▁male	-10.6352
IS	-10.6358
CDR	-10.6359
▁ligated	-10.636
VL	-10.6362
▁showing	-10.6365
-1,3,2-	-10.6366
▁hereby	-10.637
%,	-10.6374
▁8.	-10.6374
▁near	-10.638
=9	-10.6383
▁compatible	-10.6386
Rb	-10.639
▁rather	-10.6391
▁pM	-10.6391
diethyl	-10.6392
▁cholesterol	-10.6395
-30	-10.6396
▁ionic	-10.6399
os	-10.64
▁3,4-	-10.6403
▁essential	-10.6404
ial	-10.6404
▁recorded	-10.6406
ddd	-10.6409
+):	-10.641
5;	-10.641
gene	-10.6411
▁Briefly	-10.6414
▁tail	-10.6418
▁maintaining	-10.6421
▁conjunction	-10.6425
AS	-10.6425
▁head	-10.6426
120	-10.6427
Ac	-10.6427
▁condenser	-10.6433
▁5.5	-10.6434
▁isolate	-10.6437
▁sat	-10.644
7.6	-10.6446
▁aryloxy	-10.6449
▁detailed	-10.645
▁rabbit	-10.6451
6.7	-10.6456
allyl	-10.6464
▁others	-10.6465
93	-10.6469
▁Data	-10.647
DCM	-10.6478
68	-10.6481
6.1	-10.6484
52	-10.6489
-3,5-	-10.6492
▁3:	-10.6492
▁extension	-10.6494
hr	-10.6502
▁OCH	-10.6504
▁hydrophilic	-10.6508
▁definition	-10.6512
acetone	-10.6514
▁dyes	-10.6516
▁pancreatic	-10.6518
66	-10.6524
▁Subsequently	-10.6526
94	-10.653
▁88	-10.653
▁sensitivity	-10.6537
▁genetically	-10.654
tolyl	-10.654
9;	-10.6544
▁83	-10.6548
-2,6-	-10.655
▁mobile	-10.6551
preferably	-10.6553
isoquinoline	-10.6556
AL	-10.656
▁92	-10.6563
”)	-10.6565
▁7.2	-10.6566
▁relevant	-10.6568
▁Cold	-10.6572
▁Acids	-10.6572
EL	-10.6575
The	-10.6585
3.6	-10.659
▁terminus	-10.659
6.6	-10.6592
▁(75	-10.6593
methoxybenzyl	-10.6598
also	-10.6598
Ser	-10.66
▁tR	-10.6606
▁PI	-10.6608
NHC	-10.6609
0.8	-10.661
oxadiazol	-10.6618
54	-10.6619
▁absorbance	-10.6621
▁appended	-10.6627
tic	-10.6628
▁97%,	-10.6636
▁isocyanate	-10.6641
▁electro	-10.665
▁hydrogenated	-10.6655
4.9	-10.6657
▁84	-10.6663
▁work	-10.6672
▁86	-10.6673
▁changed	-10.6676
▁biotin	-10.6677
▁10°	-10.6687
▁methane	-10.6695
▁replacing	-10.6696
8.5	-10.6697
▁fact	-10.6702
octyl	-10.6703
▁Biochem	-10.6707
▁75%	-10.6708
8.0	-10.671
02	-10.6715
▁Gly	-10.6718
▁effected	-10.672
▁suspending	-10.6736
▁linkages	-10.6738
4;	-10.6738
▁(1989)	-10.674
▁dimer	-10.674
▁capture	-10.674
▁cassette	-10.6746
ATCC	-10.6753
▁inventive	-10.6761
400	-10.6763
▁incorporation	-10.6767
KBr	-10.6783
IA	-10.6785
▁ca	-10.6785
▁Once	-10.6788
NA	-10.6804
▁rapid	-10.6807
SS	-10.6815
▁illustrate	-10.6815
▁consensus	-10.6818
▁become	-10.6818
methylthio	-10.6818
▁completed	-10.6825
VII	-10.6826
MA	-10.6829
▁89	-10.683
▁6.5	-10.6831
butanol	-10.6834
▁Peptide	-10.6835
▁SP	-10.6838
▁involve	-10.6841
brs	-10.6846
▁stock	-10.6848
▁additionally	-10.6851
▁histidine	-10.6854
gen	-10.6857
▁independent	-10.6859
▁conservative	-10.686
▁oligomer	-10.6862
▁pad	-10.6863
▁stained	-10.6864
▁exhibited	-10.6865
▁take	-10.6877
63	-10.6882
▁released	-10.6882
▁prophylactic	-10.6885
of	-10.6885
cyclopenta	-10.6886
▁fibrosis	-10.6896
78	-10.6899
=9.0	-10.6903
▁transcriptional	-10.6905
PT	-10.6912
▁wet	-10.6915
-19	-10.6918
▁organisms	-10.6919
▁immunized	-10.6921
yn	-10.6921
▁voltage	-10.6925
▁last	-10.6927
carbonylamino	-10.6929
ry	-10.693
▁Glu	-10.6931
88	-10.6933
▁mammals	-10.6944
▁kits	-10.6947
▁ends	-10.6948
▁prodrugs	-10.6954
▁gels	-10.6955
▁supplied	-10.6957
▁routes	-10.6957
▁advantage	-10.6958
▁slow	-10.6963
▁0.04	-10.6965
▁polyvinyl	-10.6973
▁OR	-10.6973
▁TABLE	-10.6976
silane	-10.6979
▁create	-10.698
▁concentrate	-10.6981
MP	-10.6981
IN	-10.6986
▁mutated	-10.6988
▁y	-10.6992
▁11,	-10.6993
carbonate	-10.6994
4.7	-10.6995
▁labeling	-10.7
▁reactants	-10.7001
▁location	-10.7002
2%	-10.7004
▁ethoxy	-10.7007
▁Celite	-10.7013
=2.0	-10.7013
5.1	-10.7013
▁exhibits	-10.7015
▁98%,	-10.7015
dbd	-10.7016
▁se	-10.7016
9°	-10.7018
▁continuously	-10.7024
▁stand	-10.7024
▁Cloning	-10.7025
oxazol	-10.7032
▁minimum	-10.7037
▁developing	-10.7042
▁effluent	-10.7042
Methoxy	-10.7043
positive	-10.7045
See	-10.7049
▁local	-10.7053
IgG	-10.7053
▁phosphatase	-10.7056
▁gram	-10.7065
▁xylene	-10.707
▁104	-10.7071
=7.4	-10.7074
Boc	-10.7077
▁Tri	-10.7077
▁CHCl	-10.7081
▁triturated	-10.7094
76	-10.7105
▁180	-10.7109
▁instant	-10.7112
▁degassed	-10.7124
▁purchased	-10.7127
▁crystallized	-10.7128
Ia	-10.7129
4.4	-10.7132
-1-(	-10.7132
▁ratios	-10.7138
CP	-10.7144
9-	-10.7149
▁image	-10.716
▁heteroalkyl	-10.716
ill	-10.7161
▁sulfonic	-10.7161
▁simple	-10.7161
▁arylalkyl	-10.7163
▁0.9	-10.7165
PBS	-10.7166
0.9	-10.7168
PC	-10.7175
pr	-10.718
▁tris	-10.7181
3.5	-10.7186
▁87	-10.7188
palladium	-10.7189
▁fetal	-10.7189
▁dihydro	-10.719
▁Poly	-10.7192
▁extended	-10.7197
▁regimen	-10.7198
▁activating	-10.7198
▁Ex	-10.7205
methanone	-10.7205
▁might	-10.7206
)-1-(	-10.7208
PS	-10.7208
▁108	-10.721
3.4	-10.7212
octane	-10.7215
▁Leu	-10.7218
Step	-10.7218
toluene	-10.7224
oct	-10.7228
▁deposition	-10.7228
2.9	-10.723
3.9	-10.7231
▁Cy	-10.7232
▁nucleoside	-10.7235
la	-10.7235
13,	-10.7235
▁emitting	-10.7238
▁toxic	-10.7244
8.8	-10.7246
=6.6	-10.7251
1%	-10.7256
▁modulate	-10.7257
1-8	-10.726
▁10.0	-10.7263
▁acceptor	-10.7265
piperidinyl	-10.7275
gamma	-10.7277
▁Research	-10.7283
▁rates	-10.7286
▁conveniently	-10.7289
▁outlined	-10.729
0.3	-10.7292
▁deuterium	-10.7293
▁pellet	-10.7294
chemotherapeutic	-10.7297
▁smaller	-10.7301
itis	-10.7303
▁separating	-10.7304
600	-10.7307
▁EGFR	-10.7307
▁possess	-10.7313
85	-10.7319
oid	-10.7323
▁NK	-10.7325
▁joined	-10.733
▁physiologically	-10.7331
=6.0	-10.7337
04	-10.7337
▁Activity	-10.7341
▁sustained	-10.7349
▁individually	-10.7352
▁require	-10.7353
▁preservatives	-10.7355
▁Drug	-10.7356
▁transduction	-10.7357
-2,5-	-10.7357
▁La	-10.7366
-2-(4-	-10.7368
▁1-(4-	-10.737
▁IX	-10.7375
▁11.	-10.7377
BA	-10.738
▁Soc	-10.7381
be	-10.7383
out	-10.7384
by	-10.7384
▁nano	-10.7386
EI	-10.7387
▁successively	-10.7389
▁cited	-10.739
acetonitrile	-10.739
▁individuals	-10.7397
dioxaborolan	-10.7398
1.8	-10.74
▁ligation	-10.7404
▁(1992)	-10.7404
▁carbohydrate	-10.7407
COOH	-10.741
▁1.25	-10.7411
▁HER	-10.7416
▁involving	-10.7417
▁gives	-10.7419
▁220	-10.7422
▁external	-10.7425
7;	-10.7426
OS	-10.7426
▁tests	-10.7429
▁encompassed	-10.7434
His	-10.7437
▁93%	-10.7445
▁stirrer	-10.7446
▁FGF	-10.7454
pyridazin	-10.7461
▁RA	-10.7472
▁describe	-10.7478
▁dis	-10.7485
▁batch	-10.7489
▁random	-10.749
▁view	-10.7491
amido	-10.7492
▁PC	-10.7495
-24	-10.7499
▁asthma	-10.7499
▁situ	-10.75
▁(1993)	-10.751
▁Biology	-10.7511
tetrazol	-10.7514
ib	-10.7516
carbodiimide	-10.7516
Dimethyl	-10.7517
▁Chemistry	-10.7522
▁upstream	-10.7526
4.3	-10.7527
▁Plant	-10.7531
▁oxidized	-10.7531
▁conjugation	-10.7534
▁calc	-10.7534
▁predetermined	-10.7542
▁labels	-10.7542
▁asymmetric	-10.7543
▁(4-	-10.7548
hereinafter	-10.7555
▁Calculated	-10.7565
▁His	-10.7566
vi	-10.7568
mmol	-10.7573
step	-10.7576
acrylate	-10.7577
95	-10.7595
▁loading	-10.7598
-4,5-	-10.7598
▁enantiomer	-10.7602
mp	-10.7604
ates	-10.7606
▁fermentation	-10.7606
ha	-10.7614
▁potency	-10.7615
▁produces	-10.7616
▁Ala	-10.7616
▁substantial	-10.7617
▁hydrazine	-10.7618
▁0.06	-10.7619
▁frozen	-10.762
tetrahydrofuran	-10.7622
ance	-10.7623
▁Invention	-10.7627
propanoic	-10.7627
▁tract	-10.763
▁optional	-10.763
▁diastereomers	-10.7631
▁interact	-10.7634
▁5°	-10.7635
▁inducing	-10.7636
▁spacer	-10.7638
▁spleen	-10.7639
mouse	-10.7649
▁boron	-10.7656
▁Micro	-10.7656
active	-10.766
PP	-10.7661
▁adjuvants	-10.7676
▁luciferase	-10.7679
=2.4	-10.7679
▁name	-10.7682
7)	-10.7682
▁oligo	-10.7684
▁olefins	-10.7686
▁blocked	-10.7688
▁reached	-10.7691
RT	-10.7692
6.2	-10.7693
▁causes	-10.7701
▁Most	-10.7701
▁2.3	-10.7703
ure	-10.7707
3.7	-10.7709
▁ch	-10.7712
▁BLAST	-10.7714
7.2	-10.7719
▁PE	-10.772
ler	-10.7725
▁database	-10.7726
ecrystallization	-10.7726
▁improvement	-10.7729
ethoxycarbonyl	-10.7733
▁filled	-10.7734
▁hinge	-10.7736
▁reactivity	-10.7738
RI	-10.7744
▁advantageously	-10.7747
▁syringe	-10.7751
▁CA	-10.7755
▁score	-10.7759
▁analytical	-10.7767
5°	-10.7774
▁adhesion	-10.7776
▁Phase	-10.7789
▁2-(2-	-10.7794
▁NP	-10.7795
▁107	-10.7797
▁exogenous	-10.7799
▁correspond	-10.7801
▁years	-10.7802
▁mix	-10.7803
▁EL	-10.7807
▁dihydrochloride	-10.7809
0.4	-10.7811
▁comparing	-10.7812
sulfonic	-10.7812
▁Mice	-10.7816
▁yielded	-10.782
antibody	-10.7821
▁Tween	-10.7823
▁stereoisomers	-10.7828
▁[(	-10.783
▁reactant	-10.7835
DA	-10.784
▁Those	-10.7842
▁minimal	-10.7842
▁82	-10.7843
▁optimal	-10.7843
butane	-10.7847
4.5	-10.7852
▁OD	-10.7855
▁received	-10.7859
▁here	-10.786
▁Amino	-10.7861
+1).	-10.7862
=7.9	-10.7863
forming	-10.7864
▁oven	-10.7865
ring	-10.7865
▁panel	-10.7869
▁ensure	-10.7872
▁quaternary	-10.7872
▁yielding	-10.7877
▁lysis	-10.7877
6;	-10.7878
ang	-10.7883
▁measurements	-10.7886
5.5	-10.7891
▁(1990)	-10.7892
▁therapies	-10.7905
-6-(	-10.7906
po	-10.7911
98	-10.7911
▁effectively	-10.7914
)-5-(	-10.7915
▁81	-10.7917
acyl	-10.7918
▁methionine	-10.7919
▁115	-10.7923
azetidin	-10.7934
)—,	-10.7934
OX	-10.7935
pyrazine	-10.7935
▁Alzheimer	-10.7936
▁ovarian	-10.7936
▁350	-10.7938
-1,2,3,4-	-10.7939
▁rectal	-10.794
ole	-10.7946
▁unreacted	-10.7948
▁rapidly	-10.7951
▁enhancer	-10.7952
▁Arg	-10.7959
▁96%,	-10.7965
▁(1991)	-10.7966
eg	-10.7971
▁(1994)	-10.7972
▁duration	-10.7975
▁treatments	-10.7977
▁combining	-10.7979
▁capsule	-10.7979
▁plastic	-10.7986
dose	-10.7988
▁benefit	-10.799
▁lipids	-10.7991
▁lack	-10.7992
transferase	-10.7992
▁cytotoxicity	-10.7994
▁800	-10.7996
▁right	-10.7998
▁ATP	-10.7999
▁AB	-10.8003
▁eight	-10.8003
▁Immuno	-10.8008
▁rheumatoid	-10.8012
▁across	-10.8018
▁silyl	-10.8022
▁evaporator	-10.8024
▁already	-10.8026
▁Compositions	-10.8037
▁3,5-	-10.8039
▁homogeneous	-10.8052
▁65°	-10.8052
Ig	-10.8055
▁sensitive	-10.8061
▁1-4	-10.8062
▁little	-10.8064
▁93	-10.8065
▁celite	-10.8066
expressing	-10.8066
▁autoclave	-10.8068
9.2	-10.8068
=6.9	-10.8069
▁4-(4-	-10.8074
9.5	-10.8076
▁paper	-10.8076
▁promote	-10.8077
▁clearly	-10.808
DI	-10.8081
GA	-10.8083
▁transgene	-10.8086
ET	-10.8086
▁advantages	-10.8094
▁leader	-10.8096
▁titanium	-10.8098
▁Val	-10.8099
2.6	-10.8101
4.1	-10.8102
▁stop	-10.8108
▁inhalation	-10.811
▁seven	-10.8122
OP	-10.8125
▁onset	-10.8126
▁Flow	-10.8128
carbamic	-10.8136
▁sufficiently	-10.8137
▁meta	-10.8137
▁Because	-10.8141
▁varying	-10.8145
▁proportion	-10.8145
▁purged	-10.8147
▁Da	-10.8148
AC	-10.8151
▁12,	-10.8152
▁Tables	-10.8154
▁Sp	-10.8154
boronic	-10.8156
81	-10.8156
▁rinsed	-10.816
SC	-10.8161
4.6	-10.8164
▁connection	-10.8169
▁radioactive	-10.8171
SA	-10.8175
▁differ	-10.8176
▁codons	-10.818
3-6	-10.8181
▁binder	-10.8182
▁Samples	-10.8183
▁(70	-10.8187
6.4	-10.8189
4.8	-10.8189
▁absent	-10.819
▁analyses	-10.8193
▁alter	-10.8197
▁cake	-10.8197
▁Manual	-10.8201
▁inlet	-10.8204
-50	-10.8204
▁DIPEA	-10.8204
8.9	-10.821
▁malignant	-10.8213
▁1-(2-	-10.8217
ce	-10.822
▁9.5	-10.822
prepared	-10.8228
nu	-10.8232
▁mechanical	-10.8238
▁agar	-10.8238
▁background	-10.824
2.4	-10.8242
6.5	-10.8242
ative	-10.8242
▁enriched	-10.8245
▁Th	-10.8247
▁Rev	-10.8265
-40	-10.8267
▁adult	-10.8268
ix	-10.8268
optionally	-10.8269
▁discloses	-10.8274
▁drops	-10.8277
▁evaluation	-10.828
▁-(	-10.8282
ethynyl	-10.829
▁Proteins	-10.8292
▁marrow	-10.8293
▁minor	-10.8301
▁First	-10.8306
▁sugars	-10.8306
67	-10.8307
▁similarity	-10.8312
▁RP	-10.8314
▁cesium	-10.8319
TP	-10.832
dec	-10.8321
20,	-10.8321
)-1,3-	-10.8323
▁sorbitol	-10.8325
▁0.001	-10.8325
▁buffered	-10.8327
NT	-10.8331
▁carry	-10.8345
▁converting	-10.8346
▁initially	-10.8347
▁That	-10.8347
ies	-10.8349
▁epithelial	-10.8356
uc	-10.8356
▁During	-10.8362
SiO	-10.8364
▁3%	-10.8365
▁Accession	-10.8367
▁copolymers	-10.8367
▁109	-10.8369
ear	-10.8371
▁8.5	-10.8377
ethanone	-10.838
__________	-10.838
▁hepatitis	-10.8389
▁mesh	-10.839
▁slightly	-10.8392
▁soybean	-10.8392
▁failure	-10.8392
▁Fv	-10.8393
cyclobutyl	-10.8401
▁solvates	-10.8404
▁101	-10.8406
▁repeat	-10.8409
▁4:	-10.8413
▁sclerosis	-10.8414
▁regulation	-10.8419
▁deprotection	-10.8421
▁transdermal	-10.8429
ut	-10.8432
▁fat	-10.8434
▁Particularly	-10.8435
ep	-10.8441
▁protocols	-10.8443
▁91%	-10.8443
from	-10.8444
▁60%,	-10.8448
IX	-10.845
with	-10.8451
▁beneficial	-10.8454
gel	-10.8456
▁HEK	-10.8458
96	-10.846
▁similarly	-10.8463
▁borohydride	-10.8464
▁performing	-10.8478
▁Thereafter	-10.8482
▁Fe	-10.8485
▁91	-10.8497
▁2.7	-10.8498
▁develop	-10.85
▁(1.1	-10.8502
000	-10.8512
▁partner	-10.8513
▁0.08	-10.8514
sp	-10.8515
▁phenotype	-10.8519
▁3-(4-	-10.8521
▁ortho	-10.8526
▁vehicles	-10.8527
▁vaccines	-10.8529
US	-10.8541
BL	-10.8541
▁assess	-10.8541
▁antibiotic	-10.8543
▁angiogenesis	-10.8546
▁infectious	-10.8547
8.7	-10.855
▁leucine	-10.8554
▁additive	-10.8559
ard	-10.8563
-4-(4-	-10.8568
VH	-10.8568
77	-10.8578
treatment	-10.8585
▁Buffer	-10.859
▁103	-10.8592
▁0.05%	-10.8596
3).	-10.8597
▁1-2	-10.8605
▁zero	-10.8607
-3′	-10.8615
▁Solvent	-10.8624
tumor	-10.8626
propanoate	-10.8633
10-	-10.8634
▁brs	-10.8635
HT	-10.8638
▁appropriately	-10.8638
=6.4	-10.8641
▁injections	-10.8646
▁select	-10.8647
Val	-10.8649
▁epoxy	-10.8653
▁2.6	-10.8654
▁14,	-10.8654
(2)	-10.8656
▁5'	-10.8659
▁dilute	-10.866
▁life	-10.866
▁3.2	-10.8661
acid	-10.8663
▁170	-10.8664
▁hydrocarbyl	-10.8666
3%	-10.867
▁wetting	-10.8674
▁aerosol	-10.8675
rich	-10.868
red	-10.8682
▁metabolism	-10.8682
▁110°	-10.8688
▁hybridize	-10.8689
82	-10.8689
▁(1988)	-10.8693
▁highest	-10.8693
▁aggregation	-10.8696
phenylamino	-10.8697
▁nor	-10.8697
diamino	-10.8698
CT	-10.8703
acetoxy	-10.8705
▁adsorption	-10.8713
▁adenovirus	-10.8714
▁spectrometry	-10.8715
DR	-10.8718
▁amides	-10.8721
phosphine	-10.8722
▁event	-10.8722
▁sections	-10.8723
2)2	-10.8733
▁intraperitoneal	-10.8738
▁counter	-10.8749
ling	-10.8751
mercapto	-10.8752
▁450	-10.8752
▁Structure	-10.8752
SF	-10.8752
hept	-10.8754
▁selectable	-10.8759
ylidene	-10.876
▁stranded	-10.876
Intermediate	-10.8763
12-	-10.8763
▁construction	-10.8768
5.9	-10.8769
0.7	-10.8775
9.3	-10.8776
6.3	-10.8781
▁controlling	-10.8781
▁brought	-10.8783
▁7.35	-10.8785
ens	-10.8787
▁leads	-10.8788
▁San	-10.8793
▁atmospheric	-10.8794
▁(35	-10.8797
▁Culture	-10.8813
▁artisan	-10.8818
aldehyde	-10.8825
ick	-10.8829
▁grade	-10.8829
▁perform	-10.883
▁direction	-10.8831
▁9.3	-10.8833
IT	-10.8842
=7.7	-10.8842
ile	-10.886
▁mannitol	-10.8863
▁tolerance	-10.8866
▁supported	-10.8873
▁acrylic	-10.8874
▁plated	-10.8886
▁carbamate	-10.8886
▁6.8	-10.8887
▁7.3	-10.8889
▁2,5-	-10.8889
IB	-10.89
Bu	-10.8905
▁affected	-10.8905
▁dissociation	-10.8914
▁4-(2-	-10.8916
▁Trans	-10.8923
cr	-10.8923
-2.5	-10.8923
0-	-10.8931
piperazinyl	-10.8941
ato	-10.8947
▁nitric	-10.8948
▁NOS	-10.8953
▁collection	-10.8954
LP	-10.8956
0.6	-10.8957
▁exon	-10.8957
▁(1.6	-10.896
▁vegetable	-10.896
▁Finally	-10.8963
▁Ch	-10.8965
7.4	-10.8966
▁encompass	-10.897
▁wound	-10.8971
▁pooled	-10.8974
▁interfere	-10.8975
▁allergic	-10.8981
▁soft	-10.8982
dibromo	-10.8983
▁avoid	-10.8986
▁subcutaneously	-10.8987
▁(18	-10.8988
haloalkyl	-10.8992
▁talc	-10.8992
▁HVR	-10.8997
▁stringency	-10.9005
trifluoroacetate	-10.9008
▁conformation	-10.9013
0.00	-10.9015
▁Based	-10.9016
▁quantities	-10.9017
▁(3.0	-10.9017
10)	-10.9019
▁fashion	-10.9019
ist	-10.9022
▁feedstock	-10.903
3/	-10.9034
ef	-10.9037
[2,1-	-10.9053
▁Use	-10.9056
▁Sigma	-10.9059
16,	-10.9062
▁Ba	-10.9066
do	-10.9067
▁0.10	-10.9067
▁isolating	-10.9068
▁nervous	-10.907
▁analogues	-10.9071
▁formaldehyde	-10.9075
6%	-10.9079
▁sieve	-10.9083
methanesulfonate	-10.9085
97	-10.9086
▁synthase	-10.9089
▁cat	-10.909
293	-10.9104
triazole	-10.9107
▁modulating	-10.9108
▁FACS	-10.9115
benzenesulfonyl	-10.9122
▁oxides	-10.9123
propenyl	-10.9124
▁allele	-10.9128
▁PR	-10.9128
▁confirm	-10.9131
▁triple	-10.9132
▁columns	-10.9133
▁integrated	-10.9136
▁leading	-10.9138
modified	-10.9139
15,	-10.914
▁sulfide	-10.9146
▁female	-10.915
▁200°	-10.915
▁bladder	-10.9159
benzimidazol	-10.9172
▁radio	-10.9173
ie	-10.9174
▁bearing	-10.9175
▁prokaryotic	-10.9177
▁meanings	-10.9177
ow	-10.9178
▁(0.05	-10.9178
▁monitoring	-10.9185
-1,2,3-	-10.9187
Aldrich	-10.9187
▁(0.01	-10.9187
BB	-10.9192
▁milk	-10.9194
92	-10.9209
▁(600	-10.9216
▁Certain	-10.9217
act	-10.9218
▁algorithm	-10.9219
▁penta	-10.9221
03	-10.9226
Ethyl	-10.923
butene	-10.9232
▁Cys	-10.9238
▁convenient	-10.9238
8+	-10.9239
▁construed	-10.9246
▁cardiac	-10.9246
▁dispersed	-10.9247
▁Sons	-10.9248
-1,6-	-10.9253
▁pathways	-10.926
▁glycols	-10.9261
▁Administration	-10.9263
▁TR	-10.9264
9.9	-10.9267
3);	-10.9269
▁Le	-10.9274
▁events	-10.9275
▁(5.0	-10.9279
▁culturing	-10.928
▁2.8	-10.928
▁causing	-10.928
VIII	-10.9282
▁Blood	-10.9282
manufactured	-10.9287
▁chromatographic	-10.9287
▁orientation	-10.9289
MB	-10.9292
▁respiratory	-10.9293
▁(1.3	-10.9296
▁enhancing	-10.9299
isobutyl	-10.9299
▁oligomers	-10.9299
▁preceding	-10.93
▁50%,	-10.9303
▁1.9	-10.9308
▁acrylate	-10.9308
▁deleted	-10.931
▁102	-10.9312
▁gp	-10.9313
penta	-10.9314
▁trifluoro	-10.9319
▁MgCl	-10.9319
thia	-10.9319
▁raised	-10.9323
if	-10.933
▁analogy	-10.9331
▁operating	-10.9337
▁microorganisms	-10.9346
▁cobalt	-10.9347
▁111	-10.9347
▁giving	-10.935
-1.8	-10.9351
io	-10.9351
tr	-10.9353
▁135	-10.9354
▁resolution	-10.9355
▁precursors	-10.9363
car	-10.9363
▁TLR	-10.9375
▁dispersing	-10.9376
▁inside	-10.9377
▁publications	-10.9383
▁John	-10.9384
▁cannot	-10.9389
)-8-	-10.9395
isoxazol	-10.9396
▁isotonic	-10.9398
▁TEA	-10.9399
▁Technologies	-10.94
▁choice	-10.9402
PG	-10.9405
▁routine	-10.9408
sulfanyl	-10.941
▁psi	-10.941
▁irradiation	-10.9414
ised	-10.9415
▁benzoyl	-10.9417
mann	-10.942
▁duplex	-10.9425
rate	-10.9432
▁intravenously	-10.9433
cancer	-10.9433
▁inclusion	-10.9435
▁monohydrate	-10.9436
▁stereoisomer	-10.9441
off	-10.9452
▁glutamine	-10.9452
▁RPMI	-10.946
-3-(4-	-10.9462
ber	-10.9464
Bio	-10.9467
-2-(2-	-10.9467
▁pyrimidine	-10.947
▁Optionally	-10.9473
▁versus	-10.9476
▁varied	-10.9477
▁assembly	-10.9482
69	-10.9483
benz	-10.9484
(1-	-10.9487
▁composite	-10.9488
dimethoxyphenyl	-10.949
om	-10.9496
aqueous	-10.9496
bromophenyl	-10.9497
▁(1995)	-10.9499
▁termination	-10.9503
▁carbocyclic	-10.9503
▁mmoles	-10.9503
sis	-10.9506
▁add	-10.9509
▁cap	-10.9513
▁code	-10.9516
▁supernatants	-10.9517
:1,	-10.9518
▁reduces	-10.9521
▁classes	-10.9523
▁artificial	-10.9535
▁estimated	-10.9535
▁maleic	-10.954
dried	-10.9544
(3,5-	-10.9545
▁(0.3	-10.9545
▁fourth	-10.9546
▁decomposition	-10.9546
▁organs	-10.9551
▁antibiotics	-10.9551
▁Typical	-10.9556
▁black	-10.9557
)-3,4-	-10.9562
▁neutralizing	-10.9562
where	-10.9569
ax	-10.957
106	-10.957
%;	-10.9582
THF	-10.9582
▁optimized	-10.9584
▁cyclobutyl	-10.9587
AM	-10.9596
▁HF	-10.9601
▁Recombinant	-10.9601
gastrointestinal	-10.9602
▁healthy	-10.9608
▁3′-	-10.9613
7.3	-10.9615
▁Pre	-10.962
▁definitions	-10.9622
▁MeCN	-10.9629
▁binders	-10.9632
▁retain	-10.9633
▁High	-10.9634
▁center	-10.9634
aminocarbonyl	-10.9639
▁quality	-10.9642
alanine	-10.9645
▁7.45	-10.9648
▁(0.02	-10.965
▁Many	-10.9656
▁17.	-10.9656
▁proton	-10.9658
▁IgE	-10.9658
▁7.32	-10.966
▁Kit	-10.9667
▁tin	-10.9679
▁Asp	-10.9683
-[2-	-10.9687
▁polycyclic	-10.9692
▁rise	-10.9694
▁suffering	-10.9698
▁read	-10.97
▁memory	-10.9701
YL	-10.9706
▁platelet	-10.9706
▁Sch	-10.9707
▁wall	-10.9708
▁Calc	-10.9711
▁4.6	-10.9717
5.4	-10.9719
▁hexa	-10.9722
▁7.30	-10.9726
▁9.6	-10.9727
-[(	-10.9727
▁(1987)	-10.9728
▁nasal	-10.9729
OL	-10.9734
▁75%,	-10.9738
ka	-10.9739
▁vessels	-10.9742
ize	-10.9744
▁Exp	-10.9746
▁interchangeably	-10.9751
▁Process	-10.9756
Et	-10.9756
ino	-10.9758
▁0.07	-10.976
▁ul	-10.9764
▁endo	-10.9765
EN	-10.9767
▁gaseous	-10.9769
▁colonies	-10.9776
chloroform	-10.9786
▁seeded	-10.9786
▁format	-10.9786
osis	-10.9786
pyrimidinediamin	-10.9791
-3-(3-	-10.9793
▁naphthalene	-10.9802
ov	-10.9803
▁adapted	-10.9804
3-10	-10.9805
drug	-10.9806
▁functionality	-10.9811
0,000	-10.9812
▁selecting	-10.9815
diazabicyclo	-10.9825
▁applicable	-10.9826
▁abnormal	-10.9843
▁held	-10.9845
▁super	-10.9846
▁Experimental	-10.9849
▁appears	-10.9852
▁difficult	-10.9857
▁untreated	-10.986
2—,	-10.9863
▁HEPES	-10.9874
ator	-10.9876
▁formulas	-10.9877
hex	-10.9879
-[2-(	-10.9879
ethylamino	-10.989
OAc	-10.989
▁activator	-10.9891
▁subunits	-10.9894
▁124	-10.9896
▁145	-10.9897
▁spirit	-10.9902
▁freeze	-10.991
▁flavoring	-10.9925
▁7.6	-10.9928
)-2,3-	-10.9928
ence	-10.9931
▁(1.8	-10.9935
▁illustration	-10.9937
▁efficiently	-10.994
▁mechanisms	-10.9949
▁phospho	-10.9952
MT	-10.9952
▁foreign	-10.9953
LA	-10.9954
▁shape	-10.9956
▁7.33	-10.9957
▁131	-10.9957
mono	-10.9958
cyclic	-10.9965
ammonium	-10.9965
▁cytometry	-10.9967
▁strands	-10.9971
▁nanoparticles	-10.9971
▁evaluate	-10.9973
▁spectroscopy	-10.9981
▁Bi	-10.9982
FN	-10.999
▁hard	-10.999
▁titled	-10.9993
▁7.20	-10.9993
antigen	-10.9999
▁depends	-11
▁Ia	-11.0001
▁activate	-11.0002
▁intervals	-11.0002
9.4	-11.001
-10-	-11.0013
▁9.2	-11.0013
▁(1997)	-11.0014
▁(1996)	-11.0016
▁stringent	-11.0033
chloride	-11.0034
▁1-(3-	-11.0038
▁Per	-11.004
▁35%	-11.0046
▁gastric	-11.0049
can	-11.0053
▁assigned	-11.0057
▁System	-11.0059
▁surfaces	-11.0059
▁employ	-11.0062
▁IgM	-11.0068
▁health	-11.0071
▁NS	-11.0071
▁IgA	-11.0077
▁stabilizers	-11.0077
▁diphenyl	-11.0078
LE	-11.008
▁detector	-11.0089
functional	-11.0089
▁116	-11.0101
▁7.8	-11.0102
(2,4-	-11.0105
05	-11.0105
▁(16	-11.0109
▁recipient	-11.011
▁0.75	-11.0119
▁numbering	-11.012
▁accumulation	-11.0122
▁prep	-11.0127
84	-11.0128
▁numerous	-11.0131
dichloromethane	-11.0134
ureido	-11.0136
▁.+-.	-11.0147
▁(—	-11.0149
GE	-11.015
ob	-11.015
▁stimulated	-11.0154
▁FBS	-11.0165
lic	-11.0167
▁(6)	-11.0169
▁diabetic	-11.0171
▁Int	-11.0173
▁700	-11.0183
▁112	-11.0184
▁modulators	-11.0186
product	-11.019
butoxide	-11.019
▁fungal	-11.0193
▁stopped	-11.02
130	-11.0204
5.7	-11.021
▁best	-11.0215
▁GM	-11.0218
▁fiber	-11.0221
▁en	-11.0222
▁Ac	-11.0225
propionate	-11.0229
▁nerve	-11.0231
▁stably	-11.0236
▁7.18	-11.0237
▁oxidizing	-11.024
▁recycled	-11.0241
▁hexyl	-11.0242
Met	-11.0243
3##	-11.0244
▁halides	-11.0249
-3-(2-	-11.025
ins	-11.0255
▁(1.4	-11.0261
▁find	-11.0276
▁Monoclonal	-11.0281
▁4%	-11.0283
▁(7)	-11.0286
coated	-11.0291
reactive	-11.0293
▁Melting	-11.0293
tion	-11.0307
▁(0.03	-11.0307
ba	-11.0308
▁0.09	-11.0312
▁graft	-11.0315
▁DE	-11.0318
▁suggest	-11.0319
▁phrase	-11.0324
#	-11.0324
▁113	-11.0326
▁homo	-11.0329
▁3'	-11.0329
▁OC	-11.0333
▁tank	-11.034
▁primarily	-11.0342
▁IGF	-11.0352
▁bonding	-11.0353
▁z	-11.0355
▁goat	-11.0355
hydro	-11.036
4%	-11.0361
GS	-11.0385
▁coatings	-11.039
▁ER	-11.039
105	-11.0392
▁fine	-11.0396
▁PS	-11.0397
9.6	-11.0399
▁118	-11.0399
▁glutamic	-11.04
ella	-11.0402
▁carboxylate	-11.0403
pre	-11.0408
GP	-11.0409
▁succinic	-11.041
ME	-11.0413
mon	-11.0414
are	-11.0422
▁seeds	-11.0426
▁proliferative	-11.0428
▁glycoprotein	-11.0431
1/	-11.0432
▁126	-11.0434
▁electroporation	-11.0436
▁Inhibition	-11.0441
▁analyte	-11.0445
isomer	-11.0446
low	-11.0451
ri	-11.0451
▁GFP	-11.0452
cc	-11.0454
9)	-11.0455
▁dialkyl	-11.0457
107	-11.0459
pt	-11.0461
▁[3	-11.0461
▁Phe	-11.0462
9.8	-11.0463
FP	-11.0467
▁peroxidase	-11.0469
td	-11.0471
19,	-11.0473
▁widely	-11.0478
▁surgery	-11.0481
▁aid	-11.0482
▁stages	-11.0484
▁Corporation	-11.0485
▁viability	-11.0485
▁2-(3-	-11.0487
▁adverse	-11.0494
▁(11	-11.0501
furo	-11.0505
▁7.28	-11.0505
▁NaH	-11.0511
▁2×	-11.0513
Asp	-11.0518
▁Cat	-11.0519
bound	-11.052
▁porous	-11.0523
=1.8	-11.0523
▁Figure	-11.0523
▁hydroxyalkyl	-11.0523
▁close	-11.0524
▁benzoic	-11.0526
▁instrument	-11.0531
▁protect	-11.0532
▁feature	-11.0534
▁HATU	-11.0537
▁indirectly	-11.0537
DE	-11.0537
AF	-11.0542
▁123	-11.0543
▁7.26	-11.0546
▁speed	-11.0546
5.8	-11.055
▁hereinafter	-11.0552
▁Control	-11.0552
▁responsible	-11.0556
Tyr	-11.0556
▁ways	-11.0561
▁3.3	-11.0562
▁(1999)	-11.0565
▁114	-11.0565
toluenesulfonic	-11.0567
▁7.31	-11.0567
0.0	-11.0567
▁baseline	-11.0567
▁17,	-11.0567
Thr	-11.0574
▁iodo	-11.0575
▁1.50	-11.0583
-(6-	-11.0584
▁9.4	-11.0585
▁kinases	-11.0587
▁1×	-11.0588
▁Tumor	-11.059
▁Tyr	-11.0592
-1(2	-11.0593
▁introduce	-11.0603
=4.8	-11.0604
protected	-11.0604
▁pool	-11.0605
▁thionyl	-11.0611
▁dissolution	-11.0618
▁tetrakis	-11.0618
▁oxy	-11.0619
▁fuel	-11.0619
▁regeneration	-11.0621
▁comparable	-11.0623
pentane	-11.0624
-6,7-	-11.0625
▁objective	-11.0627
▁differential	-11.0639
rin	-11.064
▁macrophages	-11.0641
▁7.40	-11.0642
▁SC	-11.0647
▁SA	-11.0653
▁put	-11.0656
5.6	-11.0656
▁formamide	-11.0659
07	-11.066
▁trimethyl	-11.0663
▁version	-11.0664
▁GLP	-11.0664
▁truncated	-11.067
▁modifying	-11.0671
▁threonine	-11.0673
▁9.0	-11.0674
▁shaken	-11.0681
▁DMEM	-11.0681
PI	-11.0682
▁Solid	-11.0685
methanesulfonyl	-11.0691
▁isomerization	-11.0695
▁proper	-11.0699
▁interleukin	-11.07
▁sulfonate	-11.0703
pyrimidinyl	-11.0706
08	-11.0708
▁applying	-11.071
DP	-11.0712
▁equation	-11.0713
▁hu	-11.0715
▁summarized	-11.0715
▁our	-11.0716
▁shaking	-11.0718
▁Mobile	-11.0724
carbaldehyde	-11.0725
110	-11.0726
butenyl	-11.073
▁Clin	-11.073
▁(120	-11.0732
▁Detection	-11.0733
▁outside	-11.0735
land	-11.0738
▁utility	-11.074
time	-11.074
▁gradually	-11.0746
triazin	-11.0748
nt	-11.075
▁liposome	-11.0755
▁gap	-11.0757
ata	-11.0764
▁influence	-11.0765
▁280	-11.0768
ano	-11.0768
▁Mg	-11.077
butyldimethylsil	-11.0771
▁PG	-11.0776
▁CTLA	-11.0777
▁Sambrook	-11.0777
dis	-11.0777
▁3.6	-11.0777
▁st	-11.0779
-60	-11.0782
▁therefrom	-11.0782
FR	-11.0784
▁7.37	-11.0784
▁laboratory	-11.0788
06	-11.079
ran	-11.0796
▁Model	-11.0797
part	-11.0797
methylpropyl	-11.0797
▁microorganism	-11.0798
conjugated	-11.0802
▁7.36	-11.0802
▁inner	-11.0804
▁Nat	-11.0806
]-6-	-11.0807
purin	-11.0809
8%	-11.0809
▁deliver	-11.0812
▁paraffin	-11.0815
▁lymph	-11.0829
▁cardiovascular	-11.0831
▁240	-11.0837
▁Synthetic	-11.084
▁Germany	-11.0844
▁SiO	-11.0845
Ch	-11.0849
PV	-11.0852
solvent	-11.0862
▁details	-11.0866
▁equilibrium	-11.0867
▁Ad	-11.0868
70,	-11.0868
negative	-11.0872
▁germline	-11.0882
▁Groups	-11.0883
▁sarcoma	-11.0887
▁5-(	-11.0888
ynyl	-11.0891
▁proline	-11.0892
▁KD	-11.0892
]+=	-11.0893
▁Hu	-11.0896
TE	-11.0898
light	-11.0903
▁45°	-11.0906
▁cytoplasmic	-11.0907
▁119	-11.0908
pi	-11.0911
omycin	-11.0914
1-2	-11.0921
▁correct	-11.0925
linking	-11.0926
▁AA	-11.0927
▁Thr	-11.0928
▁117	-11.0929
▁formate	-11.093
▁7.39	-11.0931
receptor	-11.0935
glycine	-11.094
▁created	-11.0941
▁parenterally	-11.0942
▁undesirable	-11.0946
dimensional	-11.0956
FA	-11.0958
▁SV	-11.0958
▁finally	-11.0959
LT	-11.096
DL	-11.0961
▁Protocols	-11.0962
▁55°	-11.0962
ian	-11.0965
▁7.19	-11.0966
▁ORF	-11.0968
▁19,	-11.0968
morpholine	-11.0969
▁(14	-11.0975
▁how	-11.0975
methoxyethyl	-11.0975
LD	-11.0982
-2,2-	-11.0983
▁psoriasis	-11.0989
▁carbamoyl	-11.099
less	-11.0993
▁copies	-11.0994
5##	-11.0997
IG	-11.0998
-(3,4-	-11.0999
▁dehydrogenase	-11.1
▁benzoate	-11.1
▁liter	-11.1001
▁95°	-11.1003
EF	-11.1004
▁7.16	-11.1005
▁sets	-11.1008
▁hair	-11.1011
▁inducible	-11.1013
▁7.10	-11.1016
▁severe	-11.1025
▁Systems	-11.1028
ti	-11.103
▁0.20	-11.1031
▁Zn	-11.1034
▁hydroxypropyl	-11.1036
▁(0.8	-11.1036
sil	-11.1039
▁monoxide	-11.1041
▁TA	-11.1041
▁piperazine	-11.1042
▁2:1	-11.1043
137	-11.1043
ification	-11.1047
heterocyclyl	-11.1047
bottom	-11.1049
▁laser	-11.1049
sensitive	-11.1049
-[4-(	-11.105
▁progress	-11.1051
▁Day	-11.1052
sulfonate	-11.1056
encoding	-11.1056
=1.5	-11.1056
▁parallel	-11.1063
NS	-11.1064
▁Spectrum	-11.1064
▁4.2	-11.1066
-1.5	-11.1069
▁obesity	-11.1069
5.3	-11.1075
tt	-11.1085
▁evidence	-11.1088
▁hematopoietic	-11.109
bromomethyl	-11.1091
▁Ma	-11.1092
▁chemotherapy	-11.1093
GC	-11.1094
17,	-11.1103
rs	-11.1108
▁immunological	-11.1108
▁biomass	-11.1114
▁immunogenicity	-11.1115
)-4	-11.1118
▁thereafter	-11.1125
)-2-(4-	-11.1125
cl	-11.1127
▁210	-11.1129
▁pharmacokinetic	-11.1129
▁morpholine	-11.1132
▁phosphine	-11.1132
azido	-11.1133
domain	-11.1133
▁areas	-11.1133
naturally	-11.1135
▁distance	-11.1137
▁liquor	-11.1137
each	-11.1139
ana	-11.1141
keto	-11.1144
+1)	-11.1147
▁neurons	-11.1153
▁becomes	-11.1158
▁indole	-11.1159
▁shock	-11.1162
{	-11.1162
▁Bacillus	-11.1163
8;	-11.1164
▁patterns	-11.1166
▁inoculated	-11.1167
phenylethyl	-11.1167
▁4.8	-11.1168
▁12.	-11.1168
▁towards	-11.1173
▁alkylating	-11.1175
▁barrier	-11.1176
▁immunoglobulins	-11.1176
▁discovered	-11.118
▁necessarily	-11.1189
▁retained	-11.1191
▁usual	-11.1194
▁stimulating	-11.1195
▁3.1	-11.1197
▁remainder	-11.1197
▁1.45	-11.1204
fluorobenzyl	-11.1204
pa	-11.1205
triazine	-11.1207
▁pentyl	-11.1214
▁nitrile	-11.1215
▁lysate	-11.1218
▁dilutions	-11.1221
▁bowel	-11.1221
CONH	-11.1223
2).	-11.1223
eluent	-11.1226
▁7.41	-11.1234
TT	-11.1234
▁remains	-11.1234
SSC	-11.1235
6-10	-11.1236
▁(2000)	-11.1237
▁Sciences	-11.1237
rd	-11.1237
▁old	-11.1238
RE	-11.1238
PPh	-11.1243
AG	-11.1243
▁138	-11.1256
▁American	-11.126
▁synthesizing	-11.1261
▁decreasing	-11.1263
solid	-11.1266
minute	-11.1269
▁254	-11.128
▁recited	-11.1282
lan	-11.1283
▁demonstrates	-11.1284
2′	-11.1286
▁9.7	-11.1286
▁Therapeutic	-11.1288
Ab	-11.129
alk	-11.129
bo	-11.1291
cin	-11.1292
▁parental	-11.1293
art	-11.1294
▁(0.4	-11.1296
carboxamido	-11.1298
}-2-	-11.1298
▁modulation	-11.1301
▁cartridge	-11.1303
▁0.22	-11.1304
tag	-11.1306
▁University	-11.1307
▁Disease	-11.1311
▁Waters	-11.1313
▁136	-11.1319
thiazolyl	-11.132
▁Several	-11.1327
▁patents	-11.1329
▁trypsin	-11.133
let	-11.1333
▁Current	-11.1334
IF	-11.1334
▁isotype	-11.1337
▁175	-11.1348
▁ST	-11.1351
▁quantified	-11.1354
3-7	-11.1355
▁0.45	-11.1359
PR	-11.1359
-(1	-11.136
▁3.80	-11.1363
▁immunogen	-11.1367
▁Kabat	-11.1368
▁power	-11.1368
▁chromosomal	-11.1368
▁auto	-11.137
▁polyoxyethylene	-11.137
▁anionic	-11.1371
▁blocks	-11.1374
▁RNAi	-11.1374
▁resist	-11.1375
sulfinyl	-11.1377
▁analogue	-11.1379
▁consecutive	-11.1388
▁imidazolyl	-11.139
▁8.4	-11.1395
▁biotinylated	-11.1396
▁problems	-11.1401
▁(2-	-11.1402
21,	-11.1411
)-3-(4-	-11.1411
150	-11.1418
▁titer	-11.142
▁oxime	-11.142
▁manufacturing	-11.1426
▁streptavidin	-11.143
SG	-11.1432
sulfamoyl	-11.1433
▁enable	-11.1435
[4.5]	-11.1437
:10	-11.1439
▁3.75	-11.1441
▁industrial	-11.1447
▁1.40	-11.1449
▁121	-11.146
▁spiro	-11.1461
▁(13	-11.1461
▁problem	-11.1462
-3.0	-11.1463
amp	-11.1465
▁7.27	-11.1469
▁7.22	-11.1474
▁dendritic	-11.1475
TF	-11.1475
RF	-11.1477
▁studied	-11.148
▁strategy	-11.1485
▁CCR	-11.1488
▁scaffold	-11.149
▁play	-11.1493
▁populations	-11.1493
▁asparagine	-11.1501
lu	-11.1503
▁Pt	-11.1504
▁97%	-11.1504
▁137	-11.1504
▁hereinbefore	-11.1508
octahydro	-11.1508
ogen	-11.1516
so	-11.1518
▁analogously	-11.152
val	-11.1528
6##	-11.1533
mal	-11.1536
▁chloroformate	-11.154
▁migration	-11.1541
isation	-11.1543
▁CL	-11.1548
▁45%	-11.155
▁7.25	-11.155
RB	-11.1557
diisopropyl	-11.156
▁emulsifying	-11.1565
450	-11.1566
▁biochemical	-11.157
30,	-11.1574
▁7.51	-11.1584
▁Edition	-11.1589
▁neuro	-11.1595
method	-11.16
=5.6	-11.1602
sodium	-11.1609
directed	-11.1614
▁gold	-11.1615
▁stimulate	-11.1615
▁hypertension	-11.1616
▁7.50	-11.1616
▁strongly	-11.1617
▁sera	-11.1619
▁shift	-11.1621
FIG	-11.1622
-4.0	-11.1622
Cys	-11.1623
▁Lewis	-11.1623
-28	-11.1625
▁heparin	-11.1627
▁mild	-11.1629
▁10.5	-11.163
9.7	-11.1632
▁aniline	-11.1634
▁Product	-11.1635
▁filters	-11.1641
▁superior	-11.1644
MHz	-11.165
1-5	-11.1653
phen	-11.1653
▁hydrolyzed	-11.1655
▁oxidative	-11.1657
activated	-11.1658
▁states	-11.166
▁suppositories	-11.1666
▁lacking	-11.1666
▁Journal	-11.1669
▁list	-11.1673
LV	-11.1674
succinimide	-11.1675
▁stomach	-11.1677
DM	-11.1678
▁2.00	-11.1679
▁approaches	-11.168
▁packaging	-11.1685
▁almost	-11.1688
▁fluids	-11.169
▁Un	-11.1693
▁biphenyl	-11.1696
▁modulator	-11.1697
benzotriazole	-11.17
▁BMP	-11.1701
▁haloalkoxy	-11.1701
▁(10%	-11.1705
▁retroviral	-11.1705
methylpyridin	-11.1706
▁7.47	-11.1707
▁lactic	-11.1712
▁suction	-11.1712
furyl	-11.1719
▁monomeric	-11.172
▁appear	-11.1721
▁outlet	-11.1724
-[1,2,4]	-11.1727
▁metastasis	-11.1729
chloromethyl	-11.1737
TC	-11.1737
▁growing	-11.1738
▁amyloid	-11.1739
▁copy	-11.1745
Bis	-11.1746
2##	-11.1747
▁conc	-11.1748
▁leaf	-11.1752
▁Formulations	-11.1752
ice	-11.1754
▁cations	-11.1756
▁%)	-11.1757
▁3-(2-	-11.1757
pyrrolidinyl	-11.1762
′)	-11.1762
▁0.12	-11.1766
0°	-11.1767
▁methacrylate	-11.177
▁neutralization	-11.1772
▁dysfunction	-11.1777
▁ug	-11.1778
▁restricted	-11.1779
-4-(2-	-11.1779
Li	-11.1779
go	-11.1781
▁remain	-11.1783
▁9.8	-11.1784
target	-11.1786
▁though	-11.1791
▁2,2,2-	-11.1791
pent	-11.1792
▁Laboratories	-11.1796
ylamine	-11.1798
▁(90	-11.1805
▁undergo	-11.1811
▁counted	-11.1812
▁10,000	-11.1817
azo	-11.182
-(2,6-	-11.1823
carb	-11.1826
▁bulk	-11.1827
yne	-11.1828
▁phenoxy	-11.1829
tetrahydropyran	-11.1834
ome	-11.1835
▁displayed	-11.1835
▁existing	-11.1838
▁kPa	-11.1844
▁suggested	-11.1845
▁channels	-11.1846
40,	-11.185
)-2-((	-11.185
▁Assays	-11.1854
alkylamino	-11.1854
▁12.5	-11.1854
res	-11.186
=10	-11.186
▁departing	-11.186
ub	-11.1862
▁18,	-11.1866
-5,6-	-11.1866
▁acetal	-11.1869
▁potentially	-11.1876
(1)	-11.1876
▁arm	-11.1877
▁improving	-11.1877
Ca	-11.1877
methylcellulose	-11.1878
▁5.2	-11.1881
ron	-11.1882
▁soil	-11.1883
▁criteria	-11.1888
onic	-11.1893
▁presently	-11.1893
104	-11.1894
indazole	-11.1898
▁thienyl	-11.1899
▁inclusive	-11.1903
▁2008	-11.1908
▁1.35	-11.1912
-1,1-	-11.1912
-(3,5-	-11.1913
▁interface	-11.1914
▁colony	-11.1914
▁enhancers	-11.1917
▁Asn	-11.1918
▁1.20	-11.192
Cyano	-11.1922
▁penicillin	-11.1923
cal	-11.1923
▁maintenance	-11.1925
++	-11.1928
ier	-11.1931
109	-11.1932
▁7.57	-11.1936
▁7.34	-11.1941
▁viscous	-11.1948
benzimidazole	-11.1951
)-3	-11.1951
▁diamine	-11.1952
term	-11.1952
▁Biotechnology	-11.1956
▁(0.25	-11.1959
▁reader	-11.1962
▁transcribed	-11.1962
▁melt	-11.1963
ish	-11.1966
▁dextran	-11.1968
▁convert	-11.1969
▁ketones	-11.197
▁144	-11.197
VEGF	-11.1973
▁vs	-11.1975
▁pills	-11.1975
▁hydrobromic	-11.1976
▁MC	-11.1978
trifluoroethyl	-11.1979
▁functionally	-11.1982
▁integration	-11.1982
▁pyrimidinyl	-11.1982
not	-11.1983
▁0%	-11.1983
{[	-11.1984
GFP	-11.1989
acrylic	-11.1997
▁vitamin	-11.1998
001	-11.1999
oxoethyl	-11.1999
imethylsulfoxide	-11.1999
▁165	-11.2001
base	-11.2003
▁diet	-11.2004
▁microtiter	-11.2007
expression	-11.2007
▁broth	-11.201
▁Ti	-11.2017
over	-11.2018
▁packed	-11.2021
ect	-11.2023
▁syrup	-11.2024
▁account	-11.2024
▁7.61	-11.2025
▁suggests	-11.2025
dimethylphenyl	-11.2025
▁antimicrobial	-11.2028
▁frequently	-11.2028
50°	-11.2028
▁Three	-11.203
▁(1985)	-11.2031
▁permit	-11.2033
▁antibacterial	-11.2034
AK	-11.2034
▁Receptor	-11.2035
▁HP	-11.2036
▁NF	-11.2042
idine	-11.2044
TNF	-11.2046
▁rubber	-11.2047
▁boronic	-11.2048
▁gases	-11.2049
▁149	-11.2052
des	-11.2054
▁challenge	-11.2056
▁equipment	-11.2056
▁accession	-11.2058
▁hereinabove	-11.2063
▁nucleus	-11.2065
▁3.4	-11.2065
▁organo	-11.2067
▁chromium	-11.2067
hydroxypropyl	-11.2068
Dichloro	-11.2079
▁7.75	-11.2079
▁7.44	-11.2081
▁Org	-11.2081
▁4.00	-11.2082
▁shall	-11.2085
▁21,	-11.2087
▁Rc	-11.2088
ame	-11.2088
▁containers	-11.209
▁(0.04	-11.2093
decane	-11.2094
▁WT	-11.2097
▁dichloro	-11.2101
acceptable	-11.2102
hydrate	-11.2104
8.1	-11.2105
▁tartaric	-11.2106
CHCl	-11.2107
[3.2.1]	-11.211
Rd	-11.2111
▁modify	-11.2118
▁organics	-11.212
800	-11.2121
▁stabilizing	-11.2121
▁147	-11.2124
▁Formulae	-11.213
OMe	-11.2131
▁cost	-11.2132
▁detergent	-11.2133
▁replace	-11.2133
▁subjecting	-11.2134
▁working	-11.2135
▁kind	-11.2137
▁3.8	-11.214
▁(1.7	-11.214
▁1,000	-11.2143
oyl	-11.2146
▁cathode	-11.2147
▁anode	-11.2148
CHO	-11.2148
▁122	-11.215
BI	-11.2156
layer	-11.2157
▁vein	-11.2163
▁22,	-11.2164
▁car	-11.2168
▁insertions	-11.2171
▁constitute	-11.2172
=6.5	-11.2174
▁circulating	-11.2177
▁just	-11.2177
▁sequenced	-11.2185
▁automated	-11.2186
▁0.16	-11.2186
products	-11.2186
▁package	-11.2187
resistant	-11.2187
hu	-11.2189
▁sensor	-11.2191
▁incorporating	-11.2194
aminoethyl	-11.2195
▁lubricants	-11.2195
▁Materials	-11.2198
▁SR	-11.2203
▁Company	-11.2203
▁−20°	-11.2203
▁3.90	-11.2211
▁9.9	-11.2218
he	-11.2221
2);	-11.2221
7##	-11.2225
▁proteolytic	-11.2226
▁ACN	-11.2226
▁134	-11.2227
▁research	-11.2228
chi	-11.2228
▁expresses	-11.223
TG	-11.2231
▁spin	-11.2232
▁chelating	-11.2235
▁microbial	-11.2235
11-	-11.2238
-1-(4-	-11.2239
▁separator	-11.2239
▁(19	-11.224
+1	-11.2241
7%	-11.2242
▁grow	-11.2243
qu	-11.2245
ho	-11.2246
▁Ru	-11.2248
-4,6-	-11.2249
▁delay	-11.2251
▁oligosaccharide	-11.2252
▁valine	-11.2258
▁Similar	-11.2258
▁8.8	-11.2261
▁7.29	-11.2261
▁styrene	-11.2262
▁engineering	-11.2264
▁1.30	-11.2264
1/2	-11.2268
▁antiviral	-11.2272
-(2,4-	-11.2274
▁Peptides	-11.2276
▁manganese	-11.2276
▁7.42	-11.228
▁dialkylamino	-11.2284
polar	-11.2287
-35	-11.2291
ning	-11.2293
▁139	-11.2297
▁COS	-11.2301
▁singlet	-11.2305
▁6.95	-11.2309
▁nuclease	-11.2309
▁Ki	-11.231
▁(45	-11.2311
▁AR	-11.2315
▁moisture	-11.2317
bu	-11.2317
▁Into	-11.2318
▁3.85	-11.2322
▁intestinal	-11.2323
▁thiazolyl	-11.2324
▁vials	-11.2326
▁7.70	-11.2327
enoic	-11.2328
▁poor	-11.2328
▁thrombin	-11.2329
▁ArH	-11.233
▁outer	-11.233
▁antioxidants	-11.2335
▁initiated	-11.2335
ley	-11.2335
▁relationship	-11.2342
▁7.15	-11.2344
▁susceptible	-11.2345
▁7.60	-11.2346
GT	-11.2347
▁gm	-11.2348
▁dsRNA	-11.2348
phenylene	-11.2351
CoA	-11.2354
▁Iso	-11.2364
▁appreciate	-11.2365
▁pseudo	-11.2366
4##	-11.2367
▁(1998)	-11.2369
liquid	-11.237
▁25,	-11.2377
▁proposed	-11.2382
▁7.38	-11.2383
tain	-11.2383
precipitation	-11.2385
HNMR	-11.2388
▁psig	-11.2391
▁elimination	-11.2391
▁7.55	-11.2393
▁hypo	-11.2394
▁aligned	-11.2397
TS	-11.2398
▁tryptophan	-11.24
▁Lett	-11.24
3+	-11.24
▁progeny	-11.2403
▁fungi	-11.2404
▁MP	-11.2404
ven	-11.2405
▁admixture	-11.2406
▁pigment	-11.2406
▁carboxymethyl	-11.2407
▁hold	-11.2411
▁5'-	-11.2413
▁fl	-11.2415
(2,6-	-11.2417
▁prophylaxis	-11.2421
▁eliminate	-11.2423
mo	-11.2429
petroleum	-11.2432
▁ethane	-11.2435
▁proviso	-11.2438
▁European	-11.2438
)-2,2-	-11.244
▁(0.15	-11.244
▁1.05	-11.2441
▁hybridized	-11.2443
thiadiazol	-11.2443
▁search	-11.2444
▁133	-11.2447
▁7.52	-11.2449
▁7.65	-11.2449
▁sometimes	-11.2452
heptyl	-11.2453
▁Met	-11.2455
▁metastatic	-11.2456
occurring	-11.2456
▁preferentially	-11.2457
▁7.43	-11.2457
▁neck	-11.2458
▁aliquot	-11.246
▁flanking	-11.2461
▁positioned	-11.2462
▁Fractions	-11.2462
▁(0.6	-11.2463
▁Ro	-11.2467
▁weighed	-11.2467
▁132	-11.2469
▁LB	-11.2476
▁capsid	-11.2477
(2,3-	-11.2477
PL	-11.248
▁[1	-11.2482
▁programs	-11.2482
▁receiving	-11.2485
▁Biosystems	-11.2486
▁scanning	-11.2489
group	-11.2493
▁0.14	-11.2494
▁Solution	-11.2494
statin	-11.2495
▁cerebral	-11.2495
▁get	-11.2499
▁Mar	-11.2505
app	-11.2506
proliferative	-11.2506
▁agitation	-11.251
▁6:	-11.2513
▁key	-11.2515
▁spectrometer	-11.2516
▁makes	-11.2516
▁(1:1)	-11.2517
▁(8)	-11.2519
▁impact	-11.2524
▁stroke	-11.2525
▁aspartic	-11.2527
SPC	-11.2528
▁196	-11.2531
GL	-11.2532
▁forward	-11.2534
▁consumption	-11.2537
▁weak	-11.2539
EV	-11.254
den	-11.2547
▁inactive	-11.2548
▁PO	-11.255
▁comparative	-11.2552
▁pathological	-11.2553
1′	-11.2553
▁eds	-11.2557
▁rest	-11.2559
▁alterations	-11.2559
▁alkane	-11.256
)-2	-11.2561
▁chip	-11.2562
lysine	-11.257
▁ischemia	-11.2573
▁safety	-11.2573
▁actual	-11.2576
▁Ester	-11.2577
▁Embodiments	-11.2577
▁7.58	-11.2577
EM	-11.2581
▁Liquid	-11.2584
ogenic	-11.2584
▁urine	-11.2585
▁7.08	-11.2586
phosphorothioate	-11.2586
▁Within	-11.2588
▁FGFR	-11.259
▁des	-11.2591
▁Total	-11.2593
naphthyridin	-11.2594
▁2.9	-11.26
▁7.1	-11.2605
ci	-11.2611
▁currently	-11.2613
▁exact	-11.2613
=6.3	-11.2614
▁exception	-11.2614
sec	-11.2615
▁PM	-11.2618
1).	-11.2624
natural	-11.2625
-[3-	-11.2638
▁adduct	-11.2641
1##	-11.2641
▁takes	-11.2642
(5	-11.2643
▁splice	-11.2643
▁128	-11.2643
3(	-11.2644
▁remained	-11.2647
▁Ag	-11.265
▁microscope	-11.2652
[2.2.1]	-11.2655
=8.9	-11.2657
phenylalanine	-11.2657
▁vigorously	-11.266
▁pellets	-11.2662
lar	-11.2665
ica	-11.2665
▁effectiveness	-11.2666
▁sum	-11.2667
▁GST	-11.2667
▁(2001)	-11.2668
4′	-11.2669
ue	-11.2671
ay	-11.2671
▁real	-11.2674
▁NM	-11.2675
▁monkey	-11.2676
▁reductase	-11.2677
▁polystyrene	-11.2677
Ib	-11.2679
halogen	-11.2681
fer	-11.2683
▁explained	-11.2683
butylammonium	-11.2684
ism	-11.2686
phosphonate	-11.2688
Pr	-11.269
FAB	-11.269
31,	-11.269
▁decreases	-11.2691
▁dichloride	-11.2691
▁adsorbent	-11.2692
APCI	-11.2693
▁7.85	-11.2694
▁7.80	-11.2694
▁contribute	-11.2695
▁untranslated	-11.2695
▁LPS	-11.2704
▁follow	-11.2705
▁termed	-11.2707
azine	-11.2709
▁Virus	-11.2709
▁18.	-11.2709
▁MA	-11.2712
▁Escherichia	-11.2719
▁dissolve	-11.272
▁supply	-11.2721
09	-11.2723
▁pyrazolyl	-11.2724
ible	-11.2725
▁2009	-11.2727
methoxymethyl	-11.2732
epi	-11.2732
▁92%,	-11.2733
▁AP	-11.2736
cooling	-11.274
▁OX	-11.2743
▁26.	-11.2743
quinazoline	-11.2744
▁unmodified	-11.2745
Benzyl	-11.275
XI	-11.2751
eno	-11.2751
=2.2	-11.2753
▁curves	-11.2754
▁valve	-11.2756
0.05	-11.2757
necked	-11.2757
▁5:	-11.2759
▁3.00	-11.2761
▁occurred	-11.2766
▁induces	-11.277
iphenylphosphino	-11.2774
▁tautomer	-11.2775
▁RSV	-11.2775
su	-11.2777
effective	-11.2777
EX	-11.2779
-2′-	-11.2784
▁fibers	-11.2785
108	-11.2786
▁Chromatography	-11.279
▁tetrachloride	-11.279
▁esterification	-11.2792
▁fitted	-11.2796
▁motifs	-11.2797
▁symptom	-11.28
▁230	-11.2801
ign	-11.2802
▁Still	-11.2803
▁bands	-11.2803
▁4.1	-11.2803
▁(0.9	-11.2803
▁man	-11.2806
▁physician	-11.2811
▁-78°	-11.2813
▁hexafluoro	-11.2815
3′	-11.2817
ast	-11.2817
▁closed	-11.2819
▁0.18	-11.2819
▁7.48	-11.2823
nucleic	-11.2823
▁mainly	-11.2824
199	-11.2824
▁trimethylsilyl	-11.2826
▁toxins	-11.2827
▁ascorbic	-11.2827
▁HBV	-11.2828
3-8	-11.2832
▁entry	-11.2834
viral	-11.2835
▁polypropylene	-11.2839
▁colorectal	-11.2842
xi	-11.2842
▁coat	-11.2843
qui	-11.2845
▁hamster	-11.2845
hydrogen	-11.2846
ical	-11.2849
nitrile	-11.2849
,9-	-11.2849
fusion	-11.285
▁190	-11.2851
▁Standard	-11.2854
pyrrolidone	-11.2856
▁crosslinking	-11.2857
characterization	-11.2859
▁cyanide	-11.2863
▁carefully	-11.2868
▁7.00	-11.2868
-((	-11.287
▁colourless	-11.287
▁cluster	-11.2871
▁reactors	-11.2873
▁6.6	-11.2876
pir	-11.2876
▁intron	-11.2876
=1.6	-11.2882
▁7.64	-11.2883
▁stabilized	-11.2886
%.	-11.2887
▁images	-11.2888
▁(0.06	-11.289
▁methanesulfonic	-11.2892
▁Ring	-11.2893
▁theoretical	-11.2896
kin	-11.2897
8##	-11.2899
▁fluorinated	-11.2901
▁steel	-11.2901
▁EQU	-11.2902
▁phenylalanine	-11.2903
▁sorbitan	-11.2907
▁TARGET	-11.2914
▁86%	-11.2917
▁volatiles	-11.2922
▁Catalyst	-11.2923
▁1.38	-11.2924
▁spinal	-11.2925
▁pyridinyl	-11.2926
aminophenyl	-11.2927
▁triethyl	-11.2928
▁148	-11.2929
▁BoNT	-11.2929
▁7.59	-11.2931
▁competitive	-11.2931
quin	-11.2933
▁Biological	-11.2933
▁DC	-11.2935
▁lysed	-11.2937
pha	-11.2939
SV	-11.2942
▁dehydrogenation	-11.2942
SE	-11.2942
▁146	-11.2944
▁far	-11.2947
ger	-11.2949
▁Cas	-11.2951
▁23,	-11.2951
▁alteration	-11.2952
ult	-11.2953
▁4.4	-11.2954
0%	-11.2961
imide	-11.2961
▁158	-11.2961
▁CTL	-11.2962
▁assembled	-11.2964
ero	-11.2966
Rf	-11.2969
▁hydroxylamine	-11.297
:15	-11.297
▁dehydration	-11.2979
▁variables	-11.2983
▁liquids	-11.2986
▁EST	-11.2988
▁named	-11.299
▁DIEA	-11.2991
tris	-11.2992
▁2.50	-11.2994
▁synthesize	-11.2995
ami	-11.2997
9##	-11.2997
▁transplant	-11.2998
eth	-11.3
▁pyrrolidinyl	-11.3002
genic	-11.3004
▁8.3	-11.3005
(+)	-11.3007
sulphonyl	-11.3009
▁Ga	-11.3018
-1-(2-	-11.3018
-11-	-11.302
▁dual	-11.3025
700	-11.3028
▁3.95	-11.3029
▁article	-11.303
Co	-11.3033
▁labelled	-11.3041
▁germ	-11.3041
▁14.	-11.3043
nyl	-11.3044
▁pyrrolidine	-11.3049
][1,3]	-11.305
lip	-11.3054
▁investigated	-11.3056
▁Va	-11.3058
▁adjust	-11.3059
▁isotopes	-11.3059
methylethyl	-11.306
▁flu	-11.3062
▁exhibiting	-11.3063
▁methoxide	-11.3065
▁900	-11.3065
coding	-11.3066
▁envelope	-11.3068
▁integrin	-11.3076
=2.1	-11.3077
▁suggesting	-11.3079
=9.2	-11.3079
nic	-11.3081
▁0.88	-11.3084
▁doublet	-11.3084
▁reversed	-11.3087
fa	-11.3088
▁lesions	-11.3092
▁recycle	-11.3094
sh	-11.3094
▁Corp	-11.3096
▁MPa	-11.3099
▁prevented	-11.3105
)-6-(	-11.311
▁0.13	-11.3111
=5.2	-11.3112
▁3.9	-11.3115
ug	-11.3116
▁suppression	-11.3118
▁localization	-11.3121
met	-11.3127
▁168	-11.3128
▁sulfo	-11.3129
▁7.63	-11.3129
ake	-11.3133
▁94%,	-11.3135
▁away	-11.3136
▁rejection	-11.3138
▁lysates	-11.3141
▁5.1	-11.3144
▁eluate	-11.3144
▁3.88	-11.3146
▁miRNA	-11.3147
▁Tissue	-11.3147
▁Scientific	-11.315
▁1.44	-11.3152
▁0.35	-11.3152
▁films	-11.3155
nucleotide	-11.3159
az	-11.3162
tal	-11.3162
len	-11.3163
▁threshold	-11.3163
▁shorter	-11.3167
▁TMS	-11.3168
▁129	-11.3168
oil	-11.3172
-31	-11.3172
▁130°	-11.3173
▁utilize	-11.3176
▁killing	-11.3179
NHR	-11.3179
(6	-11.318
▁EA	-11.3185
▁phosphorylated	-11.3189
ans	-11.3191
▁7.62	-11.3191
▁3.86	-11.3194
▁Add	-11.3195
▁incubator	-11.3195
3)2,	-11.3199
RG	-11.3208
▁fumaric	-11.3208
▁atomic	-11.3211
▁mini	-11.3212
▁purifying	-11.3214
▁smooth	-11.3215
▁2.30	-11.3216
▁7.78	-11.3221
▁piperidinyl	-11.3222
▁j	-11.3223
▁Depending	-11.3224
▁7.56	-11.3228
▁KOH	-11.3229
▁neuronal	-11.323
▁methotrexate	-11.3231
DS	-11.3232
oxazole	-11.3233
▁extra	-11.3235
▁moderate	-11.3236
×106	-11.3236
▁22.	-11.3237
=1.2	-11.3244
▁humidity	-11.3244
ani	-11.3245
▁transcripts	-11.3247
▁aprotic	-11.3247
▁0.95	-11.3254
▁1-5	-11.3256
dioxol	-11.3257
▁3.76	-11.3259
▁2007	-11.3262
▁Parkinson	-11.3263
▁waste	-11.3264
▁mother	-11.3265
▁subset	-11.3267
▁lactate	-11.3269
(0)	-11.3274
▁bridge	-11.3276
▁lymphocyte	-11.3277
▁vaginal	-11.3278
Pharmaceutically	-11.3279
DV	-11.3279
Difluoro	-11.328
▁3.84	-11.3281
▁Oligonucleotide	-11.3281
▁750	-11.3282
sc	-11.3282
methylpiperazin	-11.3283
(2,2,2-	-11.3287
▁overhead	-11.3288
hour	-11.3292
butan	-11.3296
PK	-11.3297
▁155	-11.33
▁7.74	-11.3301
▁late	-11.3302
▁Class	-11.3302
carbonyloxy	-11.3302
▁thick	-11.3304
▁MW	-11.3304
MD	-11.3305
our	-11.3306
inden	-11.331
▁exclusion	-11.3312
▁(24	-11.3313
▁exists	-11.3314
160	-11.3317
▁Dis	-11.3324
▁electrolyte	-11.3325
▁passing	-11.3325
mers	-11.3327
▁enough	-11.3328
▁3.92	-11.3329
ING	-11.333
▁(17	-11.3331
dioxide	-11.3331
▁minimize	-11.3335
-29	-11.3335
▁7.46	-11.3338
▁lauryl	-11.3341
▁7.67	-11.3341
▁dextrose	-11.3341
protecting	-11.3342
▁IN	-11.3344
▁Here	-11.3345
▁propionic	-11.3347
▁dogs	-11.335
▁ruthenium	-11.3352
▁7.11	-11.3353
▁coloring	-11.3355
▁Elemental	-11.3356
▁270	-11.336
▁repeating	-11.3364
▁adenocarcinoma	-11.3365
release	-11.3367
thiol	-11.3368
▁wax	-11.3368
ants	-11.3369
▁Mouse	-11.3369
▁blotting	-11.3371
▁([	-11.3371
▁toward	-11.3372
▁Aldrich	-11.3374
▁4.3	-11.3374
▁MH	-11.3377
▁contemplates	-11.3377
▁cream	-11.3381
▁rhodium	-11.3383
)-1-(4-	-11.3384
▁7.05	-11.3384
▁rice	-11.3385
mic	-11.3385
▁3.79	-11.3385
▁7.72	-11.3386
▁28.	-11.3389
RD	-11.3392
▁silane	-11.3394
▁taking	-11.3398
[2.2.2]	-11.3399
▁1.42	-11.3399
▁RB	-11.3401
▁hypervariable	-11.3404
(5-	-11.3405
▁sheep	-11.3406
▁EcoRI	-11.3406
▁PDE	-11.3407
aa	-11.3408
)-1-((	-11.3409
ou	-11.341
▁transparent	-11.3413
▁Japanese	-11.3415
▁incubating	-11.3423
producing	-11.3423
▁uL	-11.3429
ema	-11.343
difluoromethyl	-11.343
▁unknown	-11.3431
magnesium	-11.3432
Preparation	-11.3433
▁schemes	-11.3434
meric	-11.3437
syn	-11.3441
▁127	-11.3441
▁Animals	-11.3444
ei	-11.3446
▁simply	-11.3446
▁SH	-11.3447
▁leaves	-11.3448
▁Diego	-11.3449
▁technical	-11.3449
▁atherosclerosis	-11.3452
▁pathogen	-11.3457
▁keto	-11.3459
▁fumarate	-11.346
▁0.50	-11.3462
purine	-11.3462
▁hosts	-11.3462
▁(125	-11.3464
▁3.82	-11.3465
▁7.53	-11.3467
▁acts	-11.3468
=6.7	-11.3468
▁MMP	-11.347
▁Antigen	-11.3471
▁0.90	-11.3472
▁260	-11.3473
[(	-11.3473
high	-11.3476
▁circulation	-11.3478
▁embryonic	-11.3479
▁−1	-11.3479
▁GP	-11.3483
▁VP	-11.3483
▁0.30	-11.3488
SK	-11.3491
:2)	-11.3492
=2.3	-11.3493
145	-11.3494
▁Likewise	-11.3495
▁myeloid	-11.3495
▁deionized	-11.3495
ull	-11.3497
hydrazine	-11.35
▁expansion	-11.3502
▁7.12	-11.3502
▁166	-11.3502
▁transporter	-11.3503
▁40%,	-11.3503
▁7.76	-11.3505
▁propane	-11.3505
heptan	-11.3506
flu	-11.3509
▁7.24	-11.3516
▁mercapto	-11.3516
imine	-11.3517
▁phen	-11.3517
▁1.26	-11.3518
▁5-10	-11.3518
▁themselves	-11.3518
▁regulated	-11.3519
▁2.15	-11.352
ORa	-11.3521
][1,2,4]	-11.3521
▁HPV	-11.3522
▁1.32	-11.3522
CAM	-11.3523
pp	-11.3525
nitrobenzene	-11.3525
▁1.28	-11.3528
▁Concentration	-11.3528
▁relation	-11.3529
▁polyol	-11.3531
▁oligomeric	-11.3532
del	-11.3532
▁Xaa	-11.3533
▁transient	-11.3536
TX	-11.3537
▁8.1	-11.3537
▁oxalate	-11.3539
▁assessment	-11.354
▁miR	-11.3544
▁indicator	-11.3548
molecular	-11.3549
▁thoroughly	-11.3552
▁nucleosides	-11.3553
▁guide	-11.3554
FT	-11.3554
▁XI	-11.3555
▁transplantation	-11.3563
RL	-11.3564
▁23.	-11.3565
▁promoting	-11.3567
▁pyrazinyl	-11.3568
propionyl	-11.3571
▁7.49	-11.3572
▁4-(3-	-11.3573
▁7.95	-11.3575
▁0.17	-11.3575
ever	-11.3575
▁reach	-11.3578
▁delayed	-11.3579
TB	-11.358
▁needle	-11.358
▁1.10	-11.3583
▁cleavable	-11.3584
pos	-11.3584
▁dementia	-11.3585
hi	-11.3586
▁supports	-11.3591
▁0.2%	-11.3593
ric	-11.3593
CAR	-11.3594
▁3.87	-11.3595
▁living	-11.3598
▁5.4	-11.3598
▁2.40	-11.3599
oxazin	-11.36
▁7.23	-11.3601
4).	-11.3601
EG	-11.3608
ind	-11.3608
▁XRPD	-11.3609
▁96%	-11.361
▁derivatized	-11.3611
TFA	-11.3611
)-2-(2-	-11.3611
▁input	-11.3613
BC	-11.3617
▁neo	-11.3617
▁Techniques	-11.3618
BR	-11.3621
▁PF	-11.3622
▁3.78	-11.3625
wise	-11.3627
▁Dosage	-11.3632
▁kinds	-11.3635
-(7-	-11.3639
▁cytosine	-11.3641
▁discarded	-11.3642
▁maleate	-11.3646
80,	-11.365
▁26,	-11.3651
ros	-11.3659
izer	-11.3662
IFN	-11.3663
▁7.66	-11.3665
▁deficiency	-11.3672
▁fluorescein	-11.3677
log	-11.3687
=2.5	-11.3688
▁140°	-11.3688
azetidine	-11.3694
▁adsorbed	-11.3695
=0	-11.3698
pe	-11.3698
▁Starting	-11.3699
▁carbocyclyl	-11.3701
-[(1	-11.3702
▁ampicillin	-11.3702
▁fewer	-11.3702
▁log	-11.3708
azaspiro	-11.3708
▁2.35	-11.3711
▁repair	-11.3712
▁alkylsulfonyl	-11.3716
ligand	-11.3718
▁myocardial	-11.3719
▁lupus	-11.3719
old	-11.372
▁publication	-11.372
exchange	-11.3724
▁alleles	-11.3724
sulfonyloxy	-11.3726
▁became	-11.3726
▁10.4	-11.3726
ClN	-11.3728
xylene	-11.3728
ylmethoxy	-11.3729
-[4-	-11.3735
GG	-11.3735
▁Be	-11.3738
▁tetrahydropyran	-11.3741
▁aberrant	-11.3743
ward	-11.3743
ps	-11.3745
▁1.43	-11.3748
▁possibility	-11.3753
22,	-11.3753
▁1.48	-11.3756
▁velocity	-11.3756
-((1	-11.3757
▁thyroid	-11.3758
▁HT	-11.3763
▁basal	-11.3764
cyclohex	-11.3764
ert	-11.3764
▁3.83	-11.3765
GF	-11.3767
▁glutathione	-11.3767
piperidyl	-11.3773
▁root	-11.3774
body	-11.3776
▁help	-11.3778
her	-11.3782
▁sequential	-11.3785
▁excitation	-11.3788
▁million	-11.3789
▁0.85	-11.3789
-2.0	-11.379
▁fibroblasts	-11.3791
cyanophenyl	-11.3793
▁regression	-11.3794
▁TM	-11.3794
▁6.9	-11.3795
▁7.54	-11.3796
▁formyl	-11.3797
▁7.79	-11.3798
-1,5-	-11.3803
▁hybridomas	-11.3803
▁distillate	-11.3803
▁72°	-11.3805
▁Appl	-11.3809
▁19.	-11.3811
▁words	-11.3813
▁machine	-11.3814
ster	-11.3816
▁maize	-11.3818
▁2006	-11.3822
▁5.6	-11.3823
▁heterogeneous	-11.3828
polymer	-11.3828
▁nanoparticle	-11.3829
▁output	-11.3829
▁2.20	-11.3829
▁transporting	-11.3831
▁helper	-11.3831
▁bead	-11.3832
NHCH	-11.3832
▁75°	-11.3832
til	-11.3833
tan	-11.3834
▁equilibrated	-11.3836
▁graph	-11.3836
tro	-11.3839
chemical	-11.384
▁recording	-11.384
418	-11.384
123	-11.3842
▁3.7	-11.3842
▁clearance	-11.3843
5.2	-11.3844
▁amplify	-11.3845
▁arrangement	-11.3845
▁Japan	-11.3845
▁LA	-11.3853
▁glutamate	-11.3854
▁Rh	-11.3855
pyridazine	-11.3859
▁Note	-11.3861
▁conformational	-11.3862
TI	-11.3865
▁(4.0	-11.3867
▁heteroaromatic	-11.3874
TLC	-11.3882
▁semiconductor	-11.3883
ost	-11.3884
)-2,4-	-11.3885
")	-11.3889
▁10:1	-11.3891
bR	-11.3891
-[(4-	-11.3898
▁putative	-11.39
▁7.82	-11.3901
emb	-11.3906
▁methodology	-11.3907
▁cDNAs	-11.3908
▁30%,	-11.391
▁EPO	-11.3912
side	-11.3914
trityl	-11.3914
dicarboxylic	-11.3915
NK	-11.3916
-2)	-11.3916
▁8.00	-11.3916
▁Number	-11.3917
FL	-11.3921
▁isomeric	-11.3923
▁tan	-11.3924
▁elicit	-11.3925
qua	-11.3927
▁proteases	-11.3929
▁succinate	-11.3929
CG	-11.3929
▁RNAs	-11.3935
▁7.77	-11.3938
2-4	-11.3939
late	-11.3941
▁maximal	-11.3944
▁overlapping	-11.3946
▁pentane	-11.3951
use	-11.3951
▁extremely	-11.3956
lot	-11.3959
▁169	-11.3961
▁1.36	-11.3963
▁7.03	-11.3963
▁namely	-11.3964
▁3.77	-11.3966
▁1.37	-11.3968
diaza	-11.3968
GM	-11.397
▁GenBank	-11.3971
▁enables	-11.3971
▁6.4	-11.3982
diene	-11.3984
%).	-11.3987
PRO	-11.3988
tu	-11.3989
linker	-11.399
▁7.92	-11.3996
oxazolidin	-11.3997
▁fall	-11.3999
▁7.88	-11.4005
▁And	-11.4008
ectin	-11.4013
▁observation	-11.4013
▁pyrrolyl	-11.4013
▁7.73	-11.4013
▁potato	-11.4014
▁classified	-11.4015
-26	-11.4015
▁opening	-11.4015
▁indicative	-11.4018
SD	-11.4019
140	-11.4019
nate	-11.402
▁7.87	-11.4024
Phenyl	-11.4025
▁mAbs	-11.4027
SL	-11.4029
▁Ir	-11.4029
▁'	-11.403
▁0.11	-11.4032
oy	-11.4034
▁1.33	-11.4036
▁7.04	-11.4038
▁bivalent	-11.4039
▁epi	-11.404
mM	-11.4042
/10	-11.4043
▁electronic	-11.4043
▁packaged	-11.4045
ll	-11.4045
▁27,	-11.4051
▁review	-11.4053
▁NT	-11.4053
▁142	-11.4063
▁DR	-11.4064
▁pig	-11.4064
▁3.81	-11.4065
▁(%)	-11.4066
dibenzo	-11.407
▁3.89	-11.4074
▁sulfone	-11.4075
)+:	-11.4076
▁Bo	-11.4077
▁varies	-11.4077
▁sc	-11.4085
▁immunity	-11.4088
▁Academic	-11.4088
250	-11.4089
va	-11.4093
▁cc	-11.4093
ten	-11.4094
▁artery	-11.4094
▁degeneration	-11.4095
▁35°	-11.4095
▁Triton	-11.4099
▁7.81	-11.41
point	-11.41
▁1.27	-11.41
▁7.69	-11.4104
bio	-11.4106
▁Se	-11.4107
eurodegenerative	-11.4109
16-	-11.411
▁2.75	-11.4111
idin	-11.4113
▁PL	-11.4116
▁7.68	-11.4116
▁behavior	-11.412
175	-11.4124
▁7.21	-11.4127
▁module	-11.4129
▁intestine	-11.413
▁twenty	-11.4134
sen	-11.4136
▁Mn	-11.4138
▁4.05	-11.4139
▁visible	-11.4142
▁7.09	-11.4143
Rh	-11.4145
ich	-11.4145
dia	-11.4146
diethylamino	-11.4151
▁oxalic	-11.4151
▁deprotected	-11.4153
-38	-11.4156
=5.5	-11.4158
▁7.06	-11.416
▁(2×	-11.4168
Acetyl	-11.4168
propene	-11.4171
phenylboronic	-11.4172
▁rabbits	-11.4173
▁IP	-11.4176
▁baculovirus	-11.4176
▁nine	-11.4176
▁serves	-11.4177
lipid	-11.4178
▁3.70	-11.4179
sin	-11.4179
▁earlier	-11.4179
▁immunoassay	-11.4183
138	-11.4183
103	-11.4184
▁furan	-11.4186
-32	-11.4187
-2,3,4,5-	-11.4189
▁3.74	-11.4189
▁PNA	-11.4191
▁profiles	-11.4192
▁7.17	-11.4192
MG	-11.4194
▁representing	-11.4195
broad	-11.4197
alcohol	-11.4199
ura	-11.42
▁(2002)	-11.42
▁2.28	-11.4201
CE	-11.4203
▁access	-11.4203
▁fusions	-11.4205
▁ADCC	-11.4206
-2.4	-11.4206
decan	-11.4206
dimethylethyl	-11.4207
▁DTT	-11.4216
165	-11.4217
▁Biosciences	-11.4222
▁Sequences	-11.4225
▁0.24	-11.4226
ves	-11.4227
DMF	-11.4228
▁kappa	-11.4228
▁28,	-11.4232
▁cavity	-11.4233
▁ligase	-11.4233
2000	-11.4234
▁proceed	-11.4235
▁feeding	-11.4236
▁10.2	-11.4238
▁21.	-11.4241
▁CaCl	-11.4241
▁helix	-11.4243
cap	-11.4247
ethan	-11.4251
▁pass	-11.4255
▁7.14	-11.4261
▁161	-11.4268
▁dodecyl	-11.4268
▁balance	-11.4269
▁recover	-11.427
▁pigs	-11.427
TL	-11.427
▁special	-11.4272
▁depression	-11.4272
butyric	-11.4273
▁phosphatidyl	-11.4275
▁13.	-11.4276
nor	-11.4281
▁rh	-11.4281
▁(1983)	-11.4283
=5.4	-11.4286
diisopropylethyl	-11.4286
125	-11.4287
▁polymorphic	-11.4289
VR	-11.4289
▁Single	-11.429
▁cyclization	-11.429
▁#1	-11.4294
▁1.47	-11.4296
▁0.26	-11.4298
▁Polypeptides	-11.4299
propylene	-11.4301
▁anemia	-11.4301
ise	-11.4301
▁epoxide	-11.4302
▁3.72	-11.4303
traperitoneally	-11.4303
▁rac	-11.4305
▁ground	-11.4309
▁filtering	-11.4309
▁evolution	-11.4311
▁Fusion	-11.4311
▁2.32	-11.4312
▁(0.10	-11.4313
/6	-11.4314
▁resolved	-11.4315
▁majority	-11.4317
▁prop	-11.4317
▁6.3	-11.432
▁7.86	-11.4321
▁3.94	-11.4321
-[3-(	-11.4323
▁1500	-11.4324
NRc	-11.4324
▁Gen	-11.4325
▁operated	-11.4325
▁143	-11.4327
▁capillary	-11.4327
▁CNS	-11.4328
▁bioavailability	-11.4329
▁recognizes	-11.4333
▁3:1	-11.4337
▁environmental	-11.4342
▁arranged	-11.4344
▁Gln	-11.4344
▁Fig	-11.4345
▁Methanol	-11.4347
▁PP	-11.4347
▁8.2	-11.4351
▁7.94	-11.4351
▁retinal	-11.4356
▁isoleucine	-11.4356
tra	-11.4357
▁hydrates	-11.4357
▁TG	-11.4358
▁7.02	-11.4358
▁4.10	-11.4358
▁polymorph	-11.4359
▁6.92	-11.4363
▁aliquots	-11.4363
▁(2.2	-11.4364
▁circular	-11.4365
▁attack	-11.4365
▁serial	-11.4371
▁acquired	-11.4372
▁pancreas	-11.4373
▁na	-11.4375
▁(1984)	-11.4378
▁CT	-11.438
▁eliminated	-11.4382
fen	-11.4384
▁2'-	-11.4385
acetylamino	-11.4386
borate	-11.4388
▁En	-11.4391
▁stearic	-11.4391
▁Effect	-11.4393
9%	-11.4393
▁GAM	-11.4395
▁(3.5	-11.4397
▁7.84	-11.4397
=5.0	-11.4401
▁2.10	-11.4402
▁7.7	-11.4402
vinylpyrrolidone	-11.4403
▁uniform	-11.4403
ient	-11.4403
▁National	-11.4404
LL	-11.4407
isopropoxy	-11.441
▁(60%	-11.4411
▁box	-11.4411
▁Md	-11.4414
▁(1986)	-11.4415
▁monocytes	-11.4417
▁microscopy	-11.442
ham	-11.4421
▁8.6	-11.4425
▁eluant	-11.4427
que	-11.4427
▁1.39	-11.4427
▁SM	-11.4429
▁4:1	-11.443
▁(0.08	-11.4431
▁3,3-	-11.4434
ening	-11.4437
rel	-11.4439
3)3	-11.4441
▁translational	-11.4442
127	-11.4442
▁1.23	-11.4443
▁necrosis	-11.4445
sulfonamido	-11.4446
▁Evaluation	-11.4447
▁transcriptase	-11.4448
▁Cr	-11.4448
▁85°	-11.4449
▁thermo	-11.4449
▁Pr	-11.445
)-4-(4-	-11.4452
▁agitated	-11.4452
▁glacial	-11.4452
▁diol	-11.4456
▁indolyl	-11.4461
▁7.90	-11.4467
▁6.85	-11.4473
▁diastereomeric	-11.4474
▁dispersions	-11.4474
▁10.3	-11.4475
:20	-11.4475
▁1.34	-11.4475
▁(9)	-11.4475
▁enantiomeric	-11.4478
▁2011	-11.4478
×10	-11.4479
▁constitutive	-11.4479
AMP	-11.448
▁3.73	-11.448
▁HB	-11.4481
▁Growth	-11.4481
phenylmethyl	-11.4483
▁0.28	-11.4489
▁ovary	-11.4489
phenethyl	-11.4489
phos	-11.4494
▁delta	-11.4496
▁syrups	-11.4497
▁8.02	-11.4497
▁molybdenum	-11.4498
135	-11.4498
▁8.05	-11.45
ver	-11.4502
▁Said	-11.4506
▁exchanger	-11.4506
▁estrogen	-11.4508
▁1.24	-11.4509
▁Isolation	-11.4511
▁6.94	-11.4518
▁ZSM	-11.4519
berg	-11.4522
▁diastereomer	-11.4524
▁AG	-11.4524
▁DMAP	-11.4525
▁tumour	-11.4525
▁DETD	-11.4525
▁affording	-11.4528
▁adjusting	-11.453
▁4.20	-11.4533
▁1.60	-11.4533
wt	-11.4534
▁Construction	-11.454
▁cord	-11.4544
▁7.13	-11.4545
▁7.71	-11.4548
▁buffering	-11.455
▁2.60	-11.455
ified	-11.455
▁lignin	-11.4555
▁volatile	-11.4555
▁ne	-11.4556
▁Collection	-11.4559
ey	-11.4559
gas	-11.456
sing	-11.456
hetero	-11.4562
▁silicone	-11.4563
ionic	-11.4569
▁159	-11.4573
99%	-11.4573
▁154	-11.4574
▁6.7	-11.4574
itol	-11.4577
▁comp	-11.4578
▁EGF	-11.4578
▁regulate	-11.4579
▁polyadenylation	-11.458
′)2	-11.4581
microcrystalline	-11.4586
galactosidase	-11.4588
12)	-11.4589
ok	-11.459
isolated	-11.4594
▁heterocyclo	-11.4596
▁piperazinyl	-11.4597
sorb	-11.4599
▁LD	-11.4605
▁hydrobromide	-11.4605
▁Northern	-11.4606
therapeutic	-11.4609
▁NaBH	-11.4611
▁0.92	-11.4613
acrylamide	-11.4613
▁acacia	-11.4614
27,	-11.4614
▁colitis	-11.4614
▁terminated	-11.4616
▁3.40	-11.4616
▁spectral	-11.4619
ong	-11.4619
VP	-11.4619
▁tags	-11.4621
phy	-11.4621
▁ocular	-11.4621
▁Design	-11.4622
octan	-11.4623
ulin	-11.4624
▁3.96	-11.4626
ni	-11.4627
▁7.07	-11.4628
HER	-11.4631
cer	-11.4632
small	-11.4632
▁0.19	-11.4632
▁aluminium	-11.4633
▁kD	-11.4635
▁IA	-11.4637
▁ointments	-11.464
hexa	-11.4643
▁normalized	-11.4645
TK	-11.4646
▁1-6	-11.4646
dichloroethane	-11.4652
tron	-11.4656
▁trace	-11.4657
▁confer	-11.4658
▁Louis	-11.4658
▁beginning	-11.4658
Cell	-11.4658
▁15°	-11.4659
▁recombinantly	-11.4659
▁BamHI	-11.4662
▁tricyclic	-11.4664
▁care	-11.4665
▁requirements	-11.4668
▁auxiliary	-11.4669
▁AT	-11.4672
-80	-11.4673
▁acyloxy	-11.4673
▁1.75	-11.4676
cephem	-11.4676
metal	-11.4677
▁electric	-11.4678
pin	-11.4678
▁DSC	-11.4679
▁uracil	-11.4683
▁{	-11.4683
▁altering	-11.4684
▁aza	-11.4685
▁0.01%	-11.4685
propynyl	-11.4685
▁closely	-11.4686
80%	-11.4691
▁usage	-11.4692
▁analysed	-11.4694
▁break	-11.4695
002	-11.4698
▁Mc	-11.4698
▁axis	-11.4699
▁3-(3-	-11.4699
▁ribosome	-11.4707
▁excessive	-11.4707
aq	-11.4707
▁pyrazole	-11.4708
▁calcined	-11.471
data	-11.4712
▁mins	-11.4712
▁affecting	-11.4715
▁differs	-11.4715
▁oxazolyl	-11.4716
▁sulfonamide	-11.4716
ther	-11.472
-5-(2-	-11.472
▁inactivated	-11.4721
COO	-11.4725
235	-11.4728
rac	-11.4731
▁oxidase	-11.4733
sch	-11.4738
▁7.91	-11.4738
decyl	-11.4744
▁80,	-11.4744
▁coronary	-11.4744
▁transformants	-11.4746
BT	-11.4747
▁chemicals	-11.4747
▁0.000	-11.4747
called	-11.4748
▁triplet	-11.4748
transfected	-11.4751
dy	-11.4755
▁ultraviolet	-11.4755
▁3.98	-11.4758
▁teachings	-11.4759
▁Formulation	-11.4761
197	-11.4767
▁CMV	-11.477
▁0.0	-11.4771
▁nitrite	-11.4774
tuzumab	-11.4774
aluminum	-11.4776
▁polyacrylamide	-11.4779
isoxazole	-11.4782
ology	-11.4783
crystal	-11.4783
▁genotype	-11.4785
▁endonuclease	-11.4785
▁functionalized	-11.4786
ock	-11.4786
▁morpholinyl	-11.4788
TOF	-11.4789
ylene	-11.4792
▁diagnosed	-11.4793
olefin	-11.4795
▁sex	-11.4798
▁(1.9	-11.4798
▁0.33	-11.4799
26,	-11.4804
ren	-11.481
▁0.23	-11.481
▁overlap	-11.4812
lysis	-11.4816
phosphonium	-11.4817
▁7.89	-11.4819
▁PK	-11.4819
▁6.90	-11.4822
▁HOST	-11.4823
my	-11.4824
▁NRc	-11.483
=5.1	-11.483
]+;	-11.483
methylpiperidin	-11.4832
▁Publishing	-11.4834
▁rotation	-11.4835
(4)	-11.4835
▁AS	-11.4836
(2,2-	-11.4836
▁6.93	-11.4836
▁2.38	-11.4836
▁rich	-11.4839
ple	-11.4839
▁8.10	-11.4842
▁competition	-11.4842
▁appearance	-11.4842
epoxy	-11.4842
▁perfluoro	-11.4843
▁Plasmid	-11.4845
9.1	-11.4849
▁1.29	-11.4851
-100%	-11.4853
▁regulating	-11.4855
EE	-11.4856
▁carbohydrates	-11.4856
▁correlation	-11.4857
▁load	-11.4858
▁paste	-11.4859
)-3-(2-	-11.4862
chroman	-11.4863
▁thiophene	-11.4864
▁Illustrative	-11.4865
▁CLMS	-11.4865
280	-11.4867
▁steroid	-11.4868
specifically	-11.4868
NF	-11.487
▁washes	-11.4873
▁hormones	-11.4876
▁micron	-11.4876
▁225	-11.4877
▁intranasal	-11.4877
▁6.2	-11.4879
▁215	-11.488
tetrafluoro	-11.4883
▁u	-11.4884
av	-11.4887
▁ED	-11.4887
tBu	-11.4892
▁7.9	-11.4896
▁propionate	-11.4899
▁6.80	-11.49
▁Ile	-11.49
thiazolo	-11.49
AV	-11.49
▁Cry	-11.49
Ile	-11.4909
eal	-11.4912
▁numerical	-11.4913
▁1.65	-11.4913
(3,4-	-11.4913
▁Gradient	-11.4914
▁simultaneous	-11.4914
▁spread	-11.4914
ular	-11.4915
oth	-11.4915
naphth	-11.4917
naphthyridine	-11.4918
▁bacteriophage	-11.4918
▁lactone	-11.4918
▁splicing	-11.4922
▁cAMP	-11.4923
ser	-11.4923
▁7.96	-11.4925
▁combinatorial	-11.4926
▁polyester	-11.4926
dppf	-11.4926
▁4.25	-11.4926
GR	-11.4926
▁purine	-11.4927
▁creams	-11.4928
▁powdered	-11.4929
▁Pseudomonas	-11.4929
003	-11.4931
▁173	-11.4932
▁statistically	-11.4932
▁heteroarylalkyl	-11.4932
▁conventionally	-11.4935
▁7.98	-11.4937
▁Car	-11.4941
amic	-11.4942
▁4.7	-11.4942
▁Aqueous	-11.4945
▁tobacco	-11.4945
▁interval	-11.4945
5′	-11.4946
149	-11.4947
▁histone	-11.4948
▁0.98	-11.495
▁1.18	-11.4955
SY	-11.4964
}-3-	-11.4964
lus	-11.4964
▁recovering	-11.4964
▁6.98	-11.4966
=16	-11.4966
(6-	-11.4969
▁infrared	-11.4969
way	-11.4972
cy	-11.4973
-5-(4-	-11.4974
▁pipe	-11.4976
=1.9	-11.4976
▁phosphonate	-11.4977
▁3.68	-11.4978
▁merely	-11.4979
ach	-11.4981
▁entity	-11.4987
uracil	-11.4988
ime	-11.499
▁bottle	-11.4991
weight	-11.4993
▁streams	-11.4994
▁2.18	-11.4995
▁pages	-11.4998
▁STM	-11.4999
CAT	-11.5001
▁initiator	-11.5004
▁hemoglobin	-11.5008
isoindol	-11.5009
▁2.25	-11.501
▁7.99	-11.5015
▁2.90	-11.5016
28,	-11.5017
▁what	-11.5017
▁Modified	-11.5021
▁coagulation	-11.5021
▁6.97	-11.5022
butyllithium	-11.5022
▁appeared	-11.5027
proline	-11.5028
-1,3,4-	-11.5028
▁retains	-11.5029
▁respond	-11.5032
▁cognitive	-11.5033
ject	-11.5035
▁3000	-11.5039
▁flexible	-11.5041
▁1.15	-11.5041
▁(2.4	-11.5043
117	-11.5047
▁(0.12	-11.5047
▁29,	-11.505
▁(5-	-11.5051
▁reductive	-11.5052
butanoic	-11.5052
▁Gal	-11.5053
▁additions	-11.5053
flow	-11.5055
▁Gel	-11.5057
▁Even	-11.5057
▁expanded	-11.5057
▁monitor	-11.506
▁cl	-11.5061
▁0.27	-11.5061
ik	-11.5063
▁unwanted	-11.5064
ACT	-11.5066
▁started	-11.5066
test	-11.5067
(2,5-	-11.5067
:12	-11.5068
-[5-	-11.5072
pentan	-11.5074
▁translated	-11.5075
-27	-11.5075
▁fillers	-11.5076
102	-11.5078
scFv	-11.5082
▁weekly	-11.5084
▁10.1	-11.5086
difluoromethoxy	-11.5089
▁borate	-11.5091
▁3.58	-11.5091
=5.7	-11.5094
[2-(	-11.5094
▁undesired	-11.5095
▁tau	-11.51
toxin	-11.5103
▁3.71	-11.5103
▁HeLa	-11.5103
▁preservative	-11.5104
press	-11.5104
▁syn	-11.5105
▁elsewhere	-11.5107
▁microns	-11.5107
▁SK	-11.511
-200	-11.511
▁Mono	-11.511
▁alicyclic	-11.5113
+2	-11.5113
▁Analytical	-11.5114
▁6.1	-11.5115
▁tetracycline	-11.5115
▁2.80	-11.5116
▁DI	-11.5117
VA	-11.512
▁RNase	-11.5123
▁8.03	-11.5125
translational	-11.5126
▁Neuro	-11.5126
▁charcoal	-11.5128
para	-11.5128
▁chlor	-11.5128
▁acylation	-11.5129
▁parameter	-11.5129
▁sweetening	-11.5134
▁8.7	-11.5136
-2-(3-	-11.5136
onate	-11.5139
▁irradiated	-11.514
▁aureus	-11.5142
▁vertebrate	-11.5142
▁2.36	-11.5144
neck	-11.5145
=1.7	-11.5148
▁3.91	-11.5149
▁7.83	-11.515
▁scintillation	-11.515
)-1-(2-	-11.515
▁viable	-11.5151
▁EDC	-11.5151
virus	-11.5155
▁gland	-11.5159
▁3.93	-11.5159
▁ease	-11.5159
-33	-11.5161
▁transferase	-11.5162
▁impurity	-11.5165
▁2012	-11.5166
▁tautomers	-11.5168
▁operations	-11.5169
▁plug	-11.5169
▁dialysis	-11.5169
▁la	-11.517
▁HC	-11.5172
▁polymerizable	-11.5174
mid	-11.5176
▁2.95	-11.5176
▁(10.0	-11.5178
IM	-11.5181
]−	-11.5183
▁6.96	-11.5183
▁MM	-11.5184
▁stoichiometric	-11.5184
expressed	-11.5187
▁thought	-11.5191
comprising	-11.5192
▁topically	-11.5192
anilino	-11.5193
bl	-11.5193
SI	-11.5194
BS	-11.5195
254	-11.5196
mes	-11.5197
▁hybridizing	-11.5197
tive	-11.5198
▁shell	-11.5199
DELTA	-11.52
▁2.33	-11.5201
polypeptide	-11.5204
▁covered	-11.5205
▁alkanoyl	-11.5205
▁embryos	-11.5206
▁Serum	-11.5207
der	-11.5209
▁pC	-11.5209
▁Genes	-11.5211
clo	-11.5212
▁Ausubel	-11.5213
methanamine	-11.5213
▁aldehydes	-11.5217
carbazole	-11.5218
▁coefficient	-11.522
▁164	-11.5223
▁3.69	-11.5223
▁Oct	-11.5225
▁DP	-11.5228
▁3.63	-11.5231
▁allelic	-11.5233
▁Second	-11.5234
▁320	-11.5235
▁infarction	-11.5236
▁KCl	-11.5238
}-1	-11.5239
▁3.66	-11.5239
▁mitochondrial	-11.524
▁172	-11.5243
▁discrete	-11.5243
▁4.02	-11.5244
▁3.62	-11.5246
sulfate	-11.5247
▁isoforms	-11.5247
emic	-11.5248
▁cervical	-11.5251
▁compressed	-11.5252
▁concept	-11.5256
▁dicyclohexyl	-11.5256
nicotinamide	-11.5257
▁octyl	-11.5259
cold	-11.5261
′′,	-11.5263
▁Description	-11.5263
▁pg	-11.5264
▁adenosine	-11.5264
▁5-6	-11.5267
▁JP	-11.5267
▁healing	-11.5273
▁(11)	-11.5273
▁admixed	-11.5275
ases	-11.5276
▁ear	-11.5276
▁2010	-11.5277
▁polysaccharide	-11.5277
ung	-11.5277
▁deposit	-11.5277
▁1.70	-11.5278
▁153	-11.5281
▁ethylenediamine	-11.5281
▁tragacanth	-11.5283
hen	-11.5286
▁force	-11.5287
▁reservoir	-11.5287
▁donors	-11.5288
▁too	-11.5291
▁loci	-11.5295
ele	-11.5297
▁CCL	-11.5297
▁Prep	-11.5298
-3.5	-11.5301
▁Light	-11.5302
▁Determination	-11.5303
▁oxalyl	-11.5303
=1.0	-11.5304
rk	-11.5307
CMV	-11.5308
▁curing	-11.5309
▁1.21	-11.531
Gln	-11.5311
▁Hg	-11.5311
▁height	-11.5313
nitrobenzyl	-11.5314
ual	-11.5315
▁signs	-11.5316
▁repeats	-11.5317
▁2.27	-11.532
▁HSV	-11.5323
▁hence	-11.5323
▁4.03	-11.5325
phosphino	-11.5325
week	-11.5327
▁0.32	-11.5329
▁3.99	-11.5331
▁7.93	-11.5333
▁bicyclo	-11.5334
▁fruit	-11.5335
glyc	-11.5337
ferrocene	-11.5338
▁metabolite	-11.5339
▁im	-11.5339
les	-11.534
▁biology	-11.5343
▁positively	-11.5344
fl	-11.5346
▁ii	-11.5346
▁negatively	-11.5346
▁status	-11.5347
-2'-	-11.5347
Nitro	-11.5349
128	-11.535
▁returned	-11.5352
-4-(3-	-11.5353
ori	-11.5356
ste	-11.5356
ai	-11.5357
▁silencing	-11.5358
▁LRMS	-11.5359
using	-11.5362
▁incorporate	-11.5363
▁recently	-11.5365
▁sheet	-11.5365
▁177	-11.5366
pentanoic	-11.5366
▁prolonged	-11.5369
▁successfully	-11.5369
▁centers	-11.5371
▁180°	-11.5371
▁mesylate	-11.5372
▁6.91	-11.5373
▁Technology	-11.5374
selective	-11.5377
▁3.97	-11.5379
▁Ann	-11.538
▁bacterium	-11.5392
▁EU	-11.5392
pentafluoro	-11.5393
▁lubricant	-11.5393
▁joint	-11.5398
▁taste	-11.54
▁visual	-11.5401
▁consisted	-11.5401
15-	-11.5401
▁carbo	-11.5402
valent	-11.5404
▁5.8	-11.5405
ct	-11.5405
▁experimentation	-11.5405
▁4.15	-11.5405
▁Str	-11.5407
▁Wis	-11.5408
diazaspiro	-11.5408
▁methylation	-11.5411
▁pathogenic	-11.5412
-{	-11.5412
▁thymidine	-11.5413
▁3.10	-11.5415
▁Notch	-11.5415
▁8.15	-11.5416
purified	-11.5419
▁alkylated	-11.5419
▁7:	-11.542
▁2.34	-11.5421
▁quinoline	-11.5424
▁157	-11.5424
yr	-11.5424
DC	-11.5425
▁FcRn	-11.5425
▁withdrawn	-11.5426
Molecular	-11.5435
MM	-11.5438
▁optimum	-11.5438
134	-11.5441
[(2-	-11.5443
▁methylcellulose	-11.5444
20°	-11.5444
-1-(3-	-11.5445
▁Biochemistry	-11.5447
ess	-11.5449
▁trap	-11.545
▁rodent	-11.545
▁CB	-11.5451
▁0.94	-11.5451
▁141	-11.5453
▁dopant	-11.5454
▁medicine	-11.5454
▁(3-	-11.5456
▁lambda	-11.5457
▁GS	-11.5458
▁nt	-11.5458
tagged	-11.546
▁(0.7	-11.5461
▁imino	-11.5461
=6.2	-11.5461
▁Gram	-11.5462
han	-11.5462
▁particulate	-11.5463
▁Sc	-11.5464
▁Formulas	-11.5465
▁stabilizer	-11.5468
▁1.31	-11.5468
vin	-11.5469
▁equimolar	-11.5471
sense	-11.5471
−1.	-11.5473
▁2.65	-11.5475
20)	-11.5477
▁refluxing	-11.5478
sub	-11.5478
▁sieves	-11.5481
▁compare	-11.5485
▁7.97	-11.5485
▁safe	-11.5488
▁Green	-11.549
▁6.88	-11.5492
▁liters	-11.5494
▁(+)	-11.5494
pentenyl	-11.5497
▁GDF	-11.5499
▁discovery	-11.5499
ek	-11.5504
▁92%	-11.5507
▁nucleophilic	-11.5507
▁freshly	-11.5507
bp	-11.551
TR	-11.5511
KK	-11.5511
▁understanding	-11.5511
▁0.89	-11.5511
▁2.70	-11.5521
▁squamous	-11.5524
hydride	-11.5524
inate	-11.5524
▁Genet	-11.5528
▁360	-11.5528
▁deficient	-11.5529
148	-11.5536
▁localized	-11.5537
cho	-11.5539
▁162	-11.5542
▁Remington	-11.5545
▁suppress	-11.5547
propanoyl	-11.5549
[5,4-	-11.5551
▁preference	-11.5553
▁2.24	-11.5554
▁cerevisiae	-11.5556
▁diagram	-11.556
▁fit	-11.5561
▁Trp	-11.5561
▁FAB	-11.5562
▁sta	-11.5563
▁-20°	-11.5563
phosphoryl	-11.5563
=5.8	-11.5565
▁1.49	-11.5568
Gal	-11.5568
COR	-11.5572
▁1.22	-11.5576
mel	-11.5576
▁edition	-11.5576
IIa	-11.5584
▁standing	-11.5584
dioxa	-11.5584
ities	-11.5587
rc	-11.5589
▁databases	-11.5591
▁apply	-11.5592
▁mediate	-11.5593
▁bile	-11.5594
▁prevents	-11.5596
{[(	-11.5597
▁indication	-11.5601
▁proportions	-11.5602
▁5.3	-11.5603
▁adhesive	-11.5606
▁suppository	-11.5609
▁dimethylamino	-11.5612
▁SS	-11.5613
▁accordingly	-11.5614
▁195	-11.5616
crystallization	-11.5618
▁NMP	-11.5618
emia	-11.562
4-(3,4-	-11.5621
rit	-11.5626
▁methanesulfonyl	-11.5626
che	-11.5629
▁Sub	-11.563
▁167	-11.5631
▁4.9	-11.5631
chlorobenzyl	-11.5631
ze	-11.5631
▁sterilized	-11.5632
ale	-11.5633
-34	-11.5633
▁6.75	-11.5633
▁oligomerization	-11.5634
▁2.29	-11.5636
▁Biotech	-11.5638
▁3.64	-11.564
▁Cap	-11.5645
▁pertains	-11.5645
lum	-11.5646
];	-11.5646
▁isoform	-11.5648
▁tRNA	-11.565
mit	-11.5651
▁amido	-11.5652
Ag	-11.5653
▁Salt	-11.5656
oxymethyl	-11.5658
▁entitled	-11.5662
155	-11.5663
clone	-11.5664
▁0.40	-11.5665
▁dermatitis	-11.5666
▁bodies	-11.5666
▁8.12	-11.5669
lated	-11.5675
▁siRNAs	-11.5676
▁JAK	-11.5679
▁hybridizes	-11.5681
▁Therapy	-11.5682
▁2.16	-11.5683
▁Tetrahedron	-11.5686
▁precise	-11.5687
-36	-11.5689
thiadiazole	-11.569
▁Life	-11.5695
▁2.14	-11.5695
▁pol	-11.5696
▁Ib	-11.5696
anol	-11.5699
▁trials	-11.5706
example	-11.571
OCF	-11.5712
▁heterodimer	-11.5714
▁transduced	-11.5718
▁3.48	-11.5718
▁8.08	-11.5721
▁9:1	-11.5722
▁340	-11.5723
▁drive	-11.5724
CK	-11.5726
▁3.30	-11.5726
▁weights	-11.5727
(5)	-11.5727
▁matrices	-11.5728
▁171	-11.5729
▁2.22	-11.5732
▁0.87	-11.5734
▁MT	-11.5735
▁centrifuge	-11.5736
▁330	-11.5739
De	-11.5739
4,5	-11.574
▁buccal	-11.574
▁5.7	-11.574
▁lectin	-11.5741
▁Screening	-11.5741
119	-11.5742
▁6.84	-11.5742
▁stainless	-11.5744
column	-11.5747
Trp	-11.5749
-(2,3-	-11.5749
▁3.35	-11.5756
▁185	-11.5756
▁ME	-11.576
▁passage	-11.5761
▁evident	-11.5761
▁imidazo	-11.5762
▁enhancement	-11.5763
▁0.86	-11.5766
DF	-11.5768
administered	-11.5769
lim	-11.5769
eo	-11.5769
▁2.55	-11.5771
ram	-11.5772
▁4.12	-11.5775
225	-11.5775
VD	-11.5778
▁immunotherapy	-11.5778
od	-11.5778
▁cover	-11.5779
▁paragraph	-11.5779
▁Biophys	-11.5779
▁night	-11.5781
▁6.83	-11.5788
▁8.01	-11.5789
▁2.26	-11.579
▁(2003)	-11.5792
▁phosphorous	-11.5795
▁glucagon	-11.5796
Ex	-11.5797
▁SU	-11.5798
▁articles	-11.5799
▁structurally	-11.5802
▁vaccination	-11.5803
▁Blue	-11.5803
▁possibly	-11.5807
▁surgical	-11.5807
▁(1980)	-11.5807
▁PT	-11.5807
▁electrical	-11.581
-(3-(	-11.5811
▁transforming	-11.5812
▁pi	-11.5813
▁0.36	-11.5814
▁month	-11.5815
▁27.	-11.5816
[1	-11.5819
▁flat	-11.5821
benzodiazepine	-11.5823
▁radioactivity	-11.5823
▁Healthcare	-11.5827
▁lecithin	-11.5827
LK	-11.5828
MI	-11.5829
sulfonylamino	-11.5831
▁PBMC	-11.5833
▁easy	-11.5834
propanamide	-11.5835
:13	-11.5837
▁receive	-11.5837
▁1.98	-11.584
ko	-11.5843
▁combine	-11.5843
▁hepatic	-11.5845
900	-11.5846
dic	-11.5846
▁consideration	-11.5846
▁Retention	-11.5849
▁2.21	-11.585
▁date	-11.585
3,3-	-11.5856
▁guanidine	-11.5856
dr	-11.5857
▁163	-11.5859
▁regenerated	-11.5859
▁Sa	-11.5859
▁23°	-11.586
▁permits	-11.5862
▁stabilize	-11.5866
▁port	-11.5868
dihydrobenzo	-11.5868
KD	-11.5869
▁herpes	-11.587
▁finely	-11.5871
lane	-11.5872
▁purify	-11.5874
)-5	-11.5875
vol	-11.5875
▁IB	-11.5875
▁2.42	-11.5876
phenylpropyl	-11.5877
▁2.23	-11.5877
▁(55	-11.5878
=6.1	-11.5879
▁3.20	-11.5879
▁Biotechnol	-11.5882
▁(0.07	-11.5883
dicarboxylate	-11.5884
▁alkene	-11.5886
▁Temperature	-11.5887
▁diffusion	-11.589
▁dec	-11.5891
▁8.06	-11.5893
▁titers	-11.5893
▁8%	-11.5896
▁geometric	-11.5897
▁lipo	-11.5898
propylamino	-11.59
▁periods	-11.59
Cyclopropyl	-11.5901
▁distributed	-11.5901
hole	-11.5903
▁penetration	-11.5907
▁fast	-11.5907
uk	-11.5908
▁regarding	-11.5909
005	-11.5911
▁6.89	-11.5911
▁TF	-11.5912
▁imine	-11.5913
)-9	-11.5913
▁152	-11.5913
▁lymphocytic	-11.5916
▁8.04	-11.5916
▁kill	-11.5923
▁consumed	-11.5923
▁siNA	-11.5924
▁300°	-11.5928
▁White	-11.5935
▁0.93	-11.5938
▁250°	-11.5939
-01	-11.5941
▁referring	-11.5942
×3).	-11.5944
ck	-11.5944
▁3.67	-11.5946
▁metallic	-11.5951
▁UPLC	-11.5951
[4-(2-	-11.5953
3)4	-11.5955
▁strategies	-11.5958
▁secretory	-11.5959
▁2.78	-11.5959
▁Or	-11.596
pyrrolidinone	-11.5962
▁cr	-11.5962
(3)	-11.5964
▁doxorubicin	-11.5965
▁ischemic	-11.5968
uch	-11.5968
▁(50%	-11.5969
att	-11.5971
▁colloidal	-11.5973
lig	-11.5974
▁configured	-11.5975
stage	-11.5979
▁2-3	-11.5979
▁Medium	-11.5981
XL	-11.5982
▁1:2	-11.5984
▁6.82	-11.5984
▁AIDS	-11.5984
90%	-11.5984
gal	-11.5985
EB	-11.5986
▁4.18	-11.5987
▁glycosylated	-11.5988
549	-11.5989
:25	-11.5989
133	-11.5991
)+;	-11.5993
enic	-11.5994
▁He	-11.5997
▁12.0	-11.5998
blast	-11.6005
▁stain	-11.6005
▁4.08	-11.6006
▁Red	-11.6007
triphenyl	-11.6009
▁2.17	-11.601
▁FVIII	-11.601
▁fluorophore	-11.6012
▁35,	-11.6014
▁0.96	-11.6015
▁Smith	-11.6015
▁disposed	-11.6017
▁homologs	-11.6022
(1,1-	-11.6024
▁LiOH	-11.6027
▁Su	-11.6027
▁Tr	-11.6029
▁55%	-11.603
▁surrounding	-11.603
▁wheat	-11.603
▁LOC	-11.6031
▁3.59	-11.6034
▁decanted	-11.6034
bromide	-11.6044
▁great	-11.6046
▁2.58	-11.6049
118	-11.605
▁Pharm	-11.605
▁hairpin	-11.6052
indolyl	-11.6053
▁1,2,4-	-11.6053
▁XII	-11.6054
▁multispecific	-11.6055
▁genus	-11.6056
▁thermometer	-11.6056
PF	-11.6056
)+,	-11.6057
▁0.38	-11.6061
6′	-11.6061
▁maturation	-11.6064
▁absorbed	-11.6066
▁network	-11.6068
▁newly	-11.607
▁pulse	-11.6071
▁interacting	-11.6073
lytic	-11.6075
▁8.07	-11.608
methylmorpholine	-11.6081
fi	-11.6083
▁(2.3	-11.6094
▁standards	-11.6094
▁1.95	-11.6096
144	-11.61
▁administer	-11.6101
▁3.22	-11.6102
▁3.12	-11.6102
cu	-11.6103
297	-11.6104
/100	-11.6104
▁inactivation	-11.6105
▁6.86	-11.6106
▁aptamer	-11.6106
▁fractionation	-11.6106
▁mapping	-11.6107
[2-(4-	-11.6111
▁stereochemistry	-11.6111
▁(2.7	-11.6112
Dihydro	-11.6113
▁PH	-11.6114
▁6.87	-11.6117
alo	-11.6118
▁2.37	-11.6119
154	-11.612
▁isothiocyanate	-11.6122
ido	-11.6125
ke	-11.6129
cycle	-11.6132
▁Plates	-11.6132
▁1.17	-11.6133
▁building	-11.6134
▁bubbled	-11.6134
▁Flash	-11.6139
▁rare	-11.614
▁neutralize	-11.6141
▁guinea	-11.6141
(7-	-11.6144
▁loops	-11.6145
▁Time	-11.6153
aliphatic	-11.6156
166	-11.6157
acet	-11.616
otic	-11.616
▁0.21	-11.616
yo	-11.6163
rine	-11.6163
▁sizes	-11.6166
60°	-11.6167
control	-11.617
▁captured	-11.6173
ACC	-11.6174
▁Tm	-11.6175
▁error	-11.6176
▁bolus	-11.6176
▁DNAs	-11.6177
▁catalyzed	-11.6178
168	-11.6179
▁BP	-11.6179
▁routinely	-11.6182
][	-11.6183
▁responsive	-11.6184
▁circumstances	-11.6184
▁pyridazinyl	-11.6185
▁sh	-11.6188
▁GL	-11.6191
▁(1.00	-11.6191
▁multiplet	-11.6193
▁define	-11.6193
▁6-(	-11.6194
▁net	-11.6196
▁indirect	-11.62
▁initiate	-11.6201
▁plural	-11.6201
▁plaque	-11.6206
▁2.85	-11.6207
▁cracking	-11.6207
▁chemokine	-11.6209
inter	-11.6212
▁Conditions	-11.6213
▁1.92	-11.6216
▁catheter	-11.6219
▁elixirs	-11.622
185	-11.6222
▁2.13	-11.6225
25°	-11.6225
▁square	-11.6225
▁pan	-11.6226
ki	-11.6227
▁2.12	-11.623
eli	-11.6231
▁significance	-11.6232
gu	-11.6232
indan	-11.6233
”).	-11.6235
Asn	-11.6238
dodecyl	-11.6238
▁Vectors	-11.624
▁MAb	-11.6241
BLAST	-11.6241
▁drawn	-11.6242
ace	-11.6243
▁2.64	-11.6245
▁2.67	-11.6248
▁aceto	-11.6248
▁0.97	-11.625
pyrimido	-11.625
:16	-11.6251
▁isoxazolyl	-11.6251
▁pyrrole	-11.6252
198	-11.6252
hydroxyl	-11.6256
▁stripped	-11.6258
dent	-11.6258
Benzyloxy	-11.6259
▁Ligand	-11.6262
enol	-11.6264
-(4-(	-11.6265
▁174	-11.6265
▁2.31	-11.6267
▁olive	-11.6268
▁(1982)	-11.6268
990	-11.6268
▁1.12	-11.6272
-[1	-11.6272
FU	-11.6273
▁reconstituted	-11.6274
▁65%	-11.6275
▁adenine	-11.6276
▁160°	-11.6276
▁HDAC	-11.6276
▁anchor	-11.6277
▁6.99	-11.6278
350	-11.6279
▁immediate	-11.6282
RK	-11.6283
▁NY	-11.6284
▁glycerin	-11.6284
▁conduit	-11.6285
▁Crohn	-11.6285
▁ALK	-11.6286
▁phosphite	-11.6287
▁transform	-11.629
=5.9	-11.6291
▁tartrate	-11.6291
butynyl	-11.6292
▁live	-11.6292
2)3	-11.6292
▁gain	-11.6296
▁phenolic	-11.6297
total	-11.6298
▁0.005	-11.6298
139	-11.6299
▁cured	-11.63
▁1.16	-11.6302
▁4.04	-11.6302
catalyst	-11.6304
▁excluded	-11.6307
▁Sh	-11.6309
Promega	-11.631
▁Applied	-11.631
ketone	-11.6311
▁duplicate	-11.6311
▁Southern	-11.6313
styrene	-11.6314
▁Inter	-11.6314
▁1987	-11.6315
188	-11.6316
XII	-11.6316
▁4.01	-11.6318
PB	-11.6318
nonyl	-11.6318
▁May	-11.632
▁compete	-11.6321
▁triphenyl	-11.6322
▁immunoconjugate	-11.6322
▁benz	-11.6323
▁changing	-11.6324
▁predominantly	-11.6326
fused	-11.6326
▁1.46	-11.6326
BF	-11.6328
▁SNP	-11.6337
▁angle	-11.6337
▁3'-	-11.6341
▁Health	-11.6342
▁Curr	-11.6343
ably	-11.6344
▁Composition	-11.6347
EK	-11.635
▁MD	-11.6352
▁Pharmacol	-11.6353
)-4,5-	-11.6355
▁nearly	-11.6356
▁CV	-11.6356
▁crop	-11.6362
▁clo	-11.6363
tes	-11.6364
▁0.37	-11.6365
322	-11.6365
▁Immunology	-11.6373
St	-11.6373
▁disrupt	-11.6374
eq	-11.6378
IE	-11.6378
▁hemi	-11.6378
regulated	-11.6383
×100	-11.6385
▁2.62	-11.6386
▁XL	-11.6388
▁8.09	-11.6389
▁alkyne	-11.639
▁2.43	-11.6393
20-	-11.6395
▁3.65	-11.6395
▁alternate	-11.6396
ylation	-11.6397
▁Structural	-11.6397
▁acting	-11.6397
▁2.63	-11.6399
▁2.88	-11.6402
116	-11.6403
oph	-11.6404
▁2004	-11.6404
▁2.19	-11.6406
▁oleate	-11.6406
▁5000	-11.6406
▁MO	-11.641
▁1.56	-11.6411
▁5-(4-	-11.6418
▁Dia	-11.6422
▁measures	-11.6425
▁0.99	-11.6426
aw	-11.6427
▁Aspergillus	-11.643
▁2.48	-11.6432
▁1.96	-11.6434
Synthesis	-11.6434
▁displacement	-11.6435
▁2.68	-11.6435
▁somatic	-11.6436
aminopropyl	-11.6437
129	-11.6439
▁azido	-11.644
serine	-11.6443
Characterization	-11.6443
▁biodegradable	-11.6443
▁(2.8	-11.6448
▁Target	-11.6448
▁fifth	-11.6448
▁complexed	-11.6452
▁split	-11.6452
▁(2004)	-11.6454
▁reacts	-11.6454
▁denatured	-11.6454
▁conditioned	-11.6454
′′-	-11.6456
▁65%,	-11.6459
▁Removal	-11.6461
▁always	-11.6461
▁Invitrogen	-11.6464
▁limitations	-11.6465
▁(48	-11.6466
158	-11.6466
▁Her	-11.6469
Yield	-11.647
▁Vivo	-11.647
PEA	-11.6471
▁lowering	-11.6474
CONR	-11.6476
▁marked	-11.6477
▁1.68	-11.648
phenylsulfonyl	-11.6481
▁1.85	-11.6482
▁3.45	-11.6483
idene	-11.6485
▁manipulation	-11.6485
▁3.28	-11.6486
approximately	-11.6488
▁1.80	-11.6489
▁alkoxyalkyl	-11.6491
▁led	-11.6491
▁cotton	-11.6492
▁examination	-11.6497
▁Useful	-11.6497
▁practical	-11.6498
ological	-11.65
▁greatly	-11.65
▁6.78	-11.6501
201	-11.6501
mi	-11.6502
▁3.57	-11.6503
▁CDK	-11.6508
▁morpholino	-11.6511
▁1.19	-11.6513
▁3.60	-11.6516
121	-11.6518
fluoropyridin	-11.6521
stimulatory	-11.6521
ifying	-11.6522
▁dish	-11.6524
▁550	-11.6524
▁neurological	-11.6526
azepin	-11.6526
330	-11.6528
▁permeability	-11.6529
▁Hence	-11.653
available	-11.6532
▁biosynthesis	-11.6533
▁(2.1	-11.6533
▁DA	-11.6535
234	-11.6535
▁Salts	-11.6536
▁Delivery	-11.6541
▁propoxy	-11.6542
benzothiazol	-11.6543
▁0.55	-11.6543
▁2.08	-11.6543
▁0.34	-11.6545
▁bridged	-11.6546
▁polysorbate	-11.6546
▁scientific	-11.6546
▁anticancer	-11.6553
bodies	-11.6554
▁accompanying	-11.6556
▁antitumor	-11.6557
▁Functional	-11.6559
▁aggregates	-11.656
oxetan	-11.6562
▁ink	-11.6563
▁sacrificed	-11.6564
▁Purified	-11.6564
▁diastereoisomer	-11.6565
▁1.14	-11.6565
▁3.61	-11.6566
▁405	-11.6568
LR	-11.6569
▁8.18	-11.6569
cyclopentane	-11.657
▁2.39	-11.6573
lactone	-11.6574
▁extensive	-11.6574
pol	-11.6575
▁affords	-11.6577
▁implicated	-11.6578
−1,	-11.6578
pyr	-11.6581
▁window	-11.6582
▁Probes	-11.6584
▁mononuclear	-11.6587
190	-11.6588
▁0.91	-11.659
+]	-11.659
umab	-11.659
▁Four	-11.659
25,	-11.6591
lon	-11.6591
▁3.47	-11.6592
phospho	-11.6594
▁2.73	-11.6595
▁4.06	-11.6595
▁2.44	-11.6596
VE	-11.6598
▁(0.09	-11.6599
▁dimers	-11.6599
▁SUMMARY	-11.66
Cy	-11.66
-90	-11.6601
▁spot	-11.6603
▁gently	-11.6604
▁7.01	-11.6607
CV	-11.6608
▁finger	-11.6608
▁statistical	-11.661
▁belonging	-11.6611
▁(+)-	-11.6618
amycin	-11.6618
▁immunoassays	-11.6619
▁ribozyme	-11.662
▁excised	-11.6622
▁skeletal	-11.6622
Cu	-11.6624
▁clean	-11.6627
▁embryo	-11.6627
▁2.11	-11.6629
▁TE	-11.6629
etic	-11.6629
▁hybrids	-11.6631
alkane	-11.6632
▁United	-11.6633
▁CXCR	-11.6636
▁16.	-11.664
▁proceeds	-11.6641
▁platelets	-11.6645
amines	-11.6655
147	-11.6655
▁fi	-11.6656
1-7	-11.6661
▁Sample	-11.6661
sulfo	-11.6661
shi	-11.6662
▁alkylcarbonyl	-11.6664
=0.8	-11.6664
▁1.08	-11.6664
▁1640	-11.6664
ethoxymethyl	-11.6665
146	-11.6666
▁1.97	-11.6668
▁2.92	-11.6669
ENT	-11.6669
220	-11.6669
▁count	-11.667
▁3.08	-11.6671
-5,6,7,8-	-11.6671
▁randomly	-11.6671
sequence	-11.6673
▁2.09	-11.6679
▁dust	-11.668
▁8.25	-11.668
▁Pure	-11.668
▁presentation	-11.6681
▁156	-11.6682
▁skeleton	-11.6686
▁1.53	-11.6686
=2.7	-11.669
▁hundred	-11.6691
▁flasks	-11.6692
▁describing	-11.6692
cos	-11.6699
chloroethyl	-11.6702
▁1.55	-11.6702
)-1,2,3,4-	-11.6702
▁4.13	-11.6704
▁translocation	-11.6709
▁(0.1%	-11.6712
▁1.99	-11.6712
▁encapsulated	-11.6715
▁12-	-11.6716
▁1.78	-11.6717
▁Hybridization	-11.6718
▁lateral	-11.6719
▁kinetics	-11.6719
glutamine	-11.6719
benzenesulfonate	-11.672
▁matched	-11.6722
(9	-11.6724
▁Saccharomyces	-11.6727
▁condensing	-11.6727
▁Section	-11.6728
▁3.17	-11.6728
▁dosed	-11.6729
▁94°	-11.6733
ack	-11.6734
nonane	-11.6735
▁Multi	-11.6736
▁visualized	-11.6737
=0.5	-11.6737
0/1	-11.6738
▁6.81	-11.6739
methano	-11.6739
▁1,5-	-11.674
▁Freund	-11.6741
▁annealing	-11.6742
▁3.32	-11.6744
▁Agents	-11.6745
▁3.56	-11.6746
cept	-11.6746
▁isotope	-11.6748
▁BL	-11.6748
▁LT	-11.6748
▁findings	-11.6749
▁4.50	-11.6749
har	-11.6752
▁0.29	-11.6758
=4.5	-11.6759
▁1.52	-11.6759
-[2-(4-	-11.676
▁AcOH	-11.6762
▁TAT	-11.6763
▁conductivity	-11.6764
med	-11.6764
▁8.11	-11.6765
WO	-11.6766
▁macrophage	-11.6767
lit	-11.6767
ker	-11.6769
004	-11.6769
▁predict	-11.6771
▁depicts	-11.6771
▁2.41	-11.6773
und	-11.6773
▁deep	-11.6774
ethenyl	-11.6775
▁HRP	-11.6777
organic	-11.6779
▁meth	-11.678
▁Domain	-11.6782
▁Institute	-11.6786
▁ret	-11.6786
▁1.01	-11.6788
Formula	-11.6788
PM	-11.6789
heterocyclic	-11.6789
▁su	-11.6792
ethylenedioxy	-11.6793
▁unbound	-11.6793
▁0.65	-11.6793
▁8:	-11.6794
methoxyethoxy	-11.6794
▁suspected	-11.6796
▁entirely	-11.6796
▁understand	-11.6796
alumina	-11.6797
)-9-	-11.6799
cyclobutane	-11.6805
hydr	-11.6805
▁2.94	-11.6807
▁1.13	-11.6807
▁285	-11.6807
Ga	-11.6809
azepine	-11.6814
▁Reactions	-11.6816
osin	-11.6816
ook	-11.6817
rib	-11.6817
▁3.18	-11.6819
▁PREPARATION	-11.6819
▁flavor	-11.6819
▁Multiple	-11.682
dioxan	-11.6822
MV	-11.6823
morpholinyl	-11.6824
▁flame	-11.6824
▁substitute	-11.6824
▁4.17	-11.6825
▁Purity	-11.6825
▁2-(5-	-11.6826
▁31,	-11.6828
177	-11.6829
▁MTBE	-11.6832
▁terminator	-11.6833
▁subcloned	-11.6833
▁homolog	-11.6833
▁(5%	-11.6834
Mo	-11.6835
▁interfering	-11.6836
▁3.02	-11.6837
▁1-10	-11.6837
▁Sep	-11.6838
▁presenting	-11.6838
▁(32	-11.6839
▁assist	-11.6839
▁slides	-11.6841
▁exert	-11.6843
▁Lane	-11.6845
▁3.46	-11.6846
▁FA	-11.6846
▁CpG	-11.6847
▁polyols	-11.6848
▁8.16	-11.6851
▁fibroblast	-11.6851
▁carcinomas	-11.6851
▁enhances	-11.6852
▁198	-11.6853
▁0.80	-11.6854
sion	-11.6854
▁5:1	-11.6854
▁physically	-11.6855
▁Preparative	-11.6856
▁opposite	-11.6856
dicyclohexyl	-11.6856
▁−80°	-11.6856
lis	-11.6858
▁pathology	-11.686
▁1.06	-11.6861
−1)	-11.6872
glucose	-11.6872
▁discussion	-11.6875
▁11.5	-11.6876
▁Super	-11.6879
▁importance	-11.6879
▁injecting	-11.6882
▁1.62	-11.6883
pyrid	-11.6883
▁3.51	-11.6884
cat	-11.6888
0.01	-11.689
▁alkanol	-11.689
▁BD	-11.6891
obtained	-11.6891
ala	-11.6897
▁Clinical	-11.6898
▁diverse	-11.6898
Scheme	-11.6901
liter	-11.6901
{[2-(	-11.6902
▁Referring	-11.6902
▁8.13	-11.6902
▁lac	-11.6906
▁unnatural	-11.6906
amin	-11.6908
substantially	-11.6915
11)	-11.6916
▁electrodes	-11.6917
▁saturation	-11.6919
▁1.89	-11.6921
▁rearrangement	-11.6921
▁Genetics	-11.6922
▁(36	-11.6923
▁2.86	-11.6927
▁disruption	-11.6932
▁Kd	-11.6933
-[4-(2-	-11.6933
−/−	-11.6935
▁precipitates	-11.6936
▁NA	-11.6937
▁3.26	-11.6937
arm	-11.6937
▁2.96	-11.6938
GI	-11.6939
▁Approximately	-11.6939
quinoxaline	-11.6941
(8-	-11.6944
▁requiring	-11.6944
▁obtainable	-11.6945
▁1.58	-11.6946
▁thiazole	-11.6947
ically	-11.6947
▁3.13	-11.6948
▁2.04	-11.6951
▁schematic	-11.6953
loc	-11.6954
▁enter	-11.6956
▁3.23	-11.6957
▁valuable	-11.6958
▁symbols	-11.6958
▁5.00	-11.696
▁knowledge	-11.6963
▁organometallic	-11.6963
au	-11.6963
CX	-11.6964
▁So	-11.6965
▁meso	-11.6967
▁GI	-11.6967
▁cartilage	-11.6968
▁2.98	-11.6969
UV	-11.697
▁slight	-11.6971
▁3.24	-11.6971
▁approved	-11.6975
180	-11.6975
Accession	-11.6976
▁EMBO	-11.6977
▁modifier	-11.6977
▁ethynyl	-11.6978
-3′-	-11.6979
▁2.05	-11.6979
▁mortality	-11.6982
▁metabolites	-11.6983
▁vigorous	-11.6988
▁pressures	-11.6989
▁clinically	-11.699
▁affinities	-11.6991
-4'-	-11.6991
▁triplicate	-11.6991
▁chromosomes	-11.6993
136	-11.6996
oxazine	-11.6999
▁pairing	-11.7
▁2.47	-11.7002
endo	-11.7002
lithium	-11.7003
▁motor	-11.7009
▁olefinic	-11.701
col	-11.7014
neu	-11.7014
ru	-11.7014
aro	-11.7015
▁conductive	-11.7015
▁subgroup	-11.7016
cellulose	-11.7017
ping	-11.7017
▁therapeutics	-11.7018
▁mimic	-11.7019
▁1.76	-11.702
Fab	-11.7023
10°	-11.7023
▁2.66	-11.7025
▁implanted	-11.7027
▁8.14	-11.7028
▁limits	-11.7029
butyrate	-11.7029
▁2.82	-11.7031
19-	-11.7032
▁conducting	-11.7032
morph	-11.7041
Dimethoxy	-11.7042
▁(38	-11.7044
▁Wnt	-11.7046
1=	-11.7047
{2-[(	-11.7047
▁2.97	-11.7047
-5′-	-11.7049
▁1.41	-11.7051
▁1989,	-11.7051
▁1.79	-11.7053
▁milligrams	-11.7055
▁PV	-11.7056
last	-11.7058
▁ee	-11.7059
▁6%	-11.706
▁LDL	-11.7061
260	-11.7061
▁4.07	-11.7063
-45	-11.7064
14-	-11.7065
▁share	-11.7068
▁lowered	-11.7071
▁3.25	-11.7071
▁correlated	-11.7073
▁--(	-11.7074
▁complications	-11.7075
dien	-11.7077
we	-11.7077
▁sleep	-11.708
rom	-11.7081
▁overexpression	-11.7085
▁(0.14	-11.7086
▁favorable	-11.7086
▁2.76	-11.7089
▁regimens	-11.7093
piperidino	-11.7093
ides	-11.7094
▁PCSK	-11.7096
)-1-(3-	-11.7097
▁2.49	-11.7098
▁vesicles	-11.7099
▁4.09	-11.7101
▁checkpoint	-11.7104
▁CRL	-11.7105
▁radiolabeled	-11.7107
conservative	-11.7109
-[(2	-11.7109
▁Selection	-11.7114
▁mixer	-11.7115
▁4-[	-11.7115
▁1.54	-11.7115
-7,8-	-11.7115
2,2-	-11.7116
▁UK	-11.7117
▁issued	-11.712
naphtho	-11.712
▁1.72	-11.7121
▁1.02	-11.7121
Bi	-11.7122
▁DMA	-11.7122
▁Virol	-11.7124
▁bifunctional	-11.7124
▁lane	-11.7125
butylphenyl	-11.7131
40°	-11.7132
▁AF	-11.7134
▁2.89	-11.7135
▁tip	-11.7138
▁Dec	-11.7139
▁0.84	-11.7141
▁4.14	-11.7141
▁mobility	-11.7142
▁dimerization	-11.7142
▁phosphodiester	-11.7146
af	-11.7147
Gibco	-11.7147
▁(0.13	-11.7147
▁dialyzed	-11.7152
oxadiazole	-11.7153
▁DM	-11.7154
▁205	-11.7155
wing	-11.7156
▁(2005)	-11.7156
▁2.45	-11.7157
▁AND	-11.7157
CAS	-11.7157
)-3-((	-11.7158
)-7	-11.7161
▁(1981)	-11.7162
▁dicarboxylic	-11.7163
▁States	-11.7164
▁176	-11.7165
▁Clone	-11.7167
cyclopentadienyl	-11.7167
▁(0.20	-11.7169
TGF	-11.7169
▁1.04	-11.7171
Rc	-11.7172
emi	-11.7175
=5.3	-11.7176
▁surprisingly	-11.7178
▁Lu	-11.7179
▁2,4,6-	-11.7182
filled	-11.7184
▁electrons	-11.7185
▁ph	-11.719
▁junction	-11.7191
2-10	-11.7192
▁alginic	-11.7195
)+=	-11.7199
metric	-11.7199
▁polymorphism	-11.7201
▁1999	-11.7202
▁0.31	-11.7202
1.20	-11.7203
lactam	-11.7204
▁TS	-11.7204
enoate	-11.7204
Tr	-11.7209
-[4-(4-	-11.721
▁approximate	-11.7211
ration	-11.7212
:19	-11.7212
trichloro	-11.7214
▁locations	-11.7215
)-1,4-	-11.7219
▁ErbB	-11.7222
▁transmission	-11.7224
▁4.22	-11.7227
par	-11.7231
ink	-11.7232
205	-11.7233
▁Identification	-11.7233
▁reason	-11.7234
din	-11.7234
▁acyclic	-11.7235
▁Ringer	-11.7237
▁Vitro	-11.7238
▁zirconium	-11.7246
carbo	-11.725
diazepin	-11.7251
▁pI	-11.7251
▁map	-11.7251
▁hapten	-11.7251
▁verified	-11.7252
▁quickly	-11.7253
ory	-11.7254
▁bo	-11.7254
▁triazole	-11.7254
▁keeping	-11.7255
▁acetylene	-11.7259
▁3.03	-11.726
▁1.07	-11.7261
▁4.16	-11.7262
▁myo	-11.7263
onitrile	-11.7263
▁blots	-11.7269
(1,3-	-11.7271
MEM	-11.7271
salt	-11.7272
▁Injection	-11.7276
▁8.20	-11.7277
▁ameliorate	-11.7278
▁abbreviations	-11.7282
▁3.06	-11.7282
▁Animal	-11.7283
▁polysaccharides	-11.7283
▁caspase	-11.7284
amyl	-11.7285
▁mucosal	-11.7286
▁blend	-11.7288
▁Eur	-11.7288
▁methylamine	-11.7288
▁calf	-11.7288
▁1991,	-11.7289
▁4.28	-11.7291
UC	-11.7293
▁1.03	-11.7295
▁8.21	-11.7296
▁Hydrogen	-11.7296
COOR	-11.7298
▁FIGS	-11.7299
▁recommended	-11.7301
▁degenerate	-11.7304
MW	-11.7304
▁proximity	-11.7305
gt	-11.7306
▁determinant	-11.7308
methoxypyridin	-11.731
▁1.67	-11.7311
▁delivering	-11.7313
▁compartment	-11.7313
butyryl	-11.7315
▁urinary	-11.7315
▁division	-11.7316
{(	-11.7317
Dimethylamino	-11.7318
▁2.93	-11.7319
▁CP	-11.7319
▁tandem	-11.732
▁patch	-11.7322
▁recent	-11.7323
▁triazolyl	-11.7324
)-2-(3-	-11.7326
▁2.01	-11.7326
▁3.16	-11.7326
-[(2-	-11.7326
▁successful	-11.7326
fluoren	-11.7328
▁Po	-11.7328
either	-11.7328
van	-11.7328
▁Grignard	-11.733
▁interacts	-11.733
cyclophosphamide	-11.7335
▁3.01	-11.7335
:1.	-11.7337
▁FT	-11.7338
benzylidene	-11.7338
chlor	-11.734
▁1999,	-11.734
TD	-11.7343
▁nitrocellulose	-11.7345
▁shaker	-11.7345
▁colored	-11.7346
▁arrays	-11.7347
▁10.6	-11.7351
-70	-11.7352
32,	-11.7354
=1.4	-11.7355
com	-11.7356
▁bu	-11.7356
alkoxycarbonyl	-11.7358
▁Agrobacterium	-11.7359
▁furyl	-11.736
▁lowest	-11.736
▁8.17	-11.736
▁progressive	-11.7361
[3	-11.7364
▁capability	-11.7364
▁MDA	-11.7367
▁1.64	-11.737
▁androgen	-11.7371
DD	-11.7371
▁primate	-11.7371
LS	-11.7372
▁middle	-11.7373
▁188	-11.7375
▁2005	-11.7376
▁4.24	-11.7377
▁0.42	-11.7377
▁carbonates	-11.7377
▁(28	-11.7378
▁driving	-11.7378
▁setting	-11.7381
▁Isolated	-11.7382
▁0.60	-11.7385
▁1992,	-11.7385
▁4.11	-11.7386
▁1990,	-11.7388
complex	-11.7392
▁basified	-11.7393
-3'	-11.7394
29,	-11.7395
▁Prior	-11.7398
▁tend	-11.7399
▁saccharide	-11.7401
hal	-11.7402
▁synthetase	-11.7403
=9.1	-11.7403
▁um	-11.7403
▁circuit	-11.7403
▁luminescence	-11.7404
▁waxes	-11.7405
157	-11.7406
▁beam	-11.7406
▁178	-11.7407
-[(3	-11.7407
amid	-11.7407
▁(26	-11.7408
▁polyether	-11.7409
king	-11.741
=12	-11.741
▁lineage	-11.7413
wa	-11.7414
▁enteric	-11.7414
cro	-11.7414
▁neoplastic	-11.7416
159	-11.7419
bar	-11.7423
=2.8	-11.7425
▁95:5	-11.7426
▁2.07	-11.7429
deficient	-11.7429
▁2.74	-11.743
▁1995,	-11.7431
▁facilitates	-11.7431
▁4-1	-11.7434
oside	-11.7436
▁diversity	-11.7437
Hex	-11.744
▁Ta	-11.7442
×50	-11.7443
▁dynamic	-11.7445
▁151	-11.7445
NI	-11.7446
▁1.61	-11.7449
▁apart	-11.7449
▁Fluor	-11.745
top	-11.7452
fac	-11.7454
▁portionwise	-11.7455
▁Bar	-11.7455
▁calculate	-11.7459
]+,	-11.7461
tane	-11.7461
-((2-	-11.7462
▁1.69	-11.7462
▁concerns	-11.7463
▁7.4)	-11.7466
▁platform	-11.7467
ain	-11.7467
245	-11.7469
▁character	-11.7472
▁sperm	-11.7473
▁diisocyanate	-11.7479
arginine	-11.7479
▁blended	-11.748
▁stabilization	-11.7481
14)	-11.7481
▁Base	-11.7482
▁(22	-11.7485
▁179	-11.7485
288	-11.7488
ade	-11.749
▁Nucleotide	-11.7491
▁cosmetic	-11.7494
▁galactose	-11.7495
=4.0	-11.7495
▁multivalent	-11.7497
Chlorophenyl	-11.75
▁cycloalkylalkyl	-11.7503
179	-11.7505
▁Comparison	-11.7506
▁0.48	-11.7507
▁(0.11	-11.7507
▁solubilized	-11.7511
KA	-11.7511
diethoxy	-11.7514
▁186	-11.7514
▁1.91	-11.7515
▁2.83	-11.7517
▁Applications	-11.7519
▁inoculation	-11.7521
ras	-11.7522
▁antifungal	-11.7522
▁affects	-11.7524
]-2,4-	-11.7525
▁pathogens	-11.7526
▁2.81	-11.7528
5'	-11.7532
response	-11.7534
meter	-11.7535
▁his	-11.7535
▁Lab	-11.7537
range	-11.754
▁Ten	-11.754
▁tetrazolyl	-11.7542
▁5.9	-11.7544
▁DH	-11.7547
▁(4.5	-11.7547
▁4.21	-11.7549
cycloalkenyl	-11.7553
eri	-11.7555
▁lymphoid	-11.7556
[1,4]	-11.7556
3,5-	-11.7557
▁4,5-	-11.7557
95%	-11.7557
▁manual	-11.7557
▁1.59	-11.7558
▁Pi	-11.7559
▁principle	-11.7559
▁running	-11.7561
benzamido	-11.7562
ash	-11.7562
▁2.72	-11.7563
▁6.79	-11.7566
▁fever	-11.7566
uck	-11.7567
spor	-11.7571
▁plays	-11.7573
yellow	-11.7574
▁differentiated	-11.7574
:30	-11.7579
▁alginate	-11.7579
▁link	-11.758
=9.6	-11.7581
myc	-11.7581
▁222	-11.7582
therapeutically	-11.7583
▁utilities	-11.7585
▁235	-11.7585
▁214	-11.7588
▁pyro	-11.759
=4.4	-11.759
▁expressly	-11.7591
▁aromatics	-11.7591
gr	-11.7592
▁emulsifiers	-11.7592
▁0.46	-11.7595
sia	-11.7595
▁movement	-11.7596
methyloxy	-11.7596
▁3.07	-11.7598
▁nylon	-11.76
×105	-11.7601
▁nucleobase	-11.7604
rb	-11.7606
▁relating	-11.7606
[4-(4-	-11.7608
▁Particular	-11.7609
▁epidermal	-11.761
choline	-11.7613
-(2-(	-11.7614
▁establish	-11.7617
▁tosylate	-11.7619
cel	-11.7619
ij	-11.7622
▁6.77	-11.7622
7-1	-11.7625
▁monkeys	-11.7625
▁analyzing	-11.7625
:21	-11.7626
▁2.59	-11.7626
▁Taq	-11.7628
cooled	-11.7629
▁7%	-11.763
▁2.87	-11.7631
▁275	-11.7632
▁NGF	-11.7635
▁(2×50	-11.7635
▁2.99	-11.7635
▁document	-11.7636
ave	-11.7636
sulfide	-11.7639
quinolinyl	-11.7639
▁1983	-11.7639
▁herbicide	-11.7639
tens	-11.7641
▁kinetic	-11.7645
▁exchanged	-11.7646
film	-11.7647
)-4-(2-	-11.7648
▁3.52	-11.7652
▁3.50	-11.7653
▁butter	-11.7653
▁synergistic	-11.7655
▁82%	-11.7658
▁subtype	-11.7658
50)	-11.7658
▁cancerous	-11.7659
▁2.52	-11.7661
fluorene	-11.7668
▁4.23	-11.7669
}-4-	-11.7671
▁(0.16	-11.7673
▁progenitor	-11.7673
rap	-11.7674
▁3.04	-11.7675
▁Apo	-11.7679
ISP	-11.768
▁Chiral	-11.7681
▁3.15	-11.7682
▁tower	-11.7683
▁Stage	-11.7687
▁apo	-11.7688
▁2.61	-11.7688
NHCO	-11.7689
▁Evaporation	-11.769
▁residence	-11.769
UT	-11.7691
▁scored	-11.7691
ett	-11.7692
▁phospholipids	-11.7694
)-1,2-	-11.7694
]+:	-11.7695
▁Antisense	-11.7696
oxime	-11.7697
▁Greene	-11.7697
▁6.76	-11.7698
▁silicate	-11.7702
some	-11.7706
sylate	-11.7706
▁2.56	-11.7706
▁(65	-11.7706
▁carbodiimide	-11.7707
▁NHC	-11.771
▁cycloheptyl	-11.771
-6,	-11.7711
▁pest	-11.7712
RTM	-11.7713
culture	-11.7713
ition	-11.7714
:17	-11.7715
mia	-11.7715
chrom	-11.7716
▁contaminants	-11.7717
▁Bu	-11.7718
▁3.36	-11.7718
)2—	-11.7718
45°	-11.772
▁4.38	-11.7722
▁3.05	-11.7724
▁modes	-11.7724
ATP	-11.7725
hexan	-11.7727
produced	-11.773
▁ethanolamine	-11.773
]-7-	-11.7732
▁4.19	-11.7733
chem	-11.7734
ACE	-11.7738
hexanoic	-11.7738
fu	-11.774
▁lipophilic	-11.774
=3.6	-11.7742
▁barium	-11.7743
▁glyco	-11.7744
kinase	-11.7744
▁208	-11.7745
[3.1.0]	-11.7746
▁guanine	-11.7747
▁placebo	-11.7747
▁(1:1	-11.775
▁0.39	-11.7751
▁traditional	-11.7751
▁intradermal	-11.7753
=4.9	-11.7754
▁4′-	-11.7754
▁lyophilization	-11.7756
▁(−	-11.7758
▁aminoalkyl	-11.7759
)-1,2,4-	-11.776
▁8.19	-11.7761
▁cascade	-11.7761
▁SN	-11.7763
▁DME	-11.7764
NRa	-11.7766
▁chlorinated	-11.7766
▁1200	-11.7767
▁lost	-11.7769
▁HOBt	-11.7769
4-(3-	-11.7771
▁hydroxymethyl	-11.7772
▁kanamycin	-11.7773
▁elemental	-11.7777
LI	-11.7779
ethylenediamine	-11.7779
Pharmacia	-11.7781
▁underlying	-11.7782
▁Raney	-11.7782
▁year	-11.7782
str	-11.7783
▁Mi	-11.7784
▁tautomeric	-11.7784
BuLi	-11.7784
▁diethylamine	-11.7785
▁Gra	-11.7786
▁Chinese	-11.7786
▁Syndrome	-11.7786
189	-11.7787
▁cleave	-11.779
▁tagged	-11.779
▁mid	-11.7791
administration	-11.7791
▁pressurized	-11.7792
▁fish	-11.7794
fil	-11.7795
Ru	-11.7798
▁Patients	-11.78
▁quench	-11.7802
▁true	-11.7802
,13-	-11.7803
▁choline	-11.7808
▁patches	-11.7808
immunodeficiency	-11.7817
▁biomarker	-11.7817
bottomed	-11.7819
▁6.65	-11.782
▁candidates	-11.7821
▁chlorobenzene	-11.7822
ylthio	-11.7823
▁Merck	-11.7825
▁2013	-11.7825
▁fractional	-11.7827
▁4.27	-11.7829
▁pcDNA	-11.783
dba	-11.7831
▁×	-11.7833
▁thioether	-11.7834
▁crosslinked	-11.7834
▁5-(2-	-11.7836
HIV	-11.7837
▁8.22	-11.7839
{[(2	-11.7839
treating	-11.7839
▁1.71	-11.7842
▁ordinarily	-11.7843
▁arylene	-11.7844
targeting	-11.7845
BV	-11.7847
▁pores	-11.7847
▁possesses	-11.7852
uff	-11.7853
epsilon	-11.7853
-3,3-	-11.7854
(2-((	-11.7857
dioxolane	-11.7857
alkylthio	-11.7858
▁Elmer	-11.7862
site	-11.7863
▁suited	-11.7863
bearing	-11.7863
▁Dr	-11.7863
▁3.11	-11.7867
▁ameliorating	-11.7868
▁quantification	-11.7868
▁2.77	-11.7868
1-12	-11.787
5,000	-11.7871
▁alkylaryl	-11.7873
▁oxidant	-11.7875
▁10.8	-11.7878
▁paclitaxel	-11.7879
▁relate	-11.7879
▁ubiquitin	-11.7879
-4′-	-11.7879
▁glycosyl	-11.788
▁retrovirus	-11.7882
▁Vi	-11.7883
▁tr	-11.7883
▁plaques	-11.7884
dihydropyridine	-11.7886
▁mill	-11.7887
▁sulphur	-11.7888
▁counting	-11.7888
▁mouth	-11.789
▁families	-11.7894
▁kilogram	-11.7894
2=	-11.7896
▁Wash	-11.7897
▁disc	-11.79
▁default	-11.7904
▁3.09	-11.7906
▁Do	-11.7907
▁(0.18	-11.7908
)-5-(4-	-11.7911
ones	-11.7914
=3.0	-11.7914
▁sol	-11.7917
▁SFC	-11.7918
126	-11.7921
▁3.14	-11.7922
▁(37	-11.7922
phi	-11.7923
370	-11.7924
leucine	-11.7924
▁Consequently	-11.7925
▁page	-11.7925
▁70,	-11.7926
▁collecting	-11.7928
ylcarbonyl	-11.7928
activity	-11.7929
-55	-11.7929
▁ophthalmic	-11.793
propylamine	-11.793
▁viewpoint	-11.793
3'	-11.7935
za	-11.7935
▁Hetero	-11.7937
▁CM	-11.7938
▁2.06	-11.7938
▁demonstrating	-11.794
[1,2,4]	-11.794
▁%.	-11.794
LF	-11.7941
▁4.29	-11.7942
air	-11.7944
▁mbar	-11.7948
▁269	-11.7948
▁disintegrating	-11.795
▁266	-11.7951
▁VHH	-11.7952
butanoate	-11.7952
▁239	-11.7954
CB	-11.7954
▁hydrazide	-11.7958
ations	-11.796
▁nontoxic	-11.7962
triaza	-11.7963
▁EMBODIMENTS	-11.7964
▁furanyl	-11.7964
170	-11.7969
▁Measurement	-11.797
-3(2	-11.7972
▁1.51	-11.7976
▁1994,	-11.7976
bb	-11.7977
▁1.09	-11.7978
▁PDGF	-11.7978
▁clay	-11.7979
lumin	-11.7979
▁zeolites	-11.7981
▁Carbon	-11.7981
▁1.63	-11.7982
methylbutyl	-11.7983
carboxymethyl	-11.7983
imidazolyl	-11.7984
-2,3	-11.7986
▁(42	-11.7989
ethanamine	-11.7989
▁enzymatically	-11.799
▁0.78	-11.799
▁flushed	-11.7993
ara	-11.7994
▁disclosures	-11.7995
▁maleimide	-11.7996
▁shear	-11.7997
▁monostearate	-11.7997
▁Ther	-11.7998
ah	-11.7999
methylbenzyl	-11.8
cyclopent	-11.8001
▁polyurethane	-11.8003
▁microplate	-11.8003
▁nutrient	-11.8004
▁bottoms	-11.8004
▁median	-11.8005
▁trial	-11.8007
▁Vector	-11.8011
▁(3×	-11.8012
▁finding	-11.8012
▁synthesizer	-11.8012
▁6.70	-11.8014
-6-(4-	-11.8015
▁4.60	-11.8015
▁opioid	-11.8018
Cr	-11.802
▁oleic	-11.8021
▁cisplatin	-11.8023
lation	-11.8024
▁phospholipid	-11.8025
169	-11.8026
▁Yet	-11.8026
zo	-11.8027
valine	-11.8027
▁phosphoramidite	-11.8028
▁destruction	-11.8028
▁titration	-11.8028
▁cyclohexanone	-11.8028
▁0.43	-11.8029
▁met	-11.8032
▁peanut	-11.8033
▁denote	-11.8034
fluorescence	-11.8035
▁suppressing	-11.8036
▁1.57	-11.8036
▁Ham	-11.8039
▁(110	-11.8039
▁paraffins	-11.8039
▁gl	-11.804
fluorophenoxy	-11.8042
▁quinolinyl	-11.8042
▁quenching	-11.8043
▁disodium	-11.8043
Roche	-11.8046
131	-11.8047
▁PBMCs	-11.8047
480	-11.8054
▁suppressed	-11.8054
▁glioma	-11.8054
-7-(	-11.8055
▁HSA	-11.8055
▁pS	-11.8055
BSA	-11.8057
▁dipeptide	-11.8058
▁pET	-11.8061
UTR	-11.8061
▁lesion	-11.8061
▁trait	-11.8061
▁Bis	-11.8062
YT	-11.8063
▁sprayed	-11.8063
uridine	-11.8066
ris	-11.8067
▁FL	-11.8068
-(2,2-	-11.8069
▁Studies	-11.807
▁path	-11.807
▁8.23	-11.807
▁(6.0	-11.8073
▁4.33	-11.8073
acetophenone	-11.8077
▁STAT	-11.8078
▁antioxidant	-11.8078
▁operatively	-11.808
▁lubricating	-11.808
▁(12)	-11.8083
▁avidin	-11.8083
onyl	-11.8085
▁osmotic	-11.8086
histidine	-11.8086
▁butanol	-11.8088
▁Full	-11.8089
▁MG	-11.8092
▁SB	-11.8093
▁2.69	-11.8094
▁cytoplasm	-11.8094
bin	-11.8095
▁2.71	-11.8096
▁2.91	-11.8101
-37	-11.8103
anth	-11.8103
▁lipase	-11.8107
▁England	-11.8107
+1]+	-11.8107
((2-(	-11.8108
Amersham	-11.8109
▁3×	-11.8109
oli	-11.8109
▁ATG	-11.8112
▁201	-11.8113
▁dog	-11.8118
:40	-11.8119
▁1.11	-11.812
thy	-11.8122
▁interference	-11.8122
▁Rx	-11.8126
DMA	-11.8127
▁microspheres	-11.8129
6-14	-11.8129
▁versions	-11.813
▁1.73	-11.8134
▁folding	-11.8134
BM	-11.8135
rea	-11.8141
CHF	-11.8142
▁10.7	-11.8143
▁2.79	-11.8143
imidazolidin	-11.8144
▁3.55	-11.8145
[3-(	-11.8145
▁4.26	-11.8145
xy	-11.8146
immuno	-11.8147
▁PPAR	-11.8147
▁CS	-11.8148
ough	-11.8149
▁HindIII	-11.8149
{[(1	-11.815
EGFR	-11.8151
2/0	-11.8151
Ro	-11.8155
▁3.34	-11.8157
hy	-11.8157
AE	-11.8157
ethanolamine	-11.8158
duct	-11.8158
abbreviation	-11.8162
▁transformant	-11.8162
long	-11.8165
▁text	-11.8167
▁1997	-11.8169
▁arylthio	-11.8169
▁lengths	-11.817
azole	-11.817
▁(23	-11.817
GCG	-11.8171
▁concurrently	-11.8171
▁phosphates	-11.8173
▁plot	-11.8173
actin	-11.8174
▁veterinary	-11.8175
▁vertical	-11.8175
▁TO	-11.8176
era	-11.8179
▁About	-11.8181
-(2	-11.8182
▁0.83	-11.8182
268	-11.8183
ina	-11.8184
▁octa	-11.8186
=0.9	-11.8187
▁pyruvate	-11.8188
▁1.66	-11.8188
ising	-11.8191
▁discharged	-11.8192
)-2-[(	-11.8192
▁2.02	-11.8193
▁(34	-11.8194
▁impairment	-11.8196
infected	-11.8198
▁azo	-11.8198
atic	-11.8199
▁advanced	-11.8201
FF	-11.8201
▁Enzyme	-11.8204
▁airway	-11.8207
▁0.44	-11.8209
▁1.94	-11.821
▁83%	-11.8211
▁Meth	-11.8212
▁impaired	-11.8214
222	-11.8214
lizumab	-11.8214
-4(3	-11.8219
562	-11.8221
▁objects	-11.8221
▁implantation	-11.8225
▁FCS	-11.8225
▁Ko	-11.8226
▁265	-11.8227
ble	-11.8228
-500	-11.823
▁84%	-11.823
oxi	-11.8232
▁solubilizing	-11.8233
▁(21	-11.8237
Phos	-11.824
▁3.19	-11.8241
▁phthalate	-11.8241
▁410	-11.8242
▁uniformly	-11.8243
▁repertoire	-11.8244
inal	-11.8244
▁width	-11.8244
AZ	-11.8248
▁carbocycle	-11.8249
homo	-11.825
460	-11.825
▁isolates	-11.8251
▁Isomer	-11.8253
▁ADC	-11.8254
▁pUC	-11.8254
▁Silica	-11.8254
▁FITC	-11.8255
▁intramuscularly	-11.8255
▁8.26	-11.8257
▁8.27	-11.8259
▁mellitus	-11.826
▁extracting	-11.8262
▁silk	-11.8262
benzylamino	-11.8263
-8.0	-11.8264
▁termini	-11.8267
▁neutrophils	-11.8267
Con	-11.8267
mination	-11.8269
ress	-11.827
▁dopamine	-11.827
▁fabric	-11.8273
rus	-11.8274
▁VEGFR	-11.8277
▁11.6	-11.8277
▁obvious	-11.8278
▁promotes	-11.8279
▁1.77	-11.828
nucleoside	-11.828
▁abundance	-11.8281
▁benign	-11.8281
cf	-11.8282
▁fractionated	-11.8283
▁esterified	-11.8284
▁Low	-11.8285
▁unbranched	-11.8287
290	-11.8288
▁ionization	-11.8289
163	-11.829
]-1,3-	-11.8291
▁practiced	-11.8293
0-1	-11.8294
▁8.24	-11.8295
5′-	-11.8295
ff	-11.8297
▁render	-11.8298
bro	-11.8299
+1)+.	-11.8299
▁multimeric	-11.8299
▁(10)	-11.8305
▁wise	-11.8306
tricyclo	-11.8308
:18	-11.8308
▁analyze	-11.8309
▁counts	-11.831
▁bs	-11.8311
▁GPCR	-11.8312
-300	-11.8313
▁1996,	-11.8313
mat	-11.8313
eck	-11.8316
▁hepta	-11.8317
▁#2	-11.8319
furanyl	-11.832
′′′	-11.8324
▁wood	-11.8327
ret	-11.8327
▁290	-11.8329
▁sesame	-11.8329
▁1993,	-11.8332
▁1,2,3-	-11.8333
▁6.72	-11.8335
▁inserts	-11.8335
▁protons	-11.8335
65°	-11.8335
▁650	-11.8336
▁sandwich	-11.8337
ept	-11.8338
=1.3	-11.8338
▁thereon	-11.8343
▁Acta	-11.8343
sel	-11.8345
int	-11.8352
143	-11.8353
▁originally	-11.8354
▁1.93	-11.8354
▁transiently	-11.8356
▁Present	-11.8356
▁cocoa	-11.8357
▁alkenylene	-11.8357
▁examine	-11.836
▁90,	-11.8361
epa	-11.8361
NG	-11.8364
)-3,5-	-11.8364
-[2	-11.8367
▁Thermo	-11.8371
▁discharge	-11.8371
halide	-11.8373
▁principles	-11.8374
▁adequate	-11.8374
▁narrow	-11.8379
undec	-11.8379
▁(130	-11.8381
▁Due	-11.8382
▁schedule	-11.8387
▁1.88	-11.8387
▁Bcl	-11.8388
▁2.84	-11.8391
▁uM	-11.8391
▁dominant	-11.8392
▁constituent	-11.8392
▁anxiety	-11.8393
reg	-11.8393
fect	-11.8394
▁Gu	-11.8395
▁tetramer	-11.8396
▁metathesis	-11.8399
osa	-11.8401
ein	-11.8402
▁reasons	-11.8403
acting	-11.8404
▁drawings	-11.8404
▁question	-11.8405
▁Schemes	-11.8406
cysteine	-11.8406
=9.3	-11.8408
▁sulfhydryl	-11.841
1.40	-11.8411
[1-(	-11.8412
)-3-(3-	-11.8418
▁disclose	-11.8419
230	-11.8419
phthalazin	-11.842
▁9:	-11.8421
pri	-11.8421
▁edema	-11.8421
▁Active	-11.8422
▁Benzyl	-11.8425
▁exclude	-11.8426
▁2.57	-11.8427
LY	-11.8428
▁undergoing	-11.8429
idone	-11.8429
▁wish	-11.8435
▁TBS	-11.8439
▁4.65	-11.8439
▁-10°	-11.8439
▁ESIMS	-11.844
borane	-11.8441
▁Oral	-11.8446
▁persons	-11.8448
enzyme	-11.8448
▁denaturation	-11.8448
▁2.53	-11.8448
stat	-11.8449
▁bag	-11.8451
▁incidence	-11.8453
methylsulfanyl	-11.8454
quinoxalin	-11.8455
(((	-11.8457
cycl	-11.8458
▁homogenized	-11.8459
Ad	-11.8459
phthal	-11.846
▁CYP	-11.8462
1000	-11.8465
▁digest	-11.8465
▁2.03	-11.8466
ote	-11.8468
-3-(1-	-11.8468
▁cats	-11.8468
affinity	-11.8468
▁arterial	-11.8473
▁deduced	-11.8475
265	-11.8476
▁user	-11.8476
▁6.68	-11.8476
▁luminescent	-11.8476
▁partners	-11.8477
:26	-11.8479
zyme	-11.848
dihydropyridin	-11.848
▁0.82	-11.848
▁Photo	-11.848
▁utilizes	-11.8481
▁quin	-11.8481
oul	-11.8481
Fe	-11.8483
▁Du	-11.8483
lysin	-11.8485
▁packing	-11.849
phosphoric	-11.849
▁herbicidal	-11.8491
▁lacks	-11.8494
▁(0.30	-11.8494
carboxaldehyde	-11.8497
-48	-11.8499
▁APCI	-11.85
156	-11.85
pl	-11.8502
ech	-11.8502
-1,3,5-	-11.8503
cur	-11.8504
▁anhydrides	-11.8506
▁AM	-11.8506
▁6.60	-11.8509
idyl	-11.851
▁duplexes	-11.8511
233	-11.8513
▁pests	-11.8514
▁2014	-11.8518
▁percentages	-11.8519
▁technologies	-11.8519
▁salicylate	-11.8521
defined	-11.8524
=2.6	-11.8524
chloropyridin	-11.8528
amb	-11.8529
▁Potassium	-11.853
▁intervening	-11.853
▁constants	-11.853
▁turned	-11.8532
141	-11.8533
▁12:	-11.8534
▁printing	-11.8535
▁Transformation	-11.8535
▁availability	-11.8536
ico	-11.854
▁gentle	-11.8541
▁bioactive	-11.8542
008	-11.8542
▁229	-11.8545
550	-11.8545
▁rounds	-11.8549
▁ob	-11.8555
▁mast	-11.8556
▁Arabidopsis	-11.8557
▁detergents	-11.8558
▁macro	-11.8558
igh	-11.8558
▁temp	-11.8559
/0.1%	-11.8559
▁intrathecal	-11.8563
▁insecticidal	-11.8563
▁256	-11.8563
▁8.28	-11.8567
-4,5,6,7-	-11.8567
▁ointment	-11.8568
▁Conversion	-11.8568
-1,8-	-11.8569
ulation	-11.8569
1-6-	-11.857
ffer	-11.8572
Tri	-11.8572
▁microarray	-11.8573
▁biopsy	-11.8574
▁vaccinia	-11.8574
=20	-11.8579
178	-11.8579
23,	-11.8579
2′-	-11.8581
lac	-11.8581
vir	-11.8582
enoyl	-11.8582
▁releasing	-11.8583
TV	-11.8583
▁dys	-11.8583
▁osteoporosis	-11.8585
▁plotted	-11.8585
glycerol	-11.8585
▁accessible	-11.8586
▁4.30	-11.8587
▁mo	-11.8587
▁48%	-11.8588
hexanoate	-11.859
▁trifluoride	-11.8591
phor	-11.8592
ope	-11.8592
▁subclass	-11.8595
Life	-11.8596
▁2000,	-11.8596
▁268	-11.8596
ott	-11.8596
▁−10°	-11.8596
270	-11.8599
▁ready	-11.86
▁sold	-11.8603
WT	-11.8603
methylpyrrolidin	-11.8603
▁mannose	-11.8605
ries	-11.8606
▁dropped	-11.8607
Qiagen	-11.8607
▁own	-11.8608
▁Five	-11.861
0;	-11.861
33,	-11.8611
▁compression	-11.8612
▁alkoxide	-11.8612
immune	-11.8614
quinolyl	-11.8615
FC	-11.8617
▁Enzymology	-11.8618
▁dropping	-11.8618
▁2.51	-11.8619
▁pyr	-11.8626
▁Indeed	-11.8629
ili	-11.863
pA	-11.8631
▁Madison	-11.8631
indolin	-11.8634
▁cocktail	-11.8634
▁alcoholic	-11.8634
system	-11.8635
▁representation	-11.8637
▁(2.6	-11.8638
▁peri	-11.8638
fluor	-11.8639
▁tolerated	-11.864
▁Pichia	-11.864
▁Generation	-11.864
301	-11.8642
▁(27	-11.8643
ima	-11.8644
▁Reagent	-11.8646
196	-11.8649
GGG	-11.865
▁Genomic	-11.8651
▁adjustment	-11.8653
▁MASP	-11.8655
pan	-11.8656
▁(39	-11.8656
ons	-11.8657
▁diffuse	-11.8658
▁1981	-11.8659
▁pack	-11.866
▁dehydrated	-11.8662
▁cal	-11.8662
▁filler	-11.8663
oh	-11.8663
▁292	-11.8665
▁der	-11.8666
▁polycarbonate	-11.8668
▁ultra	-11.8669
▁310	-11.8669
▁37%	-11.867
phenylthio	-11.8673
115	-11.8674
▁297	-11.8674
▁227	-11.8674
▁6.73	-11.8677
▁Study	-11.8679
uro	-11.8679
▁triacetoxyboro	-11.8679
field	-11.8679
heterocycle	-11.868
▁dt	-11.868
succinimidyl	-11.868
unt	-11.8681
chromen	-11.8682
acetal	-11.8682
▁197	-11.8686
-5,7-	-11.8687
tech	-11.8687
▁vi	-11.8689
MHC	-11.8691
▁12%	-11.8695
▁come	-11.8696
▁randomized	-11.8697
▁Nano	-11.8697
▁8.40	-11.8697
▁attenuated	-11.8698
▁neither	-11.8699
zol	-11.8702
▁8.35	-11.8704
▁incomplete	-11.8707
nal	-11.8707
▁1.84	-11.8708
region	-11.8713
▁worked	-11.8713
(3,3-	-11.8714
dioxolan	-11.8715
)-7-(	-11.8716
▁hydroperoxide	-11.8719
▁1.83	-11.8719
▁36,	-11.8721
alanyl	-11.8721
▁operate	-11.8723
▁(800	-11.8723
▁enrichment	-11.8723
▁oxychloride	-11.8724
globin	-11.8724
gram	-11.8726
amidino	-11.873
tle	-11.8731
▁Experiment	-11.8733
▁XIII	-11.8733
187	-11.8734
▁stripping	-11.8734
AAA	-11.8737
ben	-11.8738
▁Chain	-11.8739
240	-11.874
rist	-11.8742
LG	-11.8743
Ti	-11.8744
194	-11.8745
▁summary	-11.8745
▁meet	-11.8746
▁Te	-11.8751
NHS	-11.8752
▁1,8-	-11.8753
KR	-11.8753
▁11.0	-11.8753
EDTA	-11.8754
scale	-11.8754
▁Enzymol	-11.8757
▁delaying	-11.8759
▁retinopathy	-11.8762
▁insects	-11.8763
35,	-11.8763
▁ACT	-11.8764
IK	-11.8765
▁hydroxides	-11.8765
▁yellowish	-11.8766
py	-11.8767
HP	-11.8767
▁western	-11.8768
▁characterize	-11.8768
132	-11.877
▁magnitude	-11.8773
▁Pharmacia	-11.8774
▁NIH	-11.8774
gradient	-11.8775
▁publicly	-11.8777
indeno	-11.8777
▁suppressor	-11.8781
lite	-11.8782
▁BACKGROUND	-11.8785
GD	-11.8785
▁6.67	-11.8787
▁(0.17	-11.8787
▁neopentyl	-11.8787
{4-[(	-11.8788
▁intrinsic	-11.879
▁dividing	-11.8791
▁capped	-11.8791
▁pools	-11.8794
.+-.	-11.8794
▁Hydrochloride	-11.8796
DCI	-11.8798
3′-	-11.8798
▁amination	-11.8799
▁Alexa	-11.8802
BE	-11.8802
fe	-11.8803
▁(3×50	-11.8805
112	-11.8805
▁1.86	-11.8807
avir	-11.8808
ode	-11.8808
sta	-11.8811
DG	-11.8813
▁subtypes	-11.8814
▁denoted	-11.8815
ATA	-11.8818
mass	-11.8818
▁entireties	-11.8818
▁report	-11.8819
-2(3	-11.882
:22	-11.8822
▁0.47	-11.8823
375	-11.8824
nucleotides	-11.8825
set	-11.8825
micro	-11.8826
▁(33	-11.8827
▁streptomycin	-11.8829
▁rep	-11.8829
207	-11.8831
▁380	-11.8839
prophylactically	-11.884
sal	-11.8841
LU	-11.8841
nuclear	-11.8842
stein	-11.8843
2,3-	-11.8844
▁295	-11.8844
▁generator	-11.8844
Ci	-11.8845
izable	-11.8846
▁Different	-11.8846
▁displays	-11.8848
▁SF	-11.8849
▁RE	-11.8852
indene	-11.8852
▁designation	-11.8852
NV	-11.8854
▁6.74	-11.8856
▁public	-11.8859
195	-11.886
380	-11.886
▁salicylic	-11.8863
▁CRISPR	-11.8864
host	-11.8864
▁(31	-11.8867
2-8	-11.8868
aga	-11.8868
rt	-11.8868
▁trauma	-11.8869
ono	-11.8871
-((4-	-11.8873
▁glioblastoma	-11.8875
▁234	-11.8875
▁DEAE	-11.8878
▁4'-	-11.8879
▁furthermore	-11.8879
Benzo	-11.888
▁catalytically	-11.888
Gene	-11.8883
▁HS	-11.889
▁agricultural	-11.8892
▁Para	-11.8893
▁Only	-11.8896
cum	-11.8897
▁advance	-11.8898
▁DL	-11.8901
▁microliters	-11.8901
226	-11.8901
ful	-11.8902
▁Agilent	-11.8903
▁driven	-11.8905
▁0.67	-11.8905
▁420	-11.8906
-{2-	-11.8908
▁optimize	-11.8909
▁amplifying	-11.891
uri	-11.891
▁GE	-11.8914
1,3-	-11.8916
▁Ha	-11.8916
▁182	-11.8917
(3,4,5-	-11.8917
▁4.35	-11.8918
▁isopropoxy	-11.8918
▁pos	-11.892
mmunosuppressive	-11.8923
▁4.48	-11.8926
▁AMP	-11.8927
▁cy	-11.8928
)-4-((	-11.893
)-6,7-	-11.8931
-1,1′-	-11.8932
237	-11.8932
mine	-11.8933
▁SD	-11.8934
▁inserting	-11.8935
)-2,6-	-11.8935
Rad	-11.8936
▁cure	-11.8936
▁evaluating	-11.8937
▁satisfactory	-11.8937
▁neuropathy	-11.8937
genesis	-11.894
butylamino	-11.8942
variant	-11.8943
▁tubular	-11.8943
-[[	-11.8944
▁chelate	-11.8945
▁8.50	-11.8946
▁malic	-11.8946
▁SEC	-11.8946
▁trigger	-11.8947
▁leave	-11.8947
010	-11.8949
1-20	-11.895
▁Comp	-11.895
▁scan	-11.895
▁diethylene	-11.8951
▁Complex	-11.8953
80°	-11.8955
0.2°	-11.8958
▁1.87	-11.8958
▁unlabeled	-11.8963
OT	-11.8964
▁264	-11.8966
▁row	-11.8967
×150	-11.8968
▁cognate	-11.8972
▁herbicides	-11.8978
▁tetramethyl	-11.8979
phosphite	-11.8982
hydrazide	-11.8984
▁filtrated	-11.8985
▁starches	-11.8988
▁susceptibility	-11.8989
▁arise	-11.8989
▁trichloro	-11.899
▁glycoproteins	-11.8995
ula	-11.8997
▁Lo	-11.8998
▁sulf	-11.8999
▁crops	-11.8999
▁81%	-11.9
2-(	-11.9002
▁Cyto	-11.9002
phosphonic	-11.9004
▁weighing	-11.9006
Hodgkin	-11.9009
▁Host	-11.901
plate	-11.9012
▁4.55	-11.9014
×250	-11.9014
▁mmHg	-11.9015
985	-11.9016
▁practitioner	-11.9017
▁Center	-11.9018
2.20	-11.9019
▁monomethyl	-11.902
thiazolidine	-11.9021
▁regardless	-11.9024
780	-11.9025
hexenyl	-11.9026
butyloxycarbonyl	-11.9026
otropic	-11.9029
9,9-	-11.903
CDRs	-11.9031
0-3	-11.9031
rp	-11.9034
239	-11.9035
▁cleaving	-11.9035
▁flowing	-11.904
▁canine	-11.904
▁uterine	-11.904
▁possessing	-11.9042
graph	-11.9047
▁isothiazolyl	-11.9048
ira	-11.9049
esterification	-11.905
▁diester	-11.9051
▁redissolved	-11.9053
▁(13)	-11.9053
1.60	-11.9054
AI	-11.9058
▁TNFR	-11.9059
▁1998,	-11.906
▁GH	-11.906
▁(0.50	-11.9061
▁harvest	-11.9062
▁confers	-11.9066
1.45	-11.9067
cit	-11.9067
▁wave	-11.9068
▁Dev	-11.9069
▁SE	-11.907
▁1.74	-11.9071
isothiazol	-11.9072
▁extending	-11.9073
▁1997,	-11.9075
▁acylamino	-11.9076
pyrrolyl	-11.9078
▁El	-11.9079
340	-11.908
▁Hum	-11.9081
▁193	-11.9084
2-(3-	-11.9086
▁pen	-11.9086
4.00	-11.9088
▁switch	-11.9092
▁calcination	-11.9093
007	-11.9093
butanoyl	-11.9093
▁dishes	-11.9094
▁checked	-11.9095
hydrazino	-11.9096
▁Electro	-11.9097
cre	-11.9097
30°	-11.9101
▁burn	-11.9104
▁stretch	-11.9104
▁cassettes	-11.9105
▁alkoxyl	-11.9107
▁1996	-11.9107
:32	-11.9108
TO	-11.9109
4(	-11.911
▁Ill	-11.911
▁cleaning	-11.9115
▁calibration	-11.9116
▁ISIS	-11.9116
▁regulator	-11.9117
▁(3.3	-11.9118
▁anions	-11.9119
▁Fisher	-11.9119
▁199	-11.912
▁serotonin	-11.9121
▁antisera	-11.9121
▁valence	-11.9122
▁bring	-11.9122
▁connecting	-11.9124
▁4.40	-11.9127
▁6.71	-11.9128
ylcarbamate	-11.9129
▁Affinity	-11.9133
▁colour	-11.9134
etin	-11.9137
▁extend	-11.9138
▁(0.22	-11.9139
▁sulfite	-11.9141
final	-11.9142
▁deuterated	-11.9142
-4-[(	-11.9144
▁par	-11.9144
{[4-(	-11.9145
gi	-11.9145
▁(180	-11.9145
▁indium	-11.9147
▁370	-11.9147
▁42°	-11.9147
oxazolyl	-11.9148
▁Microbiol	-11.9149
benzopyran	-11.915
▁entities	-11.9151
Max	-11.9151
▁impregnated	-11.9153
▁0.70	-11.9155
Pd	-11.9156
▁balloon	-11.9159
▁face	-11.9162
▁inhaler	-11.9162
▁classical	-11.9163
▁borane	-11.9163
phthalic	-11.9166
▁Jun	-11.9166
bath	-11.9167
▁Plasma	-11.9168
matic	-11.9169
▁calculation	-11.9172
▁none	-11.9172
ses	-11.9172
GCC	-11.9172
styryl	-11.9173
TGA	-11.9175
▁184	-11.9175
[1,3]	-11.9175
▁Ultra	-11.9175
linear	-11.9176
▁Ver	-11.9177
▁likewise	-11.9181
▁Kinase	-11.9181
▁4.41	-11.9181
▁Dose	-11.9183
cine	-11.9185
lut	-11.9186
pentamethyl	-11.9186
▁Os	-11.9187
▁DPP	-11.9187
▁holes	-11.9187
▁Site	-11.9189
▁pT	-11.9189
▁Appropriate	-11.9191
▁lungs	-11.9192
▁denaturing	-11.9195
▁distinguish	-11.9198
sk	-11.9198
nia	-11.9198
▁constituents	-11.9199
▁dot	-11.9202
fin	-11.9203
▁osteo	-11.9203
▁0.66	-11.9203
-1,3	-11.9205
illi	-11.9207
ng	-11.9207
+);	-11.9208
saccharide	-11.9209
006	-11.9209
▁butane	-11.921
:35	-11.9211
▁pneumoniae	-11.9216
▁What	-11.9217
eme	-11.9218
ked	-11.9219
▁Polymer	-11.9221
4,5-	-11.9222
ns	-11.9224
benzoylamino	-11.9231
mRNA	-11.9231
mole	-11.9234
▁4000	-11.9235
guanine	-11.9236
saturated	-11.9236
=0.4	-11.9237
Stratagene	-11.9237
▁(160	-11.9238
▁phenotypic	-11.9239
▁disrupted	-11.9243
2.50	-11.9244
▁fluorenyl	-11.9246
50%	-11.9248
▁polymorphisms	-11.9248
▁238	-11.9248
carboxyl	-11.925
▁creating	-11.925
EQU	-11.9251
formed	-11.9251
▁judgment	-11.9256
://	-11.9258
▁Perkin	-11.926
-2(	-11.926
▁Variants	-11.926
▁ethylbenzene	-11.926
▁twelve	-11.9262
▁Hydro	-11.9264
thiomethyl	-11.9266
▁Sepharose	-11.9266
▁4-((	-11.9267
▁neural	-11.9268
▁knockout	-11.9268
▁GR	-11.9269
167	-11.9269
-13-	-11.9272
=1.1	-11.9272
)-5-(2-	-11.9273
▁Staphylococcus	-11.9274
▁1-(5-	-11.9275
▁8.29	-11.9275
glycol	-11.9276
▁pretreatment	-11.9277
▁eV	-11.9278
typically	-11.9278
▁236	-11.9279
▁Coupling	-11.9279
▁thickening	-11.928
▁dia	-11.928
▁Physiol	-11.928
▁chicken	-11.9284
▁Suzuki	-11.9285
▁(2006)	-11.9286
gy	-11.9286
ART	-11.9289
▁8.45	-11.929
▁assessing	-11.9291
▁Development	-11.9291
New	-11.9292
phil	-11.9292
275	-11.9292
▁TB	-11.9294
▁0;	-11.9296
coupled	-11.9297
▁rec	-11.9297
reactivity	-11.9297
hip	-11.9299
state	-11.93
ions	-11.9302
▁255	-11.9302
▁cef	-11.9305
-39	-11.9307
▁castor	-11.9308
reducing	-11.9309
▁(270	-11.9311
mercaptoethanol	-11.9311
propanediol	-11.9315
▁quantum	-11.9315
▁associate	-11.9316
▁address	-11.9316
▁(350	-11.9317
pal	-11.9317
ank	-11.9318
▁plane	-11.932
epitope	-11.9321
▁fibronectin	-11.9321
▁triflate	-11.9321
flo	-11.9323
-2-(1-	-11.9327
▁Cross	-11.9327
3-5	-11.9328
1.30	-11.9329
therapy	-11.9331
MY	-11.9331
▁Ho	-11.9332
▁node	-11.9336
chemiluminescent	-11.9339
▁tungsten	-11.9339
▁11.8	-11.9339
▁equally	-11.9339
▁Over	-11.9341
124	-11.9341
▁2001	-11.9343
▁Industries	-11.9345
:24	-11.9346
▁Nucl	-11.9347
▁phosgene	-11.935
cyanoborohydride	-11.9353
▁Ka	-11.9353
benzylamine	-11.9354
▁14-	-11.9355
bilis	-11.9357
IIIa	-11.9357
▁pot	-11.9359
▁(3.2	-11.9359
tus	-11.9359
[2	-11.9361
-[3-(4-	-11.9361
▁Activation	-11.9362
▁constituting	-11.9363
▁34,	-11.9364
pyrano	-11.9365
,6,6	-11.9367
▁schizophrenia	-11.9368
▁singular	-11.9368
▁aggregate	-11.937
▁204	-11.937
▁inverted	-11.9371
▁supplement	-11.9371
EtOH	-11.9372
▁0.41	-11.9373
RED	-11.9374
ux	-11.9376
▁183	-11.9376
▁4.80	-11.9376
▁Addition	-11.9378
440	-11.9379
1.35	-11.9382
agg	-11.9385
▁Chloroform	-11.9387
No	-11.9387
=15	-11.9388
RY	-11.9391
▁proximal	-11.9392
▁amelioration	-11.9392
▁steady	-11.9392
▁replicate	-11.9393
▁4,4'-	-11.9394
▁her	-11.9394
FI	-11.9397
▁ultrafiltration	-11.9398
uring	-11.9401
▁pigments	-11.9401
▁3.38	-11.9403
▁0.64	-11.9404
▁lamp	-11.9406
▁4.75	-11.9408
▁recognizing	-11.9409
▁diluting	-11.941
▁8.31	-11.9413
uria	-11.9415
▁Document	-11.9416
▁nucleobases	-11.9417
▁algorithms	-11.9417
▁Free	-11.942
▁Gas	-11.9424
▁breeding	-11.9425
▁elute	-11.9427
▁cytomegalovirus	-11.9428
▁adversely	-11.943
▁trichloride	-11.9431
▁aeruginosa	-11.9434
▁33%	-11.9434
▁exons	-11.9434
▁horseradish	-11.9435
atch	-11.9435
pot	-11.9435
gluc	-11.9436
reaction	-11.9438
▁CHLOROFORM	-11.9439
▁Software	-11.944
glycosylated	-11.9441
sphere	-11.9441
dimethoxyethane	-11.9442
▁ver	-11.9444
▁TGA	-11.9446
▁osteoarthritis	-11.9446
anilide	-11.9449
▁attach	-11.945
ify	-11.945
▁(14)	-11.9451
▁BM	-11.9452
▁224	-11.9452
guanidine	-11.9453
ifier	-11.9453
▁8.30	-11.9454
38,	-11.9455
▁situations	-11.9458
▁25%,	-11.9459
▁actin	-11.946
oxin	-11.9464
ethylhexyl	-11.9465
isoxazolyl	-11.947
▁history	-11.947
indoline	-11.9471
▁mismatch	-11.9472
▁figures	-11.9472
isoindoline	-11.9473
Rx	-11.9474
▁267	-11.9475
▁192	-11.9476
▁pyrrolidone	-11.9476
▁APC	-11.9477
▁Het	-11.9477
228	-11.948
-90%	-11.948
▁pmol	-11.948
▁trityl	-11.9482
▁nmol	-11.9483
▁4,4′-	-11.9484
sy	-11.9485
▁analgesic	-11.9487
▁thrombosis	-11.9488
=0.7	-11.9492
174	-11.9494
▁0.62	-11.9497
▁Chemicals	-11.9498
▁op	-11.9499
▁AL	-11.95
▁2001,	-11.95
▁triglycerides	-11.95
XIII	-11.9501
▁(140	-11.9504
▁BA	-11.951
surface	-11.9513
ari	-11.9514
▁distilling	-11.9514
0.5%	-11.9515
▁187	-11.9516
tis	-11.9518
▁optimization	-11.9518
▁1988,	-11.9519
IIb	-11.9521
Oxo	-11.9521
oxopropyl	-11.9522
eemed	-11.9525
▁morphology	-11.953
▁8.38	-11.9533
▁steric	-11.9536
▁HO	-11.9536
▁sonicated	-11.9536
▁212	-11.9538
DT	-11.954
▁9.1	-11.954
020	-11.954
▁8.9	-11.9544
block	-11.9544
▁276	-11.9546
+1)+	-11.9548
▁4.31	-11.9549
mar	-11.9549
nis	-11.955
▁benzimidazolyl	-11.955
▁1:10	-11.9551
▁Male	-11.9552
▁molding	-11.9552
▁GA	-11.9552
LB	-11.9556
▁defective	-11.9557
▁coordination	-11.9561
▁bringing	-11.9565
cort	-11.9566
1.10	-11.9566
▁Chapter	-11.9567
ada	-11.9567
-50%	-11.9567
covalent	-11.9567
enantiomer	-11.9568
▁5,000	-11.9568
▁0.63	-11.9569
▁6.62	-11.9571
▁homozygous	-11.9573
▁nonionic	-11.9575
▁7.5,	-11.9576
}-5-	-11.9576
▁32,	-11.958
▁85,	-11.9581
▁Rep	-11.9582
▁(41	-11.9582
▁("	-11.9582
+1]	-11.9583
▁14:	-11.9584
▁collect	-11.9585
▁symbol	-11.9585
▁sprays	-11.9587
405	-11.9588
▁Reagents	-11.9591
▁Yeast	-11.9591
▁finished	-11.9592
ORF	-11.9592
267	-11.9595
fluorenyl	-11.9596
▁dimethylamine	-11.9597
▁assaying	-11.9597
cresol	-11.9598
tide	-11.9598
366	-11.9599
▁phenethyl	-11.96
▁traits	-11.9601
▁specificities	-11.9602
▁immunizing	-11.9603
coupling	-11.9605
immunomodulatory	-11.9609
▁sent	-11.9609
▁Primary	-11.9609
▁Stirring	-11.9609
▁202	-11.9612
HSV	-11.9614
▁MUC	-11.9614
▁apoptotic	-11.9615
▁Practice	-11.9615
▁bleeding	-11.9617
trop	-11.9621
arr	-11.9621
▁CSF	-11.9622
second	-11.9623
▁PSA	-11.9624
▁spontaneous	-11.9624
ev	-11.9625
▁Oil	-11.9626
NHSO	-11.9627
phenoxyphenyl	-11.9628
▁Products	-11.9629
conjugate	-11.963
▁Rat	-11.963
▁scores	-11.9632
-{3-	-11.9633
diazepine	-11.9633
through	-11.9635
normal	-11.9636
▁11:	-11.9638
▁soy	-11.9642
YY	-11.9642
▁(46	-11.9643
186	-11.9645
aff	-11.9649
▁Pyr	-11.965
uronium	-11.965
▁robust	-11.9652
▁1.90	-11.9653
▁5×	-11.9653
▁desirably	-11.9658
▁idiopathic	-11.9658
▁BT	-11.9659
▁PNAS	-11.9661
▁209	-11.9661
▁4.45	-11.9662
▁medicaments	-11.9663
▁0.72	-11.9663
decahydro	-11.9663
▁ulcerative	-11.9664
▁3-4	-11.9667
▁match	-11.9667
La	-11.9668
236	-11.9668
rrh	-11.9668
▁specimens	-11.9669
▁developmental	-11.967
:2,	-11.967
▁stereo	-11.9673
ethylthio	-11.9674
-2′	-11.9674
volume	-11.9675
▁impart	-11.9676
isocyanato	-11.9676
▁5.10	-11.9677
▁butadiene	-11.9678
ELISA	-11.9679
▁4.62	-11.968
▁lymphomas	-11.9684
▁my	-11.9684
benzoxazol	-11.9685
▁activators	-11.9685
208	-11.9686
▁convenience	-11.9689
Pa	-11.9692
sol	-11.9692
▁alia	-11.9693
▁Sn	-11.9695
▁Surface	-11.9695
▁condensate	-11.9697
▁(4.6	-11.9699
▁332	-11.9699
▁HGF	-11.97
▁probability	-11.9701
▁Crude	-11.9701
▁218	-11.9703
-3,6-	-11.9706
▁handling	-11.9708
▁Ep	-11.9709
=3.2	-11.9709
subject	-11.971
153	-11.971
▁Acc	-11.9711
octa	-11.9711
435	-11.9711
viridae	-11.9712
▁egg	-11.9714
)-3,3-	-11.9714
biotin	-11.9717
▁Man	-11.9718
▁Endo	-11.9718
▁acylated	-11.9718
▁Pe	-11.9719
▁contamination	-11.972
▁methacrylic	-11.972
unsaturated	-11.9721
▁arrest	-11.9722
▁neovascular	-11.9723
vert	-11.9724
▁spraying	-11.9724
▁Clones	-11.9726
▁diagnosing	-11.9726
TAT	-11.9726
▁dichloroethane	-11.9728
AGE	-11.9728
▁HCDR	-11.9729
6%).	-11.9729
▁3.33	-11.9731
▁trimer	-11.9732
bed	-11.9733
▁400°	-11.9733
TCA	-11.9734
▁glycan	-11.9738
▁NCBI	-11.9738
▁implant	-11.9739
▁tuberculosis	-11.9739
▁listing	-11.9741
(4-((	-11.9741
lex	-11.9741
recombinant	-11.9741
An	-11.9742
▁accompanied	-11.9744
▁pocket	-11.9744
▁porcine	-11.9744
oic	-11.9744
238	-11.9746
▁BB	-11.9747
▁Cyclo	-11.9748
1'	-11.9748
row	-11.9749
▁multimer	-11.975
▁Oxford	-11.9757
ota	-11.9758
▁3.42	-11.9765
oxan	-11.9765
▁0.49	-11.9765
▁inherent	-11.9765
▁Zr	-11.9768
▁Definitions	-11.9769
▁COOH	-11.9769
ithout	-11.977
NE	-11.9771
▁Tablets	-11.9771
rop	-11.9772
206	-11.9773
▁28%	-11.9775
▁mimetics	-11.9777
▁generic	-11.9777
Ic	-11.9777
4)2	-11.9777
▁Primer	-11.9778
TCR	-11.9779
=0.2	-11.9779
▁Nuclear	-11.978
▁AUC	-11.9781
▁phenols	-11.9781
aze	-11.9781
▁singly	-11.9782
▁PdCl	-11.9782
regulation	-11.9782
olate	-11.9783
steroidal	-11.9784
▁(85	-11.9784
▁4.47	-11.9787
anthracene	-11.979
dimethylpropyl	-11.9791
▁mRNAs	-11.9791
nm	-11.9792
▁dimeric	-11.9792
▁integrity	-11.9794
▁226	-11.9794
)-2,5-	-11.9795
-[1-(	-11.9796
propionamide	-11.98
▁specimen	-11.9801
cyt	-11.9802
▁methodologies	-11.9802
vari	-11.9806
▁Hy	-11.9807
[2-(2-	-11.9808
aralkyl	-11.981
-[2-(2-	-11.9812
▁mammary	-11.9812
▁PB	-11.9815
KL	-11.9816
cyto	-11.9817
ump	-11.982
▁BALB	-11.9821
lk	-11.9822
=12.0	-11.9822
paraformaldehyde	-11.9824
164	-11.9826
prost	-11.9829
elin	-11.9833
▁leg	-11.9833
0.2,	-11.9835
▁Carlsbad	-11.9835
CTLA	-11.9835
dimethylbutyl	-11.9836
▁neat	-11.9836
▁fructose	-11.9837
▁intervention	-11.9837
acryloyl	-11.9838
pers	-11.9838
-120	-11.9838
1—	-11.9839
carbamyl	-11.984
Butoxycarbonyl	-11.9843
▁eliminating	-11.9844
▁ethoxide	-11.9844
▁macular	-11.9844
▁daltons	-11.9844
aki	-11.9845
▁therewith	-11.9848
TMS	-11.9849
pore	-11.9849
▁taught	-11.985
▁consequence	-11.9852
▁2.46	-11.9853
▁diene	-11.9854
▁33,	-11.9854
▁pyrazine	-11.9855
onin	-11.9855
▁(0.19	-11.9855
▁runs	-11.9856
DB	-11.9857
(6,7-	-11.9857
To	-11.9858
▁262	-11.986
▁6.69	-11.9861
▁0.76	-11.9862
▁needles	-11.9862
▁transferring	-11.9862
▁Reduction	-11.9862
azol	-11.9863
worm	-11.9865
angiogenic	-11.9866
▁retro	-11.9867
1.25	-11.9867
▁4.44	-11.9867
▁slide	-11.9867
▁hydrogel	-11.9868
▁isotopically	-11.9868
▁1,2,3,4-	-11.9869
0.25	-11.987
och	-11.9873
biphenylyl	-11.9874
:33	-11.9874
▁autologous	-11.9875
▁aptamers	-11.9876
glycyl	-11.9877
pic	-11.9878
▁0.56	-11.9879
203	-11.988
▁beige	-11.9881
RV	-11.9882
670	-11.9883
Figure	-11.9885
▁messenger	-11.9887
▁sialic	-11.9888
▁former	-11.9888
dimethoxybenzyl	-11.9889
▁carb	-11.989
▁observations	-11.989
▁exo	-11.989
▁8.42	-11.9891
moles	-11.9891
▁fluidized	-11.9893
down	-11.9893
▁configurations	-11.9893
▁flux	-11.9897
▁nucleophile	-11.99
1.90	-11.99
=9.5	-11.9901
uron	-11.9904
▁189	-11.9905
pressure	-11.9905
▁Streptococcus	-11.9906
▁207	-11.9907
azi	-11.9909
1.75	-11.991
tau	-11.9911
▁cynomolgus	-11.9912
=17	-11.9913
75°	-11.9913
(4′-	-11.9917
▁steroids	-11.9919
90°	-11.9919
▁ox	-11.9923
650	-11.9923
BOC	-11.9925
▁Chimeric	-11.9925
buffered	-11.9925
▁purge	-11.9928
▁(20%	-11.9928
▁1992	-11.993
▁competent	-11.9931
▁chilled	-11.9931
{(2	-11.9932
▁Biotage	-11.9932
2.15	-11.9934
most	-11.9937
enone	-11.9938
-400	-11.9939
▁requirement	-11.9941
▁IM	-11.9941
▁micrograms	-11.9945
▁Rd	-11.9945
blocking	-11.9946
299	-11.9947
▁racemate	-11.995
000×	-11.995
277	-11.995
▁adenoviral	-11.995
read	-11.9951
▁glycolic	-11.9952
▁45,	-11.9952
-4-(1-	-11.9952
RAP	-11.9953
ks	-11.9954
rating	-11.9955
▁TP	-11.9955
▁4-(5-	-11.9956
two	-11.9957
▁stands	-11.9957
▁5.15	-11.9957
▁22°	-11.9959
fragment	-11.9961
▁(700	-11.9961
strand	-11.9965
▁10.9	-11.9965
[(4-	-11.9965
▁hydrophobicity	-11.9967
114	-11.9967
▁75,	-11.9968
▁sulphuric	-11.9971
▁Homo	-11.9972
[5-(4-	-11.9977
▁adeno	-11.998
▁MCF	-11.998
▁Cre	-11.9981
▁272	-11.9981
toluenesulfonyl	-11.9982
XX	-11.9982
2.30	-11.9983
▁malonate	-11.9984
▁outcome	-11.9984
Hexane	-11.9985
▁3.53	-11.9986
▁TRAIL	-11.9987
determining	-11.9988
▁8.37	-11.9988
Trifluoro	-11.9988
▁deleterious	-11.9988
▁(47	-11.999
1);	-11.9991
▁faster	-11.9991
▁HR	-11.9991
▁Invest	-11.9992
▁Molecules	-11.9992
quite	-11.9994
▁referenced	-11.9994
ended	-11.9996
▁ter	-11.9997
▁pr	-11.9999
▁dihydrate	-11.9999
▁8.32	-12.0002
toluenesulfonate	-12.0003
▁325	-12.0005
▁Experiments	-12.0007
−)	-12.0007
KO	-12.0008
▁reasonable	-12.0008
▁needs	-12.0008
▁defects	-12.0008
=0.3	-12.0011
ken	-12.0012
tit	-12.0012
▁erythematosus	-12.0013
▁exceed	-12.0015
▁ultimately	-12.0015
▁298	-12.0015
▁ABC	-12.0015
10%	-12.0017
▁Transgenic	-12.002
▁suffer	-12.0022
▁Pl	-12.0023
tosyl	-12.0023
▁formats	-12.0025
▁248	-12.0026
▁malignancies	-12.0026
Tetrahydro	-12.0027
▁milliliters	-12.0029
butadiene	-12.0029
▁263	-12.0031
▁disk	-12.0031
▁acylating	-12.0032
]-2	-12.0032
▁intake	-12.0033
▁GPR	-12.0037
▁odor	-12.0037
pathy	-12.0039
oxopyrrolidin	-12.004
▁fibrin	-12.004
▁67%	-12.0041
▁van	-12.0041
-((5-	-12.0043
table	-12.0044
▁94%	-12.0045
409	-12.0045
▁productivity	-12.0046
223	-12.0047
▁8.36	-12.0049
▁paw	-12.0051
▁customary	-12.0052
▁sorting	-12.0054
▁press	-12.0055
▁219	-12.0056
▁depletion	-12.0058
▁dAb	-12.0058
▁4.49	-12.0058
(10)	-12.0061
4):	-12.0062
imidazolidine	-12.0063
▁granulocyte	-12.0064
phan	-12.0066
▁aging	-12.0066
SU	-12.0066
:31	-12.0069
atin	-12.0069
▁stationary	-12.0071
inger	-12.0071
butanediol	-12.0072
▁activates	-12.0072
▁228	-12.0072
methylbenzene	-12.0075
ture	-12.0075
KI	-12.0076
olefins	-12.0076
▁(29	-12.0076
▁synthetically	-12.0077
▁angiotensin	-12.0077
▁neomycin	-12.0078
▁Ge	-12.0078
▁BCMA	-12.0083
▁contrary	-12.0084
▁oxazole	-12.0085
▁0.0001	-12.0085
ivity	-12.0087
×104	-12.0087
▁aminocarbonyl	-12.0088
▁broadly	-12.0088
luminescent	-12.0089
▁Derivatives	-12.009
butylamine	-12.009
▁Inhibitors	-12.0092
▁Tetra	-12.0092
CCA	-12.0092
−1;	-12.0093
▁reversible	-12.0093
MAP	-12.0097
▁horse	-12.0099
ny	-12.0101
▁cycloaliphatic	-12.0101
▁cd	-12.0102
▁8.33	-12.0103
▁virtue	-12.0103
▁Syn	-12.0103
-[6-	-12.0107
162	-12.0108
transformed	-12.0109
▁kaolin	-12.0109
▁considerable	-12.0109
▁ET	-12.011
ensis	-12.0111
ski	-12.0112
hydroxybenzoate	-12.0112
▁Amplification	-12.0116
▁Salmonella	-12.0116
▁homogenate	-12.0116
52,	-12.0116
▁actually	-12.0123
lay	-12.0123
ylcarbamoyl	-12.0125
▁chloromethyl	-12.0126
▁evacuated	-12.0128
hexyloxy	-12.0134
-17-	-12.0138
▁8.48	-12.0138
operative	-12.0138
▁4.63	-12.0139
▁7.4,	-12.0139
▁extensively	-12.0139
cellular	-12.0141
▁274	-12.0141
▁brief	-12.0144
▁REFERENCE	-12.0145
-20%	-12.0145
▁histamine	-12.0145
▁Procedures	-12.0147
▁droplets	-12.0147
▁39,	-12.0152
▁APP	-12.0153
▁Engineering	-12.0154
▁templates	-12.0155
LCMS	-12.0156
mus	-12.0161
▁overcome	-12.0161
▁trimethylamine	-12.0161
zodicarboxylate	-12.0163
▁8.34	-12.0163
plex	-12.0164
285	-12.0168
▁mis	-12.0168
▁meal	-12.0169
▁flank	-12.0172
▁vanadium	-12.0173
iti	-12.0175
▁butene	-12.0176
-75	-12.0176
vis	-12.0178
▁216	-12.0179
▁66%	-12.018
▁Fluorescence	-12.018
▁unstable	-12.0181
▁knock	-12.0182
(−)	-12.0184
nicotinic	-12.0185
▁quantitatively	-12.0187
▁Fu	-12.0187
▁5,6-	-12.0187
▁pyridinium	-12.0187
buten	-12.0188
ida	-12.0188
head	-12.0189
▁know	-12.0189
Carboxy	-12.0189
111	-12.019
[4-(	-12.0191
▁6.66	-12.0192
-4-(5-	-12.0192
molecule	-12.0192
▁(0.75	-12.0193
glycosylation	-12.0193
—;	-12.0195
eh	-12.0195
IGF	-12.0196
HRP	-12.0197
pyridinium	-12.0197
:23	-12.0197
▁Polynucleotides	-12.0197
0.001	-12.0198
sulf	-12.0198
▁217	-12.0199
▁3.37	-12.02
▁ketal	-12.02
▁modulates	-12.0201
strain	-12.0202
▁iRNA	-12.0207
dibenzylidene	-12.0207
▁accepted	-12.0208
▁pieces	-12.0208
rim	-12.0208
▁244	-12.021
▁hexamethyl	-12.0211
▁191	-12.0212
nitr	-12.0212
▁interior	-12.0212
3—	-12.0214
▁245	-12.0214
368	-12.0215
▁universal	-12.0218
essential	-12.0219
▁achieving	-12.0219
▁heterocycles	-12.0219
▁IPTG	-12.0219
▁approx	-12.0219
▁exothermic	-12.0223
(2,4,6-	-12.0223
-[(3-	-12.0224
▁sonication	-12.0225
▁pA	-12.0229
▁figure	-12.0229
etro	-12.023
248	-12.023
▁11.7	-12.0233
▁hemagglutinin	-12.0234
eds	-12.0234
rat	-12.0235
▁Ox	-12.0236
▁4.95	-12.0238
plasm	-12.0239
▁1980	-12.0241
▁MCP	-12.0245
▁480	-12.0247
35°	-12.0249
950	-12.025
▁allergen	-12.0251
ald	-12.0252
-6-(1-	-12.0253
methylamine	-12.0253
▁concomitant	-12.0254
▁malonic	-12.0254
ulated	-12.0255
▁6.64	-12.0258
adenine	-12.0259
-6.5	-12.026
▁ribozymes	-12.0261
—1_	-12.0261
▁15.0	-12.0261
▁6.25	-12.0261
▁0.77	-12.0263
▁serially	-12.0264
▁he	-12.0264
▁2002,	-12.0264
ency	-12.0267
hol	-12.0267
▁20.0	-12.0273
1.70	-12.0273
▁6.63	-12.0274
▁pipette	-12.0274
▁modeling	-12.0274
4%).	-12.0278
▁minus	-12.0279
▁0.68	-12.028
▁99.5%	-12.0281
▁Van	-12.0282
▁cyto	-12.0283
0-6	-12.0285
▁deoxyribo	-12.0286
▁2′	-12.0287
▁absorb	-12.0288
▁(43	-12.0291
470	-12.0291
XIV	-12.0291
▁384	-12.0292
▁Basic	-12.0292
4,4,4-	-12.0292
309	-12.0293
▁infect	-12.0294
neo	-12.0296
▁(5.5	-12.0296
▁Prism	-12.0297
▁3.39	-12.0297
▁bars	-12.0298
▁Xa	-12.0298
▁Alpha	-12.0298
▁0.81	-12.0299
▁Image	-12.0303
278	-12.0304
:28	-12.0304
▁(3.6	-12.0304
▁carbazole	-12.0305
INE	-12.0305
360	-12.0306
▁sublingual	-12.0307
▁mimetic	-12.0307
-7-(2-	-12.0308
▁Herein	-12.0309
▁Especially	-12.031
▁Separation	-12.031
▁MIC	-12.0312
▁0.53	-12.0312
▁0-2	-12.0313
▁neutrophil	-12.0314
▁oxadiazolyl	-12.0315
▁8.39	-12.0316
cut	-12.0316
▁centrifugal	-12.0316
▁secrete	-12.0318
▁tables	-12.0319
TCT	-12.032
EST	-12.032
▁EM	-12.0321
▁Lipid	-12.0323
▁largely	-12.0323
▁proportional	-12.0325
:3)	-12.0327
▁(2×)	-12.0327
▁VR	-12.0327
▁294	-12.0327
ement	-12.0329
Perkin	-12.033
▁umol	-12.0332
▁belongs	-12.0332
▁chlorides	-12.0333
▁endotoxin	-12.0335
▁glyceryl	-12.0336
▁prognosis	-12.0336
▁206	-12.0336
www	-12.0337
▁photosensitive	-12.0337
▁5.12	-12.0337
▁Genetic	-12.034
176	-12.034
methylpyridine	-12.034
▁Mixture	-12.0341
▁(0.26	-12.0341
▁Fragments	-12.0341
▁plasmon	-12.0343
-0.5	-12.0348
Ir	-12.035
Mass	-12.0351
2)4	-12.0352
molar	-12.0355
ini	-12.0356
Mn	-12.0358
▁redox	-12.0359
▁span	-12.0359
▁killed	-12.0362
olytic	-12.0367
▁RD	-12.0368
▁azeotropic	-12.0368
▁oligopeptide	-12.0368
inol	-12.0369
▁lo	-12.037
▁nuclei	-12.037
rid	-12.037
spect	-12.0372
hl	-12.0374
▁HD	-12.0375
En	-12.0377
▁serotype	-12.0381
▁BRIEF	-12.0382
Applied	-12.0383
▁4.42	-12.0386
▁blast	-12.0387
SB	-12.0388
)-1-[(	-12.039
:27	-12.039
▁trehalose	-12.0391
▁anthracene	-12.0392
sulfone	-12.0392
-5-(3-	-12.0393
▁prediction	-12.0393
drying	-12.0393
2-3	-12.0395
triol	-12.0397
(2-(	-12.0399
1.38	-12.04
287	-12.04
script	-12.0401
▁0.58	-12.0402
▁5.20	-12.0405
▁primates	-12.0405
▁refractory	-12.0405
dinitro	-12.0407
▁acetaldehyde	-12.0408
113	-12.0409
▁Transfer	-12.0409
olin	-12.0411
▁3.54	-12.0411
▁12.8	-12.0411
▁Fr	-12.0415
Reference	-12.0416
((4-(	-12.0419
osine	-12.0419
▁Numerous	-12.0422
nol	-12.0422
cyanoethyl	-12.0425
▁CDC	-12.0427
▁leukocyte	-12.0427
▁zcytor	-12.0429
▁shaped	-12.043
▁nodes	-12.0431
▁bisphenol	-12.0432
static	-12.0432
▁thermally	-12.0433
alkanoyl	-12.0433
▁Extraction	-12.0435
▁shifts	-12.0436
▁holding	-12.0437
▁249	-12.0438
-%	-12.0438
▁cultivation	-12.0441
▁serious	-12.0441
▁usable	-12.0442
▁xenograft	-12.0442
ATION	-12.0444
methacrylate	-12.0444
+/−	-12.0444
Fluorophenyl	-12.0445
750	-12.0447
Thi	-12.0448
▁gasoline	-12.0449
▁11.2	-12.0452
▁halogens	-12.0452
▁1987,	-12.0453
▁iridium	-12.0453
▁62%	-12.0454
▁thi	-12.0454
sky	-12.0455
▁(2×100	-12.0456
▁8.55	-12.0457
2.25	-12.0458
▁polarity	-12.0458
229	-12.046
▁excretion	-12.0461
▁hepatocellular	-12.0461
▁peroxy	-12.0462
▁embedded	-12.0464
:4)	-12.0465
-150	-12.0466
▁HSP	-12.0466
▁7.24-7.	-12.0467
(7)	-12.0468
[2-	-12.047
▁subtilis	-12.047
purity	-12.047
ath	-12.0471
cip	-12.0474
pyrazino	-12.0474
▁replicon	-12.0475
oids	-12.0475
▁Opin	-12.0476
▁phenylene	-12.048
▁(0.24	-12.048
▁iii	-12.0481
prep	-12.0481
▁thawed	-12.0481
508	-12.0483
propen	-12.0484
ALL	-12.0485
▁Fla	-12.0485
560	-12.0486
▁concentrating	-12.0488
▁begins	-12.0488
calc	-12.049
5-10	-12.049
cd	-12.049
▁ddd	-12.0491
▁oxa	-12.0493
tation	-12.0494
▁industry	-12.0495
▁MALDI	-12.0499
aking	-12.0499
transport	-12.05
MDS	-12.0501
+].	-12.0502
▁0.57	-12.0504
▁labile	-12.0504
▁1/1	-12.0505
[3-(4-	-12.0506
ulating	-12.0507
▁spec	-12.0514
▁glaucoma	-12.0515
▁3.43	-12.0515
[...]
