<unk>	0
<s>	0
</s>	0
▁	-2.70446
.	-2.84069
-	-3.0636
,	-3.09667
1	-3.13829
2	-3.28915
0	-3.3062
▁(	-3.37239
3	-3.59787
4	-3.73147
)	-3.74933
5	-3.76614
▁was	-4.17187
6	-4.1807
7	-4.23182
H	-4.26062
▁and	-4.32247
8	-4.35707
9	-4.61361
),	-4.65194
▁of	-4.66134
▁the	-4.73847
▁The	-4.81569
▁with	-4.88913
▁to	-4.9217
▁g	-4.96547
▁mmol	-5.01375
▁in	-5.03388
▁mL	-5.09328
▁a	-5.12942
-(	-5.22508
▁mixture	-5.29741
▁for	-5.35615
▁at	-5.38113
;	-5.47542
▁solution	-5.48275
▁mg	-5.4894
)-	-5.50639
°	-5.52522
▁added	-5.52635
▁C	-5.56977
=	-5.65099
▁ml	-5.68586
m	-5.6909
:	-5.73867
▁reaction	-5.78086
yl	-5.88116
%	-5.88315
▁by	-5.88833
▁stirred	-5.89244
/	-5.89446
d	-5.93181
]	-5.93418
).	-5.95981
▁J	-5.96327
s	-5.9807
▁temperature	-6.01398
(	-6.03593
▁Hz	-6.05617
▁water	-6.08215
▁under	-6.11587
▁acid	-6.13616
▁dried	-6.19918
▁were	-6.21773
▁concentrated	-6.25191
▁as	-6.26174
methyl	-6.28184
N	-6.29113
▁room	-6.29699
▁over	-6.30002
▁is	-6.3089
▁then	-6.31959
▁washed	-6.32287
▁acetate	-6.32427
▁ADD	-6.35739
▁ethyl	-6.36068
);	-6.367
▁organic	-6.42304
▁sodium	-6.42991
[	-6.46491
▁solid	-6.47101
▁residue	-6.49061
M	-6.51609
C	-6.54025
▁hours	-6.57235
▁product	-6.59061
▁filtered	-6.59855
▁aqueous	-6.61966
▁h	-6.62465
▁To	-6.66327
▁purified	-6.67845
▁give	-6.70172
▁N	-6.70548
+	-6.72684
▁chromatography	-6.75878
▁After	-6.75953
▁A	-6.76716
▁extracted	-6.77029
S	-6.77076
▁pressure	-6.80798
phenyl	-6.8271
▁chloride	-6.88094
▁reduced	-6.88194
-[	-6.90675
▁m	-6.91336
amino	-6.94103
R	-6.94396
▁layer	-6.95838
]-	-6.96802
▁yield	-6.96873
O	-6.97758
▁dissolved	-6.98058
▁δ	-6.98551
▁min	-6.99643
▁silica	-6.99869
▁gel	-7.00579
▁NMR	-7.0232
ethyl	-7.04981
▁an	-7.05575
▁cooled	-7.05874
▁resulting	-7.06166
▁column	-7.07084
▁brine	-7.0765
▁solvent	-7.09665
▁crude	-7.12565
▁sulfate	-7.13325
t	-7.13774
▁combined	-7.14149
▁compound	-7.14288
▁ether	-7.15768
▁saturated	-7.16173
%)	-7.16625
▁M	-7.16809
butyl	-7.1763
▁evaporated	-7.17657
▁heated	-7.17852
×	-7.17864
▁oil	-7.19022
chloro	-7.19361
▁minutes	-7.2
▁EtOAc	-7.23043
▁MHz	-7.23244
▁anhydrous	-7.2532
▁obtained	-7.28126
▁from	-7.29597
▁vacuo	-7.31077
%).	-7.31978
▁dichloromethane	-7.32786
▁on	-7.33935
▁THF	-7.35442
▁methanol	-7.35761
z	-7.36283
▁mol	-7.36522
Cl	-7.36972
▁[	-7.40003
▁removed	-7.40086
▁yellow	-7.41161
▁stirring	-7.41341
▁white	-7.42117
▁dropwise	-7.44768
▁overnight	-7.45725
a	-7.46296
▁filtrate	-7.47544
▁which	-7.47802
):	-7.50801
SO	-7.5358
▁diluted	-7.53714
▁afford	-7.54831
▁phase	-7.55034
▁STIR	-7.56781
▁CH	-7.58349
▁CONCENTRATE	-7.59011
▁NOACTION	-7.60254
bromo	-7.61326
b	-7.61546
▁followed	-7.62214
methoxy	-7.62457
▁ester	-7.63885
▁title	-7.64989
▁YIELD	-7.65134
tert	-7.65838
dimethyl	-7.66085
dd	-7.66174
▁Na	-7.66259
hydroxy	-7.66624
▁vacuum	-7.66663
fluoro	-7.6717
-((	-7.68769
L	-7.70436
▁eq	-7.70448
▁HCl	-7.71004
carboxylate	-7.71067
one	-7.71191
▁MS	-7.72053
▁DCM	-7.7311
▁nitrogen	-7.73439
▁ice	-7.74872
▁off	-7.76468
dihydro	-7.76986
▁hour	-7.77434
▁tert	-7.77677
▁using	-7.77825
▁into	-7.78607
▁μ	-7.79876
▁DMF	-7.79912
carboxylic	-7.80324
oxo	-7.81978
▁addition	-7.83657
▁methyl	-7.8435
-[(	-7.84826
▁WAS	-7.84983
▁carbonate	-7.85364
▁magnesium	-7.85718
′-	-7.85867
▁separated	-7.85982
pyridin	-7.8649
▁−	-7.86513
▁ethanol	-7.87962
▁s	-7.9021
trifluoromethyl	-7.90453
SOLUTION	-7.9078
AKE	-7.90802
▁SLN	-7.91184
▁flask	-7.91402
▁toluene	-7.94586
▁further	-7.94935
MS	-7.95163
▁are	-7.95478
▁layers	-7.95566
▁filtration	-7.96731
▁allowed	-7.96986
▁suspension	-7.97957
▁pH	-7.98253
▁hydroxide	-8.00057
▁tetrahydrofuran	-8.00094
tetrahydro	-8.00327
▁potassium	-8.00351
▁MeOH	-8.00418
▁reflux	-8.00436
▁treated	-8.00697
OLL	-8.01582
CH	-8.02692
▁flash	-8.03676
▁precipitate	-8.03769
amine	-8.05479
c	-8.06496
hexane	-8.07168
▁Example	-8.07323
▁obtain	-8.08064
▁material	-8.10106
▁dry	-8.10278
pyridine	-8.10458
▁collected	-8.13383
p	-8.13428
▁HPLC	-8.13467
▁hydrochloric	-8.13579
▁equiv	-8.14107
br	-8.14626
▁hydrochloride	-8.14877
▁through	-8.14906
▁atmosphere	-8.15147
ER	-8.17321
AY	-8.1789
▁d	-8.17919
ECTL	-8.18143
▁CDCl	-8.18979
▁poured	-8.19004
▁MgSO	-8.20133
g	-8.20935
▁FILTER	-8.21298
▁this	-8.23206
▁diethyl	-8.23672
benzyl	-8.24465
▁hexane	-8.25577
ESI	-8.25602
CDCl	-8.25741
▁DRYSOLUTION	-8.25949
▁keep	-8.26852
▁NaHCO	-8.26934
▁quenched	-8.27224
▁hydrogen	-8.28487
▁triethylamine	-8.28768
▁cooling	-8.29429
▁This	-8.29441
▁PURIFY	-8.29708
▁DMSO	-8.29878
▁purification	-8.29986
▁used	-8.30361
▁methylene	-8.31249
▁acetonitrile	-8.31316
▁chloroform	-8.3251
▁LCMS	-8.32756
▁bath	-8.34721
▁RT	-8.35243
e	-8.3542
pyrimidin	-8.36527
▁ambient	-8.36563
}-	-8.37517
▁colorless	-8.38807
bis	-8.39398
CO	-8.39509
▁bicarbonate	-8.39532
carbonyl	-8.39725
methanol	-8.40281
}	-8.40834
NMR	-8.40955
▁acetic	-8.42289
▁step	-8.42547
oxy	-8.42892
▁rt	-8.44176
imethylformamide	-8.44465
Hz	-8.44474
E	-8.44565
▁distilled	-8.45384
▁SETTEMPERATURE	-8.45665
▁Then	-8.45766
▁eluting	-8.47124
propyl	-8.47938
▁x	-8.48522
▁about	-8.48879
▁slowly	-8.49384
▁dryness	-8.49665
▁after	-8.51004
▁L	-8.53387
▁LC	-8.53389
▁salt	-8.53991
▁desired	-8.54026
▁times	-8.55044
-{	-8.55065
▁Step	-8.56303
▁without	-8.56464
▁crystals	-8.5665
▁EXTRACT	-8.57302
▁that	-8.58207
▁argon	-8.58248
▁found	-8.58421
piperidine	-8.58514
▁containing	-8.58992
▁NH	-8.59108
▁ppm	-8.59196
▁hr	-8.59765
l	-8.6002
▁extracts	-8.60419
▁NaOH	-8.61447
water	-8.61791
D	-8.62749
α	-8.63054
▁prepared	-8.63424
ethoxy	-8.63576
▁gave	-8.64155
▁brown	-8.64653
ol	-8.67251
▁refluxed	-8.68124
▁up	-8.68144
▁gradient	-8.68167
▁ammonium	-8.6896
Na	-8.68998
▁three	-8.69699
▁mole	-8.69706
▁provide	-8.69776
▁time	-8.70375
▁between	-8.709
▁B	-8.71656
▁charged	-8.72317
carboxamide	-8.72499
nitro	-8.7353
▁Pd	-8.73929
fluorophenyl	-8.74189
−	-8.74401
DMSO	-8.75038
piperidin	-8.75219
▁t	-8.75832
pyrazol	-8.76401
▁TLC	-8.76657
▁until	-8.7683
▁TFA	-8.77111
▁hexanes	-8.77691
pyrimidine	-8.78218
benzo	-8.78245
▁n	-8.79395
▁acetone	-8.80517
▁next	-8.80917
cyclopropyl	-8.82297
EtOAc	-8.82392
▁pale	-8.82806
▁cm	-8.8297
▁phases	-8.84151
dimethylamino	-8.8422
▁completion	-8.85081
▁twice	-8.8515
pyrrolo	-8.85217
▁it	-8.85354
▁powder	-8.85554
▁above	-8.85751
▁partitioned	-8.86007
][	-8.86065
dichloro	-8.86318
MeOH	-8.87465
▁light	-8.87757
▁hydride	-8.87929
▁thereto	-8.87964
▁additional	-8.88142
n	-8.88388
▁taken	-8.88867
▁In	-8.89023
butoxycarbonyl	-8.89396
▁round	-8.89507
'-	-8.9082
benzyloxy	-8.9086
▁dioxane	-8.91842
▁resultant	-8.92583
MgSO	-8.9336
▁described	-8.93379
acetic	-8.94
▁liquid	-8.94608
OWOTHERPROCEDURE	-8.94955
▁recrystallized	-8.95756
]+.	-8.9606
carbamate	-8.96087
mol	-8.96519
▁mp	-8.9674
▁pyridine	-8.96836
▁K	-8.9733
▁fractions	-8.97427
▁warm	-8.97502
▁one	-8.97886
q	-8.98012
▁warmed	-8.98553
▁stir	-8.98997
▁two	-8.99479
v	-8.99633
difluoro	-9.00082
′,	-9.00097
▁complete	-9.0016
▁Yield	-9.00314
▁evaporation	-9.00395
di	-9.0079
cyano	-9.01039
▁bromide	-9.01294
▁Et	-9.01434
▁pure	-9.01908
▁while	-9.01959
hexanes	-9.02515
▁mixed	-9.02781
F	-9.03019
▁via	-9.03175
▁acidified	-9.04588
▁extract	-9.04767
▁aq	-9.04902
pyrrolidine	-9.04903
ES	-9.04914
▁preparative	-9.05017
chlorophenyl	-9.05139
tetramethyl	-9.05151
silica	-9.05186
▁mm	-9.05509
]+	-9.05766
▁suspended	-9.05923
methoxyphenyl	-9.06552
phenoxy	-9.07829
imidazo	-9.08379
phenylphosphine	-9.0841
▁Water	-9.10574
OH	-9.11256
A	-9.11516
isopropyl	-9.11634
▁precipitated	-9.12317
▁eluent	-9.13037
indole	-9.13239
▁iodide	-9.13321
▁lithium	-9.13378
▁same	-9.13989
pyrazolo	-9.14133
▁mmole	-9.14546
cyclohexyl	-9.14654
benzoic	-9.14683
▁placed	-9.14932
)+.	-9.15098
tri	-9.15378
▁chromatographed	-9.1586
▁palladium	-9.15959
benzene	-9.16411
▁starting	-9.16533
J	-9.17312
▁subjected	-9.17669
indol	-9.18012
acetyl	-9.18072
'	-9.18303
▁remove	-9.19437
sulfonyl	-9.19443
▁gas	-9.1975
dioxane	-9.20073
dione	-9.20281
ml	-9.20531
acetate	-9.21092
▁purity	-9.21523
▁out	-9.21618
▁procedure	-9.2214
▁cold	-9.22603
II	-9.22642
ylmethyl	-9.22666
▁adjusted	-9.2292
▁anhydride	-9.22967
▁isolated	-9.23211
▁eluted	-9.23243
▁EtOH	-9.2341
▁continued	-9.23567
biphenyl	-9.23663
▁afforded	-9.238
▁formed	-9.2426
imidazol	-9.24559
white	-9.25084
▁hrs	-9.25289
acetamide	-9.25862
pyrrolidin	-9.27001
▁portion	-9.27427
▁amount	-9.27808
▁microwave	-9.27846
▁calcd	-9.27912
pyrazole	-9.28061
piperazine	-9.2849
▁point	-9.28971
▁sulphate	-9.29755
iodo	-9.29872
▁carbon	-9.3009
▁mass	-9.30149
▁Purification	-9.30421
▁grams	-9.30818
▁portions	-9.31091
min	-9.31226
▁Found	-9.31286
▁cool	-9.31596
pyran	-9.31787
yloxy	-9.33069
▁funnel	-9.33503
▁p	-9.33583
mL	-9.33802
▁r	-9.33947
▁sat	-9.34498
+)	-9.34653
′	-9.35126
thiazol	-9.35744
CN	-9.36103
▁clear	-9.36655
▁days	-9.37055
▁drying	-9.37497
▁solids	-9.38351
▁trifluoroacetic	-9.38794
▁equipped	-9.39108
en	-9.39189
▁before	-9.39615
sulfonamide	-9.39718
▁filter	-9.40648
piperazin	-9.40697
▁alcohol	-9.40764
Chloro	-9.40886
benzaldehyde	-9.41097
▁period	-9.41142
palladium	-9.41241
▁triturated	-9.41359
▁Rf	-9.4201
▁parts	-9.42631
▁unknown	-9.43673
▁FOL	-9.44074
▁Celite	-9.44424
▁REFLUX	-9.44598
▁catalyst	-9.44668
▁sealed	-9.45108
▁analysis	-9.45362
▁thus	-9.45382
▁orange	-9.45781
▁degassed	-9.46192
trifluoro	-9.4622
▁rotary	-9.46431
yield	-9.46549
▁tube	-9.46571
DCM	-9.46762
▁volume	-9.46808
hydroxymethyl	-9.46833
MH	-9.46956
▁ammonia	-9.47448
quinolin	-9.48292
▁PH	-9.48756
▁heating	-9.48927
▁intermediate	-9.4897
P	-9.49504
benzoate	-9.49708
h	-9.49985
quinoline	-9.50222
I	-9.50622
▁showed	-9.51042
▁reacted	-9.51896
dimethoxy	-9.51982
▁ESI	-9.52119
▁slurry	-9.5213
▁oily	-9.52151
carbonitrile	-9.52394
▁extraction	-9.52691
▁onto	-9.52713
-{[	-9.53073
methylphenyl	-9.53084
OD	-9.53499
▁reactor	-9.53526
▁distillation	-9.53634
▁celite	-9.53725
▁tri	-9.54067
amide	-9.54133
▁foam	-9.54251
▁successively	-9.54977
carbamoyl	-9.55651
B	-9.55753
▁again	-9.55939
▁benzyl	-9.55984
▁di	-9.55986
▁vial	-9.56993
▁bis	-9.57378
▁be	-9.57505
trimethylsilyl	-9.57509
▁solvents	-9.58122
thiophene	-9.58351
pyridyl	-9.58431
HPLC	-9.5863
▁directly	-9.58749
▁It	-9.58863
benzonitrile	-9.59119
benzamide	-9.59198
ethanol	-9.59407
methylene	-9.59661
▁following	-9.59679
▁adding	-9.60166
f	-9.60205
▁organics	-9.60302
+).	-9.60314
▁mmoles	-9.61143
▁form	-9.61361
cyclohexane	-9.61559
▁benzene	-9.61626
▁Sodium	-9.62456
▁vessel	-9.62513
▁Ethyl	-9.62813
aR	-9.63388
▁according	-9.63715
pyrido	-9.63733
▁neutralized	-9.63736
▁F	-9.638
ylamino	-9.63897
bs	-9.63917
propan	-9.64237
▁maintained	-9.64449
▁down	-9.64499
▁kg	-9.64625
Bromo	-9.64816
▁reverse	-9.65094
heptane	-9.65274
▁bottom	-9.65766
▁CHCl	-9.65875
▁Compound	-9.65948
▁crystallized	-9.66049
benzoyl	-9.66054
▁W	-9.66108
dioxo	-9.66147
o	-9.66198
▁had	-9.6629
▁pad	-9.67541
▁DIPEA	-9.6768
imidazole	-9.67939
propionic	-9.68088
▁heptane	-9.68363
nitrophenyl	-9.68435
▁NaCl	-9.68585
′-(	-9.68826
eluent	-9.68837
▁being	-9.68917
▁excess	-9.69182
▁calculated	-9.69184
ppm	-9.69944
▁Ar	-9.70244
▁another	-9.7026
▁stirrer	-9.71539
diamine	-9.71922
▁purged	-9.73153
▁diisopropyl	-9.73249
▁below	-9.73364
▁dark	-9.73374
▁melting	-9.73515
▁dimethyl	-9.73565
trans	-9.74012
-(((	-9.74156
▁concentration	-9.74362
dioxaborolan	-9.74705
▁drop	-9.74803
▁manner	-9.74824
acetone	-9.76083
▁crystalline	-9.76199
ethylamine	-9.76625
▁small	-9.76692
▁high	-9.77225
▁example	-9.7739
triazol	-9.79109
▁D	-9.80213
▁condenser	-9.80563
dichloromethane	-9.80834
▁or	-9.80908
▁system	-9.81314
trimethyl	-9.81322
▁petroleum	-9.81479
▁nm	-9.82388
▁IR	-9.82637
▁HRMS	-9.82818
benzofuran	-9.8282
▁left	-9.83369
propanol	-9.84346
methoxycarbonyl	-9.84547
acetonitrile	-9.84547
▁carried	-9.84677
methylsulfonyl	-9.85378
spiro	-9.8547
thio	-9.85613
ecrystallization	-9.85696
▁Anal	-9.86236
ene	-9.86289
x	-9.86316
necked	-9.86631
▁moles	-9.8682
Amino	-9.8684
mmol	-9.86967
▁evaporator	-9.87011
▁spectrum	-9.87095
▁PHASESEPARATION	-9.87195
SiO	-9.87252
-[[	-9.87713
▁Calcd	-9.88559
AIT	-9.88584
petroleum	-9.887
Example	-9.88737
▁once	-9.89107
aS	-9.89415
▁v	-9.89774
carbodiimide	-9.90158
▁monitored	-9.90539
▁during	-9.9075
▁DRYSOLID	-9.90771
▁method	-9.91134
cyclopentyl	-9.91168
ethanone	-9.91384
cyclopropane	-9.92517
▁yielding	-9.93098
▁Rt	-9.9325
▁hot	-9.93421
carbamic	-9.93593
LLI	-9.93736
YSTA	-9.93742
ECR	-9.93776
▁trans	-9.93831
▁base	-9.94144
▁washing	-9.94404
▁rate	-9.94764
naphthalen	-9.95001
hydroxyphenyl	-9.95185
▁cake	-9.95397
pyrazin	-9.95994
▁indicated	-9.96055
▁re	-9.96387
w	-9.96498
▁monohydrate	-9.9655
methylthio	-9.96589
prop	-9.96744
▁HATU	-9.97064
▁elution	-9.97424
▁kept	-9.97634
▁sulfuric	-9.97645
▁prep	-9.97743
diisopropylethyl	-9.97985
▁[(	-9.98053
methylamino	-9.98138
▁more	-9.98138
▁borohydride	-9.98141
▁air	-9.98179
▁weight	-9.98263
butoxy	-9.98322
Methyl	-9.98337
cooling	-9.98487
aniline	-9.98742
Butyl	-9.98966
▁wt	-9.9915
▁Methyl	-9.99581
▁An	-9.99629
formyl	-9.99798
▁sequentially	-10.0012
▁red	-10.0018
r	-10.0034
methoxybenzyl	-10.0064
triazolo	-10.0075
PPh	-10.0085
▁Into	-10.0097
▁cesium	-10.0107
▁CD	-10.0119
▁dd	-10.0125
indazol	-10.0127
▁copper	-10.0129
▁removal	-10.0172
phenol	-10.0251
▁isopropanol	-10.0273
ddd	-10.0286
▁dilute	-10.0329
thiazole	-10.033
ing	-10.0334
bottom	-10.0342
▁At	-10.0345
isoquinoline	-10.0349
boronic	-10.0352
▁mM	-10.0367
pyrrole	-10.0367
vinyl	-10.0371
dichlorophenyl	-10.0375
▁TEA	-10.0381
▁resin	-10.0392
▁tetrakis	-10.0398
difluorophenyl	-10.0418
hydroxyethyl	-10.0424
Compound	-10.0432
carbaldehyde	-10.0472
-{[(	-10.048
dt	-10.0484
▁subsequently	-10.0525
▁Upon	-10.056
i	-10.0592
quinazolin	-10.0644
NH	-10.0657
▁Under	-10.067
▁each	-10.0676
morpholin	-10.0678
▁transferred	-10.0686
THF	-10.0727
▁Mass	-10.0741
▁yielded	-10.075
▁I	-10.0796
oxa	-10.0811
azabicyclo	-10.082
▁tetra	-10.0828
▁thionyl	-10.0855
▁citric	-10.0861
CD	-10.0865
▁fraction	-10.0867
▁remaining	-10.0931
benzenesulfonyl	-10.0932
naphthalene	-10.0943
▁bar	-10.1005
▁complex	-10.1006
hexahydro	-10.1063
butoxide	-10.108
prepared	-10.1161
▁vigorously	-10.1161
bromophenyl	-10.1199
▁NaH	-10.1202
▁several	-10.1239
▁conditions	-10.1254
▁amine	-10.1274
furan	-10.1324
aminomethyl	-10.134
▁MeCN	-10.1345
▁suction	-10.1367
▁provided	-10.1368
tetrahydrofuran	-10.1382
bromomethyl	-10.1402
diphenyl	-10.1424
NO	-10.1428
▁completed	-10.1443
▁volatiles	-10.1452
▁glass	-10.1455
thieno	-10.1506
ethoxycarbonyl	-10.1508
▁approximately	-10.1508
▁residual	-10.1509
▁isopropyl	-10.151
▁substance	-10.1525
▁colourless	-10.1557
▁rinsed	-10.158
▁Intermediate	-10.1597
methanone	-10.1607
methanesulfonyl	-10.1633
propanoate	-10.1656
▁drops	-10.1683
▁ratio	-10.1688
▁mineral	-10.173
▁four	-10.1738
oxadiazol	-10.1758
chloromethyl	-10.1775
▁Preparation	-10.1794
thiophen	-10.1795
▁oven	-10.1804
UEN	-10.1809
▁Solvent	-10.1869
▁DIEA	-10.1884
▁basic	-10.1885
▁stand	-10.1887
▁magnetic	-10.1902
▁total	-10.1933
dihydroxy	-10.1952
▁observed	-10.196
▁concentrate	-10.1964
δ	-10.1999
▁tR	-10.2024
propoxy	-10.2069
chloroform	-10.2118
▁Reaction	-10.2131
bicyclo	-10.2141
aq	-10.2147
▁percent	-10.2157
iphenylphosphino	-10.2174
pyrazine	-10.2188
▁insoluble	-10.2213
butanol	-10.2224
▁crystal	-10.2226
Boc	-10.2259
diethyl	-10.2261
▁conc	-10.2326
Intermediate	-10.233
cyclopenta	-10.2334
▁made	-10.2335
▁acidic	-10.2335
pyridazin	-10.2347
dppf	-10.2433
▁calc	-10.2499
▁giving	-10.25
OAc	-10.2508
U	-10.2537
▁free	-10.2559
▁neutral	-10.2565
▁viscous	-10.2576
▁first	-10.2591
▁absolute	-10.2596
▁aluminum	-10.2599
▁Column	-10.2634
▁INVALIDACTION	-10.2641
▁chloroformate	-10.2644
▁DMAP	-10.2687
▁sample	-10.2712
▁syringe	-10.2713
HCl	-10.2717
▁cyclohexane	-10.2736
isoquinolin	-10.2738
but	-10.2788
▁hydrogenated	-10.2796
▁gradually	-10.286
▁having	-10.2868
▁conversion	-10.2877
▁all	-10.2885
▁hydrate	-10.2887
▁EA	-10.2934
▁glacial	-10.2952
▁cartridge	-10.2954
▁get	-10.2954
brs	-10.2957
methanesulfonate	-10.2992
▁been	-10.2996
▁flow	-10.2997
ydrogencarbonate	-10.301
▁Method	-10.3037
in	-10.3044
propane	-10.3135
▁passed	-10.3145
▁autoclave	-10.3162
▁equivalents	-10.317
▁similar	-10.323
▁{	-10.3236
neck	-10.3243
▁so	-10.3246
▁internal	-10.3247
toluene	-10.3251
▁phosphate	-10.3262
▁cis	-10.3274
▁hydrazine	-10.3282
aza	-10.3291
acetamido	-10.335
▁resulted	-10.3381
trifluoromethoxy	-10.3382
▁thermometer	-10.3418
butyldimethylsil	-10.3459
▁stream	-10.3471
▁maintaining	-10.3535
▁retention	-10.3537
▁P	-10.3538
benzotriazole	-10.3563
▁basified	-10.3572
ethynyl	-10.3598
oxazol	-10.3609
▁no	-10.361
▁separation	-10.3618
▁carefully	-10.3652
×).	-10.366
RS	-10.368
oxide	-10.3683
]+=	-10.369
▁presence	-10.3694
pyrrol	-10.3703
butyllithium	-10.3703
▁tan	-10.375
ether	-10.3768
▁dispersion	-10.3782
▁not	-10.3785
▁saline	-10.3794
▁br	-10.381
▁fluoride	-10.3816
mg	-10.3826
▁introduced	-10.3872
ic	-10.3887
indazole	-10.3888
▁amide	-10.3935
PO	-10.3945
▁psi	-10.3953
▁NaBH	-10.3958
▁back	-10.3975
▁ES	-10.4004
▁l	-10.4006
▁affording	-10.4007
▁thereby	-10.4022
▁recovered	-10.4054
▁Flash	-10.4067
▁portionwise	-10.4092
▁amorphous	-10.4101
Fluoro	-10.4104
▁When	-10.4138
)+:	-10.415
phenylamino	-10.4164
+):	-10.4174
butylammonium	-10.4203
▁thin	-10.4205
▁oxide	-10.4242
▁confirmed	-10.4249
▁theory	-10.4279
EI	-10.4304
hydride	-10.4313
▁Subsequently	-10.4319
▁formic	-10.4323
Method	-10.439
ed	-10.439
▁shaken	-10.4391
-[[(	-10.4399
dec	-10.4402
▁performed	-10.4408
▁mobile	-10.4412
cyclobutyl	-10.4444
dibromo	-10.4503
triazin	-10.4538
methane	-10.4563
▁zinc	-10.4594
▁inert	-10.4603
▁No	-10.4626
KBr	-10.4631
compound	-10.4648
▁titled	-10.4663
morpholine	-10.4691
%):	-10.4727
y	-10.4739
▁oxalyl	-10.474
propanoic	-10.4749
azetidin	-10.4785
nitrobenzene	-10.4795
▁LiOH	-10.4805
urea	-10.4814
cis	-10.4816
oxoethyl	-10.4819
▁equivalent	-10.484
▁Synthesis	-10.4855
▁medium	-10.4898
ferrocene	-10.4935
▁Thereafter	-10.4974
naphthyl	-10.4988
%;	-10.5002
▁gum	-10.5007
triazole	-10.5056
dried	-10.5102
MHz	-10.5102
▁such	-10.5189
%);	-10.5194
▁azide	-10.52
APCI	-10.5207
benzimidazol	-10.5208
▁preparation	-10.5225
tolyl	-10.5234
▁dihydrochloride	-10.5242
▁eluant	-10.5243
▁KOH	-10.5243
pyridinyl	-10.5274
TION	-10.5283
quinazoline	-10.5306
▁second	-10.5319
▁night	-10.5325
azetidine	-10.5333
morpholino	-10.5335
▁wise	-10.5336
bottomed	-10.5347
▁ArH	-10.5349
▁isomer	-10.5391
▁PARTI	-10.5406
naphthyridin	-10.5426
▁reagent	-10.5441
▁Following	-10.5445
phosphine	-10.5453
PE	-10.5462
td	-10.547
▁mesh	-10.547
▁lyophilized	-10.5485
methoxymethyl	-10.5514
methylpyridin	-10.5535
acetoxy	-10.56
▁general	-10.5611
▁AcOH	-10.5628
▁w	-10.5652
▁ACN	-10.5656
octane	-10.5691
▁contents	-10.5722
dimethoxyphenyl	-10.5735
',	-10.5736
▁bubbled	-10.5747
▁standing	-10.5758
▁triacetoxyboro	-10.5767
▁steps	-10.578
pyridazine	-10.5782
bath	-10.579
▁SiO	-10.5792
HNMR	-10.5796
carboxy	-10.58
▁ion	-10.5809
▁formula	-10.5844
TLC	-10.5854
▁UV	-10.5868
▁loaded	-10.5884
▁dropping	-10.5887
dichloroethane	-10.5895
▁Evaporation	-10.5967
▁Boc	-10.6009
Me	-10.6011
▁upon	-10.6028
▁G	-10.6034
▁trifluoro	-10.6044
Hydroxy	-10.605
on	-10.6075
-{(	-10.6095
ylamine	-10.6113
▁AcOEt	-10.6149
▁pentane	-10.6158
wise	-10.618
▁Chem	-10.6194
▁tris	-10.6194
CHCl	-10.622
▁corresponding	-10.6236
▁umol	-10.624
pentyl	-10.6246
▁hexa	-10.6266
phase	-10.6288
BuLi	-10.6288
purin	-10.6312
allyl	-10.6345
▁final	-10.6352
piperidinyl	-10.6367
▁charcoal	-10.6373
▁Methanol	-10.6374
dimethylethyl	-10.6374
dicarboxylate	-10.6386
EA	-10.64
▁converted	-10.6426
tetrazol	-10.6437
toluenesulfonic	-10.644
Aldrich	-10.6452
▁ca	-10.6455
▁there	-10.6455
▁mins	-10.6491
▁Prep	-10.6494
Yield	-10.6539
▁methoxide	-10.6545
propionate	-10.6567
▁target	-10.6572
dba	-10.658
▁EDC	-10.6588
▁ketone	-10.659
benzimidazole	-10.6598
▁plug	-10.6611
▁boiling	-10.6614
fluorobenzyl	-10.6619
▁ethylene	-10.6623
▁flushed	-10.6634
▁GC	-10.6673
yellow	-10.6697
▁order	-10.6702
▁Reference	-10.6705
RATE	-10.671
pH	-10.6721
▁TRIT	-10.6736
▁uL	-10.6749
ly	-10.6771
Br	-10.6784
carboxamido	-10.6797
ylidene	-10.6807
▁T	-10.6816
▁structure	-10.6845
▁refluxing	-10.6846
▁repeated	-10.6857
▁peroxide	-10.6876
▁Mobile	-10.6877
▁glycol	-10.691
ethylamino	-10.6945
▁applied	-10.696
difluoromethyl	-10.6983
Ph	-10.6987
enyl	-10.7009
▁synthesized	-10.7026
V	-10.703
cm	-10.7032
▁dichloride	-10.7044
diisopropyl	-10.7062
▁catalytic	-10.7067
▁filtrated	-10.7075
▁RP	-10.7076
-({	-10.708
▁ethylacetate	-10.7103
▁HOBt	-10.7108
Methoxy	-10.7112
ethane	-10.7112
▁mechanical	-10.7116
▁activated	-10.7128
▁sulfoxide	-10.7133
▁brought	-10.7162
▁produced	-10.7166
imino	-10.7184
▁Triethylamine	-10.7185
trifluoroacetate	-10.7211
tetrahydropyran	-10.7228
▁MTBE	-10.7245
Et	-10.728
▁color	-10.7303
++	-10.7317
▁yellowish	-10.7319
▁phosphorus	-10.7329
▁Organic	-10.7341
Ethyl	-10.7342
oct	-10.7349
oxazole	-10.7352
▁crystallization	-10.7373
▁thick	-10.7374
▁Fractions	-10.7384
diol	-10.7399
IR	-10.7401
isoxazol	-10.7403
K	-10.7409
gradient	-10.7413
silyl	-10.7417
hydrazine	-10.7422
▁vigorous	-10.7436
phenylboronic	-10.7475
▁became	-10.7489
aminophenyl	-10.7502
▁completely	-10.752
inden	-10.7522
butyric	-10.7539
▁fitted	-10.754
ClN	-10.7554
▁Potassium	-10.7563
▁Chromatography	-10.7575
methylethyl	-10.7577
▁molecular	-10.7594
▁nitrite	-10.7597
triazine	-10.7603
▁separate	-10.7616
▁its	-10.7624
▁half	-10.7629
isobutyl	-10.7635
isopropoxy	-10.7637
▁apparatus	-10.7644
tetra	-10.7681
▁i	-10.7693
▁separatory	-10.7728
phosphonium	-10.7767
▁PdCl	-10.7771
cooled	-10.7775
▁cyanide	-10.7777
′),	-10.7779
thienyl	-10.7783
▁Stirring	-10.7825
methylmorpholine	-10.783
▁redissolved	-10.7848
▁finally	-10.7856
)+=	-10.787
▁value	-10.7887
]+,	-10.7896
magnesium	-10.7916
ylmethoxy	-10.7951
▁formation	-10.7956
▁beige	-10.7959
Dimethyl	-10.7971
carbonylamino	-10.7974
cold	-10.7986
▁Cs	-10.7998
▁minute	-10.8016
▁has	-10.8077
▁hydroxylamine	-10.8077
Hexane	-10.8081
thia	-10.8091
▁triethyl	-10.8097
naphthyridine	-10.8099
▁whereby	-10.813
▁raised	-10.8132
dicarboxylic	-10.8142
methylpropyl	-10.8204
azaspiro	-10.8216
up	-10.8227
pentane	-10.8228
▁X	-10.823
▁decanted	-10.8242
T	-10.8245
azido	-10.8278
▁isocyanate	-10.8292
▁obtaining	-10.8292
hept	-10.8296
▁within	-10.8324
▁peak	-10.833
μ	-10.8341
mercapto	-10.8345
▁materials	-10.8362
ethoxymethyl	-10.8383
X	-10.8391
▁methanesulfonyl	-10.8416
▁contained	-10.8443
thiadiazol	-10.8448
▁than	-10.8463
phenylethyl	-10.848
hexyl	-10.8504
▁evolution	-10.851
dioxolan	-10.8511
cyanophenyl	-10.8556
▁wet	-10.8579
▁E	-10.8582
▁expected	-10.8589
'-(	-10.8593
▁NMP	-10.8599
octahydro	-10.8619
ylcarbamate	-10.8627
ca	-10.8632
▁Next	-10.865
)+;	-10.8651
CI	-10.8652
▁any	-10.8656
dibenzylidene	-10.8671
about	-10.8673
▁Analysis	-10.8675
isoxazole	-10.8688
method	-10.8708
▁mono	-10.8708
▁produce	-10.8715
▁determined	-10.8727
▁content	-10.8729
▁inlet	-10.8746
max	-10.8755
▁consumed	-10.8776
)+,	-10.8803
▁DEGAS	-10.8818
▁pre	-10.8837
aminoethyl	-10.8849
Bis	-10.885
▁react	-10.8858
▁gives	-10.8858
]+;	-10.8878
LC	-10.8881
methylsulfanyl	-10.889
methylpiperazin	-10.8911
▁dicarbonate	-10.8914
▁together	-10.8919
azodicarboxylate	-10.8923
▁keeping	-10.8938
▁Additional	-10.894
sodium	-10.8981
dicyclohexyl	-10.8988
▁wash	-10.9
piperazinyl	-10.903
diazabicyclo	-10.9031
▁slightly	-10.9032
G	-10.9038
methanamine	-10.904
▁DME	-10.9041
▁cc	-10.9063
▁isomers	-10.9064
triphenyl	-10.907
▁Hg	-10.9071
FAB	-10.9095
from	-10.91
▁vol	-10.9107
▁morpholine	-10.9113
dimethylphenyl	-10.9128
▁data	-10.9168
al	-10.922
▁Phase	-10.9231
▁Biotage	-10.9238
▁five	-10.9249
hex	-10.9267
▁subsequent	-10.9271
eluting	-10.9293
▁mbar	-10.9322
▁racemic	-10.9325
acetylamino	-10.934
dipalladium	-10.9341
ice	-10.9353
piperidyl	-10.936
▁Calc	-10.938
carbon	-10.9394
diamino	-10.9394
dioxide	-10.9403
diisopropylamine	-10.9419
chloride	-10.942
▁quantitative	-10.9424
Si	-10.9425
▁precipitates	-10.9467
▁oxychloride	-10.9468
▁boron	-10.9493
▁analogous	-10.9505
▁analyzed	-10.9506
▁end	-10.9524
▁stripped	-10.953
▁can	-10.9531
fluorophosphate	-10.9532
▁Saturated	-10.9545
▁Silica	-10.955
▁Filtration	-10.9551
▁requires	-10.9595
▁allyl	-10.9615
▁agitated	-10.9628
ate	-10.963
▁Combined	-10.9656
▁evacuated	-10.9675
broad	-10.9693
((	-10.9702
TFA	-10.9708
acetophenone	-10.971
▁chilled	-10.9729
▁heat	-10.9742
cyanoborohydride	-10.9761
pent	-10.9796
ynyl	-10.9807
hydroxypropyl	-10.9814
▁liter	-10.983
▁Calculated	-10.983
▁black	-10.9834
▁LRMS	-10.9837
▁tetrachloride	-10.9852
ammonium	-10.9864
yn	-10.9876
▁Dean	-10.9891
▁EDCI	-10.9894
▁few	-10.9898
the	-10.9906
▁well	-10.9917
▁bromine	-10.9923
▁α	-10.9927
▁means	-10.9933
▁OCH	-10.9939
▁appropriate	-10.9941
▁green	-10.998
▁solidified	-10.9987
isoindol	-10.9991
▁Further	-11.0017
dioxol	-11.0023
sulfamoyl	-11.0035
▁consumption	-11.0039
▁Concentration	-11.0058
▁Removal	-11.0062
▁single	-11.0072
aminopropyl	-11.0073
sulfonic	-11.0078
phenylmethyl	-11.0085
]+:	-11.0108
▁aldehyde	-11.0115
chlorobenzyl	-11.0116
furo	-11.0152
containing	-11.0154
▁immediately	-11.0166
▁chiral	-11.0173
▁derivative	-11.0178
▁q	-11.0193
▁thiosulfate	-11.0197
▁ISCO	-11.0204
▁follows	-11.0221
decane	-11.0221
▁based	-11.0227
bR	-11.0245
DMF	-11.0269
butan	-11.0274
▁temp	-11.0283
brown	-11.0287
▁Aqueous	-11.0297
methyloxy	-11.0325
▁synthesis	-11.0331
▁syrup	-11.0356
carboxaldehyde	-11.0368
▁rac	-11.0373
difluoromethoxy	-11.0388
trifluoroethyl	-11.0395
▁when	-11.0398
oxazin	-11.0419
▁removing	-11.0419
sulfonamido	-11.0423
▁There	-11.0447
or	-11.0489
▁semi	-11.049
bromosuccinimide	-11.0495
▁Spectrum	-11.0504
▁et	-11.0505
chloropyridin	-11.0513
▁progress	-11.0528
methoxyethyl	-11.054
▁normal	-11.0541
▁Retention	-11.0558
turned	-11.0583
as	-11.0588
iso	-11.0599
dihydrobenzo	-11.0606
acrylate	-11.0609
propionyl	-11.0615
▁filtering	-11.0623
×),	-11.0646
′:	-11.0648
phenylsulfonyl	-11.0649
▁diethylether	-11.0663
fluoropyridin	-11.0669
ium	-11.0671
pyrrolidinyl	-11.0683
dimethylsilyloxy	-11.0709
▁part	-11.0713
▁al	-11.0717
quinoxaline	-11.0724
▁thoroughly	-11.0731
oxazolidin	-11.0759
▁formate	-11.0764
▁batch	-11.0795
methylpiperidin	-11.0798
▁Add	-11.0808
▁previous	-11.0824
▁dissolve	-11.0833
▁mother	-11.084
tetrafluoro	-11.0851
▁For	-11.0855
▁slow	-11.0858
▁Aldrich	-11.0869
▁trimethyl	-11.0877
▁molar	-11.0887
▁precipitation	-11.0894
▁irradiation	-11.0897
cyclopentane	-11.0917
sulfanyl	-11.0945
▁leave	-11.095
▁held	-11.0956
Rf	-11.0962
▁short	-11.0988
Hex	-11.0995
▁homogeneous	-11.0996
LCMS	-11.1001
silane	-11.1009
column	-11.1018
imethylsulfoxide	-11.1018
EtOH	-11.103
[(	-11.1036
▁kPa	-11.1044
▁imidazole	-11.1044
nicotinic	-11.1054
diyl	-11.1084
▁available	-11.1084
▁matter	-11.1093
methylpyrrolidin	-11.1098
′′-	-11.1112
carbazole	-11.1124
▁buffer	-11.1133
propanamide	-11.1137
▁Crude	-11.1141
▁dropped	-11.1149
▁Flow	-11.1151
▁Eq	-11.1156
diaza	-11.1173
▁CuI	-11.1189
▁iron	-11.1191
cephem	-11.1198
Stark	-11.12
thiazolo	-11.12
▁less	-11.1216
▁iodomethane	-11.1223
▁o	-11.1261
▁shown	-11.1262
▁Parr	-11.1264
Dichloro	-11.1268
▁stopped	-11.128
▁whole	-11.1292
▁On	-11.1303
▁adjust	-11.1308
▁consistent	-11.133
▁group	-11.1345
▁dissolving	-11.1347
ureido	-11.1361
FN	-11.1367
pentanoic	-11.1376
▁methylamine	-11.1382
purine	-11.1385
OCH	-11.1408
▁Waters	-11.1412
diethylamino	-11.1418
Bu	-11.1429
▁Part	-11.1445
▁iodine	-11.1453
Benzyl	-11.1464
phosphino	-11.1468
▁atmospheric	-11.149
CF	-11.1515
▁dioxide	-11.1545
▁co	-11.1555
▁put	-11.1572
hydroxylamine	-11.1599
▁result	-11.1632
▁work	-11.1638
▁agent	-11.1658
III	-11.1664
▁day	-11.1667
▁Chemical	-11.1678
chloroethyl	-11.1721
acrylic	-11.1722
diazaspiro	-11.1725
methoxyethoxy	-11.1752
▁constant	-11.1804
▁reached	-11.1813
extracted	-11.1818
pyrimido	-11.1831
▁filtrates	-11.1835
▁formaldehyde	-11.1847
diimidazole	-11.1853
tris	-11.1854
methanesulfonic	-11.1862
▁POCl	-11.1863
▁replaced	-11.1867
▁sieves	-11.1894
u	-11.1894
▁recrystallised	-11.1919
▁discarded	-11.1937
▁add	-11.1938
▁Procedure	-11.194
benzylamine	-11.1943
IV	-11.1947
▁alumina	-11.1956
de	-11.1958
decan	-11.1959
▁run	-11.196
dioxaborolane	-11.197
▁Product	-11.1994
▁process	-11.2005
▁CHLOROFORM	-11.2009
▁Gradient	-11.2059
deoxy	-11.2063
methoxymethoxy	-11.2074
▁balloon	-11.2076
▁furnish	-11.2087
dihydropyridine	-11.2087
▁ethereal	-11.21
▁treatment	-11.2114
▁products	-11.2114
enoic	-11.2123
propionamide	-11.2152
▁remained	-11.2155
bi	-11.2165
dioxa	-11.2168
alanine	-11.2197
dimethoxyethane	-11.2206
dibenzo	-11.2232
▁needles	-11.224
butane	-11.2255
methylpyridine	-11.2259
▁xylene	-11.2265
▁warming	-11.2267
′-[	-11.2271
▁hydrogenation	-11.2273
▁Lithium	-11.229
▁some	-11.2296
indan	-11.2323
▁PE	-11.2336
gel	-11.2345
▁present	-11.2353
fluoren	-11.2356
cyclohex	-11.2366
oxetan	-11.2371
▁per	-11.2381
▁liquor	-11.2382
▁respectively	-11.2387
trityl	-11.2398
▁tribromide	-11.24
Hexanes	-11.2407
benzothiazol	-11.2431
succinimide	-11.2436
methylpiperazine	-11.2441
cyanomethyl	-11.2447
diazepin	-11.2449
octan	-11.2499
trimethylsilane	-11.2514
▁Toluene	-11.2532
▁liters	-11.2537
nitrobenzyl	-11.2558
▁but	-11.256
isomer	-11.2562
methoxypyridin	-11.2565
▁away	-11.2596
ethanamine	-11.261
benzylamino	-11.2659
▁whereupon	-11.2682
▁standard	-11.2713
▁pump	-11.2726
▁salts	-11.2731
▁volatile	-11.2735
▁DMA	-11.2738
▁diastereomers	-11.2744
▁trap	-11.2757
▁lower	-11.2765
▁mmHg	-11.2768
▁piperidine	-11.2772
▁Co	-11.2775
cyclobutane	-11.2781
benzazepine	-11.2788
an	-11.279
▁rapidly	-11.2813
▁Diethyl	-11.2822
trimethylsilanyl	-11.2838
▁Chloroform	-11.2848
nicotinamide	-11.2852
obtained	-11.2862
▁freshly	-11.2862
▁Melting	-11.2865
butanoate	-11.2867
▁borane	-11.287
▁major	-11.2894
▁initially	-11.2909
▁ee	-11.2926
▁Palladium	-11.2931
▁course	-11.2946
toluenesulfonyl	-11.3
saturated	-11.3006
phosphonate	-11.302
proline	-11.3025
ethan	-11.303
▁slurried	-11.3035
▁oxime	-11.3055
▁Raney	-11.3061
▁adduct	-11.3061
▁bubbling	-11.3089
▁boronic	-11.3119
▁While	-11.3128
▁Using	-11.3131
▁bed	-11.314
▁de	-11.3142
▁alkaline	-11.3145
octyl	-11.3175
{	-11.3176
▁deionized	-11.318
▁analytical	-11.3185
oxopropyl	-11.3214
▁nickel	-11.3216
▁little	-11.3246
▁earth	-11.3249
benzyloxycarbon	-11.3261
▁HOBT	-11.3264
▁reversed	-11.3274
-({[	-11.3277
▁gram	-11.328
▁also	-11.328
▁dimethylamine	-11.3288
▁worked	-11.3294
▁Once	-11.3311
▁As	-11.3325
▁irradiated	-11.333
▁quench	-11.3347
▁acetyl	-11.336
phenylamine	-11.3383
▁Prepared	-11.3386
example	-11.3405
▁aniline	-11.3407
▁unreacted	-11.3417
▁um	-11.342
▁increased	-11.3425
▁Acetic	-11.3452
to	-11.3497
▁conducted	-11.35
furyl	-11.3508
▁most	-11.3516
▁partially	-11.3519
▁pooled	-11.3522
▁Di	-11.3528
diboron	-11.3528
hydrazino	-11.354
sat	-11.3575
▁polar	-11.3593
▁hold	-11.3596
heptan	-11.3603
▁detected	-11.3606
dissolved	-11.361
naphtho	-11.3617
acetaldehyde	-11.3659
W	-11.3661
▁Mp	-11.3679
er	-11.368
▁By	-11.3688
undec	-11.3696
Benzyloxy	-11.3707
▁identified	-11.3721
▁set	-11.3733
AcOEt	-11.3737
epoxy	-11.3739
app	-11.3742
The	-11.3746
▁trituration	-11.3758
▁sulfide	-11.379
▁required	-11.3807
oxazine	-11.381
▁previously	-11.3814
phenethyl	-11.3821
▁General	-11.3824
ve	-11.3831
▁condensed	-11.3832
▁bromoacetate	-11.3847
▁distilling	-11.3871
▁trifluoride	-11.3882
▁frit	-11.3882
▁freeze	-11.392
trichloro	-11.3933
solid	-11.3935
▁volumes	-11.3962
butanoic	-11.3963
▁concentrating	-11.3986
fluorophenoxy	-11.4001
▁mMol	-11.4012
uronium	-11.4016
isoindoline	-11.4039
▁dehydrated	-11.4045
▁bottle	-11.4055
propylamine	-11.4055
benzylidene	-11.4057
neat	-11.4065
malonate	-11.4071
▁(+)-	-11.4078
▁compounds	-11.4087
▁ceased	-11.4094
](	-11.4097
propenyl	-11.4107
indene	-11.4109
glycine	-11.4109
▁agitation	-11.4111
▁allowing	-11.4114
allyloxy	-11.4126
pinacolato	-11.4151
trifluoromethane	-11.4155
▁formamide	-11.4166
phenylalanine	-11.4193
▁V	-11.4194
▁low	-11.4317
▁washings	-11.4322
Butoxycarbonyl	-11.4323
▁aluminium	-11.4334
▁powdered	-11.4355
▁Ph	-11.4377
▁With	-11.4394
▁where	-11.4399
chroman	-11.4409
▁nitrate	-11.4429
BuOH	-11.444
oxadiazole	-11.4445
▁hydrobromide	-11.4468
▁reach	-11.4477
▁diatomaceous	-11.4478
▁methanesulfonic	-11.4495
▁milliliters	-11.4498
▁Thus	-11.4514
azepin	-11.4517
sulfinamide	-11.452
▁methanolic	-11.4535
▁still	-11.4559
▁aromatic	-11.4564
▁acetal	-11.4572
at	-11.4579
Ar	-11.4584
methylbenzene	-11.459
▁trimethylsilyl	-11.4601
methylpropane	-11.4607
ethenyl	-11.4617
ester	-11.465
methylpropan	-11.4658
pentan	-11.4659
aminopyridine	-11.4659
benzoylamino	-11.467
pentafluoro	-11.4673
▁Tert	-11.4689
▁condition	-11.4692
▁dichloroethane	-11.4705
▁LiAlH	-11.4735
▁During	-11.4754
▁Pure	-11.4764
▁thereafter	-11.4766
▁dicyclohexyl	-11.4769
▁Dry	-11.4773
dimethoxybenzyl	-11.4802
isoindole	-11.4806
benzothiazole	-11.4807
dihydropyridin	-11.4812
see	-11.4825
▁Hexane	-11.4832
▁isobutyl	-11.4863
ation	-11.4904
Phenyl	-11.4905
etrafluoroborate	-11.4916
▁Solid	-11.4924
nicotinate	-11.4928
▁minimum	-11.4936
quinoxalin	-11.4951
▁theoretical	-11.4953
pyrimidinyl	-11.4956
Biotage	-11.4961
bromopyridin	-11.4966
▁phenol	-11.4978
▁purple	-11.4988
eq	-11.4992
▁diastereomer	-11.4999
nitropyridine	-11.501
layer	-11.5015
▁area	-11.5019
▁satd	-11.5026
▁colored	-11.5043
TM	-11.5046
solvent	-11.5053
▁TMS	-11.5079
▁Ltd	-11.5084
indoline	-11.5088
mp	-11.5096
CAS	-11.5099
▁Me	-11.5122
benzamido	-11.5145
▁cloudy	-11.515
sulfonyloxy	-11.5154
▁nitric	-11.5155
▁iso	-11.5191
▁DBU	-11.5199
ACN	-11.5206
▁pink	-11.5215
ine	-11.5222
chloroperbenzoic	-11.5232
▁MeOD	-11.5238
▁SCX	-11.5239
▁place	-11.5243
▁objective	-11.5243
propylamino	-11.5253
▁NCH	-11.5269
▁All	-11.5281
phenylthio	-11.529
elution	-11.5291
tetrazole	-11.5307
▁plate	-11.5312
▁capped	-11.5346
benzopyran	-11.5354
nonane	-11.5358
▁Ethanol	-11.538
▁Concentrated	-11.5382
▁paper	-11.5387
▁degrees	-11.5396
▁Scheme	-11.5398
▁HCI	-11.5398
▁instead	-11.5402
thiol	-11.5404
▁protected	-11.5409
pentamethyl	-11.5421
triaza	-11.5422
benzenesulfonate	-11.544
tt	-11.5442
▁leaving	-11.5453
▁use	-11.5468
methylamine	-11.5474
▁chromatographic	-11.5475
▁Trifluoroacetic	-11.548
▁dihydrate	-11.5482
Cyano	-11.5485
▁weighed	-11.549
pyrrolidone	-11.5497
▁IPA	-11.551
▁yields	-11.5511
▁sulfite	-11.5515
▁filled	-11.5529
intermediate	-11.5533
enoate	-11.5537
▁along	-11.5554
▁rise	-11.556
▁Kg	-11.5578
HRMS	-11.5587
azepine	-11.5587
▁amber	-11.561
iodophenyl	-11.5621
aminocarbonyl	-11.5637
▁prepare	-11.5642
Nitro	-11.5654
▁maintain	-11.5654
anilino	-11.5668
with	-11.5672
▁HBr	-11.5673
tosyl	-11.5696
▁bright	-11.5703
▁Benzyl	-11.5727
▁benzoyl	-11.5732
▁except	-11.574
▁Schlenk	-11.5745
silanyloxy	-11.5756
tBu	-11.5769
▁impurities	-11.5812
▁triphenyl	-11.5815
▁ethoxide	-11.5841
▁MICROWAVE	-11.5849
propanoyl	-11.585
diazepine	-11.5852
▁dissolution	-11.5853
▁calcium	-11.5853
methylcarbamoyl	-11.5886
▁very	-11.5897
▁HOAc	-11.5913
BrN	-11.5914
▁trichloride	-11.5917
carbonate	-11.592
amido	-11.5933
OMe	-11.5943
BOC	-11.5961
▁DCE	-11.5987
filled	-11.6014
▁crystallised	-11.6015
▁eluate	-11.6019
benzoimidazol	-11.6021
▁Elution	-11.6031
trifluoroacetyl	-11.6031
▁NBS	-11.6036
▁DCC	-11.6053
hexanoic	-11.6058
▁blue	-11.6064
Step	-11.6067
cyclohexanol	-11.6069
▁steam	-11.6073
butyloxycarbonyl	-11.6078
MeCN	-11.6081
thiadiazole	-11.6103
chromen	-11.6122
▁active	-11.6129
▁sonicated	-11.6151
ylcarbamoyl	-11.6163
▁procedures	-11.6164
▁intensity	-11.6167
▁oxalate	-11.6181
Preparation	-11.6186
▁adsorbed	-11.6211
purity	-11.6219
▁commercially	-11.625
and	-11.6259
j	-11.6273
′]	-11.6277
▁TBAF	-11.631
▁boiled	-11.6313
▁shows	-11.6324
butylphosphine	-11.6342
phthalimide	-11.6349
▁Dichloromethane	-11.6354
▁admixed	-11.6355
▁film	-11.6357
hexan	-11.6377
ethylenediamine	-11.638
▁evaporating	-11.639
▁till	-11.6424
▁analogy	-11.6449
butyryl	-11.645
thiazolidine	-11.6477
Difluoro	-11.6493
methoxyimino	-11.6503
product	-11.6505
)-(+)-	-11.6505
bromoethyl	-11.651
▁workup	-11.653
aqueous	-11.6542
imidazolidin	-11.6544
▁consisting	-11.6547
ethylenedioxy	-11.6551
▁reacting	-11.6557
evaporated	-11.6557
▁biphasic	-11.6562
Martin	-11.6571
fluorobenzene	-11.6586
▁silver	-11.6589
▁KHSO	-11.6593
▁platinum	-11.6594
▁range	-11.6601
formamide	-11.6615
Dimethylamino	-11.6639
▁tin	-11.6648
▁providing	-11.666
▁spot	-11.666
▁strength	-11.6668
lH	-11.6669
methylbenzyl	-11.6675
▁pos	-11.6677
+);	-11.6682
acrylamide	-11.6682
cyclopent	-11.6695
▁titanium	-11.6698
eluted	-11.6702
dry	-11.6706
▁vinyl	-11.6709
▁exchange	-11.6726
pyrrolidinone	-11.6755
▁WO	-11.6756
SR	-11.6792
▁spectroscopy	-11.6798
cyclohexanone	-11.6818
▁approx	-11.6834
▁cannula	-11.6853
▁broad	-11.6855
▁XBridge	-11.686
▁sticky	-11.6865
nicotinonitrile	-11.6882
dioxan	-11.6887
+].	-11.6921
▁Dess	-11.6922
▁may	-11.6924
nitrophenoxy	-11.6925
fluorene	-11.6937
difluorobenzyl	-11.6939
Di	-11.6956
se	-11.6957
▁azeotroped	-11.7004
▁septum	-11.7005
by	-11.7016
▁sub	-11.7016
▁later	-11.7017
▁Stir	-11.7023
▁see	-11.7025
anhydrous	-11.7025
cyclo	-11.7037
▁disappearance	-11.7041
phenoxyphenyl	-11.7048
▁raw	-11.705
▁amounts	-11.7051
▁crushed	-11.7072
▁stage	-11.7076
▁diphenyl	-11.7102
▁Hydrochloric	-11.7104
▁SFC	-11.7114
Mass	-11.7119
▁Hydrogen	-11.7122
phenoxymethyl	-11.7147
heptyl	-11.715
▁monitoring	-11.7153
▁Excess	-11.716
▁triphosgene	-11.7162
benzotriazol	-11.7174
benz	-11.7179
▁separating	-11.7194
k	-11.7218
▁methane	-11.7221
butanone	-11.7237
▁other	-11.7239
▁metal	-11.7243
phosphate	-11.7257
methylenedioxy	-11.7265
dq	-11.727
AB	-11.7271
▁ESIMS	-11.7283
▁exothermic	-11.7298
oxopyrrolidin	-11.7321
dihydropyrido	-11.7322
▁supernatant	-11.7323
nitroaniline	-11.7328
+=	-11.7348
▁MP	-11.7368
▁cream	-11.7373
▁increasing	-11.7383
▁Drying	-11.7388
▁stored	-11.7394
▁neck	-11.7395
crude	-11.7404
▁From	-11.7412
▁only	-11.7415
pyrid	-11.7418
▁abs	-11.7438
▁equal	-11.7448
TMS	-11.7453
methylbenzoic	-11.7459
▁According	-11.7465
benzophenone	-11.7466
▁Pa	-11.7468
▁coupling	-11.7473
ated	-11.748
morpholinyl	-11.7517
Pd	-11.7519
▁separator	-11.7527
▁Acetonitrile	-11.7544
minute	-11.7549
▁fine	-11.7551
▁aid	-11.7572
butylphenyl	-11.758
developing	-11.7592
butylamine	-11.7607
butene	-11.761
nitrobenzoic	-11.7629
nonan	-11.7654
Melting	-11.7661
liter	-11.7684
▁CHH	-11.7686
methylcarbamate	-11.7687
▁quantity	-11.7688
dioxaspiro	-11.7692
phenylpropyl	-11.7702
orange	-11.7708
▁Purity	-11.771
▁Ether	-11.7718
▁started	-11.7719
▁ret	-11.7731
▁UPLC	-11.7744
ii	-11.7765
dihydroquinolin	-11.7771
methylpiperidine	-11.778
▁Fmoc	-11.7781
′(	-11.7789
HCO	-11.7803
dioxolane	-11.7803
▁polymer	-11.7809
isoxazolyl	-11.7815
ethylene	-11.7818
]+).	-11.7821
▁MPLC	-11.7842
▁hydrolyzed	-11.785
phosphonic	-11.7853
▁Argon	-11.7886
diene	-11.7895
▁sulphuric	-11.7897
▁crop	-11.7901
▁steel	-11.7904
▁acrylate	-11.7906
dichlorobenzyl	-11.7929
▁phosphorous	-11.793
▁did	-11.7942
▁sulfur	-11.7943
dien	-11.7946
indeno	-11.7952
▁subject	-11.7952
Column	-11.7955
▁SOCl	-11.7972
propionitrile	-11.7989
▁HBTU	-11.8008
for	-11.8015
oxopropan	-11.8021
▁exotherm	-11.8045
▁region	-11.8052
▁pyridinium	-11.8068
▁para	-11.8069
thiazolyl	-11.807
▁silicagel	-11.8073
ion	-11.8085
methoxyphenoxy	-11.8097
▁Br	-11.8114
▁object	-11.8142
trifluoroethoxy	-11.8147
▁Anhydrous	-11.8162
▁brs	-11.8167
▁brownish	-11.8168
pentanoate	-11.818
sulfonate	-11.8182
ylthio	-11.8201
methylcyclohexyl	-11.8206
nitrophenol	-11.8208
imidazolidine	-11.8213
▁prior	-11.8237
propanenitrile	-11.8241
▁monoxide	-11.8244
hydroxyimino	-11.8261
▁quickly	-11.8264
methylbenzoate	-11.8278
▁large	-11.8289
thioxo	-11.83
▁malonate	-11.8301
isobenzofuran	-11.8301
em	-11.8304
Iodo	-11.8313
▁Pyridine	-11.8317
▁inner	-11.8318
benzodiazepine	-11.8327
▁both	-11.8346
Found	-11.8347
ylcarbonyl	-11.8349
dihydrospiro	-11.8364
▁urea	-11.8366
tricyclo	-11.8378
enoyl	-11.8378
methylpyrimidin	-11.8379
solution	-11.839
▁hydrolysis	-11.8392
▁distillate	-11.8395
butyldiphenylsil	-11.8398
sulfinyl	-11.8401
▁LDA	-11.8403
▁bottomed	-11.8411
dioxido	-11.8412
▁disappeared	-11.8419
methano	-11.843
▁heterogeneous	-11.8434
tetrahydropyrido	-11.8458
dihydroquinoline	-11.8458
phosphoryl	-11.8468
▁way	-11.8473
eluant	-11.8483
▁Inc	-11.8484
▁Tri	-11.8486
dichloropalladiu	-11.8489
ylboronic	-11.8498
hereinafter	-11.8498
chloropyridine	-11.8503
rac	-11.8508
▁size	-11.8521
▁components	-11.8527
chlorophenoxy	-11.8529
butylamino	-11.8558
▁affords	-11.8562
phenylacetic	-11.8578
hydrochloride	-11.8579
ance	-11.8589
▁clean	-11.8592
▁{(	-11.8595
non	-11.8618
▁Med	-11.862
▁Grignard	-11.8626
▁reduction	-11.8629
Acetyl	-11.8632
▁repeatedly	-11.8635
nitropyridin	-11.8638
▁aliquot	-11.8641
red	-11.8656
phenylcarbamoyl	-11.8657
COOH	-11.8658
ISP	-11.866
▁Dissolve	-11.8662
oxoisoindolin	-11.8662
▁manganese	-11.8663
▁deposited	-11.8664
-({[(	-11.8665
chromene	-11.8671
paraformaldehyde	-11.8676
▁coupled	-11.8681
ethylthio	-11.8684
butyrate	-11.8685
▁reddish	-11.8688
▁TBTU	-11.8703
▁lyophilization	-11.872
colored	-11.8722
dimethylpyridin	-11.875
xylene	-11.875
▁impure	-11.8757
Y	-11.8764
▁absorbed	-11.8768
ne	-11.8771
syn	-11.8794
▁ten	-11.8796
trimethoxy	-11.8805
guanidine	-11.8811
▁neat	-11.8867
fluoromethyl	-11.8882
▁dimethoxyethane	-11.8887
=−	-11.8902
▁BBr	-11.8911
diethoxy	-11.8916
nitrobenzoate	-11.8917
ide	-11.8927
step	-11.8937
▁characterized	-11.8944
cyclohexylmethyl	-11.8946
sulfonylamino	-11.8959
bromopyridine	-11.897
▁OBD	-11.8987
▁cautiously	-11.8992
▁sparged	-11.8999
carbazol	-11.9028
▁LiCl	-11.9042
isoindolin	-11.9048
oxymethyl	-11.9061
▁spectra	-11.9076
▁phosphoric	-11.9079
▁One	-11.9082
▁Org	-11.9093
piperidino	-11.9105
methylidene	-11.9107
Phe	-11.9117
Pr	-11.9121
▁absorption	-11.9123
▁obsd	-11.9135
toluenesulfonate	-11.9136
▁chromatograph	-11.9152
▁component	-11.9163
▁initial	-11.9175
▁MPa	-11.9188
ar	-11.9189
methylbenzamide	-11.9199
▁returned	-11.9201
▁CF	-11.9208
▁dilution	-11.9215
▁minor	-11.922
▁optical	-11.9231
▁oxygen	-11.9237
▁inorganic	-11.9247
benzodiazepin	-11.9254
▁azeotropic	-11.9258
Gly	-11.9261
▁piperazine	-11.9279
▁gummy	-11.9286
▁Crystallization	-11.9315
▁generated	-11.9317
isocyanato	-11.9319
methylaniline	-11.9322
▁comprising	-11.933
quinolinyl	-11.9338
▁triethylsilane	-11.9342
▁inside	-11.9354
thiourea	-11.9363
protected	-11.9372
▁orthoformate	-11.9391
film	-11.9392
phthalazin	-11.9396
mixture	-11.9412
cyclopentyloxy	-11.9416
▁thereof	-11.9428
▁chlorobenzene	-11.943
▁turn	-11.9433
Dihydro	-11.9448
Merck	-11.9451
▁almost	-11.9455
isopropylidene	-11.9457
pyrano	-11.9468
dioxin	-11.9479
▁FAB	-11.949
▁could	-11.9498
▁deep	-11.9498
▁batches	-11.95
monitored	-11.9513
benzoxazol	-11.9517
▁results	-11.9523
TOF	-11.9526
▁AD	-11.9527
pyrazino	-11.9529
▁gentle	-11.9538
ethylsulfonyl	-11.9545
like	-11.9548
▁peaks	-11.9565
▁poly	-11.9566
▁six	-11.958
▁U	-11.9584
hydrochloric	-11.9589
▁overhead	-11.9596
chloropyrimidin	-11.9601
triisopropylsil	-11.961
▁Phenomenex	-11.9617
PrOH	-11.9623
benzoxazole	-11.9625
chlorobenzoyl	-11.9627
▁positive	-11.9628
▁NEt	-11.9638
▁latter	-11.964
BF	-11.9645
dimethylisoxazol	-11.9645
▁rotamers	-11.965
brine	-11.9651
isopropylamino	-11.9656
ethylidene	-11.9662
▁APCI	-11.9675
▁Finally	-11.9686
ecrystallisation	-11.9686
▁protection	-11.969
Ala	-11.9693
oil	-11.9713
yloxymethyl	-11.9718
▁Two	-11.9732
▁detector	-11.9732
▁continuously	-11.9751
▁operation	-11.9751
referred	-11.9752
methylimidazo	-11.9793
Waters	-11.9798
methylbenzo	-11.9806
▁therein	-11.9828
▁hydrazide	-11.9828
Lys	-11.9828
▁dust	-11.9831
benzoimidazole	-11.9834
▁fresh	-11.9838
▁NaHSO	-11.9845
▁etherate	-11.9848
▁aged	-11.9855
▁mixing	-11.9863
▁evaporate	-11.9864
▁stainless	-11.9867
ethylacetate	-11.9869
fluorobenzoyl	-11.9883
▁heptanes	-11.9893
▁substituting	-11.9904
Dimethoxy	-11.9921
▁MW	-11.9921
▁achieved	-11.9928
oxime	-11.9933
chloroformate	-11.9938
▁THE	-11.994
cyclohexyloxy	-11.9948
▁refrigerator	-11.9952
▁represented	-11.9952
▁extracting	-11.9957
▁diethylamine	-11.9964
bromide	-11.9965
salt	-12.0013
▁therefrom	-12.0029
dihydroimidazo	-12.003
cyclopentadienyl	-12.0031
▁periodinane	-12.0039
butanamide	-12.0044
benzhydryl	-12.0046
approximately	-12.0052
▁ODS	-12.0053
▁detection	-12.0058
Cyclopropyl	-12.0085
rel	-12.0087
▁oxalic	-12.0092
▁sulfonic	-12.0093
pyridinium	-12.0094
▁Hexanes	-12.0096
Oxo	-12.0116
indolin	-12.0126
▁Luna	-12.0153
aldehyde	-12.0167
thione	-12.0184
▁EXAMPLE	-12.0188
ClF	-12.0201
hydroxyethoxy	-12.0214
chromatography	-12.0225
▁flame	-12.0227
mobile	-12.0227
benzoyloxy	-12.0227
▁accord	-12.0237
▁like	-12.024
hydro	-12.0247
▁occurred	-12.0251
hexanoate	-12.026
methoxybenzene	-12.0263
▁grade	-12.0265
▁make	-12.0267
▁Acetone	-12.0269
▁done	-12.027
methylsulfinyl	-12.027
▁minimal	-12.0293
isopropanol	-12.0298
▁hydrobromic	-12.0301
relative	-12.0309
benzoxazin	-12.0311
▁DIAD	-12.0322
triethylamine	-12.0339
quin	-12.0348
diisopropylamide	-12.0354
▁grey	-12.0359
▁around	-12.0363
▁eluents	-12.0365
▁thermocouple	-12.0366
▁eliminated	-12.0367
▁Trituration	-12.0377
title	-12.038
▁ethanolic	-12.0389
dimethylpropyl	-12.0393
▁pinacol	-12.0407
phthalimido	-12.0409
▁anisole	-12.0435
alpha	-12.0442
penta	-12.0449
quinolyl	-12.0484
▁come	-12.0488
▁phosgene	-12.0497
▁melted	-12.0502
hydroxypropan	-12.0516
▁revealed	-12.0518
▁Int	-12.0526
carbonyloxy	-12.0533
▁triflate	-12.0535
dicarboxamide	-12.0539
dimethylsilane	-12.0542
sulphonyl	-12.0543
Isopropyl	-12.0556
triphenylmethyl	-12.0561
▁Diisopropyl	-12.0562
cyclohepta	-12.0578
▁Mixture	-12.0584
thien	-12.0599
▁began	-12.0611
ethylcarbamoyl	-12.0614
oC	-12.0622
▁methylmagnesium	-12.0623
▁enantiomer	-12.0625
acetoxymethyl	-12.0631
▁psig	-12.0645
▁Thereto	-12.0654
dichlorobenzene	-12.0655
▁Cool	-12.0656
oxazolidine	-12.0674
▁Extraction	-12.0693
▁phosphine	-12.07
▁Bis	-12.0701
▁allow	-12.0703
▁have	-12.0713
methylthiazol	-12.0714
crown	-12.073
▁dichlorobis	-12.0732
OS	-12.0733
▁plates	-12.0737
▁bisulfite	-12.0744
▁ESMS	-12.0748
▁proton	-12.0753
▁Thionyl	-12.0756
▁More	-12.0759
acryloyl	-12.0759
▁mix	-12.0766
cyanoethyl	-12.0779
▁packed	-12.0783
▁closed	-12.0784
Trifluoromethyl	-12.0786
▁insolubles	-12.0789
)−.	-12.0801
▁KOAc	-12.0801
▁KI	-12.082
▁dimer	-12.0824
▁torr	-12.0825
▁BOP	-12.0838
▁gently	-12.0842
▁washes	-12.0842
tin	-12.0847
▁Solvents	-12.0858
′′),	-12.0866
▁new	-12.0868
▁Detector	-12.0868
▁rinsing	-12.0873
▁disulfide	-12.0878
▁Another	-12.0888
▁diameter	-12.0889
▁Soc	-12.09
acetylene	-12.091
▁exceed	-12.0919
chloropropyl	-12.092
▁Xantphos	-12.0933
▁Table	-12.095
bS	-12.0956
▁reduce	-12.0963
▁employed	-12.0967
ISCO	-12.0974
▁AlCl	-12.0983
tartaric	-12.0985
)-(−)-	-12.0986
Nujol	-12.0987
▁Added	-12.0997
▁Tetrahydrofuran	-12.1004
▁Cu	-12.1005
▁Si	-12.1011
▁type	-12.1011
▁quant	-12.1019
adamantyl	-12.1026
Pro	-12.103
trien	-12.1039
▁micron	-12.1048
oxobutan	-12.1062
lutidine	-12.1072
oxirane	-12.1075
concentrated	-12.1082
ence	-12.1089
trifluorophenyl	-12.109
decomp	-12.1098
▁proceed	-12.1099
▁Tetrakis	-12.1103
▁particles	-12.1115
▁phosphite	-12.112
borate	-12.1129
Table	-12.113
methylphenol	-12.1137
▁(−)-	-12.1138
▁linear	-12.115
oxan	-12.1153
▁shaking	-12.1158
um	-12.1163
▁cuprous	-12.1197
▁III	-12.1199
▁Hunig	-12.1212
guanidino	-12.1213
hr	-12.1214
▁rotation	-12.1221
▁forms	-12.1244
cyclohexylamino	-12.1247
-[[[	-12.1254
tetrahydrobenzo	-12.1261
phenylene	-12.1267
▁org	-12.1267
carbomethoxy	-12.128
▁borate	-12.1283
▁Analytical	-12.1287
methoxypyridine	-12.13
▁transparent	-12.1311
▁furnished	-12.1315
▁gms	-12.1316
hydroxybenzoate	-12.133
volume	-12.1333
▁identical	-12.1341
ethylcarbamate	-12.1346
fluoropyridine	-12.1353
▁foamy	-12.1363
▁become	-12.1366
▁nmr	-12.1371
styryl	-12.1384
▁tributyl	-12.1386
▁PPh	-12.139
▁residues	-12.1396
′′	-12.1402
▁Chiral	-12.1411
methylphenoxy	-12.1413
▁elute	-12.1422
piperidone	-12.1431
free	-12.144
triisopropyl	-12.1442
cyclopropylamino	-12.145
▁overall	-12.1471
co	-12.1472
▁appeared	-12.148
bromobenzene	-12.1482
▁weekend	-12.1491
▁IN	-12.15
hydrazide	-12.1506
oxycarbonyl	-12.1512
▁characteristics	-12.1525
▁reactant	-12.1528
isocyanate	-12.1529
▁Formula	-12.1535
OEt	-12.1537
▁crystallize	-12.1538
ylsulfonyl	-12.1539
▁line	-12.1539
adamantane	-12.1549
▁needle	-12.1554
MgS	-12.156
▁CV	-12.156
▁measured	-12.1565
sec	-12.1566
aminopyridin	-12.1572
▁Oxalyl	-12.1577
▁mesylate	-12.1581
▁TBME	-12.1582
ethylsulfanyl	-12.1584
▁judged	-12.1587
acid	-12.1597
approx	-12.1599
′-((	-12.1614
azidomethyl	-12.1617
▁Obtained	-12.1618
decyl	-12.1624
Phos	-12.1638
tributylstannyl	-12.1643
▁rose	-12.1647
fluoroaniline	-12.1649
twice	-12.1662
▁Y	-12.1666
thiomethyl	-12.1683
▁quenching	-12.1691
▁CDI	-12.1702
▁Dimethyl	-12.1703
dinitro	-12.1707
FA	-12.1711
is	-12.1717
▁preparatory	-12.1718
▁isothiocyanate	-12.1719
hexa	-12.1719
propanamido	-12.1731
▁BOC	-12.1738
isonicotinic	-12.1745
▁Combine	-12.1748
isopropylphenyl	-12.1758
▁external	-12.1759
▁Ex	-12.1765
▁Acid	-12.1767
▁changed	-12.1773
phthalic	-12.1789
chloropyrimidine	-12.1794
▁main	-12.1794
▁rpm	-12.1804
ABq	-12.181
propionylamino	-12.1811
isobutylaluminum	-12.1818
▁slight	-12.1819
▁suitable	-12.1832
dicyano	-12.1844
phos	-12.1848
▁finished	-12.1864
propanediol	-12.1874
▁those	-12.1874
▁%:	-12.1881
aminothiazol	-12.1906
▁gray	-12.1909
▁dispersed	-12.192
iodobenzene	-12.193
▁waxy	-12.1931
▁DIBAL	-12.1937
▁NaNO	-12.1938
▁Ac	-12.1946
dibenzyl	-12.1947
▁Purify	-12.1967
anthracene	-12.1969
▁Nitrogen	-12.197
▁automated	-12.197
▁resonance	-12.197
▁mode	-12.1972
▁maleic	-12.1973
benzoxazine	-12.1973
▁Elemental	-12.1974
phenylmethoxy	-12.1978
NEt	-12.1979
catalytic	-12.1983
▁whilst	-12.1992
▁neutralised	-12.2006
▁ul	-12.2011
▁pot	-12.2014
phenylacetyl	-12.2023
carboxymethyl	-12.2045
propen	-12.205
nor	-12.2051
▁chlorine	-12.2057
▁impurity	-12.2061
total	-12.2073
us	-12.2076
▁benzylamine	-12.2094
▁contains	-12.2101
▁analogously	-12.2104
glycyl	-12.2105
Leu	-12.2127
indolo	-12.213
▁White	-12.2136
peroxybenzoic	-12.2139
Butyllithium	-12.214
▁Volatiles	-12.2147
▁BINAP	-12.2152
ylsulfanyl	-12.2153
▁soln	-12.2167
biphenylyl	-12.2175
es	-12.2177
titanium	-12.2184
▁spec	-12.2188
propynyl	-12.2189
▁fashion	-12.2195
▁substituted	-12.2199
▁desiccant	-12.2202
▁collect	-12.2214
dimethylaniline	-12.2228
API	-12.223
-((((	-12.2234
chlorosilane	-12.2244
benzyloxymethyl	-12.2246
adamantan	-12.2251
▁developing	-12.2262
▁tetrabutyl	-12.2263
dioxopiperidin	-12.2266
methoxybenzoate	-12.2268
▁cycles	-12.2269
▁diacetate	-12.2272
benzylthio	-12.2274
phenylsulfanyl	-12.2277
methylquinolin	-12.2279
methoxybenzoic	-12.2285
▁CombiFlash	-12.2287
acetyloxy	-12.229
nitrobenzyloxy	-12.2293
▁EI	-12.2293
phenylethynyl	-12.2295
cyclopropa	-12.2303
chromeno	-12.2306
▁isolate	-12.2315
▁NMM	-12.2316
re	-12.232
▁purge	-12.232
▁checked	-12.2327
′-[(	-12.2332
▁attached	-12.2335
▁cap	-12.2337
▁least	-12.2345
el	-12.2346
methoxybenzoyl	-12.2347
▁upper	-12.2348
▁Ice	-12.2349
▁pressurized	-12.2351
▁imine	-12.2355
butanoyl	-12.2368
▁propargyl	-12.2377
▁trace	-12.2396
chlorosulfonyl	-12.2399
▁HC	-12.2401
▁ligand	-12.2408
▁preceding	-12.2425
aluminum	-12.2426
ethoxyphenyl	-12.2436
▁tartrate	-12.2451
te	-12.2475
Diisopropylethyl	-12.2477
manufactured	-12.2477
ane	-12.2478
diphenylmethyl	-12.2493
▁spectral	-12.2509
▁infrared	-12.251
alanyl	-12.2517
▁decomposition	-12.2522
▁sintered	-12.2527
▁LAH	-12.2538
▁thiourea	-12.2542
▁contain	-12.2545
form	-12.2547
butoxyethoxy	-12.2547
▁Ammonium	-12.2548
oxazepine	-12.2549
nitrobenzoyl	-12.256
▁MeI	-12.2567
imidazolyl	-12.2568
▁Preparative	-12.2568
bromobenzyl	-12.2572
▁shaker	-12.2575
▁beaker	-12.2579
▁diastereomeric	-12.2583
▁isohexane	-12.2584
▁thrice	-12.259
RT	-12.2603
phenylacetate	-12.2614
exo	-12.2616
nitrile	-12.2623
triethylammonium	-12.2644
methanopyrido	-12.2652
Val	-12.2652
yne	-12.2653
trifluoroacetic	-12.2663
▁moisture	-12.2673
▁prisms	-12.2689
▁contaminated	-12.2703
methylpyrimidine	-12.2704
butenyl	-12.2707
chlorobenzene	-12.271
pyridylmethyl	-12.2713
AA	-12.2716
decahydro	-12.2726
thiopyran	-12.2732
mentioned	-12.2745
Chlorophenyl	-12.2749
▁pet	-12.2749
ethylphenyl	-12.2752
▁injected	-12.2755
▁pouring	-12.2755
−)	-12.2775
isopropoxyphenyl	-12.2779
▁Mg	-12.2783
▁original	-12.2787
▁traces	-12.2799
hydroxybenzyl	-12.2801
ij	-12.2813
Dioxane	-12.2821
▁lowered	-12.283
dodecyl	-12.2837
▁reported	-12.2839
over	-12.2844
▁case	-12.285
▁non	-12.2853
▁millimoles	-12.2874
chloroacetyl	-12.2879
isochromeno	-12.2888
]−.	-12.2896
benzazepin	-12.2909
▁sequence	-12.2913
propanone	-12.2919
-[({	-12.2921
hexafluoro	-12.2922
lithium	-12.2924
OtBu	-12.2927
▁methods	-12.2927
▁pattern	-12.2931
▁nM	-12.2932
two	-12.2941
pressure	-12.2942
fluorobenzoic	-12.295
azabenzotriazol	-12.2951
▁sol	-12.2953
▁usual	-12.2982
▁developed	-12.2997
▁Most	-12.3007
▁METHANOL	-12.3008
Glu	-12.3012
fluorobenzoate	-12.3018
tetrahydrofurane	-12.3018
il	-12.3019
difluoroethyl	-12.3022
GC	-12.3024
▁Isco	-12.3028
▁LiHMDS	-12.3043
+]	-12.3045
bout	-12.305
Al	-12.3052
picolinic	-12.3056
isothiocyanato	-12.3057
▁glycine	-12.3058
▁periodate	-12.3063
▁recovery	-12.307
benzodioxol	-12.3082
VI	-12.3083
Benzo	-12.3097
▁enantiomers	-12.3104
▁NaOMe	-12.312
▁passing	-12.3121
oxopentanoate	-12.3127
▁freezer	-12.3141
ally	-12.3142
quantitative	-12.3161
oxobutanoate	-12.3165
dibromoethane	-12.3166
benzocyclohepten	-12.3167
methylbutyl	-12.3176
formylphenyl	-12.3184
▁sufficiently	-12.3198
▁Buchner	-12.3205
▁FCC	-12.3225
MW	-12.3239
Petroleum	-12.3239
fumaric	-12.3242
▁freed	-12.3265
▁anh	-12.3269
▁un	-12.3285
octamethyl	-12.3291
buten	-12.3298
▁phenylboronic	-12.3299
▁assigned	-12.3326
▁spectrometry	-12.3326
▁forward	-12.3327
oxycarbonylamino	-12.3332
trimethoxyphenyl	-12.3335
oxazolo	-12.3343
▁SnCl	-12.3344
endo	-12.3345
using	-12.3348
▁sulfone	-12.3351
vacuo	-12.3354
▁loading	-12.3368
▁mantle	-12.3371
▁CELITE	-12.3371
conc	-12.3371
▁Addition	-12.3385
diacetoxy	-12.3389
▁Insoluble	-12.339
dimethylsilyl	-12.3397
▁Dioxane	-12.3398
▁sufficient	-12.3401
▁NaI	-12.3419
ret	-12.3421
bipyridine	-12.3425
each	-12.3428
▁azeotropically	-12.3431
▁magnetically	-12.3434
′=	-12.3454
▁paste	-12.3457
▁controlled	-12.3459
▁powdery	-12.3469
▁isocratic	-12.348
▁rinse	-12.3487
DMAP	-12.3496
▁Heat	-12.3497
triene	-12.3521
hydrazinyl	-12.3525
Li	-12.3529
▁these	-12.3532
▁BF	-12.3533
valine	-12.3535
Fluorophenyl	-12.3536
▁Industries	-12.3543
▁RBF	-12.3548
▁emulsion	-12.3555
▁properties	-12.3566
▁Hex	-12.3566
isothiazol	-12.357
▁Torr	-12.3572
nicotinaldehyde	-12.3586
malonic	-12.3589
▁terminated	-12.3591
▁exchangeable	-12.3596
carboximidamide	-12.3611
le	-12.3633
▁outline	-12.3637
tetraen	-12.3652
▁return	-12.3652
bipyridin	-12.3666
Asp	-12.3685
▁methacrylate	-12.3686
▁Heptane	-12.3691
▁ortho	-12.3705
preparative	-12.371
octa	-12.3716
]−	-12.3716
sulphonic	-12.3727
pentyloxy	-12.374
▁SP	-12.3758
▁let	-12.3763
▁length	-12.3773
▁ground	-12.3777
▁careful	-12.3803
▁neutralization	-12.3807
AP	-12.3809
▁performance	-12.3813
▁dihydrogen	-12.382
chrysen	-12.3824
▁Tetra	-12.3826
′′,	-12.3826
▁Phenyl	-12.3837
▁Wash	-12.3841
fluorophenol	-12.3846
azulene	-12.3851
▁Symmetry	-12.3852
▁BH	-12.3855
▁control	-12.3856
▁collecting	-12.387
ous	-12.387
▁trioxide	-12.3874
▁given	-12.3875
▁EtOAC	-12.3881
▁higher	-12.3886
dodeca	-12.3901
benzodioxin	-12.3911
pyrimidineamine	-12.3917
UV	-12.3918
isopropylpropan	-12.3924
leucine	-12.3924
▁hydro	-12.3937
▁assay	-12.3947
▁carry	-12.3948
dihydrothieno	-12.3948
inc	-12.3952
▁causing	-12.3952
▁chloromethyl	-12.3963
keto	-12.3968
▁IC	-12.3982
▁tosylate	-12.3984
▁test	-12.3991
trimethylphenyl	-12.3991
▁third	-12.3993
▁EX	-12.3997
▁head	-12.3999
carbonylmethyl	-12.4001
dichloride	-12.4003
ter	-12.4004
Ac	-12.4008
carbamimidoyl	-12.4015
dihydrofuran	-12.4025
tetrahydrofuro	-12.4035
▁KF	-12.4067
▁iced	-12.4068
▁neutralize	-12.4072
stannane	-12.4073
▁Filter	-12.4073
▁Solution	-12.4079
▁protons	-12.4082
▁Al	-12.4082
▁submitted	-12.4093
ac	-12.4111
isonicotinamide	-12.4123
▁fed	-12.4126
▁Exact	-12.4127
ph	-12.4129
▁cyclopropane	-12.4141
▁briefly	-12.4142
▁phthalimide	-12.4145
▁reference	-12.4163
phenylenediamine	-12.4163
washed	-12.4164
cyclohexene	-12.417
thiazin	-12.4178
▁tr	-12.4187
substituted	-12.4188
un	-12.4192
tr	-12.4197
thiadiazin	-12.4201
eneoxyphenyl	-12.4202
▁mmoL	-12.4207
▁AB	-12.4217
▁Starting	-12.4223
▁pentoxide	-12.4226
▁chemical	-12.4237
qd	-12.4239
methy	-12.424
dioxoisoindolin	-12.4241
Tetrahydro	-12.4242
▁side	-12.4244
estra	-12.425
methylimidazole	-12.4276
'-[	-12.4276
flash	-12.4282
ammonia	-12.4286
▁meta	-12.4288
cd	-12.4293
meth	-12.4295
bd	-12.4296
three	-12.4299
picolinamide	-12.43
butyldicarbonate	-12.43
propene	-12.4303
Silica	-12.4308
▁RM	-12.4308
iv	-12.4313
▁number	-12.4316
▁last	-12.4317
▁phosphoryl	-12.4326
th	-12.4327
indane	-12.433
sulfo	-12.4334
▁tlc	-12.434
}(	-12.4343
▁Treatment	-12.4345
▁modifier	-12.4348
described	-12.4365
diastereoisomers	-12.4369
▁Pat	-12.4371
Ethoxy	-12.4379
▁And	-12.4379
▁fluffy	-12.441
methylbut	-12.4415
octadecahydro	-12.4418
hexyloxy	-12.4426
▁Gilson	-12.4436
▁Fe	-12.4438
zinc	-12.4442
serine	-12.4443
oxido	-12.4446
To	-12.4456
binaphthyl	-12.4461
diphenylphosphor	-12.4466
homo	-12.4474
▁Ni	-12.4474
▁(+/−)-	-12.4475
hi	-12.449
Dibromo	-12.4505
glucopyranosyl	-12.4506
▁Afterwards	-12.4509
▁intended	-12.4514
methylbenzoyl	-12.4518
ch	-12.4521
Int	-12.4525
ClFN	-12.4528
aryl	-12.4533
▁rel	-12.4536
▁state	-12.4551
▁full	-12.4556
▁Extract	-12.4576
Arg	-12.4578
▁Methanesulfonyl	-12.458
ur	-12.4584
bromoacetate	-12.4599
neopentyl	-12.4599
▁Residue	-12.4602
azobis	-12.4606
▁SNAP	-12.4606
oxazolyl	-12.461
trichloromethane	-12.4611
benzenesulfonic	-12.4614
▁connected	-12.4622
▁Teflon	-12.4627
chloroimidazo	-12.4634
methoxyaniline	-12.4638
▁SPE	-12.4643
▁bomb	-12.4644
Ser	-12.4645
ant	-12.4648
cyclohexan	-12.465
oxopiperidine	-12.4652
imine	-12.4653
pos	-12.4655
▁Progress	-12.4665
AcOH	-12.4671
ro	-12.4684
ynyloxy	-12.4684
fluoroanilino	-12.4685
▁continuous	-12.4688
xanthene	-12.4694
glycinate	-12.4699
▁colour	-12.4703
▁sec	-12.4703
acetoacetate	-12.4705
▁arom	-12.4707
naphthol	-12.4711
uracil	-12.4716
which	-12.4718
oxabicyclo	-12.473
▁seeded	-12.4733
▁ring	-12.4735
▁recover	-12.474
▁fuming	-12.4746
▁Wako	-12.475
▁exact	-12.475
quinolizine	-12.4759
▁scheme	-12.4779
▁pentachloride	-12.478
phosphinic	-12.4782
picolinate	-12.4787
▁Production	-12.4789
melting	-12.4791
▁succinic	-12.4799
it	-12.48
▁band	-12.4807
▁necessary	-12.481
per	-12.4816
▁bp	-12.4819
▁essentially	-12.4827
methoxyethanol	-12.483
▁deprotected	-12.4833
▁PyBOP	-12.4838
benzothiophene	-12.484
of	-12.4841
PYR	-12.4845
▁RediSep	-12.4847
butyldimethyl	-12.485
liquid	-12.4851
▁tetrakistri	-12.4852
phenylpropan	-12.4859
▁manufactured	-12.4862
Heptane	-12.4863
Phenomenex	-12.4869
methoxypropoxy	-12.4874
py	-12.4876
pet	-12.4882
▁ethylenediamine	-12.4885
borane	-12.4886
oic	-12.4887
oxindole	-12.4891
▁vac	-12.4906
heptanoic	-12.491
benzyloxyphenyl	-12.491
dihydropyrimidin	-12.4912
▁Brine	-12.4918
▁hexamethyl	-12.4925
formamido	-12.4925
▁Isopropyl	-12.4927
all	-12.4928
▁dt	-12.4934
dihydropyrrolo	-12.4935
ent	-12.4938
▁near	-12.4948
▁top	-12.495
DCI	-12.4953
▁Isomer	-12.496
▁chloroacetyl	-12.4962
-({(	-12.4964
▁rapid	-12.4965
furanyl	-12.497
naphth	-12.4971
azetidinone	-12.4973
indenyl	-12.4973
trichloromethyl	-12.4983
azepino	-12.4986
oxobutyl	-12.4986
▁NaCNBH	-12.5
▁immersed	-12.5
▁HP	-12.5007
▁entitled	-12.5009
diazomethane	-12.5009
was	-12.5011
CPBA	-12.5019
balloon	-12.5028
methylpropanoate	-12.5031
phenanthren	-12.5032
chlorobenzoic	-12.5055
propanal	-12.5055
▁sieve	-12.5058
azepan	-12.5065
▁preheated	-12.5075
▁petrol	-12.5085
NCH	-12.5088
▁Heating	-12.5088
▁crystallizes	-12.5089
▁turnings	-12.5098
isopropenyl	-12.5101
tetraaza	-12.5109
▁good	-12.511
no	-12.511
▁alpha	-12.5112
benzisoxazol	-12.5116
▁container	-12.5124
butylphosphino	-12.5124
▁Form	-12.5125
charcoal	-12.5126
azo	-12.5134
IN	-12.5134
▁uptake	-12.5149
▁tribasic	-12.515
▁forming	-12.5151
thin	-12.5153
cyclopropylamine	-12.5157
nonyl	-12.5163
mo	-12.5169
▁enough	-12.5172
CDCI	-12.5173
pyridazinone	-12.5185
tetrakis	-12.5189
▁isolation	-12.5193
oxazino	-12.5198
iodopropane	-12.5204
comp	-12.522
▁reagents	-12.5225
▁relative	-12.5233
benzenamine	-12.5236
▁rotovap	-12.5237
aminosulfonyl	-12.5238
difluorophenoxy	-12.5238
benzenethiol	-12.5245
cinnamic	-12.5247
▁MnO	-12.5248
▁Purified	-12.5248
▁nitromethane	-12.5249
▁decomposed	-12.5249
▁turbid	-12.5252
olate	-12.5253
▁aryl	-12.5254
▁nitrile	-12.526
▁fritted	-12.5261
▁Stirred	-12.5261
MeOD	-12.5266
diazo	-12.5279
TA	-12.528
▁Merck	-12.5282
hydroxyl	-12.5285
▁Concentrate	-12.5293
bromoacetyl	-12.5294
▁rubber	-12.5297
methylquinoline	-12.5304
oyl	-12.5309
methoxyquinolin	-12.5311
oxopyridin	-12.5315
▁purging	-12.5315
▁effected	-12.5316
IPA	-12.5318
acrylonitrile	-12.5323
▁dioxan	-12.5325
CDC	-12.5326
▁charge	-12.5334
ized	-12.5339
Trifluoro	-12.5346
▁treating	-12.5347
valyl	-12.5349
▁scale	-12.5353
▁said	-12.5357
▁Hydrazine	-12.5365
NaHCO	-12.5367
hydrazono	-12.5368
undecane	-12.5378
▁deoxygenated	-12.538
▁effect	-12.5387
difluorobenzene	-12.539
]-[	-12.5396
ox	-12.5398
▁gaseous	-12.5403
▁glassy	-12.5409
Fmoc	-12.5411
green	-12.5411
hour	-12.5419
▁mCPBA	-12.5423
▁composition	-12.5424
diisopropylether	-12.5426
▁blanket	-12.5428
▁Temperature	-12.5429
trichloroethyl	-12.5433
im	-12.5434
▁micro	-12.5438
▁separately	-12.5439
▁terminate	-12.5448
crystallized	-12.5451
ichloropalladium	-12.5454
▁elevated	-12.5461
▁trihydrate	-12.5461
aluminium	-12.5474
▁hydrophobic	-12.5478
▁{[	-12.5486
▁soluble	-12.5492
▁Tr	-12.5506
methoxypropyl	-12.5506
ig	-12.5507
bipyridinyl	-12.5509
chloroaniline	-12.5513
▁purify	-12.5515
▁iPrOH	-12.5522
▁substantially	-12.5525
BuOK	-12.5528
▁polyphosphoric	-12.5553
▁they	-12.5555
▁Observed	-12.5557
Tyr	-12.5567
methyldisilazane	-12.5573
indanone	-12.5575
▁thirty	-12.558
id	-12.5587
Chloromethyl	-12.5612
▁HF	-12.5618
▁Rate	-12.5621
▁First	-12.5623
▁bi	-12.5626
▁homogenous	-12.5627
▁Copper	-12.5631
OBzl	-12.5633
gas	-12.5636
iodide	-12.5636
▁decantation	-12.5641
▁longer	-12.5645
ketone	-12.565
aceto	-12.5654
beta	-12.5658
oxopropanoate	-12.5662
filtered	-12.5662
▁diazomethane	-12.5671
▁diol	-12.5675
▁acetoacetate	-12.5681
oxopyrrolidine	-12.5684
retention	-12.5688
terphenyl	-12.5692
▁PS	-12.5699
imide	-12.5701
Bromomethyl	-12.5703
▁Data	-12.5711
isohexane	-12.5713
▁propylene	-12.5714
▁NaN	-12.5718
▁diluting	-12.572
▁hypochlorite	-12.5724
▁sulfonate	-12.5747
▁CCl	-12.5757
▁benzhydryl	-12.5759
▁seconds	-12.576
▁analytically	-12.5763
dibenzylamino	-12.5765
▁pellets	-12.5765
pyrrolidino	-12.577
▁elemental	-12.5774
dioxino	-12.5777
Water	-12.5789
▁Dilute	-12.5793
▁maximum	-12.5819
iii	-12.5821
▁monomethyl	-12.584
▁liquors	-12.5845
▁Sat	-12.5849
▁iPr	-12.5853
▁remainder	-12.5857
▁indicates	-12.586
▁groups	-12.5865
▁Time	-12.5867
▁distributed	-12.5891
▁Methylene	-12.5892
oxiran	-12.5895
▁acryloyl	-12.5906
benzotrifluoride	-12.5909
oxyethyl	-12.5909
▁distill	-12.5911
▁nearly	-12.5924
sulfate	-12.5928
undecan	-12.5944
propyloxy	-12.5945
adenosine	-12.5946
▁Li	-12.5947
▁centrifuged	-12.5949
▁(%):	-12.5966
hydroxybenzoic	-12.5971
NaOH	-12.5975
electrospray	-12.5983
thiomorpholine	-12.5987
succinate	-12.5999
aminocyclohexyl	-12.6
thiazolidin	-12.6
▁radial	-12.6006
▁selectivity	-12.6006
phosphonoacetate	-12.6009
▁adjusting	-12.6013
benzoxazepin	-12.6013
▁DI	-12.6017
methylbutanoyl	-12.6018
trihydroxy	-12.602
butyramide	-12.6021
onohydrochloride	-12.6023
▁frozen	-12.6025
ab	-12.6036
dipropyl	-12.604
▁melts	-12.6047
bp	-12.6048
ClNO	-12.6055
ddt	-12.6059
lactone	-12.6065
oxazepin	-12.6066
ethanesulfonyl	-12.6068
▁literature	-12.607
▁utilizing	-12.6072
dithio	-12.6072
▁Trans	-12.6078
quintet	-12.6084
et	-12.6084
triphenylphosph	-12.6087
▁Combi	-12.6092
▁disodium	-12.6093
▁fumarate	-12.61
benzoquinone	-12.611
▁simultaneously	-12.6123
▁FC	-12.6125
methoxyphenol	-12.613
▁Lawesson	-12.6139
methylbiphenyl	-12.6143
decomposition	-12.6144
▁device	-12.6147
lysine	-12.6147
enone	-12.6161
acetylthio	-12.6166
carbethoxy	-12.6187
hydrate	-12.6192
bromopropyl	-12.62
▁centrifugal	-12.6206
▁Ti	-12.6207
▁working	-12.6208
commercially	-12.6213
carbohydrazide	-12.6221
▁prism	-12.6235
▁Sigma	-12.6236
▁IV	-12.624
▁nuclear	-12.6257
imidazolium	-12.626
▁Cooled	-12.6261
)((	-12.6262
cyclopentadiene	-12.6275
hydrogen	-12.6283
▁deprotection	-12.6286
▁box	-12.6293
▁AIBN	-12.6294
▁BEH	-12.6296
▁Mo	-12.6302
sil	-12.6307
▁strong	-12.6308
▁Dowex	-12.6314
ir	-12.6315
light	-12.6317
boc	-12.632
TEA	-12.6327
benzyloxyimino	-12.6328
▁mi	-12.6329
▁epoxide	-12.6338
▁transfer	-12.6343
▁provides	-12.6355
▁SM	-12.6355
vacuum	-12.6357
▁iodoethane	-12.6366
oxaborol	-12.6367
Gradient	-12.6368
dihydroxyphenyl	-12.6373
▁melt	-12.6374
▁Shimadzu	-12.6374
carb	-12.6377
▁plus	-12.6378
▁Petroleum	-12.6383
▁block	-12.6385
▁DEAD	-12.6389
▁crystallisation	-12.6391
Cyclohexyl	-12.6405
formate	-12.6407
▁caesium	-12.641
pentanoyl	-12.6421
amyl	-12.6429
▁Distillation	-12.643
oxazolidinone	-12.6431
ra	-12.6434
isothiazole	-12.6435
▁probe	-12.6436
methylbutan	-12.645
adenine	-12.6451
▁isopropylamine	-12.6453
quint	-12.6454
heptanes	-12.6454
dichlorobenzoyl	-12.6455
▁Combiflash	-12.6462
▁tetrabromide	-12.6467
dideoxy	-12.6469
chlorocarbonyl	-12.6474
nitroso	-12.6482
benzoxazepine	-12.6484
Aminomethyl	-12.6491
▁bisulfate	-12.6491
ribofuranosyl	-12.6496
▁remains	-12.6499
▁Gel	-12.6501
idine	-12.651
cyclopentylamino	-12.6511
▁vented	-12.6517
pentanol	-12.6517
pentanone	-12.6518
packed	-12.6519
hydroxybutyl	-12.6531
▁Chemistry	-12.6532
bromoethoxy	-12.6535
▁Celsius	-12.6542
off	-12.6545
benzisoxazole	-12.6552
▁divided	-12.6557
methylthiazole	-12.6558
chloropropoxy	-12.6563
Prep	-12.6563
benzothiophen	-12.6564
▁Final	-12.6567
▁WSC	-12.6599
▁centrifugation	-12.6608
lit	-12.6612
▁values	-12.663
Rt	-12.664
▁MsCl	-12.6659
▁drained	-12.667
▁max	-12.6672
perhydro	-12.6672
hepta	-12.6678
internal	-12.6689
▁Tris	-12.6691
Tetramethyl	-12.6713
▁HR	-12.6728
perfluoro	-12.673
carbo	-12.6731
cyclohexen	-12.6731
Bn	-12.6734
▁opened	-12.6743
▁tripotassium	-12.6749
▁tricyclohexyl	-12.6749
apparent	-12.6757
ity	-12.6758
▁due	-12.676
tritylamino	-12.6761
XBridge	-12.6779
ato	-12.678
reaction	-12.6784
trioxa	-12.6787
▁ddd	-12.6788
▁released	-12.6794
BINAP	-12.6795
▁maleate	-12.6805
allyloxycarbonyl	-12.6809
▁Tetrahedron	-12.6812
morpholinomethyl	-12.682
ethylhexyl	-12.6825
lo	-12.6825
phen	-12.6833
▁acidification	-12.6836
able	-12.6841
▁analyses	-12.6842
▁ketal	-12.6846
phosphinyl	-12.6848
dioic	-12.6848
+)=	-12.6855
Cbz	-12.6866
MTBE	-12.6868
▁Pt	-12.687
-(+)-	-12.688
▁acetaldehyde	-12.6883
diazepan	-12.6883
▁Cesium	-12.6885
eth	-12.689
▁Rochelle	-12.6912
succinic	-12.6914
triisopropylbi	-12.6914
▁Gemini	-12.6917
ee	-12.6919
methylpyrazolo	-12.692
▁JAB	-12.694
▁Spec	-12.6943
Hydroxymethyl	-12.6947
RP	-12.695
methylthiophene	-12.6963
▁screw	-12.6964
▁seed	-12.6973
▁Remove	-12.6978
dichloropyridin	-12.6981
methylpyrazole	-12.6982
ul	-12.6984
▁Stage	-12.6984
naphthalenyl	-12.6986
dihydroisoxazol	-12.6992
▁employing	-12.6996
▁Bromine	-12.7012
▁hexahydrate	-12.7012
carboxamidine	-12.7017
▁signals	-12.7027
Ru	-12.7029
dimethoxytrityl	-12.7029
▁nBuLi	-12.7035
anhydro	-12.7037
cysteine	-12.7038
isonicotinate	-12.7045
▁basis	-12.7054
▁matters	-12.7056
▁Sunfire	-12.7057
enantiomer	-12.7062
▁ensure	-12.7071
fluoropyrimidin	-12.7074
▁settle	-12.7076
▁pumped	-12.7077
pyrimidinone	-12.7078
▁NaOAc	-12.7084
amidino	-12.7098
sulfonium	-12.7106
▁FA	-12.7108
base	-12.7109
BrNO	-12.711
▁Ru	-12.7114
phosphono	-12.7115
aminophenol	-12.7119
▁replacing	-12.7146
▁cyclic	-12.7147
chlor	-12.7149
mono	-12.7153
pentafluoroethyl	-12.7156
trifluoroethanol	-12.7158
▁jacketed	-12.7163
▁pivalate	-12.7164
▁Lett	-12.7164
▁partial	-12.7165
▁permanganate	-12.7179
propylcyclohexyl	-12.7191
▁Examples	-12.7192
▁commercial	-12.7192
aminophenoxy	-12.7194
aminobenzoate	-12.7195
dimethylamine	-12.7197
aminoethoxy	-12.7203
dimethylpyridine	-12.7204
▁conventional	-12.7222
▁fractionated	-12.7223
▁Chiralpak	-12.7226
▁osmium	-12.7228
YMC	-12.7232
▁composed	-12.7233
▁Grams	-12.7238
butyronitrile	-12.7238
calc	-12.7242
ethylbenzene	-12.7245
▁synthetic	-12.7256
▁Gas	-12.7257
toluoyl	-12.7266
▁thereinto	-12.7272
wt	-12.7276
▁condensation	-12.7277
isoquinolyl	-12.7278
xanthen	-12.7279
▁Kugelrohr	-12.7281
hexanoyl	-12.7286
▁producing	-12.7288
▁semisolid	-12.7289
▁MgS	-12.7291
oxoethoxy	-12.7307
▁fully	-12.7327
dimethylxanthene	-12.7327
▁Boron	-12.7332
alkyl	-12.7335
thiazine	-12.7336
nCl	-12.7339
petrol	-12.7343
ted	-12.735
picoline	-12.7354
phosphane	-12.7355
cresol	-12.736
▁cobalt	-12.7363
▁tertiary	-12.7364
▁isopropoxide	-12.7371
azulen	-12.7374
▁bring	-12.7378
hydroxypyridine	-12.7392
sept	-12.7393
▁aimed	-12.7398
▁diazonium	-12.7399
▁RB	-12.74
aminobenzyl	-12.74
▁milliliter	-12.7401
benzamidine	-12.7415
ynoic	-12.7417
▁caused	-12.7418
STR	-12.7427
rt	-12.7427
oxazinan	-12.7432
bromophenoxy	-12.7435
nd	-12.744
pyridone	-12.7442
chloropyrazin	-12.7444
boiling	-12.7445
▁ArCH	-12.7451
▁monomer	-12.7454
ive	-12.7465
oxobutanoic	-12.7468
▁HCOOH	-12.7472
azide	-12.7472
trione	-12.7474
▁entire	-12.7476
▁coevaporated	-12.7483
Pyridin	-12.7487
BA	-12.749
▁generation	-12.7496
phthalazine	-12.7509
methylpropanoic	-12.7515
triethylsilyl	-12.7519
ochloridate	-12.7523
+],	-12.753
▁ended	-12.7536
▁injection	-12.7537
▁acrylic	-12.7541
▁rendered	-12.7555
butyn	-12.7558
methylmorpholin	-12.756
▁valve	-12.7566
methoxybenzo	-12.7575
penten	-12.7576
▁Carbon	-12.758
▁additionally	-12.7584
▁checking	-12.7589
ex	-12.7592
phenanthrene	-12.7604
diiodo	-12.7609
ino	-12.7614
WO	-12.7626
cyanopyridin	-12.7627
▁incomplete	-12.7629
▁Dried	-12.764
propenoate	-12.7641
borohydride	-12.7645
bromophenol	-12.7647
butylphenol	-12.7656
▁evolved	-12.7662
▁succession	-12.7669
▁Acetate	-12.767
▁Thin	-12.7671
Elemental	-12.7673
▁refined	-12.7674
dimethoxymethyl	-12.7683
ethoxyvinyl	-12.7684
threo	-12.7686
Ir	-12.7686
▁blown	-12.7692
salicylic	-12.7699
dibenz	-12.77
diazepane	-12.7701
oxoacetate	-12.7703
half	-12.7704
based	-12.7704
▁rotamer	-12.7706
▁if	-12.7707
▁consecutively	-12.7709
▁Both	-12.7709
▁physical	-12.7715
YL	-12.7719
▁regioisomers	-12.7732
)+]	-12.7736
io	-12.774
▁desiccator	-12.7749
▁cat	-12.7751
ie	-12.7755
silanyloxymethyl	-12.776
octadecyl	-12.7769
▁gr	-12.7772
▁coloured	-12.7773
But	-12.7777
▁substrate	-12.7779
OTf	-12.779
▁sulfuryl	-12.7792
▁Total	-12.78
▁Acetyl	-12.7801
▁mechanically	-12.7803
▁open	-12.7807
FNO	-12.7811
methanesulphonyl	-12.7813
propylthio	-12.7825
car	-12.7829
▁greater	-12.7836
Py	-12.7836
(+)-	-12.7837
temperature	-12.784
▁wherein	-12.7841
▁methylate	-12.7841
▁Phosphorus	-12.7841
chloropropane	-12.7843
pregna	-12.7848
▁delta	-12.785
▁hydrogensulfate	-12.785
MASS	-12.7853
▁EIMS	-12.7856
▁Magnesium	-12.7859
BrF	-12.7864
▁Filtered	-12.7865
heated	-12.787
▁similarly	-12.7879
ating	-12.7885
▁refilled	-12.7889
▁covered	-12.789
▁particle	-12.7902
iodopyridine	-12.7906
phenylacetamido	-12.7906
DMSOd	-12.7909
NMe	-12.791
▁every	-12.7911
methylacetamide	-12.7917
nitrobenzamide	-12.7928
exchange	-12.7932
dimethylphenoxy	-12.7933
Formyl	-12.7934
ethoxyimino	-12.7935
bu	-12.7941
dichloropyridine	-12.7943
▁subtitle	-12.7943
VII	-12.7954
▁possible	-12.7958
septet	-12.7964
vac	-12.7964
ATR	-12.7964
butadiene	-12.7966
picolinonitrile	-12.797
major	-12.797
▁dimethylacetal	-12.7982
▁Optical	-12.7984
tartrate	-12.7984
▁combiflash	-12.7986
chloroethoxy	-12.7988
▁Solids	-12.7992
▁acyl	-12.7996
▁diastereoisomer	-12.7998
characterization	-12.8005
▁DAST	-12.8006
carbostyril	-12.8011
aminopiperidine	-12.8027
oxyimino	-12.8028
▁proceeded	-12.8035
Tri	-12.8036
AUC	-12.8041
▁Vol	-12.8048
':	-12.8052
▁finely	-12.8053
▁pivaloyl	-12.8064
dioxole	-12.8065
(+)	-12.8068
pro	-12.8069
hexahydropyrrolo	-12.8072
benzeneboronic	-12.8076
stirred	-12.8079
▁anion	-12.8082
acetanilide	-12.8082
pyridyloxy	-12.8083
oxazoline	-12.8088
triazaspiro	-12.8092
hexanol	-12.8094
produced	-12.8105
coloured	-12.8111
{[	-12.8117
▁perform	-12.8118
▁CAS	-12.8131
▁ruthenium	-12.8131
AS	-12.8141
cyclohepten	-12.8143
ethoxyethanol	-12.8145
▁stirbar	-12.8148
carboxyl	-12.8153
dipiperidine	-12.8159
DMA	-12.8164
triol	-12.8166
tion	-12.817
phenanthroline	-12.8172
▁ethanolamine	-12.8173
dihydropyridazin	-12.8175
Condition	-12.8182
▁thiocyanate	-12.8182
hydroxypiperidin	-12.8185
▁mols	-12.8193
methylisoxazol	-12.8194
▁Synthetic	-12.8199
coumarin	-12.82
calculated	-12.8207
quinuclidin	-12.8212
▁spray	-12.8219
piperazino	-12.8222
▁Bu	-12.8224
dioxopyrrolidin	-12.8228
indolyl	-12.8237
alcohol	-12.8238
▁double	-12.824
▁settling	-12.8244
pentanamide	-12.8244
▁Re	-12.8249
▁invention	-12.8256
shaped	-12.8259
▁bulk	-12.8268
ethene	-12.8271
▁Trimethyl	-12.8277
▁stop	-12.8282
pentacosa	-12.8287
▁golden	-12.8287
tetralone	-12.8293
▁Precipitated	-12.83
oxoquinoline	-12.8308
phosphite	-12.8308
▁polarity	-12.8315
▁KOtBu	-12.8319
phosphorane	-12.832
methyluridine	-12.8325
isobutyronitrile	-12.8329
▁Formic	-12.8332
methylbutanoic	-12.8333
Methoxycarbonyl	-12.8336
▁HOAt	-12.8337
diethoxyphosphor	-12.8339
difluorobenzoyl	-12.8343
▁Ammonia	-12.8347
ase	-12.8349
phosphoramidite	-12.8353
▁deposit	-12.8354
▁hydrolysed	-12.8355
triethoxysilane	-12.836
chloroquinolin	-12.8363
▁triacetoxy	-12.8364
corresponding	-12.8377
trioxo	-12.8381
▁resolution	-12.8389
apci	-12.839
ylmethylene	-12.8393
tetrachloro	-12.84
diazatetracyclo	-12.8403
▁increase	-12.8406
methoxyquinoline	-12.8408
▁change	-12.8414
mass	-12.8419
′);	-12.842
iodosuccinimide	-12.8425
dimethylethoxy	-12.8434
thiophenol	-12.8437
oxyphenyl	-12.8438
▁Crystals	-12.8443
available	-12.8449
▁Resulting	-12.8452
BB	-12.8456
▁nD	-12.8458
dibenzofuran	-12.8483
▁mentioned	-12.8488
pheny	-12.85
tolylphosphine	-12.8504
chlorophenol	-12.8508
▁gravity	-12.8514
▁DL	-12.8519
Cyclopentyl	-12.852
glucopyranoside	-12.852
iodomethyl	-12.8525
▁cyanuric	-12.8526
methyleneoxy	-12.8531
CHCH	-12.8534
ut	-12.8545
propylcarbamate	-12.8547
▁deg	-12.8554
▁known	-12.856
▁plastic	-12.8563
ray	-12.8564
isobutoxy	-12.8572
▁singlet	-12.8577
li	-12.8581
▁resuspended	-12.8589
chlorobenzo	-12.8592
cyclohexylamine	-12.8592
▁lactone	-12.8593
▁ozone	-12.8595
▁confirming	-12.8595
dicarbonate	-12.8599
▁mercury	-12.861
octadeca	-12.8615
▁fluid	-12.862
▁lamp	-12.862
▁diglyme	-12.8632
▁quantitatively	-12.8634
phenylhydrazine	-12.8641
complex	-12.8646
▁extractions	-12.8652
Ni	-12.8652
▁aliquots	-12.8663
▁Approximately	-12.8664
line	-12.8671
cyanobenzyl	-12.8671
▁dripped	-12.8676
▁glove	-12.8676
▁Iodomethane	-12.8676
phenylpiperidine	-12.8679
hydroxyquinoline	-12.8684
benzylcarbamoyl	-12.8685
PS	-12.8688
▁precipitating	-12.8688
sulphonamide	-12.8689
▁reactants	-12.869
Diamino	-12.8691
methylsulphonyl	-12.8694
▁acetylene	-12.8699
benzofuro	-12.87
▁optically	-12.8702
nitroimidazole	-12.8705
ArH	-12.8714
▁con	-12.8723
▁FTIR	-12.873
▁herein	-12.874
▁YMC	-12.8743
▁polymerization	-12.8744
▁including	-12.8749
▁capacity	-12.8752
Butoxy	-12.8762
▁PtO	-12.8765
octyloxy	-12.8776
▁subsided	-12.8778
▁degree	-12.8779
▁olefin	-12.8785
▁bubbler	-12.8787
Dioxo	-12.879
found	-12.8806
CB	-12.8807
morpholinophenyl	-12.8813
dihydropyrazolo	-12.8829
▁cyclohexanone	-12.8829
oate	-12.883
bromoimidazo	-12.8831
anthraquinone	-12.8835
glycerol	-12.8843
propionaldehyde	-12.8847
▁hydroquinone	-12.8852
▁crops	-12.886
purified	-12.8862
Anal	-12.8875
▁Xbridge	-12.8881
styrene	-12.8892
cyclopropoxy	-12.8899
▁metered	-12.89
▁twenty	-12.8906
diazatricyclo	-12.8907
opropylmagnesium	-12.8917
potassium	-12.8921
ylidenemethyl	-12.8923
methylisoxazole	-12.8923
ri	-12.8924
oxooxazolidin	-12.8925
Agilent	-12.8926
cinnamate	-12.895
▁TiCl	-12.896
pt	-12.8963
▁isomeric	-12.8967
▁CuSO	-12.8983
▁Pro	-12.8985
malononitrile	-12.8985
▁Cooling	-12.8989
▁Organics	-12.8989
methylindole	-12.899
▁Whatman	-12.899
▁enantiomeric	-12.8995
▁j	-12.9002
▁St	-12.9003
ArC	-12.9005
▁rhodium	-12.9016
▁Company	-12.9017
▁LiBH	-12.9017
▁dil	-12.9018
▁continue	-12.9024
cy	-12.9029
▁Nickel	-12.9034
PF	-12.9044
▁cation	-12.9047
trifluoropropan	-12.9049
mer	-12.9053
-[[[(	-12.9053
CAN	-12.9055
▁tetraethyl	-12.9056
Sigma	-12.9062
▁collection	-12.9069
▁formalin	-12.9069
tyrosine	-12.9076
Methoxyphenyl	-12.9081
oxepin	-12.9084
▁Isolute	-12.909
cyanophenoxy	-12.91
NaO	-12.91
Methanesulfonyl	-12.9104
Acetone	-12.9113
▁Appropriate	-12.9115
▁resolved	-12.9115
DME	-12.9122
oxaspiro	-12.9133
butyraldehyde	-12.914
▁greenish	-12.9142
▁Base	-12.9143
phenylalanyl	-12.9144
▁soda	-12.9144
▁Peak	-12.9151
Vis	-12.9158
ce	-12.916
oxazolylmethoxy	-12.9163
▁millimole	-12.9163
od	-12.9168
'),	-12.9169
phosphinate	-12.9178
▁eight	-12.9182
methylethoxy	-12.9193
▁diethylene	-12.9195
heptanoate	-12.9196
▁Molecular	-12.9197
▁supported	-12.9204
▁precursor	-12.9213
▁scintillation	-12.9214
sulfonimide	-12.9217
orthoformate	-12.9219
▁epichlorohydrin	-12.9227
aminoethanol	-12.9227
▁accomplished	-12.9228
diethoxymethyl	-12.9228
isothiocyanate	-12.9233
ylethynyl	-12.9235
trideca	-12.9236
Formula	-12.924
▁eggplant	-12.9241
▁fractional	-12.9244
▁milky	-12.9248
octanoic	-12.9248
condition	-12.925
▁tetroxide	-12.9254
toluenesulphonic	-12.9257
methyldisilazide	-12.9259
azanediyl	-12.9261
morpholinoethyl	-12.927
calcd	-12.9272
cat	-12.9286
tic	-12.9291
▁went	-12.9294
▁eV	-12.9296
distilled	-12.9304
dibromopyridine	-12.9314
azodicarbonyl	-12.9315
▁dibenzyl	-12.9318
erythromycin	-12.9321
fluoroethyl	-12.9324
methoxybenzyloxy	-12.9328
▁Material	-12.9328
dichlorophenoxy	-12.9329
chemical	-12.933
isobutyryl	-12.9332
bromothiophene	-12.9334
▁wavelength	-12.9355
ring	-12.9357
▁Filtrate	-12.9362
▁wave	-12.938
▁bond	-12.9386
difluorobenzo	-12.9386
Methanol	-12.9389
Reference	-12.9399
▁bulb	-12.9404
▁took	-12.9416
▁does	-12.943
▁intervals	-12.9439
phenacyl	-12.9445
▁triflic	-12.945
bromoaniline	-12.9452
▁CuCl	-12.9459
JHH	-12.9459
benzylcarbamate	-12.9466
▁diisobutyl	-12.9477
ethyloxy	-12.9486
onitrile	-12.9486
▁litre	-12.9488
cyclopropanamine	-12.9493
chlorosulfonic	-12.9496
▁Redi	-12.9498
▁INT	-12.9501
difluoroacetate	-12.9502
▁diphenylmethyl	-12.9505
▁unit	-12.9507
isoquinolinyl	-12.9507
▁dec	-12.9513
▁Alternatively	-12.9519
EDC	-12.9525
maleimide	-12.9526
▁start	-12.9526
carbamoyloxy	-12.9536
▁stock	-12.9539
▁membrane	-12.9546
▁measurement	-12.9549
diphenylamine	-12.9559
TsOH	-12.9566
▁anhyd	-12.9568
basic	-12.9572
▁Separate	-12.9575
oxoazetidine	-12.9594
dicyclohexylurea	-12.9596
▁isoamyl	-12.9597
▁post	-12.9602
▁respect	-12.9643
ruthenium	-12.9649
▁proposed	-12.965
▁degassing	-12.965
Azido	-12.9652
diphenylsilyloxy	-12.9661
▁combi	-12.9665
octanoate	-12.9666
System	-12.9671
▁benzophenone	-12.9679
Carboxy	-12.9683
phenethylamine	-12.9686
zirconium	-12.9686
▁outlet	-12.9688
▁either	-12.9689
nicotinoyl	-12.969
after	-12.9692
trimethoxysilane	-12.9693
▁u	-12.9697
vi	-12.97
NaCl	-12.9701
DA	-12.9703
▁tosyl	-12.9705
man	-12.9707
fluorobenzamide	-12.9718
▁Trifluoro	-12.9732
▁rotavap	-12.9735
dioxine	-12.9746
▁Py	-12.9748
▁chromium	-12.975
MNa	-12.9752
methylquinazolin	-12.9764
▁xylenes	-12.9772
enamide	-12.9777
▁pulverized	-12.9781
▁NCS	-12.9786
amidine	-12.9786
Allyl	-12.9791
▁spatula	-12.9799
▁processed	-12.9806
PEG	-12.981
▁corresponds	-12.9818
nm	-12.9822
cyanopyridine	-12.9823
▁supra	-12.9825
▁undissolved	-12.9833
mole	-12.984
▁byproduct	-12.9841
▁XPhos	-12.9845
Cu	-12.9852
BH	-12.9853
heptyloxy	-12.9857
Dimethylethyl	-12.9857
butyloxy	-12.9858
methoxybenzamide	-12.986
under	-12.986
▁hydroiodide	-12.9861
▁diester	-12.9866
▁cotton	-12.9868
iminoacetamido	-12.988
Flash	-12.9884
▁Each	-12.9897
▁boil	-12.9897
▁triisopropyl	-12.9899
▁GP	-12.99
▁assumed	-12.9915
ido	-12.9929
▁Title	-12.9932
naphthoic	-12.9934
benzenesulphonyl	-12.9937
prep	-12.9938
propylidene	-12.9938
▁Some	-12.9954
▁viscosity	-12.9956
Dichlorophenyl	-12.9961
carboethoxy	-12.9965
▁oxidation	-12.9968
methylthieno	-12.9975
glutamic	-12.9975
pyrazinyl	-12.9977
Sn	-12.9982
propargyl	-12.9984
Propyl	-12.9987
▁agitator	-12.9997
butylate	-13.0002
▁dye	-13.0016
act	-13.0022
cyclooctadiene	-13.0026
ethoxyethyl	-13.0027
▁dehydration	-13.0033
▁Colorless	-13.0034
▁If	-13.0034
bromopropane	-13.0036
▁NaSO	-13.005
methyltetrahydro	-13.0051
ization	-13.0055
▁SunFire	-13.0056
▁recooled	-13.0059
phospho	-13.0068
hexadecyl	-13.0072
▁GCMS	-13.0085
▁HNO	-13.009
pivaloyloxy	-13.0101
fluorenyl	-13.0106
Dihydroxy	-13.0108
▁racemate	-13.011
▁EDCl	-13.0111
▁chlorite	-13.0113
HATU	-13.0114
▁Erlenmeyer	-13.012
▁stood	-13.012
Trp	-13.0121
Benzoyl	-13.0135
tan	-13.0143
▁rest	-13.0144
▁malonic	-13.0146
▁examples	-13.0146
Bromophenyl	-13.0148
▁Borane	-13.0149
aking	-13.015
dimethoxyethyl	-13.0153
▁mercaptan	-13.0163
drying	-13.0163
▁Layer	-13.0163
▁initiated	-13.0164
sulphonate	-13.0178
▁include	-13.0185
▁cyanogen	-13.0186
ylmethanol	-13.0186
▁De	-13.0193
▁pipette	-13.0197
PG	-13.0201
▁guanidine	-13.0211
MP	-13.0213
isomers	-13.0214
kg	-13.0219
iPr	-13.022
fluorobiphenyl	-13.0223
▁hygroscopic	-13.0224
tertiary	-13.0232
hose	-13.0235
▁discharged	-13.0237
AD	-13.0247
▁DETL	-13.0252
fold	-13.0254
trifluoropropyl	-13.0262
▁dl	-13.0264
▁partition	-13.0266
▁now	-13.0268
Thr	-13.0272
Bzl	-13.0274
cl	-13.0284
▁vmax	-13.0295
anilide	-13.0295
▁Iron	-13.0297
▁lot	-13.0301
pentene	-13.0306
▁thioacetate	-13.0307
▁polystyrene	-13.0308
indolizin	-13.0331
▁Work	-13.0333
▁caustic	-13.0334
androst	-13.0334
ax	-13.0335
′-{	-13.0342
▁Jones	-13.035
−):	-13.0353
diacetyl	-13.0362
BN	-13.0363
▁sonication	-13.0364
▁cause	-13.0367
treatment	-13.0383
▁peptide	-13.0386
ment	-13.0394
oxetane	-13.0394
chlorobenzoate	-13.0396
▁litres	-13.0399
chi	-13.0401
▁solidifies	-13.0401
cyclopentanol	-13.0403
▁hydroperoxide	-13.0407
formula	-13.0407
lined	-13.0407
heptafluoro	-13.0408
▁dimethylamide	-13.0409
▁Patent	-13.041
▁HCL	-13.0414
trifluoroborate	-13.0419
docosa	-13.0429
aminopiperidin	-13.043
▁jacket	-13.0434
▁sulphoxide	-13.0436
indolizine	-13.0442
▁trimethylamine	-13.0448
▁Allyl	-13.045
▁Florisil	-13.0458
alaninate	-13.0464
Sep	-13.0469
▁perfluoro	-13.047
acridine	-13.0477
▁generate	-13.0488
iodobenzoate	-13.0491
aminosulfur	-13.0492
▁purifying	-13.0492
▁benzotriazol	-13.0494
carbothioamide	-13.0507
azidoethyl	-13.0514
)-(-)-	-13.0518
annulen	-13.0519
▁Triethyl	-13.052
est	-13.0522
polar	-13.0524
excess	-13.0529
▁recorded	-13.0529
AV	-13.0532
azetidinyl	-13.0532
hydantoin	-13.0534
▁silyl	-13.0534
▁ferric	-13.0537
chloropyrazine	-13.0542
▁Yellow	-13.0553
▁Eluent	-13.0557
▁protocol	-13.056
Celite	-13.0561
late	-13.0562
▁DEA	-13.0565
onic	-13.0567
▁multiplet	-13.0568
anisole	-13.057
methylpyrazin	-13.0577
▁DPPA	-13.0586
dimethylbenzene	-13.0588
chloromethane	-13.0589
▁Subsequent	-13.059
▁foil	-13.0598
CIR	-13.0623
▁throughout	-13.0623
DI	-13.0627
cyclopenten	-13.0632
VIII	-13.0632
pre	-13.0634
▁STEP	-13.0636
cyclopentanone	-13.0638
PA	-13.0639
▁Companion	-13.0647
▁Oxone	-13.0652
benzohydrazide	-13.0657
▁NaHC	-13.0657
▁rotavapor	-13.0661
▁Aq	-13.0662
sulfonylchloride	-13.0666
propiophenone	-13.0667
propylcarbamoyl	-13.0675
propyn	-13.0676
PdCl	-13.0679
aminothiazole	-13.0681
▁Over	-13.0683
ll	-13.0687
▁CsF	-13.0692
iodopyridin	-13.0695
▁VI	-13.0695
▁foaming	-13.0698
enyloxy	-13.0703
methylbutanoate	-13.0706
ti	-13.0717
art	-13.0723
▁Amberlite	-13.0725
▁electrospray	-13.0727
▁Furthermore	-13.0729
DL	-13.073
nickel	-13.0731
phenylacetamide	-13.0745
disiloxane	-13.0752
quant	-13.0754
clo	-13.0755
fluor	-13.076
carboxyphenyl	-13.0763
diastereomer	-13.0775
▁feed	-13.0783
benzodioxole	-13.0786
anhydride	-13.0793
▁sublimation	-13.0794
ben	-13.0794
▁barium	-13.0794
)[(	-13.0796
diazepino	-13.0805
▁heavy	-13.0807
▁KMnO	-13.0807
sulfinic	-13.0814
▁azeotrope	-13.0825
preparation	-13.0826
methylpiperazino	-13.0829
▁CuBr	-13.0831
▁hexafluoro	-13.0834
op	-13.0836
ting	-13.0838
▁Mol	-13.0845
▁tetrahydrate	-13.0846
▁substances	-13.0849
▁CeliteTM	-13.0865
▁Trimethylsilyl	-13.0867
▁endo	-13.0872
hexafluoropropan	-13.0874
▁nucleoside	-13.0877
phenylcarbamate	-13.0884
▁thiophenol	-13.0892
▁highly	-13.0899
▁solubilized	-13.09
met	-13.0903
idin	-13.091
fluoropiperidin	-13.0917
▁cyanamide	-13.0926
ceph	-13.0928
▁needed	-13.0932
methylpent	-13.0933
butynyloxy	-13.094
hydroxypropoxy	-13.0945
▁instrument	-13.0952
indacen	-13.0954
▁Fraction	-13.0955
▁chlorochromate	-13.0956
la	-13.0956
▁cyanate	-13.0963
▁naturally	-13.0964
benzylamide	-13.0967
▁experiment	-13.0968
▁cupric	-13.098
▁protective	-13.098
ite	-13.098
▁NaOtBu	-13.0983
▁reextracted	-13.0983
DIPEA	-13.0987
▁Charge	-13.1004
▁reducing	-13.1004
TP	-13.1008
rhodium	-13.1012
Biphenyl	-13.1013
CNMR	-13.1014
PP	-13.1018
ru	-13.1019
▁methacrylic	-13.1029
▁hydrazone	-13.1031
▁CMA	-13.1032
ran	-13.1032
▁Separately	-13.1036
methyleneamino	-13.104
′′]	-13.1048
des	-13.1052
cyclobutoxy	-13.1056
FD	-13.1071
DCC	-13.1073
phosphoric	-13.1076
chloroquinoline	-13.1078
▁syn	-13.1079
hexahydrofuro	-13.108
▁High	-13.1088
phenylpiperidin	-13.1089
undeca	-13.1094
Acetoxy	-13.1103
Ox	-13.1104
(−)	-13.1115
oxospiro	-13.1128
hydroxyphenoxy	-13.1129
▁(−)	-13.1133
cyclopentene	-13.1133
azepane	-13.1135
ose	-13.1138
′;	-13.1147
▁alkali	-13.1147
▁cut	-13.1149
▁Three	-13.1156
dioxolo	-13.1159
▁Cbz	-13.1164
▁pro	-13.1164
prolyl	-13.1164
▁partitioning	-13.1173
▁characteristic	-13.1176
▁cyanoacetate	-13.1181
suspended	-13.1184
interm	-13.1187
▁dichlormethane	-13.1188
▁Chemicals	-13.1188
▁split	-13.119
oxoazetidin	-13.1195
▁cycle	-13.1199
▁DD	-13.1202
▁strongly	-13.1205
methylpentan	-13.1208
vol	-13.1214
phasic	-13.1229
▁Vacuum	-13.1229
▁Stark	-13.1233
▁MDAP	-13.124
quat	-13.1243
▁effervescence	-13.1245
▁PTLC	-13.1246
dimethoxypropane	-13.1254
enol	-13.1257
dimethoxybenzene	-13.126
▁anti	-13.1261
dibenzyloxy	-13.1272
pyrrolyl	-13.1275
Ex	-13.1278
emed	-13.128
▁introduction	-13.1283
▁Benzene	-13.1289
undecyl	-13.1292
isothiourea	-13.1304
▁NaHMDS	-13.1305
carboxyethyl	-13.1308
chromane	-13.1314
▁PTFE	-13.1316
Pak	-13.1321
carboline	-13.1329
methylpyrazol	-13.1341
▁vapor	-13.135
▁keto	-13.1353
thienylmethyl	-13.1353
rCl	-13.1355
cyclohexanamine	-13.1367
fluorobenzo	-13.1374
OSu	-13.1377
acetimidate	-13.1377
dihydroxypropyl	-13.1377
trichlorophenyl	-13.1378
dodecane	-13.1379
▁taking	-13.1379
▁ID	-13.1384
▁completing	-13.1394
propionyloxy	-13.14
bromoethanol	-13.14
diisopropylamino	-13.14
methoxypyrimidin	-13.1408
▁analysed	-13.141
▁exclusion	-13.141
)+]:	-13.1417
▁microwaves	-13.1418
oxopiperidin	-13.1418
phenylisocyanate	-13.1419
quinolinone	-13.1422
sh	-13.1423
▁exchanged	-13.1425
▁acidify	-13.1427
▁excessive	-13.143
▁DIPE	-13.1433
▁generally	-13.1438
Calculated	-13.144
difluoroaniline	-13.1443
▁MeMgBr	-13.1443
oxyl	-13.1445
minor	-13.1448
aminobenzoic	-13.1454
{(	-13.146
▁respective	-13.146
▁stannous	-13.1461
▁mesyl	-13.1464
▁Acquity	-13.1468
▁wax	-13.1469
content	-13.1476
▁Hydroxylamine	-13.1477
▁Separation	-13.1477
▁loss	-13.1477
methylpyrido	-13.1482
cyclopropylethyl	-13.149
EP	-13.1491
▁TsOH	-13.1493
ure	-13.15
▁CEM	-13.1505
lactam	-13.1505
tosyloxy	-13.1508
▁speed	-13.1509
▁thiosulphate	-13.151
pyridazinyl	-13.1512
▁decompose	-13.1514
formic	-13.1518
phthalonitrile	-13.1521
▁Chromatographic	-13.1523
▁name	-13.1526
para	-13.1531
▁consisted	-13.1535
▁acrylonitrile	-13.1537
IX	-13.1538
lic	-13.1538
Note	-13.1541
methylprop	-13.1546
▁exo	-13.155
▁conduct	-13.1552
methanesulfinyl	-13.1564
amin	-13.1568
▁morning	-13.1569
▁close	-13.1576
▁pentafluorophen	-13.1577
fluoropyrrolidin	-13.158
anging	-13.1582
▁alkyl	-13.1583
▁Corporation	-13.1586
▁enol	-13.1592
if	-13.1594
guanine	-13.1594
nitrogen	-13.1608
▁styrene	-13.1608
rimethylaluminum	-13.1611
▁JCF	-13.1613
▁gold	-13.1617
dehydro	-13.1618
▁combine	-13.1619
▁extra	-13.1619
dithia	-13.1628
butyrolactone	-13.1628
▁regioisomer	-13.1633
▁FT	-13.1636
azabenzotriazole	-13.1639
Analysis	-13.1647
▁ethane	-13.1648
ynoate	-13.165
▁will	-13.1654
ace	-13.1657
phenylbutyl	-13.1658
▁seen	-13.166
▁System	-13.1662
salicylaldehyde	-13.1662
tolu	-13.1669
aspartic	-13.1671
▁xantphos	-13.1671
trihydrochloride	-13.1671
▁Bn	-13.1673
▁glycerol	-13.1674
▁secondary	-13.1679
methylpentanoate	-13.168
ist	-13.1689
aminium	-13.1691
dibromopropane	-13.1695
deca	-13.1696
succinimidyl	-13.1698
▁Rh	-13.1704
ow	-13.1706
imidate	-13.1709
oxoprop	-13.1711
▁alkylated	-13.1717
▁Varian	-13.172
ill	-13.1724
Gemini	-13.1729
▁successive	-13.173
ET	-13.1731
▁average	-13.1732
nitroquinoline	-13.1738
▁hydrogenator	-13.1741
▁hydroxyl	-13.1742
isoxazolo	-13.1743
▁mostly	-13.1744
tetraisopropyl	-13.175
▁adapter	-13.1756
cycloheptyl	-13.1757
▁trichloro	-13.176
▁KP	-13.1763
ai	-13.177
▁noted	-13.1771
propylene	-13.1776
benzylpiperidin	-13.1782
▁Bio	-13.1788
▁uniform	-13.179
isochroman	-13.1792
sulphoxide	-13.1794
nona	-13.1799
dddd	-13.1804
phenoxycarbonyl	-13.1806
▁DSC	-13.181
▁ultrasonic	-13.1816
▁hand	-13.182
▁Isolera	-13.1825
phenylethanone	-13.1827
butylsulfinyl	-13.1827
phosphonomethyl	-13.1831
▁equimolar	-13.1834
crystallization	-13.1838
Benzenesulfonyl	-13.1839
▁oxone	-13.1844
▁PA	-13.1852
cycloheptene	-13.1852
aromatic	-13.1859
DBU	-13.1859
methylpropionic	-13.1861
▁negative	-13.1861
▁ethylmagnesium	-13.1863
▁Catalyst	-13.1868
HOBt	-13.1868
Trt	-13.1869
aminooxy	-13.1879
▁CuCN	-13.188
methyloxazol	-13.1885
stilbene	-13.1894
▁destroyed	-13.1895
isatin	-13.1897
bromobenzoate	-13.1899
oxoimidazolidin	-13.191
aziridine	-13.1913
▁signal	-13.1921
▁thiol	-13.1925
sulfoxonium	-13.1929
isobutyramide	-13.193
▁buffered	-13.1932
▁sucked	-13.1938
▁Diluted	-13.1943
diylbis	-13.1946
quinazolinone	-13.1947
camphor	-13.1948
Ethoxycarbonyl	-13.1953
androsta	-13.1956
DP	-13.196
▁decahydrate	-13.1964
Scheme	-13.1971
tetradecyl	-13.1971
evaporation	-13.198
▁Ag	-13.1982
acet	-13.1992
▁SB	-13.1993
DMT	-13.1993
Piperidin	-13.1997
▁power	-13.2
▁percentage	-13.2009
▁sequential	-13.2011
cinnamyl	-13.2011
▁alkylation	-13.2013
▁iodobenzene	-13.2013
sulfide	-13.2018
▁chlorocarbonate	-13.202
chloropurine	-13.202
+];	-13.2022
be	-13.2029
benzylbromide	-13.2034
▁finishing	-13.2035
azaindole	-13.2035
▁Use	-13.2036
anisidine	-13.2044
porphyrin	-13.2044
acetal	-13.2046
pregn	-13.2051
▁flush	-13.2052
SPC	-13.2053
IS	-13.2056
▁mercuric	-13.2061
METHYL	-13.2083
▁phthalic	-13.2087
▁paraffin	-13.2088
epi	-13.2093
decanoic	-13.2095
made	-13.2097
ary	-13.2101
▁Ret	-13.2103
butyne	-13.2103
▁seven	-13.2108
′-{[	-13.211
dimethylbenzyl	-13.2111
quinolinamine	-13.2121
butanamido	-13.2123
▁ascorbate	-13.2127
age	-13.2127
idene	-13.2131
▁NaCN	-13.2135
▁microns	-13.2147
▁Completion	-13.215
methylbenzofuran	-13.2152
▁just	-13.2159
▁perchlorate	-13.216
ial	-13.2161
▁weighing	-13.2168
EXAMPLE	-13.217
cyclobutanol	-13.2171
dibutyl	-13.2173
undecene	-13.2173
wet	-13.2175
pure	-13.2175
▁level	-13.2177
fluoroquinolin	-13.2182
▁aspirator	-13.2192
▁concd	-13.2196
series	-13.2199
performance	-13.2199
NMP	-13.2209
nig	-13.2212
)+].	-13.2213
▁raising	-13.2213
▁Wavelength	-13.2213
tetrahydrothieno	-13.2213
oc	-13.2215
thiochroman	-13.2217
hydrazone	-13.2227
int	-13.2227
triazatricyclo	-13.2232
▁majority	-13.2232
▁powders	-13.2232
▁deliver	-13.2239
fluoropyrimidine	-13.2243
▁methylhydrazine	-13.2245
chol	-13.2245
isopentyl	-13.2246
silyloxy	-13.2247
uridine	-13.2251
▁Parts	-13.2262
methylimidazol	-13.2266
oxazolidinyl	-13.2268
bora	-13.227
MALDI	-13.2276
norbornene	-13.2276
chromatographed	-13.2277
erythro	-13.2277
▁index	-13.2279
quinuclidine	-13.228
▁PCl	-13.2287
benzylsulfanyl	-13.2288
▁OCB	-13.2288
▁decolorizing	-13.2294
octanoyl	-13.2295
▁precooled	-13.2296
conditions	-13.2301
sulfone	-13.2301
thiocarbamoyl	-13.2303
tetralin	-13.2303
▁source	-13.2303
▁KCN	-13.2304
▁overlapping	-13.2304
▁turns	-13.2313
▁achieve	-13.2313
ize	-13.2315
pr	-13.2324
butylcarbamoyl	-13.2325
▁Tokyo	-13.2328
▁recrystallizing	-13.2331
pentanamido	-13.2337
sulfenyl	-13.234
argon	-13.2351
neutral	-13.2353
Benzyloxycarbon	-13.2353
sulfamide	-13.2358
▁Piperidine	-13.2369
orbax	-13.2376
▁ordinar	-13.2377
bromopropoxy	-13.2377
dimethylphenol	-13.2383
type	-13.2384
▁separates	-13.2384
salicylate	-13.2385
▁USA	-13.2386
formylamino	-13.2386
bo	-13.2388
▁OC	-13.239
oranylidene	-13.239
▁Methanesulfonic	-13.2391
methoxypropan	-13.24
tetraene	-13.24
▁PhCH	-13.2401
bromopyrimidin	-13.2404
ci	-13.2405
products	-13.241
synthesized	-13.2413
benzothiazepin	-13.2414
Bridge	-13.2422
BrO	-13.2425
dine	-13.2427
▁(+)-(	-13.2429
DIEA	-13.2433
▁though	-13.2442
Isomer	-13.2443
▁THP	-13.245
▁metallic	-13.2451
▁phosphonate	-13.2453
toluidine	-13.2459
dibromobutane	-13.2462
ethanolamine	-13.2462
▁Louis	-13.2468
▁granular	-13.2468
pteridin	-13.247
NHCH	-13.2474
pentylcyclohexyl	-13.2476
▁DM	-13.2482
valeric	-13.2495
normal	-13.2502
ole	-13.2503
▁doublet	-13.2504
morph	-13.2506
oxocyclohexyl	-13.2512
▁cerium	-13.2514
▁selenium	-13.2514
Sil	-13.2517
cyanamide	-13.2521
Hept	-13.2524
ay	-13.253
yloxytris	-13.2531
']	-13.2545
Select	-13.2546
sulfur	-13.2548
▁coarse	-13.2551
▁thiomethoxide	-13.2551
▁tributyltin	-13.2553
iden	-13.2554
acetamidine	-13.2561
methionine	-13.257
TB	-13.2571
butanal	-13.2571
quinolone	-13.2576
▁Iso	-13.258
▁fifteen	-13.2588
bromobenzo	-13.2589
▁dibutyl	-13.2599
▁Amberlyst	-13.2604
Cpd	-13.2608
-[((	-13.2613
▁VII	-13.2616
activated	-13.2622
hydroxybenzoyl	-13.2631
disulfide	-13.2633
ry	-13.2641
hexanamide	-13.2651
butyrylamino	-13.2658
ethoxymethylene	-13.2661
phosphoramide	-13.2665
]+),	-13.2665
▁obscured	-13.2665
▁IPE	-13.2665
butylthio	-13.2666
DSC	-13.2668
methylthiophenyl	-13.2681
imidazolidinone	-13.2686
ethylpiperazin	-13.2687
triacetoxy	-13.2689
particle	-13.2692
iodoaniline	-13.2699
ea	-13.2701
anthranilic	-13.2701
▁EDAC	-13.2711
]}	-13.2711
▁citrate	-13.2712
fluoroimidazo	-13.2713
▁enriched	-13.2719
Chiralpak	-13.2723
▁Ester	-13.273
▁ABq	-13.273
SiH	-13.2734
fluoropiperidine	-13.2738
butynyl	-13.2744
▁perchlori	-13.2745
+]+=	-13.2748
pyr	-13.2753
▁Da	-13.2773
COCH	-13.2774
propylphenyl	-13.2791
dienyl	-13.2792
▁Platform	-13.2796
cinnoline	-13.2798
ue	-13.28
cyclohexylidene	-13.2801
▁dithionite	-13.2805
▁evacuation	-13.2815
▁biotage	-13.2816
▁TMSCl	-13.2816
▁lit	-13.2823
Volume	-13.2825
evant	-13.2825
CCH	-13.2828
▁violet	-13.2836
▁introducing	-13.2842
recrystallized	-13.2845
thioureido	-13.2848
flu	-13.2858
sulfamic	-13.2863
▁Gold	-13.2863
ton	-13.2868
aminobutyl	-13.2869
▁KHCO	-13.2871
fluorobenzyloxy	-13.2879
▁structural	-13.2882
isophthalic	-13.2887
'(	-13.2888
▁Morpholine	-13.2889
▁methyltriphenyl	-13.289
▁copious	-13.2891
▁lead	-13.2893
▁Cyclo	-13.2897
tro	-13.2898
leucyl	-13.2901
phenylpiperazine	-13.2904
phthalide	-13.2906
▁RuCl	-13.2909
▁NaIO	-13.2909
▁aside	-13.291
▁Extracted	-13.2912
▁spin	-13.2918
MeTHF	-13.2919
ascorb	-13.2919
COO	-13.2922
cyclohexenyl	-13.2925
▁Scientific	-13.293
▁laboratory	-13.293
▁phenylmethyl	-13.2931
CHOH	-13.2932
imidazolin	-13.2939
cod	-13.294
▁returning	-13.2951
▁subtitled	-13.2955
cytidine	-13.2955
▁attain	-13.2958
thymidine	-13.2959
terephthalic	-13.296
propanediamine	-13.296
Carbonyldi	-13.2962
Chem	-13.2965
sulf	-13.2969
decomposed	-13.2969
cytosine	-13.2969
estr	-13.2971
▁methylester	-13.2976
valerate	-13.2981
leading	-13.2985
camptothecin	-13.2988
▁pentahydrate	-13.2988
trimethylstannyl	-13.2989
▁dibutyltin	-13.2989
Trimethyl	-13.2991
▁Reagent	-13.3005
▁led	-13.3006
▁malononitrile	-13.3006
lu	-13.3009
UPLC	-13.3011
Nitrophenyl	-13.3011
cinnolin	-13.3015
methylfuran	-13.3024
▁Distilled	-13.3027
diethylether	-13.3031
starting	-13.3031
ni	-13.3041
diborane	-13.3041
nitrotoluene	-13.3048
phenylethylamine	-13.3049
borono	-13.3057
mesityl	-13.3062
deoxo	-13.3062
oxoacetyl	-13.3066
▁support	-13.3066
our	-13.3069
▁Standard	-13.3076
▁flushing	-13.3077
glycidyl	-13.3079
Dicyclohexyl	-13.308
pivaloyl	-13.3084
butanediol	-13.3086
▁named	-13.3094
dithiol	-13.3095
▁agitating	-13.3096
ef	-13.3096
▁gradual	-13.3105
▁bound	-13.3106
eferential	-13.3115
▁decreased	-13.3117
brd	-13.3123
isocyano	-13.3128
▁mainly	-13.3129
pyrimidinedione	-13.313
position	-13.3139
Bromosuccinimide	-13.314
oxid	-13.3144
▁constituents	-13.3146
▁cyclohexylamine	-13.3147
pyridinone	-13.3149
▁activity	-13.3152
▁solvate	-13.3155
thiocarbonyl	-13.3155
penicillanate	-13.3157
▁Pharm	-13.3158
methylammonium	-13.3165
-[{	-13.3166
dicarbonitrile	-13.3169
SiMe	-13.3171
aRS	-13.3183
thiepin	-13.3184
In	-13.3188
Co	-13.319
Pet	-13.3191
po	-13.3197
▁beta	-13.3198
▁boronate	-13.3201
phenylpropionic	-13.3202
dimethylpropane	-13.3213
▁supplied	-13.3216
▁HMPA	-13.3219
′′-(	-13.322
(+):	-13.323
cyclic	-13.323
▁mild	-13.3233
Isco	-13.3243
▁k	-13.3245
CA	-13.3248
boron	-13.3253
onate	-13.3253
▁LHMDS	-13.3255
▁PSI	-13.3256
rn	-13.3262
log	-13.3264
na	-13.3264
naphthylmethyl	-13.3266
▁Initiator	-13.3272
▁amination	-13.3274
▁AUC	-13.3274
rate	-13.3283
▁primary	-13.3284
▁stripping	-13.3284
▁oC	-13.3292
nmr	-13.3294
androstan	-13.33
amphorsulfonic	-13.3302
▁specific	-13.3302
imidazoline	-13.3312
tryptophan	-13.3314
naphthoate	-13.3315
res	-13.3316
▁inch	-13.3319
▁indicating	-13.3324
naphthoquinone	-13.3325
quinone	-13.3325
phenothiazine	-13.3329
methylcarbapen	-13.3329
IP	-13.3335
CONH	-13.3338
▁sealable	-13.3341
methylanilino	-13.3343
phenoxybenzyl	-13.3345
▁Proton	-13.3354
OP	-13.3361
▁metabisulfite	-13.3364
cyclohexanedione	-13.3366
bromobenzoyl	-13.3374
▁See	-13.3379
vinyloxy	-13.3385
▁RF	-13.3385
▁kieselguhr	-13.3385
▁decolorized	-13.3388
phthalate	-13.3388
oxiranyl	-13.3394
esired	-13.3394
El	-13.3394
flow	-13.3397
determined	-13.3398
molar	-13.3399
▁cone	-13.3402
ethy	-13.3402
+−	-13.3403
bt	-13.3405
mandeli	-13.341
anti	-13.3412
enecarboxylate	-13.3414
Fluka	-13.3415
▁decanting	-13.3415
▁chloroacetate	-13.3426
▁IA	-13.3427
pentenyl	-13.3441
dimethanol	-13.3443
▁titration	-13.3445
▁oxidized	-13.3448
▁penta	-13.3448
esidual	-13.3454
Trichloro	-13.3455
hexadecahydro	-13.3455
▁discontinued	-13.3456
until	-13.3459
▁SPD	-13.3459
▁Electrospray	-13.346
gram	-13.3461
▁Industry	-13.3466
sep	-13.3467
chloroethane	-13.3469
▁CHCH	-13.3472
cyclopropan	-13.3474
COCl	-13.3477
benzothiazepine	-13.3481
enal	-13.3483
▁US	-13.3484
▁application	-13.3486
▁Its	-13.3489
PI	-13.3494
carbox	-13.3494
si	-13.35
▁methylamide	-13.3503
▁Mw	-13.3508
▁Imidazole	-13.3508
▁holding	-13.351
dispiro	-13.351
▁house	-13.3511
▁solubility	-13.3517
carbapen	-13.3518
itric	-13.3527
▁Isopropanol	-13.3528
▁anhydrate	-13.3535
pi	-13.3537
▁clarified	-13.3537
▁exch	-13.3537
▁running	-13.354
▁stereochemistry	-13.3548
▁incorporated	-13.3548
▁surface	-13.3551
thi	-13.3552
Butyldimethylsil	-13.3555
androstane	-13.3558
bromothiazole	-13.3558
▁Cold	-13.3559
▁TMEDA	-13.3566
ang	-13.357
▁comprised	-13.3571
▁moiety	-13.3578
▁controller	-13.3579
fer	-13.3583
din	-13.3587
▁MALDI	-13.3589
ified	-13.3591
cycl	-13.3592
▁COCH	-13.3599
▁moderate	-13.3599
▁Milwaukee	-13.3599
▁therefore	-13.3599
▁Sephadex	-13.3605
methylspiro	-13.3606
crotonate	-13.3614
▁Cis	-13.3616
purged	-13.3616
imido	-13.362
hexene	-13.3621
less	-13.3629
propyne	-13.363
▁stopper	-13.363
▁thiophosgene	-13.363
▁cyclo	-13.3631
Pos	-13.3632
BBN	-13.3633
carbobenzyloxy	-13.3633
methylmorpholino	-13.3634
Rh	-13.3636
diethylphosphono	-13.3637
PT	-13.3642
Teledyne	-13.3645
tetrazolo	-13.3649
▁development	-13.3655
butyltin	-13.3657
Aza	-13.3664
phenylpyridine	-13.3667
[[(	-13.3669
pseudo	-13.3672
▁occurs	-13.3673
▁dram	-13.3675
▁AA	-13.3675
▁meso	-13.3683
triiodo	-13.3686
▁week	-13.3688
▁termination	-13.3692
cu	-13.3693
▁reaching	-13.3695
CV	-13.3697
sulfanylidene	-13.3703
▁reprecipitated	-13.3703
epoxypropane	-13.3705
▁Present	-13.3708
▁Enantiomer	-13.3711
▁rises	-13.3712
▁milligrams	-13.3716
▁Five	-13.3725
furanone	-13.3726
nitropyrimidine	-13.3728
▁silane	-13.3732
▁dibromide	-13.3737
anyl	-13.3742
▁samples	-13.3742
fluoropropyl	-13.3746
▁protecting	-13.3753
▁Detection	-13.3755
▁broken	-13.3755
ge	-13.3757
Neat	-13.3757
phenylethanol	-13.3761
methylenebis	-13.3766
▁stepwise	-13.3768
glutaric	-13.3769
▁methyllithium	-13.3771
exothermic	-13.3771
pentanenitrile	-13.3777
Eluent	-13.378
(((	-13.3786
▁Iodine	-13.3787
tetrahydroborate	-13.379
▁alkyne	-13.3791
▁Isolated	-13.3791
anisoyl	-13.3797
silanyl	-13.3802
▁OTHERLANGUAGE	-13.3808
▁digested	-13.3808
▁repurified	-13.3809
Tetra	-13.381
ethylsulfinamido	-13.3823
flask	-13.3825
▁bromobenzene	-13.3835
▁sulphide	-13.3837
▁glovebox	-13.3839
au	-13.3841
methylpropanoyl	-13.3842
mmole	-13.3843
▁receiver	-13.385
brom	-13.3852
dimethoxybenzoyl	-13.3858
Tert	-13.3859
▁Collected	-13.3861
hexaene	-13.3864
nitropyrimidin	-13.3865
Cond	-13.3873
▁syrupy	-13.3874
hy	-13.3877
▁NIS	-13.3882
fl	-13.3887
decyloxy	-13.3888
▁quartet	-13.3889
sed	-13.3889
▁estimated	-13.3903
▁CHIRALPAK	-13.3904
▁production	-13.3905
▁Cpd	-13.3908
propylphenoxy	-13.3912
Cys	-13.3918
morphinan	-13.3923
▁modification	-13.3924
Solvent	-13.3928
hexamethyl	-13.3934
▁modified	-13.3935
▁zirconium	-13.3944
▁spectroscopic	-13.3946
Toluene	-13.3952
dimethylbutanoyl	-13.3952
propenone	-13.3953
methylindol	-13.3959
formylphenoxy	-13.3964
OsO	-13.3964
dimethylcyclohex	-13.3972
POS	-13.3974
chrom	-13.3976
pen	-13.3981
▁GLC	-13.3982
▁AG	-13.3983
dihydrofuro	-13.3991
phenylglycine	-13.3996
diethylaniline	-13.3997
terephthalate	-13.4
moles	-13.4002
dihydrotetrazol	-13.4006
Morpholin	-13.4015
▁height	-13.4017
▁tightly	-13.4021
Acetylamino	-13.4025
▁Evaporate	-13.4027
▁sit	-13.4029
▁boric	-13.403
▁supply	-13.403
demineralized	-13.4032
▁Racemic	-13.4032
▁crashed	-13.4032
ear	-13.4032
iodoimidazo	-13.405
▁CaCl	-13.4052
▁vaccum	-13.4053
acetohydrazide	-13.4053
chloropyridazin	-13.4056
▁obs	-13.4058
▁destroy	-13.4064
methanaminium	-13.4067
CHO	-13.4068
propylammonium	-13.4077
NB	-13.408
fu	-13.4085
MgBr	-13.4089
propanamine	-13.409
▁Sulfuri	-13.4091
BuONa	-13.4095
See	-13.4101
LRMS	-13.4102
cc	-13.4103
phenyloxy	-13.4106
nitroquinolin	-13.4109
▁EP	-13.4109
carbamoylmethyl	-13.4116
histidine	-13.4118
▁Mn	-13.412
dioxy	-13.412
thyl	-13.412
peroxy	-13.4125
Diethyl	-13.4129
▁cyclopentanone	-13.4131
poly	-13.4138
▁anhy	-13.414
▁preferably	-13.4143
▁Ten	-13.4152
thioacetic	-13.4154
EDCI	-13.4154
cyclopentenone	-13.4158
xanthine	-13.4159
glutamate	-13.4162
Ethynyl	-13.4173
Calcd	-13.419
cinnamoyl	-13.4192
▁bars	-13.4193
▁DABCO	-13.4197
▁alkene	-13.4205
azatricyclo	-13.4206
▁Four	-13.4206
▁significant	-13.4208
naphthoyl	-13.4212
▁faint	-13.4217
▁KHMDS	-13.4217
-(−)-	-13.4219
Nitrobenzyl	-13.4221
▁JHF	-13.4225
pyridinylmethyl	-13.4227
dihydropyrano	-13.4235
OCF	-13.4242
'-[(	-13.4244
isophthalate	-13.4246
pyrimidone	-13.4254
lactic	-13.426
▁oligomer	-13.4261
TO	-13.4263
ave	-13.4268
▁steady	-13.4272
oxocyclohexane	-13.4279
thiadiazolidin	-13.4281
▁common	-13.4286
chlorothiophen	-13.429
JC	-13.429
▁avoid	-13.4294
▁radiation	-13.4294
▁Xterra	-13.4294
naphthaldehyde	-13.4294
phenylpyridin	-13.4297
hiosemicarbazide	-13.4299
▁Aluminum	-13.4305
propenyloxy	-13.4305
▁Since	-13.4305
▁Chromatograph	-13.4309
ind	-13.4311
▁dichromate	-13.4316
▁identity	-13.4316
▁spots	-13.432
glyoxylate	-13.4321
dihydropyrimido	-13.4323
hydroxypyridin	-13.433
methan	-13.4338
benzodiazol	-13.4347
carbobenzoxy	-13.4349
Cq	-13.435
difluoroacetic	-13.436
dimethylbutyl	-13.4371
butylether	-13.4372
fluorosulfonyl	-13.4374
tricyclohexyl	-13.4379
▁CDC	-13.438
▁transformation	-13.4383
▁atom	-13.4386
AM	-13.439
oxepine	-13.4392
▁Mono	-13.4393
▁XantPhos	-13.4394
colorless	-13.4396
oxolan	-13.4397
▁Conc	-13.4398
{[(	-13.4404
▁SCH	-13.441
▁Volatile	-13.4413
▁phenylmagnesium	-13.4415
▁should	-13.4415
▁Start	-13.4416
▁aforementioned	-13.4416
▁Also	-13.4418
valeryl	-13.4419
▁path	-13.442
oxopentan	-13.4424
acrylamido	-13.4428
COD	-13.443
▁copolymer	-13.4433
▁confirm	-13.4435
formamidine	-13.4437
ortho	-13.4438
▁Reflux	-13.4438
xy	-13.4441
difluorobenzoic	-13.4444
▁blowing	-13.445
Indol	-13.4454
▁Cy	-13.4461
Fuji	-13.4461
nujol	-13.4461
fur	-13.4465
No	-13.4466
bromobenzoic	-13.4466
positive	-13.4468
▁deaerated	-13.4473
IB	-13.4473
▁dropwisely	-13.4475
meter	-13.4481
Gln	-13.4484
▁Reverse	-13.4488
▁COMPOUND	-13.4489
▁lactam	-13.449
▁much	-13.45
piperidinium	-13.451
methylpropoxy	-13.451
methylpentyl	-13.4517
▁halide	-13.452
oxopentanoic	-13.4521
treated	-13.4523
▁coated	-13.4527
cyclohexa	-13.4527
aspartyl	-13.4529
ithout	-13.4529
butylmethylether	-13.4534
▁Description	-13.4535
▁CONH	-13.454
▁sulfolane	-13.454
pyro	-13.4545
butylester	-13.4548
phenylimino	-13.4548
▁FABMS	-13.4549
pentaen	-13.4556
benzhydryloxy	-13.4562
oxopentyl	-13.4562
▁Point	-13.4563
▁chain	-13.4564
dibromobenzene	-13.4567
neg	-13.4568
benzylsulfonyl	-13.4571
ap	-13.4571
▁combination	-13.4574
octene	-13.458
▁cleavage	-13.4586
▁cannulated	-13.4586
IT	-13.4588
dimethylbutan	-13.4593
butylamide	-13.4594
▁succinimide	-13.4594
▁OJ	-13.4597
diphenylsilane	-13.46
cyclopentylamine	-13.4602
isoindolinone	-13.4607
cyanoacetate	-13.461
XIV	-13.4618
ST	-13.462
XIII	-13.4628
DELT	-13.4632
ethano	-13.4645
▁Benzoyl	-13.4646
tetracarboxylic	-13.4649
▁ex	-13.4652
pivalamide	-13.4655
BE	-13.4656
Phenoxy	-13.466
▁stationary	-13.467
▁derived	-13.467
ionized	-13.4686
overlapping	-13.4688
ia	-13.4689
anol	-13.4697
Mobile	-13.47
bound	-13.4701
ethylammonium	-13.4707
▁separable	-13.4708
rot	-13.4709
hydroxyazetidine	-13.471
▁aging	-13.4712
▁find	-13.4717
▁silicon	-13.472
▁Analogously	-13.4724
▁reductive	-13.4724
diamide	-13.4737
side	-13.474
▁liberated	-13.4741
ari	-13.4742
▁sinter	-13.4749
butylphosphonium	-13.4749
cyclobutylmethyl	-13.475
DB	-13.4754
triethyl	-13.4755
▁showing	-13.4759
▁neutrality	-13.4759
black	-13.4762
▁hundred	-13.4773
▁Cap	-13.4774
trimethoxybenzyl	-13.4776
hydroquinone	-13.4778
ratio	-13.4778
octanol	-13.4779
▁formamidine	-13.4781
glucitol	-13.4781
▁DE	-13.4785
▁ABX	-13.479
hydroxybenzene	-13.4791
chloroacetamide	-13.4793
▁Again	-13.4793
Toluenesulfonic	-13.4794
bromopropionate	-13.4797
▁inhibitor	-13.4798
oxybispropane	-13.4805
ain	-13.4807
racemic	-13.4812
APCl	-13.4812
▁couple	-13.4813
ethanediyl	-13.4815
difluorophenol	-13.4816
▁pieces	-13.4816
acetoxyethyl	-13.4824
inter	-13.4827
▁immediate	-13.4828
high	-13.483
thiomorpholin	-13.4832
carbamyl	-13.4833
▁Similarly	-13.484
▁filtercake	-13.484
dioxidothio	-13.4845
octahydropyrrolo	-13.4851
▁hplc	-13.4851
Trimethylsilyl	-13.4854
▁derivatives	-13.4858
▁authentic	-13.4863
ELSD	-13.4863
inate	-13.4866
▁th	-13.4868
▁monoethyl	-13.4872
▁fast	-13.4874
▁glycidyl	-13.4875
anyloxy	-13.4875
Fe	-13.4883
Difluorophenyl	-13.4888
▁solved	-13.4888
su	-13.4896
▁analog	-13.4896
▁Ba	-13.49
dihydrodibenzo	-13.4903
▁Commercially	-13.491
CHLOROFORM	-13.4912
▁tank	-13.4913
▁EM	-13.4918
▁trityl	-13.4919
butenoate	-13.4927
▁tar	-13.493
benzothiazolyl	-13.4931
oxalyl	-13.4932
▁situ	-13.4934
hydr	-13.4934
gassed	-13.4935
BrClN	-13.4937
benzylpiperidine	-13.4941
▁VIII	-13.4943
ethoxyethoxy	-13.4945
methylpropionate	-13.4945
ish	-13.4947
▁pipe	-13.4947
ove	-13.4948
triamine	-13.4951
methyloxetan	-13.4953
▁raise	-13.4954
benzothien	-13.4955
cyanobiphenyl	-13.4955
benzoylchloride	-13.4956
pyrimidinamine	-13.4958
dodecan	-13.4961
fluoran	-13.4972
arom	-13.4979
aminobenzoyl	-13.4979
▁succinate	-13.4985
dihydroisoxazole	-13.4986
chlorothieno	-13.4986
▁pour	-13.4988
Diphenyl	-13.4989
▁prevent	-13.4993
dienoic	-13.4993
benzooxazol	-13.4993
methylpyridinium	-13.4995
thiazepine	-13.4995
phenylpropanoate	-13.4996
seleno	-13.4997
▁decreasing	-13.5005
▁persisted	-13.5005
conazole	-13.5005
▁quantities	-13.5005
gen	-13.5009
nol	-13.5013
dmso	-13.5013
▁ceases	-13.5017
ix	-13.5025
propynyloxy	-13.5025
copper	-13.5027
▁dryer	-13.5031
ification	-13.5031
▁TBSCl	-13.5035
low	-13.5035
▁eliminate	-13.5038
Wako	-13.5039
der	-13.5042
hexamethylene	-13.5043
benzothiazine	-13.5046
▁NaOEt	-13.5047
chlorobutane	-13.5049
tetramethylene	-13.5049
phenylpyrazolo	-13.505
pin	-13.5051
aze	-13.5052
▁Isobutyl	-13.5053
pyrene	-13.5054
▁Japan	-13.5059
XI	-13.5062
alk	-13.5064
▁seal	-13.5064
▁Wis	-13.5066
butylidene	-13.507
ethyleneglycol	-13.5071
Azetidin	-13.5076
isonicotinoyl	-13.5077
Car	-13.508
mercaptan	-13.5081
▁Chiralcel	-13.5083
Burgess	-13.5088
OSi	-13.509
Prop	-13.5096
▁Tf	-13.5099
▁permitted	-13.51
▁Cat	-13.5102
isothiazolo	-13.5103
diisopropoxy	-13.5108
▁isobutyryl	-13.5108
▁polyethylene	-13.5109
▁MCPBA	-13.5112
▁saturation	-13.5112
dichlorosilane	-13.5113
formylbenzoate	-13.5115
▁reache	-13.512
Thio	-13.5131
Bi	-13.5133
▁centrifuge	-13.5134
tetradeca	-13.5134
sulfinate	-13.5136
nic	-13.5136
butanenitrile	-13.5137
area	-13.5138
+]=	-13.5138
dimethoxyaniline	-13.5141
oxopiperazine	-13.5142
cap	-13.5142
▁Conversion	-13.5143
▁alkalized	-13.5148
▁Hyflo	-13.5154
platinum	-13.5155
EV	-13.5156
▁phosphor	-13.5169
▁triacetate	-13.5171
▁SEM	-13.5171
▁Tin	-13.5175
cyclohexylphenyl	-13.5176
way	-13.5182
methylthiophen	-13.5184
iodobenzyl	-13.5188
JCF	-13.5193
▁iridium	-13.5197
ber	-13.5204
analytical	-13.5207
▁teflon	-13.5221
phenylbut	-13.5226
▁isocyanide	-13.523
▁flowing	-13.5233
▁drawn	-13.5233
▁earlier	-13.5233
Nuclear	-13.5233
▁hydrosulfite	-13.5233
cin	-13.5234
chlorothiophene	-13.5241
ger	-13.5243
chlorobiphenyl	-13.5244
hrs	-13.5245
sel	-13.525
acetylchloride	-13.5256
cymene	-13.5257
▁cyclized	-13.5257
▁facilitate	-13.5257
▁lyophilised	-13.5257
acetylpiperazin	-13.5261
ethynylphenyl	-13.5262
semicarbazide	-13.5264
▁TR	-13.5272
tribromo	-13.5272
▁soon	-13.5279
▁Precipitate	-13.5279
pentanal	-13.5279
so	-13.5279
registered	-13.5282
ser	-13.5292
TE	-13.5294
▁Salt	-13.5294
loaded	-13.5298
▁typical	-13.5309
solve	-13.5312
cyan	-13.5317
circumflex	-13.5319
Mn	-13.5321
▁trifluor	-13.533
▁fractionally	-13.5333
do	-13.5334
con	-13.5339
▁OMe	-13.534
▁visible	-13.534
collidine	-13.5343
pine	-13.5345
sulfane	-13.5354
propylphosphonic	-13.5354
▁Steps	-13.5354
▁multiple	-13.5355
prolinamide	-13.5356
▁Workup	-13.5356
piperidinol	-13.5359
Pt	-13.5364
▁silicate	-13.5367
▁DIC	-13.5368
hafnium	-13.5368
▁recrystalized	-13.5368
developer	-13.5368
carba	-13.5372
▁chlorosulfonyl	-13.5372
▁Liquid	-13.5373
Diazabicyclo	-13.5378
▁Activated	-13.538
DM	-13.5381
cro	-13.5382
CDCL	-13.5387
▁Suzuki	-13.5389
▁take	-13.539
▁AcCN	-13.5396
anil	-13.5397
▁propionyl	-13.5399
aminopyrimidine	-13.5401
BP	-13.5402
octadecyloxy	-13.5404
hexenyl	-13.541
▁NiCl	-13.5412
▁hydrous	-13.5417
tricarboxylate	-13.5419
▁TEMPO	-13.5423
not	-13.5424
Benz	-13.5431
out	-13.5431
ClO	-13.5433
HOAc	-13.5435
▁FeCl	-13.5437
hydroxybenzo	-13.5437
▁gun	-13.5437
PCy	-13.5439
▁stiffing	-13.5442
▁stoppered	-13.5442
concentration	-13.5444
pyrimidyl	-13.5451
lin	-13.5456
yloxyethyl	-13.5466
cyclosporin	-13.5468
sulphanyl	-13.5472
▁configuration	-13.5473
ami	-13.5476
cf	-13.5478
HPO	-13.5481
▁SA	-13.5487
▁TBS	-13.5489
▁apply	-13.5492
▁Pre	-13.5502
▁show	-13.5503
cephalosporani	-13.5504
▁replacement	-13.5504
methylpyrazine	-13.5506
▁orthoacetate	-13.5508
dimethylethane	-13.5508
''-	-13.5516
aminocyclohexane	-13.5517
▁diminished	-13.5517
bridge	-13.5517
▁Pour	-13.5517
▁CIS	-13.5525
SMe	-13.5528
▁pellet	-13.5529
▁came	-13.5531
dimethylbut	-13.5532
▁carbazate	-13.5533
▁cyclohexene	-13.5535
chiral	-13.5537
XV	-13.5541
▁interest	-13.5542
▁exhibited	-13.5542
dicarbamate	-13.5543
propylsulfonyl	-13.5545
yi	-13.5548
Gilson	-13.555
tetrahydrospiro	-13.5551
chem	-13.5556
▁mPEG	-13.5559
acyl	-13.556
PB	-13.5562
thioacetamide	-13.5563
)−;	-13.5563
fill	-13.5563
formamidothiazol	-13.5566
DCE	-13.5566
▁TFAA	-13.5573
phenylpyrrolidin	-13.5576
▁hemi	-13.5578
pentadeca	-13.5578
Glacial	-13.5579
▁gauge	-13.5581
▁PhMe	-13.5582
▁methylated	-13.5583
dion	-13.5583
butoxyphenyl	-13.5587
▁des	-13.5589
triethylsilyloxy	-13.559
phenylsulphonyl	-13.5591
▁bromoacetyl	-13.5592
bromobutyrate	-13.5592
acidic	-13.5592
▁Light	-13.5593
]−=	-13.5594
methoxyethane	-13.5599
peptide	-13.5603
thiolate	-13.5604
▁Titanium	-13.5605
glucopyranose	-13.5606
▁thionylchloride	-13.561
walled	-13.5618
INT	-13.5621
phenylimidazo	-13.5625
▁opaque	-13.563
fa	-13.5639
▁Shield	-13.5643
BrFN	-13.5645
mult	-13.565
difluoroethoxy	-13.5652
reverse	-13.5659
amycin	-13.566
▁Dur	-13.5663
pyrimid	-13.5668
▁hemihydrate	-13.5668
▁extractive	-13.5683
INTERMEDIATE	-13.5686
exchanged	-13.5689
▁triturating	-13.5693
▁takes	-13.5695
biphen	-13.5697
▁pp	-13.5701
AC	-13.5705
ised	-13.5706
ylamide	-13.5707
cyclopentan	-13.5713
sol	-13.5714
▁diffraction	-13.5719
alkylated	-13.572
PN	-13.5721
dioate	-13.5722
▁disclosed	-13.5723
FO	-13.5724
part	-13.5725
COOCH	-13.5727
▁CSH	-13.573
oside	-13.5731
piperidinomethyl	-13.5732
▁acetophenone	-13.5736
▁EDTA	-13.5742
▁combining	-13.5744
▁PAL	-13.5752
amid	-13.5753
▁Fluka	-13.5758
sila	-13.5763
ich	-13.5765
▁Amine	-13.5767
▁parallel	-13.577
▁vaccuo	-13.577
trichlorosilane	-13.5772
▁monochloride	-13.5773
▁eqv	-13.5773
quinol	-13.5774
▁AT	-13.5776
▁sampled	-13.5776
cyclobut	-13.5779
HOBT	-13.5782
FLASH	-13.5783
Blocks	-13.5783
arginine	-13.5783
Pyrrolidin	-13.5788
dodec	-13.5789
▁Synergi	-13.579
▁EtAc	-13.579
benzodioxine	-13.5794
▁sublimed	-13.5796
mide	-13.5801
pyridinamine	-13.5802
lan	-13.5807
abs	-13.5807
▁dimethylsulfide	-13.5815
OBn	-13.5818
caution	-13.5822
▁ppt	-13.5822
enenitrile	-13.5827
AT	-13.5829
▁Hydrochloride	-13.5831
▁Analogix	-13.5832
tolylsulfonyl	-13.5833
▁chromatogram	-13.5835
vinylphenyl	-13.5837
iodophenol	-13.584
▁Temp	-13.5847
oxoquinazolin	-13.5855
ethylimino	-13.5861
▁phenylhydrazine	-13.5864
phenylprop	-13.5873
▁Crystallisation	-13.5873
octenyl	-13.5875
cr	-13.5875
▁resorcinol	-13.5891
synthesis	-13.5893
benzisothiazol	-13.5897
trimethylammoniu	-13.5898
▁refrigerated	-13.5899
bromoquinoline	-13.5899
▁PEG	-13.59
▁ir	-13.5904
anthracen	-13.591
▁sand	-13.5912
▁behind	-13.5912
▁exposed	-13.5912
▁Mel	-13.5919
dimethoxysilane	-13.5922
picolyl	-13.5922
▁consists	-13.5923
Carbamoyl	-13.5925
▁retained	-13.5925
bar	-13.5926
arm	-13.5927
CHF	-13.5928
▁ML	-13.593
methylnaphthalen	-13.593
diphenylamino	-13.593
dimethylimidazo	-13.5931
yp	-13.5932
room	-13.5932
AL	-13.5937
aminobenzene	-13.5937
▁weakly	-13.5938
sorb	-13.5939
glycolic	-13.5944
vis	-13.5949
▁Soxhlet	-13.5951
methylurea	-13.5953
SiCH	-13.5958
qt	-13.5959
mix	-13.5961
trideuterio	-13.5965
▁EE	-13.5965
MT	-13.5967
▁position	-13.5968
▁substitution	-13.5973
thiomorpholino	-13.5977
▁typically	-13.5979
dinitrophenyl	-13.5981
nine	-13.5984
▁aromatics	-13.5986
▁Wt	-13.5989
▁appearance	-13.5991
▁Freshly	-13.5991
wetted	-13.5994
▁RuPhos	-13.5994
ff	-13.5995
diethylamine	-13.5995
benzoxazolyl	-13.5999
sic	-13.6
methoxyl	-13.6003
▁effluent	-13.6004
▁exhaustively	-13.6004
▁appears	-13.6004
diazocine	-13.6005
inium	-13.6007
crystal	-13.6009
▁Chloride	-13.601
methanobenzo	-13.6012
▁Agitation	-13.6017
qui	-13.6021
methylpyrrole	-13.6023
rin	-13.6023
are	-13.603
▁Redisep	-13.6031
+]:	-13.6032
diethylphenyl	-13.6039
perfluorophenyl	-13.6044
▁PHENOMENEX	-13.6044
diethoxyphenyl	-13.6046
Luna	-13.6047
▁microliters	-13.6049
acac	-13.6055
▁initiate	-13.6056
XX	-13.6064
▁additive	-13.6064
CMe	-13.6067
▁PL	-13.6069
▁equilibrated	-13.6069
▁Invention	-13.607
aminopyrimidin	-13.6076
siloxane	-13.6086
bromopyrimidine	-13.6086
▁tBuOH	-13.609
ethoxymethoxy	-13.6095
▁replace	-13.6096
▁patent	-13.6096
sextet	-13.6096
▁paragraph	-13.6096
oxoquinolin	-13.6104
▁glyoxal	-13.6108
Imidazol	-13.611
▁PBr	-13.6116
▁bromoacetic	-13.6118
trityloxy	-13.6119
▁SI	-13.6123
benzylalcohol	-13.6126
trop	-13.6128
methylbutane	-13.6142
glycol	-13.6144
▁Ra	-13.6144
dimethylpropan	-13.6148
▁incubated	-13.6149
tube	-13.6159
sulfuric	-13.6162
▁Bull	-13.6164
oxohexahydro	-13.6164
inyl	-13.6165
ell	-13.6167
he	-13.6168
▁freebase	-13.6171
▁different	-13.6171
hysical	-13.6175
methylthiomethyl	-13.6175
▁against	-13.6177
crystallizations	-13.6177
MA	-13.6181
▁dr	-13.6182
▁FIG	-13.6183
dienoate	-13.6183
tryptamine	-13.6189
carboxymethoxy	-13.6189
▁quaternary	-13.6196
▁foregoing	-13.6203
▁ionization	-13.6203
pentanedioate	-13.6203
tetr	-13.6206
Ti	-13.6207
ethylbenzyl	-13.6213
present	-13.6214
▁Deprotection	-13.6216
ylmethylamine	-13.6229
▁afterwards	-13.6233
▁BCl	-13.6235
ethanesulfonic	-13.6235
pentanedione	-13.6243
▁agreement	-13.6243
▁Hydrogenation	-13.6244
diethoxyethyl	-13.6244
▁([{	-13.6248
aminopyrrolidine	-13.6249
phenoxyacetamido	-13.6252
propion	-13.626
thiazoline	-13.6261
racemate	-13.6261
titled	-13.6261
▁thorough	-13.627
aminopropan	-13.6271
hydroxybenzamide	-13.6275
RuCl	-13.6277
▁bands	-13.6282
▁withdrawn	-13.6283
▁determine	-13.6284
methylsulfamoyl	-13.6284
bromobutyl	-13.6289
ethylhexanoate	-13.6293
ator	-13.6294
barbituric	-13.6297
▁cyclization	-13.6297
BO	-13.6298
▁Aesar	-13.63
isobutylphenyl	-13.6302
phenylbenzoate	-13.6306
ric	-13.6319
phthal	-13.6321
dihydronaphtho	-13.6321
pack	-13.6322
nitrobiphenyl	-13.6324
azine	-13.6327
▁crystallizing	-13.6328
phenoxyethyl	-13.6329
ethylpropyl	-13.6331
addition	-13.6332
▁CHO	-13.6333
acryloyloxy	-13.6337
▁GF	-13.6337
▁ninhydrin	-13.6338
▁hood	-13.6338
▁pentasulfide	-13.6338
omycin	-13.6342
carbamothioyl	-13.6351
nium	-13.6351
▁Working	-13.6352
pentenoate	-13.6354
▁corrected	-13.6358
methanethiol	-13.6364
hexen	-13.6366
▁inseparable	-13.6372
oro	-13.6374
▁Treat	-13.6379
glycinamide	-13.6379
▁partly	-13.6381
diphenylmethane	-13.6386
▁stereoisomers	-13.6388
▁Note	-13.6391
▁Vigreux	-13.6392
▁titrated	-13.6392
first	-13.6392
vinylpyridine	-13.6393
glucose	-13.6395
▁sparging	-13.6406
trimethylsiloxy	-13.6406
directed	-13.6406
dicyclopropyl	-13.6407
▁drive	-13.6416
unsaturated	-13.6424
methylureido	-13.6427
▁propiolate	-13.643
ethylmorpholine	-13.6432
pyruvic	-13.6433
lane	-13.6435
IE	-13.6437
tetraoxa	-13.6444
PCC	-13.6444
Hydroxyphenyl	-13.6446
epoxypropyl	-13.6446
ture	-13.6448
▁isobutylene	-13.6448
▁Ml	-13.6449
coated	-13.6451
Pent	-13.6452
resin	-13.6452
hepten	-13.6454
decanoyl	-13.6457
▁enzyme	-13.646
thiazepin	-13.6464
▁Per	-13.6465
NBS	-13.6466
azole	-13.6472
quinazolinyl	-13.6472
▁Letters	-13.6474
Benzotriazol	-13.6479
▁Obs	-13.6484
top	-13.6485
▁beads	-13.6488
▁Washing	-13.649
ethylpiperazine	-13.6495
dibromophenyl	-13.6498
sulphate	-13.6498
▁(%)=	-13.65
▁help	-13.6502
propanedioate	-13.6504
buta	-13.6504
ale	-13.6507
hydroxyamino	-13.6511
▁whereafter	-13.6516
led	-13.6519
ethoxypyridin	-13.6525
pyrrolidinium	-13.6525
▁Red	-13.6528
sulfamate	-13.6529
▁Elut	-13.653
cyclobutan	-13.653
epithiopropyl	-13.6537
tolyloxy	-13.6543
▁calcined	-13.6543
▁induce	-13.6544
▁storage	-13.6557
triethoxysilyl	-13.6557
oxopyrido	-13.6568
▁They	-13.6569
▁undesired	-13.6571
▁spontaneously	-13.6571
isobutyraldehyde	-13.6574
▁MeNH	-13.6579
pentylamino	-13.658
▁evidence	-13.6585
Cy	-13.6586
uench	-13.6586
tosylate	-13.6587
port	-13.6588
hydroxylammonium	-13.6603
resorcinol	-13.6608
▁EC	-13.661
▁GPC	-13.6614
▁spirit	-13.6615
▁Collect	-13.6619
catalyst	-13.663
propoxyphenyl	-13.663
▁Allow	-13.6639
▁monitor	-13.664
biotin	-13.6641
VP	-13.6649
hexahydropyrido	-13.6649
▁HV	-13.6651
tetrahydroxy	-13.6653
▁property	-13.6655
her	-13.666
octahydrobenzo	-13.6661
▁triamide	-13.6662
furfuryl	-13.6662
butenoic	-13.6664
sealable	-13.6674
diaminopropane	-13.6675
Mercapto	-13.6678
▁IX	-13.6681
▁Dimroth	-13.6683
▁CBr	-13.6688
▁moist	-13.6692
glass	-13.6693
▁ref	-13.6695
suming	-13.6695
▁settled	-13.6696
▁Technologies	-13.6697
thioxanthone	-13.6698
▁release	-13.6705
epicatechin	-13.6711
▁Process	-13.6711
▁Immediately	-13.6711
′-(((	-13.6716
▁Ultra	-13.6725
▁proceeding	-13.6727
Indole	-13.6728
▁propionaldehyde	-13.6729
octadec	-13.6729
tra	-13.6731
analysis	-13.6734
phenyloxazolidin	-13.6735
BD	-13.6735
OCOCH	-13.6736
▁benzyltrimethyl	-13.6739
▁equ	-13.6739
Methoxybenzyl	-13.6743
isopropylamine	-13.6745
methyloxiran	-13.6747
▁photo	-13.6752
▁Weight	-13.6754
tetraphenyl	-13.6759
fi	-13.676
▁Teledyne	-13.6761
bulb	-13.6764
pump	-13.6765
▁(+/−)	-13.6766
furoyl	-13.6766
▁sparge	-13.6769
dimethy	-13.6776
ver	-13.6777
dichlorophenol	-13.6779
ib	-13.6783
▁DMPU	-13.6787
tributylstannan	-13.6794
phenylbutan	-13.6794
▁shake	-13.6794
deoxyuridine	-13.6794
hydroxyhexyl	-13.6798
pentalene	-13.6798
dithiane	-13.6799
oline	-13.6803
▁injections	-13.6803
▁exp	-13.6804
glu	-13.6807
▁sulphonic	-13.6809
▁sixteen	-13.681
▁dianhydride	-13.6812
deutero	-13.6813
ribofuranose	-13.6814
▁wa	-13.6815
▁purchased	-13.6816
fluorophenethoxy	-13.6829
tridecyl	-13.683
Hypersil	-13.6839
Te	-13.6839
boro	-13.6841
▁la	-13.6842
▁esterification	-13.6846
dioxabicyclo	-13.6847
Benzhydryl	-13.6853
▁confirmation	-13.6853
▁Ethylene	-13.6855
▁phenylacetylene	-13.6862
)/(	-13.6872
▁begins	-13.6874
active	-13.6879
fluoroquinoline	-13.688
capped	-13.688
phenylbutane	-13.6881
▁transformed	-13.6882
methoxymethylene	-13.6891
▁kettle	-13.6896
▁heptahydrate	-13.6896
pyrone	-13.6897
▁{[(	-13.69
Combi	-13.69
triyl	-13.6903
▁SONICATE	-13.691
pyri	-13.6911
▁exceeding	-13.6912
▁selected	-13.6915
▁attained	-13.6926
cyanoacetamide	-13.6928
fluorophenethyl	-13.6929
xi	-13.6929
EE	-13.6931
▁Pyrrolidine	-13.6939
enecarboxylic	-13.6943
dichloroaniline	-13.6944
][(	-13.6949
▁NaCI	-13.6949
▁verified	-13.6954
piperid	-13.6956
XVI	-13.6957
aminocrotonate	-13.6961
▁PTSA	-13.6962
fraction	-13.6964
ers	-13.6977
Hydroxyethyl	-13.6978
acetylphenyl	-13.698
TES	-13.6984
▁cleaved	-13.6986
pale	-13.699
▁tip	-13.6993
▁PMB	-13.6995
▁cyanohydrin	-13.6997
▁inches	-13.6997
▁Poly	-13.7007
IC	-13.7009
isochromen	-13.701
iminodi	-13.701
▁suspending	-13.7012
iod	-13.7012
pyrazolyl	-13.7012
▁NMO	-13.7014
hydroxyacetate	-13.7018
theoretical	-13.7026
DMS	-13.7028
ano	-13.7037
olide	-13.7038
▁Cul	-13.7044
glycero	-13.7052
Methylmorpholine	-13.7055
▁faster	-13.7055
▁reconcentrated	-13.7057
methylnicotinate	-13.7058
aceton	-13.7062
dimethylglycine	-13.7067
▁advance	-13.707
lated	-13.7085
ess	-13.7087
har	-13.7088
enedioxyphenyl	-13.7096
pregnan	-13.7106
▁SF	-13.7109
formylpyridin	-13.7111
added	-13.7111
▁layered	-13.7118
phenoxyacetate	-13.7123
cel	-13.7126
Bz	-13.713
▁stereoisomer	-13.7141
rich	-13.7144
▁septa	-13.7145
▁dihydrobromide	-13.7145
▁vials	-13.7148
▁)}[	-13.7148
▁experimental	-13.7151
′′′-	-13.7156
▁hydantoin	-13.7157
▁Number	-13.7158
▁dipeptide	-13.7159
▁diimidazole	-13.7163
▁Methylmagnesium	-13.7165
▁long	-13.7168
▁route	-13.7173
indazoline	-13.7176
dichloropyrazine	-13.7178
▁PPTS	-13.7185
▁Cyclohexane	-13.7187
picolinaldehyde	-13.7187
anisaldehyde	-13.7187
Calc	-13.7189
dipyrido	-13.719
dithian	-13.7195
IO	-13.7195
phthaloyl	-13.7197
methylnicotinic	-13.7197
▁adsorption	-13.7202
hexahydroazepino	-13.7203
oo	-13.7211
quinolizin	-13.7214
Analytical	-13.7215
four	-13.7216
▁diacid	-13.7221
homopiperazine	-13.7221
▁Diastereomer	-13.7223
halo	-13.7226
phe	-13.723
methoxyphenethyl	-13.7231
▁current	-13.7232
▁Triphosgene	-13.7232
▁Bond	-13.7242
chlorothiazol	-13.7245
▁polypropylene	-13.7247
coming	-13.7247
ard	-13.7248
iPrOH	-13.7252
eno	-13.7253
▁DMAc	-13.7254
Aminoethyl	-13.7254
ner	-13.7256
▁vacuuo	-13.7261
▁Claisen	-13.7265
▁Methylamine	-13.7267
▁Gly	-13.7268
filter	-13.7269
ori	-13.727
Instrument	-13.7276
▁enamine	-13.7278
methylazetidin	-13.7278
Trans	-13.7279
phosph	-13.728
por	-13.7282
hydroxami	-13.7283
perfluoropropan	-13.7288
▁transition	-13.7292
Analogix	-13.7294
dodecyloxy	-13.7295
▁molecule	-13.7296
dtd	-13.7297
▁Meanwhile	-13.7306
▁assayed	-13.7307
hexaen	-13.7308
benzodiazole	-13.7309
tern	-13.731
▁utilized	-13.7321
gallon	-13.7321
CP	-13.7322
▁weak	-13.7325
▁preferred	-13.7327
alaninamide	-13.7336
▁seeding	-13.7337
MeO	-13.734
▁HCO	-13.7346
oxopiperazin	-13.7348
Pyridine	-13.7349
adipic	-13.7351
▁HOAT	-13.7351
▁Buffer	-13.7353
▁atmospheres	-13.7353
▁extractor	-13.7353
After	-13.7359
aminobiphenyl	-13.7365
▁initiator	-13.7366
dio	-13.737
▁proportion	-13.7371
meta	-13.7371
thaw	-13.7374
▁isotope	-13.7379
SP	-13.7382
pyridazino	-13.7388
▁firstly	-13.7389
▁TBDMS	-13.7389
▁Grubbs	-13.7399
Chloroethyl	-13.7401
phenylboric	-13.7404
Mg	-13.7406
pp	-13.7406
uenched	-13.7412
controlling	-13.7412
▁azeotroping	-13.7414
imidoyl	-13.7416
Iso	-13.7416
IF	-13.7417
▁Pet	-13.7425
▁established	-13.7426
▁Chim	-13.7428
ically	-13.743
▁roto	-13.7433
cyanocyclopropyl	-13.7433
tyr	-13.744
Max	-13.7447
▁RN	-13.7449
nicotinamido	-13.7452
ler	-13.7454
Synthesis	-13.7456
▁supercritical	-13.7459
butylcarbamate	-13.7459
▁cell	-13.746
▁load	-13.7462
▁variations	-13.7462
Va	-13.7462
TETRAHYDRO	-13.7472
af	-13.7476
CT	-13.748
Aminophenyl	-13.748
oxalate	-13.748
methanobenzofuro	-13.7487
phospha	-13.7488
trichloroethoxy	-13.7488
▁DMP	-13.7489
dibenzoyl	-13.7491
▁Kieselgel	-13.7493
oiling	-13.7499
HBr	-13.75
alkoxy	-13.75
▁dihydropyran	-13.7501
galactopyranosid	-13.7503
▁would	-13.7503
▁Spectra	-13.7503
▁glyoxylic	-13.7504
▁Washed	-13.7504
multiplet	-13.7507
▁Min	-13.7507
methyloxime	-13.7508
bromothiophen	-13.7512
▁milli	-13.7514
ArOCH	-13.7514
▁dissolves	-13.7516
arabinofuranosyl	-13.7518
urethane	-13.7519
eo	-13.7521
molecular	-13.7521
▁En	-13.7526
hours	-13.7527
oxobut	-13.7529
▁PCC	-13.7533
fluoroethoxy	-13.7533
Pbf	-13.7534
▁Th	-13.7539
methoxybiphenyl	-13.7545
▁Silysia	-13.7549
benzothiepine	-13.7549
ArCH	-13.7549
▁Of	-13.7554
ESIMS	-13.7554
enetetramine	-13.7556
spherical	-13.7556
▁stain	-13.7566
pyrrolidinol	-13.7566
pentadecyl	-13.7568
identified	-13.7571
chloronicotinate	-13.7573
ced	-13.7575
ies	-13.7577
Cr	-13.7577
AG	-13.7578
▁preparing	-13.7579
▁isobutyric	-13.7581
val	-13.7582
oxohexanoate	-13.7582
diacetate	-13.759
▁me	-13.759
mercaptomethyl	-13.7591
▁TsCl	-13.7596
▁diazo	-13.7596
▁Degussa	-13.7599
▁conjugate	-13.7602
NX	-13.7603
alumina	-13.7604
ho	-13.7604
atmosphere	-13.7604
▁INTERMEDIATE	-13.7604
▁triplet	-13.7607
tol	-13.7607
pentalen	-13.7607
methoxyanilino	-13.7608
hydroxypentyl	-13.761
▁treat	-13.761
▁tBu	-13.7613
▁dodecyl	-13.7614
Vinyl	-13.7617
supported	-13.762
▁Acros	-13.762
Ile	-13.7622
dioxaborinan	-13.7623
Butanol	-13.7625
XVII	-13.7626
morpholinoethoxy	-13.7629
this	-13.7629
vent	-13.7629
▁carbonic	-13.7634
benzothieno	-13.764
▁sweep	-13.7641
trade	-13.7645
pho	-13.7649
Fu	-13.7651
external	-13.7653
isothiazolidin	-13.7655
dipropylamino	-13.7656
ect	-13.766
▁pass	-13.7664
peak	-13.7666
divinyl	-13.7668
tributyltin	-13.7669
powder	-13.767
▁ethanethiol	-13.7675
Allyloxy	-13.7676
▁bisphenol	-13.7681
▁Journal	-13.769
Trifluoromethoxy	-13.7692
octacos	-13.7693
iridium	-13.7701
lambda	-13.7702
▁cylinder	-13.7703
▁swirled	-13.7703
value	-13.7703
pyranyloxy	-13.7704
IM	-13.7705
yo	-13.7707
methylpyridazin	-13.7707
Azabenzotriazol	-13.7712
sulfoxide	-13.7713
imethylhydantoin	-13.7714
oxiranylmethyl	-13.7716
isopr	-13.7717
▁HPFC	-13.7719
enic	-13.772
distillation	-13.772
EG	-13.772
valinamide	-13.7721
phenoxypropyl	-13.7724
▁Sep	-13.773
dihydroisoindol	-13.773
propylimidazol	-13.7733
dihydroindol	-13.7734
▁esterified	-13.7734
EtOAC	-13.7737
sul	-13.7739
SE	-13.7739
Sunfire	-13.7742
succinyl	-13.7744
▁ethoxymethylene	-13.7745
Asn	-13.7755
ty	-13.7755
formaldehyde	-13.7757
▁flakes	-13.7759
▁Bz	-13.7761
Protocol	-13.7765
▁saponified	-13.7765
▁elimination	-13.7765
Carbo	-13.7768
▁Sub	-13.7771
oxohexyl	-13.7771
trimethylbenzene	-13.7787
tetramethoxy	-13.7795
NI	-13.7796
oxocyclopentane	-13.7798
pyrazolin	-13.7799
parent	-13.7801
▁mesitylene	-13.7803
ethoxyl	-13.7803
)+];	-13.7804
sulfonimidoyl	-13.7813
tetradecahydro	-13.7814
▁Dimethylamine	-13.7818
phenylquinoline	-13.7819
mi	-13.782
▁Personal	-13.7823
▁acetylacetonate	-13.7825
cinnamaldehyde	-13.7828
perylene	-13.7832
indanyl	-13.7833
pe	-13.7835
phenylthiazole	-13.7849
tre	-13.7851
hydroxide	-13.7852
sulfon	-13.7854
Pyr	-13.7855
▁benzylbromide	-13.7858
azidoethoxy	-13.7859
▁check	-13.7859
itol	-13.7859
gamma	-13.786
furaldehyde	-13.7862
butylbenzene	-13.7864
indacene	-13.7865
▁tributylamine	-13.7867
▁vacuumed	-13.7868
▁bubble	-13.7871
Purity	-13.7872
degassed	-13.7872
ke	-13.7873
SSi	-13.7883
conditioned	-13.7884
▁vols	-13.7885
▁Recrystallize	-13.7887
oxopyrimidin	-13.7888
▁Precipitation	-13.7891
▁chromotography	-13.7907
benzimidamide	-13.7908
chner	-13.7911
phenylcyclohexyl	-13.7912
ey	-13.7913
sulfamoylphenyl	-13.7918
heptadecan	-13.7922
phenanthridine	-13.7925
▁stable	-13.7926
▁diazoacetate	-13.7927
▁NaClO	-13.7928
▁included	-13.7933
▁trichloroacetyl	-13.7939
phan	-13.7949
jet	-13.795
allo	-13.7951
▁cross	-13.7955
▁break	-13.7956
▁trademark	-13.7962
▁lots	-13.7962
benzyloxybenzyl	-13.7968
fluorenone	-13.7969
naphthylamine	-13.7969
oxiranylmethoxy	-13.7971
iodomethane	-13.7971
▁correct	-13.7972
overlap	-13.7974
Carbonate	-13.7977
▁imide	-13.7979
ten	-13.7982
SOCD	-13.7983
BrettPhos	-13.7987
phenylethylamino	-13.7988
▁cal	-13.7994
acridin	-13.7996
▁Smith	-13.7998
Tos	-13.7998
′′)	-13.7999
fluorobicyclo	-13.8
▁chilling	-13.8003
CHLORO	-13.8003
▁synthesizer	-13.8004
weight	-13.8009
cycle	-13.801
▁pentaerythritol	-13.8024
oxopropionate	-13.8031
oxepino	-13.8032
pip	-13.8033
▁efficient	-13.8035
▁Through	-13.8035
mutilin	-13.8035
▁Hydrolysis	-13.8035
▁periodically	-13.8036
suspension	-13.8043
▁forth	-13.8044
▁cautious	-13.8051
CDI	-13.8051
abbreviation	-13.8051
toluenesulphonyl	-13.8058
▁Resin	-13.8058
▁super	-13.8068
▁phosphonic	-13.8076
▁starts	-13.8078
methylvinyl	-13.808
picolinamido	-13.8084
ack	-13.8086
BEN	-13.809
▁runs	-13.809
▁convert	-13.8094
mixed	-13.8095
polymer	-13.8096
▁Warm	-13.8101
▁methyliodide	-13.8102
▁roundbottom	-13.8105
arious	-13.8108
chrysene	-13.8109
ethanoate	-13.811
▁Calif	-13.8117
▁determination	-13.8117
Methylthio	-13.8119
▁sulphur	-13.8125
▁PCT	-13.8126
▁Infrared	-13.8132
▁Application	-13.8132
▁Mhz	-13.8133
benzy	-13.8134
lactate	-13.8138
BT	-13.8143
chloroacetamido	-13.8151
meso	-13.8154
tributyl	-13.8155
propionamido	-13.8155
▁BB	-13.8158
silicagel	-13.8162
ou	-13.8164
benzopyrano	-13.8165
Pack	-13.8167
mel	-13.8173
phenylpropionate	-13.818
Free	-13.8181
naphthonitrile	-13.8182
NF	-13.8182
▁eluates	-13.8186
aster	-13.8188
▁DC	-13.819
disulfanyl	-13.8191
▁cooler	-13.8192
let	-13.8194
▁Neat	-13.8194
Lancaster	-13.8197
▁hazy	-13.8197
ED	-13.8204
▁DMT	-13.8214
Argonaut	-13.8214
▁however	-13.8214
▁zero	-13.8214
▁pear	-13.8217
▁remain	-13.8221
ther	-13.8222
▁MIBK	-13.8227
valinate	-13.823
difluoromethane	-13.823
Cyclobutyl	-13.8239
▁DCU	-13.8241
▁SC	-13.8241
azatetracyclo	-13.8245
succinamic	-13.8247
▁partioned	-13.8247
▁scrubber	-13.8247
▁changing	-13.8247
▁pair	-13.8248
▁stabilized	-13.825
▁MDC	-13.8251
bromoprop	-13.8254
▁flashed	-13.8261
▁Microwave	-13.8263
cyclohexadiene	-13.8264
ling	-13.8265
esi	-13.8266
dinitrobenzene	-13.8268
▁Diphenyl	-13.8269
ribo	-13.827
▁Un	-13.8273
oxoindolin	-13.8281
ei	-13.8288
nonadeca	-13.8293
▁Injection	-13.8296
▁Powdered	-13.8296
butylsulfonyl	-13.8296
isato	-13.8303
oximino	-13.8304
▁pore	-13.8304
system	-13.8305
bromothiazol	-13.8308
▁Super	-13.8309
▁Similar	-13.8312
]−,	-13.8312
▁Phosphorous	-13.8313
▁commenced	-13.8313
NBA	-13.8314
pentyn	-13.8316
chloropyridazine	-13.8319
▁Afterward	-13.832
thiocyanato	-13.8329
▁Twenty	-13.8329
dodecahydro	-13.833
▁Appl	-13.8331
tripyrrolidino	-13.8334
▁silicone	-13.8335
SF	-13.8337
tetradecan	-13.834
dro	-13.834
tent	-13.8343
▁tartaric	-13.8343
▁extensively	-13.8346
▁their	-13.8346
OF	-13.8347
▁increments	-13.8351
piper	-13.8352
dithiocarbamate	-13.8353
▁Separated	-13.836
▁neutralizing	-13.8363
microcrystalline	-13.8363
▁diiodomethane	-13.8363
ept	-13.8366
chloropropionyl	-13.8374
▁illustrated	-13.8375
Diethylamino	-13.8376
DIP	-13.8387
benzen	-13.8387
five	-13.8388
isopropylsilanyl	-13.8392
▁disp	-13.8392
minutes	-13.8393
▁mHz	-13.8394
onyl	-13.8395
ration	-13.8396
▁readily	-13.8396
▁beginning	-13.8396
Isopropoxy	-13.8398
▁Alfa	-13.8404
enamido	-13.8405
critical	-13.8406
lite	-13.8407
phenylcarbonyl	-13.841
epimer	-13.841
▁rotor	-13.841
▁metaperiodate	-13.8412
▁captioned	-13.8413
XII	-13.8416
▁comparison	-13.8429
▁MeLi	-13.843
▁resinous	-13.8431
CBz	-13.8431
silicon	-13.8436
▁hyflo	-13.8445
▁hydrogensulfite	-13.8447
freshly	-13.8448
methoxyacetyl	-13.845
▁oxalylchloride	-13.8451
SIL	-13.8458
▁Harom	-13.8458
octen	-13.8459
elut	-13.846
cyanide	-13.8461
▁rotatory	-13.8463
Chloroperbenzoic	-13.8463
sulph	-13.8468
-[({[	-13.8474
Hexahydro	-13.8476
thiocarbonyldi	-13.8477
BI	-13.8478
▁WX	-13.848
NHCO	-13.8491
obs	-13.8495
carbonothioyl	-13.8496
pyrazoline	-13.8499
lysyl	-13.8501
NP	-13.8504
benzodioxan	-13.8508
iphenylsulfonium	-13.8511
TSA	-13.8512
lac	-13.8513
▁IM	-13.8514
isopropylpyridin	-13.8519
epoxide	-13.8519
Methylamino	-13.8528
▁Schiff	-13.853
methanimine	-13.853
ESP	-13.853
Sar	-13.8532
▁cellulose	-13.8538
Butyloxycarbonyl	-13.854
isoxazoline	-13.8544
very	-13.8545
▁TMSOTf	-13.8547
oxathiazepin	-13.855
delta	-13.8556
overnight	-13.8556
)+],	-13.8561
methyloxazole	-13.8562
▁anhydrified	-13.8564
)−=	-13.8566
methylpyrrolo	-13.8567
THP	-13.8576
reparatory	-13.858
PHENYL	-13.8581
▁Triethylsilane	-13.8581
▁Formation	-13.8581
ylthiomethyl	-13.8585
▁etc	-13.8587
benzothiazin	-13.8591
morpholinothieno	-13.8592
propargyloxy	-13.8593
▁neopentyl	-13.8595
oxal	-13.8595
▁sulphite	-13.8598
▁condensate	-13.8598
▁we	-13.86
benzisothiazole	-13.8601
soluble	-13.8602
adsorbed	-13.8611
butyryloxy	-13.8611
▁mortar	-13.8632
diimide	-13.8635
dimethylbenzoyl	-13.8636
)−,	-13.8637
pyrazolidine	-13.864
▁IMS	-13.8648
▁COMU	-13.8649
▁reslurried	-13.8649
AR	-13.865
difluoropyridin	-13.8652
thioxanthen	-13.8653
ropanocyclopenta	-13.8654
▁inter	-13.8655
phenylurea	-13.8656
rbamimidothioate	-13.8656
▁disc	-13.8656
singlet	-13.8657
▁embodiment	-13.8658
ethoxybenzyl	-13.8658
phenylsulfonium	-13.866
tate	-13.8663
formed	-13.8665
▁saponification	-13.8666
oxobutyrate	-13.8668
shi	-13.8676
ono	-13.868
▁Manganese	-13.8683
tetraazatricyclo	-13.8683
Acetonitrile	-13.8684
triflate	-13.8684
dithiophene	-13.8688
aminopyrazole	-13.8691
ionic	-13.8698
seco	-13.8699
cyclobutylamino	-13.87
▁precatalyst	-13.8701
ara	-13.8701
▁adjustment	-13.8701
ical	-13.8702
phenylquinolin	-13.8704
phenylthiazol	-13.8709
▁NaB	-13.8713
▁acidifying	-13.8714
▁CHCI	-13.8715
ak	-13.8719
tech	-13.8724
▁PMR	-13.873
pyridinio	-13.873
hydroxycarbonyl	-13.8731
▁contact	-13.8735
chalcone	-13.8735
▁difficult	-13.8735
elected	-13.8737
thiadiazine	-13.8742
▁carbons	-13.8743
methylether	-13.8744
aminopropoxy	-13.8749
▁However	-13.8752
▁Uniplate	-13.8752
▁dripping	-13.8752
▁terms	-13.8752
tinib	-13.8754
hydroxybiphenyl	-13.8762
]−;	-13.8766
phenoxyacetic	-13.8767
dihydroxyethyl	-13.8769
til	-13.8771
cyanobenzoyl	-13.8773
iodophenoxy	-13.8773
ron	-13.8777
dibutylamino	-13.878
▁AP	-13.8782
carboxyaldehyde	-13.8787
malonamide	-13.8787
▁Horizon	-13.879
Chiralcel	-13.8795
▁pivali	-13.8796
ext	-13.8803
yophilization	-13.8804
phosphinoyl	-13.8805
({	-13.8808
dimethylbiphenyl	-13.881
fluorenylmethyl	-13.8817
tetraazacyclodo	-13.882
palmitoyl	-13.8822
mercaptoacetate	-13.8828
pot	-13.883
▁saturate	-13.8831
guanosine	-13.8835
▁condensor	-13.8839
▁Corp	-13.8839
oxi	-13.884
ki	-13.884
tetraone	-13.8844
▁brd	-13.8844
▁MI	-13.8848
▁meq	-13.8848
cholan	-13.8853
cake	-13.8853
▁occasional	-13.8856
threonine	-13.8856
▁equipment	-13.8856
penem	-13.8861
cycloocta	-13.8862
▁grad	-13.8864
Ts	-13.8866
thion	-13.8867
▁XI	-13.887
methylchroman	-13.887
piperazinone	-13.8872
▁machine	-13.8874
ug	-13.8875
oxoisoquinolin	-13.8876
▁diisocyanate	-13.8878
▁dmso	-13.8879
fg	-13.8881
CHCO	-13.8885
▁assignment	-13.8887
Lit	-13.8889
▁twelve	-13.8891
▁overlapped	-13.8893
try	-13.8899
pyridinol	-13.8903
Retention	-13.8907
▁trimethylacetyl	-13.8912
Met	-13.8917
▁BA	-13.8924
hydroxybutan	-13.8925
▁RPHPLC	-13.8926
ata	-13.8931
phenylisoxazole	-13.8931
propenamide	-13.8932
▁Pyr	-13.8933
▁Hastelloy	-13.8939
Toluenesulfonyl	-13.8941
iminomethyl	-13.8945
▁diethanolamine	-13.8945
▁arbitrarily	-13.8948
dimethoxybenzoic	-13.8948
desoxy	-13.8956
ylacetate	-13.8956
▁glutaric	-13.8957
caprolactam	-13.8962
saccharin	-13.8962
▁absorbance	-13.8962
HAHB	-13.8964
pentanoylamino	-13.897
▁tetraacetate	-13.8973
oxazepan	-13.8977
fluorescein	-13.8979
▁Formaldehyde	-13.898
▁({	-13.8983
▁LR	-13.8984
diallyl	-13.8984
▁absorb	-13.8985
▁mark	-13.8986
▁triggered	-13.8992
▁filterate	-13.8995
thioxomethyl	-13.8996
▁We	-13.9002
methylpentanoyl	-13.9005
▁alone	-13.9014
icosahydro	-13.9014
XVIII	-13.9019
nitrobenzo	-13.9025
phenylpropane	-13.9025
note	-13.9025
His	-13.9028
TMP	-13.9028
trioxide	-13.9038
▁interval	-13.9043
▁Structure	-13.9043
▁MEK	-13.9043
▁table	-13.9045
brt	-13.9045
both	-13.9049
▁stifling	-13.905
amate	-13.9051
▁alcoholic	-13.906
flo	-13.9064
▁PPA	-13.9067
▁Xphos	-13.907
▁dipotassium	-13.907
▁FDMS	-13.9073
ethylphosphonate	-13.9075
▁multi	-13.9075
reagent	-13.9078
▁shift	-13.9079
▁Se	-13.9087
hexadecan	-13.9104
NOS	-13.9104
▁Kasei	-13.9104
ute	-13.9114
GL	-13.9115
ka	-13.9118
cholest	-13.912
▁conical	-13.9122
binaphthalene	-13.9128
thienylsulfonyl	-13.9131
ylmethylthio	-13.9133
▁portioned	-13.9135
tered	-13.9135
butylisoxazol	-13.9137
hydroxyazetidin	-13.9139
▁benzylic	-13.914
glyceri	-13.914
▁charging	-13.914
▁Slowly	-13.914
▁triethylene	-13.9147
dimethylpentan	-13.9149
WX	-13.9157
▁bleach	-13.9158
▁species	-13.9158
phenyloxazole	-13.9159
▁Glu	-13.9161
han	-13.9161
hen	-13.9165
Pyridyl	-13.9166
▁care	-13.917
ethanethioate	-13.9171
%].	-13.9173
▁XRPD	-13.9176
chromic	-13.9176
menthyl	-13.918
ura	-13.9185
chlorophenethyl	-13.9194
Ia	-13.9194
trihydrofluoride	-13.9198
Tr	-13.9208
mineral	-13.921
mann	-13.9212
▁Perkin	-13.9212
▁detectable	-13.9212
dihydroxypropoxy	-13.9213
ocarbonate	-13.9213
azin	-13.9217
isobutyric	-13.9218
▁uv	-13.9222
phy	-13.9227
eu	-13.9231
Tol	-13.9246
▁ter	-13.9246
Dec	-13.9247
phenylmethylene	-13.9247
▁simple	-13.9248
Film	-13.9248
Varian	-13.9252
nate	-13.9252
(+))	-13.9253
AcO	-13.9253
EX	-13.9262
SiCl	-13.9266
▁ultraviolet	-13.9267
▁thioglycolate	-13.9267
Propanol	-13.9267
hexadeca	-13.9268
crystalline	-13.9268
propanethiol	-13.9269
▁CDCI	-13.927
▁Fisher	-13.9272
oxoheptan	-13.9278
rop	-13.928
▁cent	-13.9282
Pyrrolo	-13.9282
diffuse	-13.9285
▁continuing	-13.9285
fluro	-13.9287
yr	-13.9292
TS	-13.93
Cha	-13.9302
▁passage	-13.9303
▁vinylmagnesium	-13.9304
Deoxy	-13.9304
▁thru	-13.9306
oxazepane	-13.9307
ethanesulfonate	-13.9307
▁Compounds	-13.9312
ethylpyridin	-13.9314
▁Fischer	-13.9315
single	-13.932
▁Synthesize	-13.9321
▁Platinum	-13.9321
▁indicator	-13.9321
Diisopropyl	-13.9321
▁Ia	-13.9328
benzylpiperazine	-13.9329
De	-13.9338
cycloprop	-13.9338
▁Pyridinium	-13.934
▁dist	-13.9342
naphthamide	-13.9343
PHOS	-13.9344
▁chased	-13.9344
▁diethylacetal	-13.9345
boran	-13.9347
▁synthesize	-13.935
aminobutyric	-13.9351
adduct	-13.9357
▁Methane	-13.9357
hexylamine	-13.9359
BC	-13.9361
iodoethyl	-13.9362
▁section	-13.9362
▁Air	-13.9363
TBME	-13.9369
butylmagnesium	-13.937
chlorinated	-13.9377
▁Wang	-13.9377
▁tubes	-13.9381
▁ligroin	-13.9383
nBu	-13.9385
nonadec	-13.9386
▁prepacked	-13.9387
▁switched	-13.9389
▁suctioned	-13.939
still	-13.9391
▁wool	-13.9395
aluminate	-13.9398
▁batchwise	-13.9399
oxooctahydro	-13.9401
BSA	-13.9407
▁thiomorpholine	-13.9412
benzhydrylidene	-13.9413
▁dibenzoyl	-13.9416
bromobutane	-13.9427
▁methanolate	-13.943
valeronitrile	-13.9432
oleyl	-13.9447
selectivity	-13.9448
uan	-13.9449
nipecotate	-13.945
quinolinolato	-13.945
▁Brown	-13.945
DD	-13.9457
pentaene	-13.9457
▁Kanto	-13.946
pur	-13.946
DE	-13.9466
▁eventually	-13.9469
▁perruthenate	-13.9469
▁BiotageTM	-13.9471
benzoxepine	-13.9471
butylcyclohexyl	-13.9472
methoxypyridazin	-13.9473
thioate	-13.9481
▁silylated	-13.9482
bromonaphthalene	-13.9485
Diisopropylamine	-13.9487
▁approximate	-13.9487
▁beforehand	-13.9487
bromoacetamide	-13.9488
XIX	-13.9491
▁monosodium	-13.9491
hydroxybutanoate	-13.9497
phenylmagnesium	-13.9498
anthranilate	-13.9506
▁That	-13.9506
geranyl	-13.9514
▁series	-13.9517
▁thermo	-13.9518
▁PD	-13.9519
▁erythro	-13.9522
▁mMole	-13.9525
▁do	-13.9528
▁Mitsubishi	-13.9534
▁glucose	-13.9539
bipyridyl	-13.9539
▁operations	-13.9539
atom	-13.9542
▁fatty	-13.9543
oto	-13.9545
▁fractionation	-13.9548
▁Off	-13.9549
ye	-13.9549
didehydro	-13.9551
-[[[[	-13.9552
iodobenzoyl	-13.9552
tetrazolyl	-13.9553
bromoquinolin	-13.9555
▁supplemented	-13.9562
hydroxymethylene	-13.9563
▁rod	-13.9563
▁sultone	-13.9563
disuccinimidyl	-13.9571
cyanomethylene	-13.9578
chlorophenylthio	-13.9578
baccatin	-13.9581
▁Silver	-13.9581
▁periodic	-13.9582
▁Bioorg	-13.9584
bromoanisole	-13.9587
hydrofuran	-13.9589
dihydrochloride	-13.9589
anomer	-13.9593
▁proportions	-13.9594
▁Isolation	-13.9597
▁accompanied	-13.96
ODS	-13.96
tridecane	-13.9601
xide	-13.9601
piperidinone	-13.9602
oxobicyclo	-13.9606
dimethylpentyl	-13.9609
▁NHCH	-13.9611
BOP	-13.9617
PREPARATI	-13.9618
▁Optimizer	-13.9618
▁canula	-13.9619
▁Phenol	-13.9619
▁azobisisobutyro	-13.962
▁creamy	-13.9621
buty	-13.9626
sulfonyloxyimino	-13.9628
bromobiphenyl	-13.9629
assumed	-13.9629
action	-13.963
ness	-13.9635
cyclobutanone	-13.9635
KOH	-13.9635
▁begun	-13.9637
▁persulfate	-13.9638
▁sold	-13.9639
▁Diaion	-13.964
▁trade	-13.9647
▁buff	-13.9656
saccharide	-13.9656
glutarate	-13.9656
Alk	-13.9657
oxomorpholin	-13.966
Fluorobenzyl	-13.9661
used	-13.9663
hexahydrobenzo	-13.9663
aminoquinoline	-13.9665
nt	-13.9668
lower	-13.9668
Tetrahedron	-13.9669
carbolin	-13.9671
▁chloroacetone	-13.9671
thiopseudourea	-13.9675
▁OXONE	-13.9675
▁catalytically	-13.9676
iodonium	-13.9676
ketal	-13.9688
dram	-13.969
TBA	-13.969
▁ionic	-13.9703
methylcyclobutyl	-13.9705
ethanediamine	-13.9706
▁ivory	-13.9713
trihydroborate	-13.9714
▁NHS	-13.9719
ile	-13.9724
mercaptopropyl	-13.9728
▁Strem	-13.9728
mercaptoethanol	-13.9729
phenanthridin	-13.973
▁unpurified	-13.9732
▁hydrocarbon	-13.9733
▁Darco	-13.9734
octadecan	-13.9738
▁nmol	-13.9739
rap	-13.9739
▁anhydr	-13.9744
dia	-13.9746
▁icebath	-13.9747
▁TFE	-13.9749
SFC	-13.975
ili	-13.9751
organic	-13.9751
▁Second	-13.9751
▁Bar	-13.976
▁produces	-13.976
furanylmethyl	-13.9763
▁atropisomers	-13.9764
▁FD	-13.9766
bromoindole	-13.9767
ammonio	-13.977
picolinoyl	-13.977
▁MTB	-13.9773
▁aliphatic	-13.9773
TCI	-13.9777
tal	-13.9779
naphthyloxy	-13.9781
fumarate	-13.9782
mic	-13.9786
▁dense	-13.979
▁rising	-13.979
phenylethanamine	-13.9795
▁liner	-13.9796
▁smaller	-13.9797
butylstannyl	-13.9799
cycloheptane	-13.98
Acetamido	-13.9801
amic	-13.9803
air	-13.9804
oxatricyclo	-13.9807
▁Acidification	-13.9809
diazene	-13.9809
deacetyl	-13.9811
▁dimethylsulfate	-13.9812
NBr	-13.9813
▁isobutanol	-13.9813
phenoxyacetyl	-13.9815
lab	-13.9816
boric	-13.9823
imi	-13.9826
ime	-13.9826
▁florisil	-13.9828
▁Ozone	-13.9828
PGF	-13.9831
orpholinopropoxy	-13.9832
carbinol	-13.9832
▁CIMS	-13.9835
methylquinoxalin	-13.9844
methacryloyloxy	-13.9848
▁EtMgBr	-13.9849
flushed	-13.9854
eluate	-13.9854
▁Pale	-13.9855
INO	-13.9863
LSIMS	-13.9867
carboaldehyde	-13.9867
methylcyclohex	-13.9867
ethylaniline	-13.987
CombiFlash	-13.9874
benzothiadiazole	-13.9875
urate	-13.9875
isation	-13.9878
vap	-13.9889
grading	-13.9893
▁here	-13.9895
▁XII	-13.9895
phenylvinyl	-13.9895
thioamide	-13.9898
methacrylate	-13.9903
rd	-13.9904
▁Publication	-13.9905
▁redistilled	-13.9907
LiCl	-13.9907
▁Polymer	-13.9912
▁isobutyrate	-13.9923
▁cabinet	-13.9925
VA	-13.9925
TBAB	-13.9925
BNO	-13.9925
▁Phases	-13.9925
cyanoacetyl	-13.9928
rous	-13.993
Chlorobenzyl	-13.9935
demethyl	-13.9937
methoxypiperidin	-13.9941
phosphanyl	-13.9943
▁MICRO	-13.9944
chlorobenzamide	-13.9944
thymine	-13.9945
OiPr	-13.9946
dimethylsulfide	-13.9948
▁damp	-13.9948
methylmalonate	-13.9955
Methylsulfonyl	-13.9957
benzofur	-13.9957
▁HBF	-13.9957
Methoxymethyl	-13.996
▁Daicel	-13.996
TPP	-13.9962
▁reflectance	-13.9964
▁Half	-13.9964
lauryl	-13.9964
oxobenzeneacetic	-13.9968
▁bromoethane	-13.9972
▁tent	-13.9972
▁cyclobutanone	-13.9973
▁reside	-13.9976
▁chlorophosphate	-13.998
chro	-13.9985
▁MgCl	-13.9992
benzimidazolyl	-13.9995
uro	-14.0001
galactopyranosyl	-14.0002
▁gelatinous	-14.0003
▁lactate	-14.0006
anh	-14.0008
BrCl	-14.0009
tetrabromo	-14.0011
▁isobutylamine	-14.0011
OXA	-14.0012
sulfonylmethyl	-14.0017
▁methanethiolate	-14.0022
aminoacetate	-14.0023
cyclopentanamine	-14.0027
Chloropyridin	-14.0028
)[[	-14.0031
▁sh	-14.0034
dicarboxy	-14.0035
benzeneacetic	-14.0039
▁Condition	-14.004
thiophenyl	-14.0042
monohydrate	-14.0042
Caution	-14.0042
kin	-14.0042
allylamino	-14.0044
Chiral	-14.0044
▁Ber	-14.0045
CBS	-14.0047
pyrroline	-14.0047
guanidinomethyl	-14.0053
▁str	-14.0054
▁Fr	-14.0055
ethylphenoxy	-14.0058
diphenylmethoxy	-14.0058
glutamyl	-14.0061
▁tungstate	-14.0062
▁pasty	-14.0062
▁former	-14.0062
pyrrolizine	-14.0063
nitroanisole	-14.0077
▁tacky	-14.0081
amylene	-14.0083
butylphenoxy	-14.0083
▁amines	-14.0085
FIA	-14.0086
▁SPhos	-14.0086
diphenylethyl	-14.0087
▁iodomethyl	-14.0089
TG	-14.0091
oxopropoxy	-14.0093
benzil	-14.0097
other	-14.0098
▁spun	-14.0101
▁fluorine	-14.0101
isopropylphenoxy	-14.0107
tetradecane	-14.011
methoxysilane	-14.0117
heptene	-14.0121
▁crystallises	-14.0122
▁changes	-14.0124
▁molten	-14.0129
cal	-14.0129
via	-14.0132
ridine	-14.0134
ful	-14.0136
Millipore	-14.0141
▁page	-14.0143
tur	-14.0144
▁allylic	-14.0145
▁aminoguanidine	-14.0146
isobutylamino	-14.0153
phenoxyaniline	-14.0155
hed	-14.016
▁Place	-14.0161
▁kugelrohr	-14.0161
▁represents	-14.0161
▁deionised	-14.0161
▁KNO	-14.0165
DCl	-14.0173
cyclooctyl	-14.0179
▁induced	-14.0179
▁resumed	-14.0181
▁because	-14.0181
▁pyr	-14.0183
dex	-14.0185
▁wh	-14.0192
▁byproducts	-14.0193
▁diethylzinc	-14.0193
phenylethenyl	-14.0193
carbonylchloride	-14.0198
▁dicalite	-14.0201
FP	-14.0202
▁Specific	-14.0203
▁Sulfur	-14.021
Electrospray	-14.0211
outlet	-14.0212
absolute	-14.0212
Au	-14.0213
ome	-14.0216
▁repeating	-14.0221
▁refractive	-14.0222
ick	-14.0232
Molecular	-14.0233
ake	-14.0238
methylallyl	-14.024
▁pigment	-14.0241
▁Heated	-14.0242
precipitated	-14.0246
▁Pentane	-14.0251
onium	-14.0252
difluoroacetyl	-14.0253
ferrocenyl	-14.0255
-[({[(	-14.0257
▁tetraoxide	-14.0257
phenylethoxy	-14.0259
propenoyl	-14.026
chlorobenzofuran	-14.026
▁fridge	-14.0261
▁exception	-14.0262
benzylideneamino	-14.0262
hexahydropyrano	-14.0265
▁Chloroacetyl	-14.0266
isourea	-14.0269
acetamidophenyl	-14.0274
azidopropyl	-14.0276
terpyridin	-14.0278
Reprosil	-14.0281
▁alkalified	-14.0281
▁depicted	-14.0281
mesyl	-14.0281
dicarboximide	-14.0281
grade	-14.0284
▁Cyclopropane	-14.0286
methylhex	-14.0287
phosphonooxy	-14.0288
dimethylurea	-14.0292
butoxymethyl	-14.0297
iodophenylamino	-14.03
▁MeO	-14.0301
▁fume	-14.0302
hyd	-14.0305
▁Sum	-14.0306
Tris	-14.0311
▁etheral	-14.0311
etraisopropoxide	-14.0317
tyrosyl	-14.0321
▁schlenk	-14.0321
▁moving	-14.0329
▁slower	-14.0329
third	-14.0329
usually	-14.0334
nitroindole	-14.0335
bipiperidine	-14.0336
▁IRA	-14.0336
benzylchloride	-14.0337
crotonic	-14.0341
diisobutyl	-14.0343
▁molybdenum	-14.035
▁rotomers	-14.0352
▁roughly	-14.0357
rine	-14.0357
▁ylide	-14.0357
ketoester	-14.0358
▁regio	-14.036
Dibenzyl	-14.0361
DIAD	-14.0363
ending	-14.0366
methyloxirane	-14.0367
ple	-14.0369
▁Evaporated	-14.0371
pentadien	-14.0373
ih	-14.0374
▁units	-14.0376
▁acetylated	-14.0381
hydroxyprop	-14.0386
▁Flashmaster	-14.0388
IA	-14.0388
▁Hold	-14.0389
propoxymethyl	-14.039
ong	-14.0395
qu	-14.0395
oxobutanamide	-14.0397
({[	-14.04
histidyl	-14.0402
▁hard	-14.0404
RediSep	-14.0406
pher	-14.0407
gold	-14.0408
ier	-14.0412
dichlorobenzoic	-14.0414
▁allylamine	-14.0417
▁alkalinized	-14.0423
▁isolating	-14.0423
terior	-14.0423
▁media	-14.0423
mounted	-14.0424
ft	-14.0426
Dimethoxyphenyl	-14.043
methoxypropane	-14.0431
heptanoyl	-14.0438
chloropyrazolo	-14.0438
▁blade	-14.0439
indanol	-14.0443
cyclobutylethyl	-14.0447
▁fourth	-14.0448
▁phenolate	-14.0453
(−):	-14.0456
hydrox	-14.0457
oxypropyl	-14.0459
▁ramp	-14.046
▁turning	-14.0463
gluco	-14.0463
Trimethoxy	-14.0465
mercaptoethyl	-14.0465
▁heater	-14.0467
▁CLMS	-14.0472
phenylalaninate	-14.0476
methoxymethyloxy	-14.0484
Chromolith	-14.0484
▁chamber	-14.0484
▁drier	-14.0484
OX	-14.0485
]+);	-14.0507
phosphoryloxy	-14.0507
benzylpiperazin	-14.0507
MPA	-14.0508
methanesulfinate	-14.0508
nitromethyl	-14.0523
dihexyl	-14.0524
tu	-14.0525
imidodicarbonate	-14.0525
pentylcarbamate	-14.0526
ChiralPak	-14.0527
ethylendioxy	-14.0528
decanoate	-14.053
oxopropanoyl	-14.0531
′-{[(	-14.0532
then	-14.0533
difluoropyridine	-14.0535
benzofuranyl	-14.0536
Trityl	-14.0539
octafluoro	-14.0541
▁reheated	-14.0548
▁NaOCl	-14.0551
estrone	-14.0556
lation	-14.0558
▁Thio	-14.0559
isocyanurate	-14.0567
▁corresponded	-14.0567
▁delivered	-14.0567
▁admixture	-14.0568
morpholinium	-14.0569
carbamoylphenyl	-14.0584
▁Complete	-14.0588
▁BR	-14.059
AX	-14.0591
methylpyridazine	-14.0593
phenylpropanoyl	-14.0595
+/−	-14.0596
ky	-14.0596
dioctyl	-14.0597
MgCl	-14.0597
ned	-14.0607
▁thermal	-14.0608
▁reconstituted	-14.0609
stark	-14.0609
▁diallyl	-14.0615
▁DPPF	-14.0622
osyl	-14.0623
reference	-14.0627
pivaloylamino	-14.0628
▁condensing	-14.0629
▁Psi	-14.063
▁Pearlman	-14.0635
trioxane	-14.0635
▁NaOt	-14.0636
dibromopentane	-14.0637
PMA	-14.0639
TBS	-14.0642
▁International	-14.0645
▁watts	-14.065
fluoroquinazolin	-14.0652
▁Har	-14.0653
ero	-14.0653
tripropyl	-14.0657
filling	-14.0658
acetamino	-14.0665
eight	-14.0665
▁pyruvate	-14.0668
▁directed	-14.0671
NaSO	-14.0671
PD	-14.0674
cit	-14.0674
pentamethylene	-14.0677
HMDS	-14.068
cyclohexylethyl	-14.0681
▁wall	-14.0687
dihydroindeno	-14.0691
▁published	-14.0692
▁homogeneity	-14.0694
ulation	-14.0703
Harom	-14.0709
′′′	-14.0711
▁tap	-14.0712
benzal	-14.0712
▁metabisulphite	-14.0713
▁space	-14.0713
difluoroazetidin	-14.0721
NHS	-14.0727
aminothiophenol	-14.0727
▁even	-14.0729
succinamide	-14.073
▁minus	-14.0731
cyanophosphonate	-14.0732
olin	-14.0733
▁displacement	-14.0734
▁swirling	-14.0734
norbornane	-14.0735
dichlor	-14.0736
tere	-14.0736
Cyanophenyl	-14.0736
Dimethoxyethane	-14.0737
ble	-14.0737
HBTU	-14.074
▁intermediates	-14.074
tridec	-14.074
lysis	-14.0741
▁direct	-14.0744
fluorenylmethoxy	-14.0748
pinacol	-14.0748
OAC	-14.0751
pteridine	-14.0753
▁glyme	-14.0758
▁Art	-14.076
gal	-14.076
hexanamido	-14.0764
diphenylsilyl	-14.0771
▁strip	-14.0778
nitrovinyl	-14.0783
imid	-14.0785
butylbenzyl	-14.0789
▁aqu	-14.0796
▁ultra	-14.0798
aminobenzo	-14.0805
▁alternatively	-14.0808
carbonylbicyclo	-14.0809
▁industrial	-14.0811
US	-14.0816
▁chips	-14.0819
lauroyl	-14.0819
▁topped	-14.0819
phenylpyrimidine	-14.082
▁mml	-14.0821
ylate	-14.0821
▁CrO	-14.0822
iodobutane	-14.0825
▁Triphenyl	-14.0826
trifluoroprop	-14.0834
▁Elementar	-14.0834
tor	-14.0837
mu	-14.0838
▁IPAc	-14.0838
chemistry	-14.084
▁Chlorine	-14.084
benziodoxol	-14.084
▁methoxylamine	-14.084
▁compared	-14.084
▁LiBr	-14.0841
▁ions	-14.0846
▁trimer	-14.0846
aminopyrazine	-14.0847
char	-14.0849
▁Jo	-14.0852
Kieselgel	-14.0853
purchased	-14.0853
difuran	-14.0855
thiadiazolo	-14.0856
benzoxepin	-14.0859
nitroimidazol	-14.0861
▁scratching	-14.0861
boronate	-14.0867
▁regioisomeric	-14.0868
rie	-14.0868
)−]	-14.0869
final	-14.0872
ethylureido	-14.0877
JP	-14.0878
▁analogue	-14.0883
sugar	-14.0883
▁namely	-14.0883
CHOCH	-14.0889
▁molpeak	-14.0891
trifluorobut	-14.0892
jk	-14.0896
acetonyl	-14.0897
ethanoic	-14.0897
though	-14.0899
Ib	-14.0899
azocine	-14.0901
oxazonine	-14.0904
rimethylboroxine	-14.0904
ethanethiol	-14.0906
enantiomerically	-14.0907
propanoyloxy	-14.0913
epoxypropoxy	-14.0913
dibromomethyl	-14.0914
dimethylpyrazole	-14.0917
DAST	-14.0922
filtration	-14.0922
terpyridine	-14.0924
field	-14.0925
▁turbidity	-14.0926
▁bromopyruvate	-14.0926
graphy	-14.0928
nonafluoro	-14.0938
bithiophene	-14.094
cyanopropan	-14.094
sch	-14.0942
equivalent	-14.0943
nitrobenzylidene	-14.0945
glutarimide	-14.0947
thr	-14.0948
oxazolin	-14.0955
▁Mix	-14.0962
propylsulfanyl	-14.0964
FF	-14.0965
phenylazo	-14.0968
iodoethane	-14.0968
oxazaborolidine	-14.0969
sphere	-14.0969
washing	-14.0969
▁BnBr	-14.0971
▁Triturate	-14.0975
▁solidify	-14.0975
▁Micromass	-14.0979
▁phenothiazine	-14.0982
Isobutyl	-14.0982
octylamine	-14.0984
molybdate	-14.099
▁Tlc	-14.099
Infrared	-14.0991
nonanoi	-14.0993
azol	-14.0994
′′);	-14.0994
chloroindole	-14.0996
chromone	-14.1
▁linker	-14.1003
indolizino	-14.1012
▁Several	-14.1012
▁Degassed	-14.1012
benzoyloxymethyl	-14.1012
▁catechol	-14.1013
aid	-14.1013
aminopropanoate	-14.1014
TBTU	-14.1015
SCX	-14.1015
▁rota	-14.1015
▁exchanger	-14.1017
formylpiperidine	-14.1018
OK	-14.1019
▁integration	-14.1019
bromoisobutyrate	-14.1025
isobutyrate	-14.1027
FID	-14.1027
Oakwood	-14.1033
▁AgNO	-14.1035
furfural	-14.1035
▁acylated	-14.1037
oxycarbonyloxy	-14.1039
eck	-14.104
Bromopyridin	-14.1046
TT	-14.1048
diphosphonate	-14.1049
▁acetonide	-14.1049
osin	-14.105
oid	-14.105
▁technique	-14.1052
formyloxy	-14.1053
▁fo	-14.1053
dimercapto	-14.1056
▁feeding	-14.1056
rol	-14.1059
dimethylbenzo	-14.1062
cylo	-14.1065
tetradec	-14.1065
▁Thirty	-14.1077
starch	-14.1077
nitrooxy	-14.1078
thal	-14.1078
methylamide	-14.1079
riphenylphospine	-14.108
Pa	-14.1081
ylchloride	-14.1084
hexanal	-14.1084
MPLC	-14.1086
▁totally	-14.1089
Cyclohexane	-14.1095
hexanone	-14.1096
pregnane	-14.1096
trimethyloxonium	-14.1099
▁clay	-14.1099
Crown	-14.1099
mouth	-14.1099
stearyl	-14.1099
penicillin	-14.1099
▁epimeric	-14.1099
ux	-14.1101
▁designate	-14.1103
dimethylammonium	-14.1104
▁diamide	-14.1106
▁Here	-14.1107
polystyrene	-14.1111
▁alcohols	-14.1112
PrMgCl	-14.1117
-[{[	-14.1118
tritylthio	-14.112
ster	-14.112
▁culture	-14.1121
▁stayed	-14.1121
▁JP	-14.1123
ann	-14.1126
war	-14.1133
▁anal	-14.1133
▁Hexa	-14.1136
ethylurea	-14.1138
isouronium	-14.1142
carbothioic	-14.1143
▁sponge	-14.1143
▁straw	-14.1143
▁Suspend	-14.1143
cyclobutene	-14.1144
▁larger	-14.1147
valyloxy	-14.1149
indolinone	-14.1155
urn	-14.1158
▁Rel	-14.1163
▁Alcohol	-14.1165
▁Catalog	-14.1165
ince	-14.1165
Wakogel	-14.1167
cyanoethoxy	-14.1172
purple	-14.1179
This	-14.1179
anisyl	-14.1183
glucamine	-14.1187
▁packing	-14.1187
oxathiolane	-14.1188
▁trimethylborate	-14.1188
TRI	-14.119
▁mmo	-14.1191
bSR	-14.1191
eta	-14.1191
oxathiazolidine	-14.1192
▁Selectfluor	-14.1199
▁occur	-14.1205
▁Triton	-14.1209
▁LTD	-14.121
flavone	-14.121
hydroxyquinolin	-14.1213
▁AcCl	-14.1213
methallyl	-14.1225
)];	-14.1225
glacial	-14.1226
▁Ro	-14.1227
▁hydrated	-14.1227
▁Aniline	-14.1231
▁proper	-14.1231
GA	-14.1232
An	-14.1238
▁methacryloyl	-14.1247
OBut	-14.1249
▁Hydro	-14.125
loading	-14.125
ribose	-14.1253
▁Collection	-14.1253
Furan	-14.1255
▁deuterated	-14.1258
driven	-14.1258
methoxyacrylate	-14.1259
▁Low	-14.1261
dibenzothiophene	-14.1262
ohydrazide	-14.1264
brominated	-14.1266
hydroxycarbamoyl	-14.1273
oxaborole	-14.1276
▁premixed	-14.1276
dimethylbenzoic	-14.1276
▁singlets	-14.1279
trimethoxybenzo	-14.1281
Acet	-14.1287
isoleucine	-14.1287
amidoxime	-14.1292
fluorotetrahydro	-14.1293
glutamine	-14.1297
oxane	-14.1299
ui	-14.1299
▁Acta	-14.13
▁cumene	-14.1302
▁TBDMSCl	-14.1307
bipiperidin	-14.1311
trifluoroethane	-14.1315
tRet	-14.1316
▁Therefore	-14.132
▁distribution	-14.132
▁radical	-14.132
▁paddle	-14.132
riboside	-14.132
hydroxybut	-14.1321
▁optionally	-14.1323
diyne	-14.1326
▁comprises	-14.1327
▁Skellysolve	-14.1327
difluorobiphenyl	-14.1328
isopropylthio	-14.133
▁DOWEX	-14.1334
▁stoichiometric	-14.1338
ach	-14.134
amp	-14.1341
Type	-14.1342
linked	-14.1342
▁TBAI	-14.1342
▁moved	-14.1342
uoro	-14.1343
▁progressed	-14.1349
▁predominantly	-14.1355
suf	-14.1355
▁carbinol	-14.1359
phenanthro	-14.136
prost	-14.1361
cyc	-14.1362
propanesulfonate	-14.1363
Aib	-14.1363
▁dia	-14.1364
salicylidene	-14.1365
▁thickness	-14.1365
′′=	-14.1367
reflux	-14.1369
benzenediamine	-14.1369
foam	-14.1369
psi	-14.1383
rapped	-14.1385
FT	-14.1387
rhodanine	-14.1387
Fluor	-14.1389
▁epimers	-14.1389
Cube	-14.139
heptanol	-14.1393
AIBN	-14.1393
▁sorbitol	-14.1397
sucrose	-14.141
resistant	-14.141
▁melamine	-14.141
ini	-14.141
oleoyl	-14.1411
xanthone	-14.1411
ethanediol	-14.1413
cyclohept	-14.1413
▁inorganics	-14.1416
Nickel	-14.1418
▁Hunigs	-14.142
rotamers	-14.1424
KP	-14.1432
▁organo	-14.1438
trifluoroacetoxy	-14.1438
nin	-14.1442
AI	-14.1445
alum	-14.1447
▁nil	-14.1448
cyclopentenyl	-14.1454
▁Absolute	-14.1455
acetato	-14.1455
Ref	-14.1457
nitrothiophene	-14.1461
mmoles	-14.1462
trihydro	-14.1463
methylmethane	-14.1465
▁TMSCN	-14.1468
ise	-14.1472
▁BP	-14.1473
▁Sample	-14.1475
▁sludge	-14.1477
▁Reduction	-14.1478
inol	-14.1478
tetradecanoyl	-14.1478
glycidol	-14.1478
ydro	-14.1485
ilution	-14.1485
CY	-14.1487
chromanone	-14.1493
decanol	-14.1499
anomeric	-14.1501
▁backwashed	-14.1502
▁Kromasil	-14.1505
ult	-14.1511
doublet	-14.1517
▁Distill	-14.1523
▁eighteen	-14.1523
piperdine	-14.1525
▁tested	-14.1525
Diethoxy	-14.1529
gluta	-14.154
TBAF	-14.1541
▁carrier	-14.1543
▁Amide	-14.1544
methoxyindole	-14.1544
Cyclo	-14.1545
Pur	-14.1547
amidinophenyl	-14.1547
ylmethylamino	-14.1551
▁Referr	-14.1554
IL	-14.1561
Combiflash	-14.1564
ipso	-14.1565
ani	-14.1565
dipyridyl	-14.1566
▁evident	-14.1569
ral	-14.1572
▁Ga	-14.1573
▁phenolic	-14.1574
thiobenzamide	-14.1575
▁auto	-14.1575
▁JCP	-14.1579
icinal	-14.1581
fluoride	-14.1581
ude	-14.1583
TGA	-14.1587
cyanophenol	-14.1587
phenylethane	-14.1591
▁Coupling	-14.1592
▁counter	-14.1592
piperonyl	-14.1592
▁recharged	-14.1592
methylmercapto	-14.1594
tetrafluoroboric	-14.1594
▁tray	-14.16
Tf	-14.16
▁meter	-14.1605
▁ratios	-14.1607
yt	-14.1607
hydroxybutanoic	-14.1612
process	-14.1613
▁pulled	-14.1615
Grace	-14.1615
oxobenzo	-14.1616
decomposes	-14.162
aerated	-14.1625
trifluorobenzene	-14.1628
ried	-14.1629
oxotetrahydro	-14.1629
quinoxalinyl	-14.1629
▁Unreacted	-14.1638
▁darkened	-14.1638
borabicyclo	-14.1639
cyanuric	-14.1639
nitrophenylamino	-14.1642
galacto	-14.1643
bipiperidinyl	-14.1648
fluoropropan	-14.1652
▁acylation	-14.1653
Form	-14.1653
aminoindane	-14.1654
palla	-14.1655
oxoimidazolidine	-14.1657
ada	-14.1659
▁individual	-14.1661
TIS	-14.1662
▁Fractional	-14.1663
were	-14.1666
Dichloroethane	-14.1667
azocin	-14.1667
set	-14.1668
▁sure	-14.1676
butyramido	-14.1676
▁decrease	-14.1681
fragment	-14.1684
▁gathered	-14.1684
▁monobasic	-14.1685
dicarbonyl	-14.1685
statin	-14.1685
pyruvate	-14.1687
naphthalenone	-14.1687
heptenoic	-14.1688
tetraacetic	-14.1688
chlorid	-14.1688
dichlorobis	-14.1689
tetrahydronaphth	-14.1689
▁granulated	-14.1691
ng	-14.1692
▁weeks	-14.1694
propylmagnesium	-14.1699
ame	-14.1706
LDA	-14.1706
▁conclusion	-14.1707
▁lyophilisation	-14.1707
Tolyl	-14.171
Axia	-14.1711
stereo	-14.1713
▁capillary	-14.1713
▁glycolate	-14.1715
−).	-14.1716
pentylphenyl	-14.1726
sext	-14.1727
imidazolylmethyl	-14.173
sulphonyloxy	-14.1731
MOM	-14.1733
phosphorylazide	-14.1733
Butyldiphenylsil	-14.1734
aminothiophene	-14.1737
▁vanillin	-14.1739
acryl	-14.1741
pyridylmethoxy	-14.1741
▁eluants	-14.1741
▁bubbles	-14.1744
Ba	-14.1749
▁hydrolyze	-14.175
arabino	-14.1754
▁HCHO	-14.1756
quino	-14.1759
▁press	-14.176
Acros	-14.1762
mmHg	-14.1763
MMA	-14.1763
bromobut	-14.1767
Thiazol	-14.1769
diyldi	-14.1774
Bop	-14.1778
ik	-14.1778
oxazepino	-14.178
imidazolidinyl	-14.178
FIN	-14.1781
plate	-14.1791
ian	-14.1796
NNaO	-14.1798
stearic	-14.18
▁Periodinane	-14.18
▁elevating	-14.18
▁elutant	-14.18
▁diphosgene	-14.1801
▁triethanolamine	-14.1803
▁pipet	-14.181
chloroquinazolin	-14.181
▁San	-14.1813
que	-14.1816
benzooxazole	-14.1817
▁Syn	-14.1822
▁heterogenous	-14.1824
▁fluorescent	-14.1824
▁dosed	-14.1824
diluted	-14.1826
▁cases	-14.1828
glycin	-14.1832
yer	-14.1834
▁Acryloyl	-14.1836
▁ClCH	-14.1836
DEA	-14.184
TBDMS	-14.1842
▁crystallise	-14.1843
▁characterised	-14.1847
▁customary	-14.1848
morpholinopropyl	-14.1863
vinylbenzene	-14.187
▁Conditions	-14.1871
▁Measured	-14.1871
▁TOTU	-14.1871
▁olefinic	-14.1871
mull	-14.1873
CeCl	-14.1873
▁fit	-14.1874
dimethylsilylene	-14.1874
thenoyl	-14.1881
rom	-14.1886
halogen	-14.1895
oxybisethane	-14.1895
▁virtual	-14.1895
▁whitish	-14.1895
rapamycin	-14.1895
▁exclude	-14.1895
diaminobutane	-14.1898
▁experiments	-14.1899
▁malonyl	-14.1903
isopropylamide	-14.1903
▁vs	-14.1907
XXII	-14.1909
anthr	-14.191
ative	-14.1911
decene	-14.1912
ost	-14.1912
assume	-14.1916
azoniabicyclo	-14.1917
Maybridge	-14.1918
▁bleed	-14.1918
▁pinkish	-14.1919
▁density	-14.1923
▁(−)-(	-14.193
oh	-14.1936
anate	-14.1936
-(((((	-14.1939
sum	-14.1939
second	-14.1939
olefin	-14.1939
▁Inertsil	-14.194
debenzoyl	-14.194
▁hydrofluori	-14.1941
succin	-14.1945
aminoindan	-14.1947
ylpropoxy	-14.1948
▁DMAC	-14.1953
phenethylamino	-14.1958
indolium	-14.1959
bromopyrazine	-14.1963
glyoxylic	-14.1964
▁XRD	-14.1966
▁grayish	-14.1966
phor	-14.1966
▁SUS	-14.1967
▁acrolein	-14.1968
dehyde	-14.1969
▁Major	-14.1972
FABMS	-14.1973
ethanesulphonate	-14.1973
▁BHT	-14.1976
▁ethylester	-14.1985
ual	-14.1987
diethylcarbamoyl	-14.1989
▁bicyclic	-14.199
▁nylon	-14.199
theory	-14.199
bromospiro	-14.1991
▁diketone	-14.2
dimethylbenzoate	-14.2001
lidine	-14.2002
carboxyamide	-14.2006
cobalt	-14.2007
sym	-14.2009
tetracosa	-14.2014
dimethylfuran	-14.2015
semicarbazone	-14.2015
▁trimethyltin	-14.2015
Preparative	-14.2016
pentoxy	-14.2016
decanedioic	-14.2017
dioxaborinane	-14.2017
methylacrylate	-14.2025
ogen	-14.2027
▁Sch	-14.2029
phenylpropionyl	-14.2032
PhCH	-14.2032
diphenoxy	-14.2033
KA	-14.2037
▁attempt	-14.2037
▁CHEMICAL	-14.2038
▁Initially	-14.2038
chlorination	-14.2038
triphenylene	-14.2045
acetylpiperidin	-14.2047
pentaaza	-14.2047
onochlorobenzene	-14.2048
hydroxyproline	-14.2051
methyi	-14.2055
Ag	-14.2055
metho	-14.2056
′′′)	-14.2057
ulated	-14.2057
▁NaBr	-14.2058
phenylpiperazin	-14.2059
▁vacua	-14.206
fluorobenzamido	-14.206
acetylpyridine	-14.2061
fluoronicotinic	-14.2062
SPIRO	-14.2062
Thiophene	-14.2063
▁hydrogenolysis	-14.2064
fo	-14.2068
pyranosyl	-14.2071
▁rf	-14.2071
bromopyrazin	-14.2073
▁Elute	-14.2075
solv	-14.2076
choro	-14.2079
▁equalizing	-14.2081
zine	-14.2082
cted	-14.2082
idone	-14.2083
▁fiber	-14.2086
phenylbenzoyl	-14.2086
▁infra	-14.2086
▁satisfactory	-14.2087
acetoxyacetyl	-14.2089
PAB	-14.2095
deoxycytidine	-14.2096
oy	-14.2101
▁propargylamine	-14.2102
▁consecutive	-14.211
▁visualization	-14.211
sulfamyl	-14.211
hexenoate	-14.2113
hexachloroethane	-14.2119
thiopyrano	-14.2125
]−).	-14.2128
triethylammonio	-14.2134
▁bisulphite	-14.2134
functionalized	-14.2134
oxoethylidene	-14.2135
ioxoimidazolidin	-14.2136
▁Lux	-14.2137
ride	-14.2139
mercaptophenyl	-14.2143
dropwise	-14.2145
▁distil	-14.2145
backfill	-14.2148
bromotoluene	-14.2148
COOMe	-14.215
penam	-14.2152
elute	-14.2153
XXI	-14.2153
tationary	-14.2154
▁Genevac	-14.2157
Piperazin	-14.2158
cysteamine	-14.2159
▁dessicator	-14.2159
▁lipase	-14.2159
▁Benzaldehyde	-14.2159
prolinol	-14.2159
undecanoic	-14.2164
oxatetracyclo	-14.2167
▁shifts	-14.2169
methoxyprop	-14.2169
Prepared	-14.2171
seryl	-14.2172
▁leaves	-14.2173
trifluoropropane	-14.2176
GP	-14.2179
hydrin	-14.2182
idenedioxy	-14.2186
▁synthesised	-14.219
CHPh	-14.2191
▁includes	-14.2194
tolylamino	-14.2202
▁Meldrum	-14.2203
propenal	-14.2206
▁Para	-14.2207
Kinetex	-14.2207
homoerythromycin	-14.2207
bromination	-14.2207
]{	-14.2208
oxathiin	-14.2208
▁Samples	-14.221
▁WSCD	-14.2211
▁Karl	-14.2215
mesyloxy	-14.2216
triethoxy	-14.222
▁HMDS	-14.2225
tocopherol	-14.2232
omer	-14.2233
▁Ethylacetate	-14.2235
vir	-14.2238
cyanobenzene	-14.2239
carbony	-14.224
trityloxyimino	-14.2246
▁So	-14.2251
Difluoromethyl	-14.2254
tetracyclo	-14.2255
Glycine	-14.2256
▁diketene	-14.2256
▁exposure	-14.2256
phenylhydrazone	-14.2258
▁aqeu	-14.2259
▁antimony	-14.2261
DMTr	-14.2263
rite	-14.2264
butylaniline	-14.2265
▁processing	-14.2265
dihydrodibenz	-14.2266
▁filteration	-14.2269
▁automatic	-14.227
biphenol	-14.2275
hexadecyloxy	-14.2275
METHOD	-14.2281
▁Deionized	-14.2281
▁hydrosulfide	-14.2281
PtCl	-14.2282
▁disulphide	-14.2283
High	-14.2284
diatomaceous	-14.2285
ethylcyclohexyl	-14.2286
methoxypyrazin	-14.2288
toluyl	-14.2288
acetylated	-14.2296
thiocarbamate	-14.2297
issolving	-14.2301
acylated	-14.2302
methylbutanamido	-14.2302
benzoylphenyl	-14.2302
▁methylboronic	-14.2305
Pivaloyl	-14.2305
▁dilaurate	-14.2305
▁ytterbium	-14.2305
alo	-14.2306
selenophene	-14.2306
EtO	-14.2311
some	-14.2311
▁presented	-14.2311
▁thioanisole	-14.2314
tetraazol	-14.2316
▁acetylacetone	-14.2322
etate	-14.2324
proton	-14.2329
▁simultaneous	-14.233
Matrix	-14.233
▁SepaFlash	-14.233
▁fused	-14.233
mesylate	-14.233
▁Commun	-14.233
▁lyophilizer	-14.2331
▁iPrOAc	-14.2332
carboxypropyl	-14.2334
Methylsulfanyl	-14.2337
diazenyl	-14.2337
trifluorobenzyl	-14.2338
isopropylphenol	-14.2348
▁Triflic	-14.2355
▁degased	-14.2355
▁terminal	-14.2357
pentyne	-14.236
lg	-14.2362
▁HRFAB	-14.2365
▁trisodium	-14.2377
XXIII	-14.2378
dihydropyrazol	-14.2379
trimethylene	-14.238
technical	-14.238
▁ESHRMS	-14.2385
CHCI	-14.2389
methylheptanoyl	-14.239
AF	-14.2392
TU	-14.2394
aminopyrrolidin	-14.2402
chloric	-14.2404
▁appear	-14.2404
ita	-14.2404
▁probucol	-14.2405
▁XAD	-14.2405
Grubbs	-14.2408
▁phenyllithium	-14.241
diastereoisomer	-14.241
disulfonate	-14.2411
▁GS	-14.2412
▁TIPS	-14.2423
nonafluorobutane	-14.2425
▁Continue	-14.2429
▁acidity	-14.2434
▁sarcosine	-14.2436
izing	-14.2436
▁chromato	-14.2437
og	-14.2437
▁bismuth	-14.244
disila	-14.244
Methylphenyl	-14.2441
▁matrix	-14.2443
more	-14.2451
▁forty	-14.2451
BIOTAGE	-14.2454
▁thermowell	-14.2454
fine	-14.2457
anal	-14.2459
▁appropriately	-14.246
bromonaphthalen	-14.2461
microwave	-14.2462
chilled	-14.2462
bpy	-14.2463
acetylsulfanyl	-14.2474
ali	-14.2475
▁desire	-14.2478
catechol	-14.2487
Personal	-14.2488
isobutene	-14.2492
time	-14.2499
nonyloxy	-14.25
nBr	-14.2501
diphosphetane	-14.2505
eric	-14.2505
▁refiltered	-14.2507
MSD	-14.2509
▁CaCO	-14.2513
nitroquinazolin	-14.252
tetraoxo	-14.2524
octylphenyl	-14.2525
anth	-14.2525
azi	-14.2525
▁isooctane	-14.2528
sulphamoyl	-14.253
sharp	-14.253
toluen	-14.253
▁Benzylamine	-14.2531
benzodioxane	-14.2535
methyloxazolidin	-14.2539
Alfa	-14.2542
ert	-14.255
phenothiazin	-14.2552
LV	-14.2555
▁Vigorous	-14.2555
▁placing	-14.2555
▁lyophilate	-14.2556
▁SGC	-14.2561
bromopyrazolo	-14.2562
▁peach	-14.2562
Reaction	-14.257
isolated	-14.257
▁Tosyl	-14.2571
Azidomethyl	-14.2573
adamantanol	-14.2574
▁diethylamide	-14.2574
ok	-14.2575
dimethylcarbamyl	-14.2576
boroxin	-14.258
malonamic	-14.258
▁defined	-14.258
▁suggested	-14.2581
▁Precipitates	-14.2582
▁quarter	-14.2592
▁Aliquat	-14.2593
iate	-14.2601
succinimido	-14.2602
▁Inj	-14.2603
fixed	-14.2606
▁uM	-14.2607
▁TBF	-14.2608
▁largely	-14.2608
any	-14.2611
diphenylpropyl	-14.2613
silacyclohexane	-14.2615
ung	-14.2615
phosphor	-14.2616
diethylbenzamide	-14.2616
propio	-14.262
▁Silicycle	-14.2621
▁hPa	-14.2622
phene	-14.2623
dihydroxybenzoic	-14.2624
▁abbreviated	-14.2626
iodobenzonitrile	-14.2627
▁acetonitril	-14.2629
▁dichloromethyl	-14.263
▁company	-14.2631
scavenger	-14.2633
phosphorus	-14.2635
benzoylthio	-14.2647
Elementar	-14.2647
subjected	-14.2652
alt	-14.2655
chloropyrido	-14.2657
▁Glauber	-14.2657
▁manipulation	-14.2657
FCC	-14.2658
diaminoethane	-14.2664
ACE	-14.2668
Difluoromethoxy	-14.2669
▁Baker	-14.2669
VE	-14.2671
mercaptoacetic	-14.2672
ere	-14.2679
▁ethylate	-14.2681
stearate	-14.2682
▁ultrasound	-14.2682
▁unchanged	-14.2682
▁seperated	-14.2682
IPE	-14.2683
Xylene	-14.2683
path	-14.2683
piperidinyloxy	-14.2684
difluorobenzoate	-14.2684
extract	-14.2689
▁Synth	-14.2695
pyridineboronic	-14.2699
phenylacetylene	-14.27
furoic	-14.2704
cyst	-14.2706
▁environment	-14.2708
▁Crystalline	-14.2708
pentet	-14.2709
▁Dichlorobis	-14.2712
isothiazolidine	-14.2717
chloranil	-14.2722
hydroxyindole	-14.2728
acetoxyphenyl	-14.2731
▁isopropylether	-14.2731
▁follow	-14.2733
equiv	-14.2734
heating	-14.2734
imidamide	-14.2736
▁Emrys	-14.274
pri	-14.2743
pentynyl	-14.2743
▁received	-14.2743
isopropyloxy	-14.2744
▁atoms	-14.2745
XB	-14.2746
deoxyadenosine	-14.2747
vii	-14.2748
Aq	-14.275
oven	-14.2752
▁Theory	-14.2753
▁doublets	-14.2755
▁Kogyo	-14.2759
▁evacuating	-14.2759
▁listed	-14.2759
▁Mega	-14.2759
Normal	-14.276
optical	-14.2762
quinolinol	-14.2762
▁static	-14.2766
methylpropionyl	-14.2768
cholestan	-14.2768
methylsulphanyl	-14.2774
tetrasiloxane	-14.2776
ylmethanamine	-14.2782
benzylated	-14.2785
alternative	-14.2785
sulpho	-14.2785
phthalocyanine	-14.2785
Pressure	-14.2785
▁headspace	-14.2785
pregnadiene	-14.2786
maleimido	-14.2787
Adamantane	-14.2787
carrier	-14.2789
previously	-14.2789
ail	-14.2796
Benzimidazol	-14.2806
▁taxol	-14.2806
NAPHTHALENE	-14.2812
phosphoro	-14.2813
vinyldecahydro	-14.2814
▁Chromatorex	-14.2814
perbenzoic	-14.2816
purification	-14.2817
▁Experimental	-14.2817
propanesulfonyl	-14.282
ition	-14.2823
▁disappears	-14.2826
neo	-14.2826
▁desiccat	-14.2837
▁Complex	-14.2837
alkane	-14.2837
chlorobutyryl	-14.2837
▁milled	-14.2837
octadecane	-14.2839
▁WSCI	-14.2841
bed	-14.2844
triggered	-14.2844
acetonide	-14.2844
PPC	-14.2844
quartet	-14.2845
reduced	-14.2845
▁azodi	-14.2853
▁receiv	-14.2857
tautomer	-14.286
DAD	-14.2863
▁Partition	-14.2863
▁Dowtherm	-14.2863
benzanilide	-14.2864
▁porosity	-14.2865
phenoxazine	-14.2866
naphtyl	-14.2866
MG	-14.2869
stearoyl	-14.287
etherate	-14.2872
beige	-14.2873
isopropylaniline	-14.2874
diphenylether	-14.2875
Cmpd	-14.2875
hexylamino	-14.2877
vinylbenzyl	-14.2883
chloroethanol	-14.2883
lum	-14.2883
▁Seed	-14.2885
dioxothiazolidin	-14.2886
naphthal	-14.2886
benzenedimethan	-14.2886
dipyridine	-14.2887
▁Xtimate	-14.2889
ethanimidamide	-14.2892
DPP	-14.2902
ped	-14.291
mercaptopyridine	-14.2911
NMM	-14.2912
RhCl	-14.2913
phenyloxazol	-14.2915
acetimidamide	-14.2915
guanidinium	-14.2915
presumed	-14.2915
▁COMBIFLASH	-14.2915
▁dumped	-14.2915
▁Refluxing	-14.2917
dihydrochromeno	-14.2922
▁deactivated	-14.2922
vin	-14.2923
ylmethylsulfanyl	-14.2924
refer	-14.293
XLI	-14.2932
inch	-14.2934
fluoroethane	-14.2938
biguanide	-14.2942
FMOC	-14.2942
prolinate	-14.2942
America	-14.2942
▁Take	-14.2942
tridecan	-14.2945
▁phenoxide	-14.2947
iodopyrimidine	-14.2948
siloxy	-14.2948
▁displaced	-14.2949
▁proved	-14.295
▁hydroxyamide	-14.2952
▁brominated	-14.2953
▁Res	-14.2956
DBT	-14.2957
chlorophosphate	-14.2957
IPC	-14.2961
pyrane	-14.2962
thiazolium	-14.2963
′′′,	-14.2963
uantitative	-14.2967
▁proof	-14.2967
PPTS	-14.2967
▁Typical	-14.2968
▁improve	-14.2968
▁Wittig	-14.2968
ethoxide	-14.2968
methylimino	-14.2977
dimeth	-14.2977
ient	-14.2978
lex	-14.2979
▁methoxyamine	-14.2979
agnetic	-14.2982
EtN	-14.2992
▁detect	-14.2993
unresolved	-14.2994
▁AXIA	-14.2994
▁Piperazine	-14.2995
▁coevaporation	-14.2995
cyanopyrazin	-14.2998
trioxolane	-14.3002
▁elutes	-14.3004
epithio	-14.3008
hydroxamate	-14.3008
malic	-14.3011
pyrr	-14.3012
amount	-14.3014
without	-14.3015
litre	-14.3015
cyanopiperidine	-14.3016
benzodioxepin	-14.3019
vanadium	-14.3021
Precursor	-14.3021
▁Rotavapor	-14.3021
▁deminerali	-14.3021
anoyl	-14.3026
stat	-14.3028
▁EtoAc	-14.3029
hydroxyacetyl	-14.3032
Acidic	-14.3043
limit	-14.3047
hexacyclo	-14.3047
▁regular	-14.3047
▁Stop	-14.3049
deaza	-14.3051
hexadiene	-14.3052
triaconta	-14.3053
ink	-14.3058
diaminomethylene	-14.306
pentanediol	-14.3067
esterification	-14.307
▁nitroethane	-14.3078
Hep	-14.3078
Carbonyl	-14.308
trimethylbicyclo	-14.3081
Section	-14.3081
anthra	-14.3085
Lev	-14.3087
aminopropane	-14.3089
ethylphenol	-14.3091
butylsulfamoyl	-14.3093
mid	-14.3094
Octa	-14.3098
typically	-14.3099
exact	-14.3099
cycloundecaphane	-14.31
▁intense	-14.31
▁depressurized	-14.3101
▁Overall	-14.3101
▁tungsten	-14.3101
benzoazocine	-14.3105
▁Ion	-14.3116
Cis	-14.3118
che	-14.3123
pyridylboronic	-14.3124
maleate	-14.3127
adipate	-14.3127
naltrexone	-14.3127
▁hemiacetal	-14.3127
sealed	-14.313
benzylammonium	-14.3132
round	-14.3133
pyrazolio	-14.3134
minoacetaldehyde	-14.3139
cyclododec	-14.3148
glyme	-14.3149
bromobutoxy	-14.3151
yloxyphenyl	-14.3154
IntelFlas	-14.3154
▁extreme	-14.3154
▁saved	-14.3154
▁tripeptide	-14.3156
epichlorohydrin	-14.3156
▁Let	-14.3157
separated	-14.3157
MEOH	-14.3158
▁Any	-14.3163
▁Nova	-14.3165
functional	-14.3167
dinitrile	-14.3167
oxophthalazin	-14.3174
▁spirits	-14.3176
benzenesulfinate	-14.3178
▁Partial	-14.318
pristin	-14.3181
▁rotating	-14.3181
Petrol	-14.3181
Basic	-14.3181
▁outside	-14.3183
tritylsulfanyl	-14.3184
Hexyl	-14.3185
TX	-14.3186
▁warn	-14.3188
▁allylmagnesium	-14.3188
cyanomethoxy	-14.3192
phenylsulfamoyl	-14.3192
dihydropyrazino	-14.3199
TF	-14.32
thiono	-14.3203
▁Hi	-14.3203
went	-14.3204
▁Spectrometry	-14.3208
▁already	-14.3208
▁oxidant	-14.3208
▁vacu	-14.3209
mandelate	-14.3209
trifluro	-14.3212
equalizing	-14.3214
nitrophthalic	-14.3214
▁equip	-14.3214
icosa	-14.3216
ropanephosphonic	-14.3222
diaminobenzene	-14.3223
CSA	-14.3224
Ind	-14.3225
oni	-14.3226
ethen	-14.3227
butanedione	-14.3228
inal	-14.323
▁KOt	-14.3234
ornithine	-14.3235
▁granules	-14.3235
▁Reactor	-14.3235
titan	-14.3236
▁enolate	-14.3237
▁setting	-14.3237
SnCl	-14.3237
SepTM	-14.3237
Oxa	-14.324
triphenylamine	-14.3241
▁monoester	-14.3246
▁outer	-14.3254
hu	-14.3254
▁filtr	-14.3257
ket	-14.3258
nitrate	-14.3262
choride	-14.3262
▁orbital	-14.3262
▁Molar	-14.3262
▁discharge	-14.3263
▁egg	-14.3264
thiazinan	-14.3265
aSR	-14.327
point	-14.3272
adjusted	-14.3273
phenylanthracene	-14.3278
methylhydrazine	-14.328
▁cells	-14.328
▁cald	-14.3283
oxopent	-14.3285
▁easily	-14.3289
▁triethyloxonium	-14.3289
chromatotron	-14.3289
carboximidate	-14.3289
penicillani	-14.3291
methine	-14.3297
diaminopyridine	-14.3298
Description	-14.3301
percent	-14.3302
▁recycled	-14.3302
hexadecane	-14.3303
tle	-14.3307
′-({	-14.3307
ethylester	-14.3309
cle	-14.331
methylsilanolate	-14.331
ethanaminium	-14.3311
dialdehyde	-14.3312
generated	-14.3312
▁middle	-14.3313
propanoylamino	-14.3314
CHIRALCEL	-14.3317
▁TPAP	-14.3317
homoserine	-14.3317
lization	-14.3319
arene	-14.3322
hydroxybutyrate	-14.3324
FIG	-14.333
▁degas	-14.3335
azaindolin	-14.3337
sulphinyl	-14.3341
▁Content	-14.3344
aspartate	-14.3344
Selectride	-14.3344
▁Cellulose	-14.3346
sulfonanilide	-14.3353
dimethylpent	-14.3355
Peak	-14.336
avermectin	-14.3363
▁Run	-14.3364
bromofuran	-14.3365
oxooctyl	-14.3367
bromopropionyl	-14.337
gassing	-14.3371
pocket	-14.3371
sensitive	-14.3371
▁denatured	-14.3371
fluorinated	-14.3372
▁mixer	-14.3373
Ratio	-14.3374
own	-14.3374
▁EED	-14.338
methanimidate	-14.3381
spectrum	-14.339
tant	-14.3393
deuterio	-14.3395
▁steroid	-14.3399
▁rotoevaporation	-14.3399
▁AlMe	-14.3401
Micro	-14.3401
▁equi	-14.3406
apt	-14.3409
once	-14.3409
nitroquinazoline	-14.3418
according	-14.3419
trifluor	-14.342
thietan	-14.3425
PYBOP	-14.3426
Amount	-14.3426
tartarate	-14.3426
▁examined	-14.3426
fluoroethylene	-14.3426
morphine	-14.3427
▁coil	-14.3427
obtainable	-14.3427
▁Thereby	-14.3429
phenylpentyl	-14.3432
Morpholino	-14.3434
▁RPLC	-14.3434
methylpyrid	-14.344
▁Ta	-14.3442
▁Theoretical	-14.3446
Kromasil	-14.3448
deuterated	-14.3448
octyne	-14.3448
derivative	-14.3449
bromobutanoate	-14.3449
▁Ligand	-14.3454
▁Bo	-14.3454
▁Followed	-14.3454
▁Agela	-14.3454
Paraformaldehyde	-14.3454
▁atomosphere	-14.3454
▁pounds	-14.3455
▁sealing	-14.3455
benzimidate	-14.3456
Silicagel	-14.3457
CMA	-14.3457
ock	-14.346
magnesiumbromide	-14.3466
▁tBuOK	-14.3467
tetrahydropyrano	-14.3477
trichloroacetyl	-14.3478
▁OR	-14.348
▁Generation	-14.3482
▁IBX	-14.3482
▁demonstrated	-14.3482
anilinofluoran	-14.3482
▁triturate	-14.3483
teen	-14.3485
ew	-14.3487
benzylpyrrolidin	-14.3487
reacted	-14.3492
▁nove	-14.3493
uv	-14.3497
NCS	-14.3497
triethylsilanyl	-14.35
hang	-14.3507
SNAP	-14.3508
flowing	-14.3509
▁Propargyl	-14.3509
Boston	-14.3509
▁Fieser	-14.3509
iminium	-14.351
▁unidentified	-14.351
CYCLOBUTYL	-14.351
bipyrazinyl	-14.351
diketo	-14.3511
phenylbutanoic	-14.3511
▁considerabl	-14.3511
ylsulphonyl	-14.3514
head	-14.3517
ities	-14.3517
▁Was	-14.3521
iti	-14.3522
aro	-14.3522
acetamidomethyl	-14.3525
oxamide	-14.3529
formation	-14.3532
inic	-14.3535
equ	-14.3535
ACA	-14.3536
▁CHP	-14.3536
trichlorobenzene	-14.3537
Comparative	-14.3537
▁initiation	-14.3537
▁nonpolar	-14.3538
hydroxypropane	-14.3538
butanesulfonyl	-14.3539
▁MeONa	-14.354
imidazolinium	-14.3541
iodopropyl	-14.3541
▁TMSBr	-14.3541
▁undergo	-14.3545
xo	-14.3545
glutar	-14.3547
ipped	-14.3556
phenylmethane	-14.3558
quinolinium	-14.3559
▁amalgam	-14.3565
▁diatomite	-14.3565
▁stiffed	-14.3565
plant	-14.3565
▁zeolite	-14.3566
cyclobutanamine	-14.3572
fluoropicolinate	-14.3574
may	-14.3578
trifl	-14.3579
gly	-14.3583
▁NT	-14.3584
Pin	-14.3589
aziridin	-14.3591
EST	-14.3592
▁sediment	-14.3593
▁inserted	-14.3593
▁hexamethylditin	-14.3594
methoxyimidazo	-14.3596
▁coloration	-14.3597
Propane	-14.3608
▁circulating	-14.3611
decen	-14.3611
Gal	-14.3611
cyanopropyl	-14.3612
carbamoylmethoxy	-14.3612
fluoronaphthalen	-14.3612
dichloropyrid	-14.3614
dioxopiperazin	-14.3615
enetriamine	-14.3616
▁Be	-14.362
emaining	-14.362
▁ferrous	-14.3621
▁flaky	-14.3621
▁observ	-14.3621
drop	-14.3622
propanedinitrile	-14.3622
▁silic	-14.3626
chlorobenzamido	-14.3627
fr	-14.3631
metha	-14.3646
vitamin	-14.365
▁HORI	-14.365
goes	-14.365
▁blanketed	-14.3651
blue	-14.3658
)+(	-14.3662
phospholane	-14.3667
▁Oil	-14.3668
phenylenebis	-14.3668
tet	-14.3681
▁millimols	-14.3687
nonaen	-14.3693
▁asymmetric	-14.3697
ethynylbenzene	-14.3703
▁measuring	-14.3706
▁alternately	-14.3706
methylolpropane	-14.3706
▁pressed	-14.3707
▁eluated	-14.3707
▁indium	-14.3711
▁terephthal	-14.3712
can	-14.3712
Methylene	-14.3713
exotherm	-14.3718
stirring	-14.3719
pyrrolizin	-14.3732
benzoquinon	-14.3732
▁Phosgene	-14.3735
▁flocculent	-14.3735
mannitol	-14.3735
BrFNO	-14.3735
▁Resolution	-14.3735
Proline	-14.3735
PGE	-14.3736
pregnene	-14.3737
▁MAO	-14.3737
methyldisulfanyl	-14.374
thiobenzoic	-14.3753
▁zone	-14.3754
sis	-14.3755
thiazino	-14.3756
isopropylsilane	-14.3758
nitrophenylthio	-14.3758
Vydac	-14.3763
▁solubilised	-14.3763
▁adsorbent	-14.3763
pectroscopically	-14.3763
▁Jgem	-14.3763
▁Paar	-14.3764
aldoxime	-14.3765
▁hydroxyde	-14.3771
ima	-14.3774
etic	-14.3775
ylsulfamoyl	-14.3779
repeated	-14.378
benzhydrol	-14.3792
sisomicin	-14.3792
▁unstable	-14.3792
▁Science	-14.3792
Porter	-14.3792
aminobicyclo	-14.3792
TR	-14.3794
▁Discover	-14.3797
adamantanone	-14.3798
catalyzed	-14.3802
dichlorovinyl	-14.3812
vanillin	-14.3813
MeLeu	-14.3817
butoxyethyl	-14.3819
▁icy	-14.382
Yamazen	-14.382
▁lactol	-14.382
acte	-14.3826
▁Gr	-14.3834
telluro	-14.3836
uo	-14.3836
LST	-14.3837
aminoethylamino	-14.3838
ifying	-14.3839
chloroanilino	-14.384
Degussa	-14.3841
piperidinamine	-14.3844
aminoiminomethyl	-14.3849
Novozym	-14.3849
▁Lindlar	-14.3849
pivalamido	-14.3849
diformyl	-14.3849
▁[(+)	-14.3852
diiridium	-14.3853
▁gases	-14.3859
nal	-14.386
carboxylicacid	-14.3863
naphthalenyloxy	-14.387
▁Eur	-14.3876
Dinitro	-14.3877
▁rotovapped	-14.3878
▁recrystallize	-14.388
reactor	-14.3882
methacryloxy	-14.3889
▁promote	-14.3897
▁weigh	-14.3898
negative	-14.3903
Adamantan	-14.3904
irregular	-14.3907
▁preformed	-14.3907
▁XDB	-14.3907
ule	-14.3909
▁hydroxyamine	-14.391
iastereoisomeric	-14.3911
methylfuro	-14.3912
anthryl	-14.3913
▁dilithium	-14.3913
GE	-14.3915
furoate	-14.3926
prosta	-14.3926
diisobutylamino	-14.3932
▁Diethylamine	-14.3933
acrolein	-14.3933
leucinamide	-14.3935
▁somewhat	-14.3936
EPINE	-14.3936
butenedioate	-14.3936
butylnitrite	-14.3941
thiadiazolidine	-14.3943
Methoxyethyl	-14.3946
trifluorobutoxy	-14.3946
propioli	-14.3951
▁seeds	-14.3959
enylamino	-14.3959
ature	-14.3964
naphthacene	-14.3965
▁joined	-14.3965
carbimidoyl	-14.3965
diethoxysilane	-14.3967
methylphosphonic	-14.3968
pink	-14.3969
▁Gram	-14.3969
▁faded	-14.3972
phenylthiomethyl	-14.3976
dimethylacetal	-14.3981
akis	-14.3981
bismuth	-14.3982
phenylureido	-14.3983
anoic	-14.3987
▁Aluminium	-14.3994
dppp	-14.3994
▁alkoxide	-14.3994
▁jar	-14.3994
leu	-14.3999
ISN	-14.4003
methyoxy	-14.4005
▁comb	-14.4008
isophthalamide	-14.4008
▁droplets	-14.4012
▁complexed	-14.4016
PyBroP	-14.4023
▁Expected	-14.4023
▁hypophosphite	-14.4023
▁intensively	-14.4023
oestra	-14.4028
docos	-14.4029
Phenylmethyl	-14.4033
lithio	-14.4048
oxepan	-14.4051
=(+)	-14.4052
▁balance	-14.4052
▁everything	-14.4052
▁oxybromide	-14.4054
hlorosulfonic	-14.4058
▁Tributyl	-14.406
select	-14.406
benzoxa	-14.4066
trated	-14.407
hydroperoxide	-14.407
methylformamide	-14.408
▁brief	-14.4082
▁Heterocyclic	-14.4082
▁never	-14.4083
Benzylamino	-14.4083
▁JPC	-14.4083
together	-14.4091
▁MeCl	-14.41
ylideneamino	-14.4105
ehtyl	-14.4108
ilic	-14.4109
oxopropanoic	-14.4111
▁render	-14.4111
TBDPS	-14.4111
▁visualized	-14.4111
maleic	-14.4112
acenaphthylene	-14.4114
benztriazole	-14.4115
platin	-14.4116
Chlorosulfonyl	-14.4121
hydroxyacetamide	-14.4124
long	-14.4133
phenylfuro	-14.4136
pentylamine	-14.4136
DAP	-14.4136
activity	-14.4138
methylethanamine	-14.414
▁basify	-14.4141
asparagine	-14.4141
fulvene	-14.4141
▁cacld	-14.4141
▁catalog	-14.4141
▁quality	-14.4141
▁sitting	-14.4141
oxaziridine	-14.4141
▁techniques	-14.4146
ATE	-14.4149
▁Products	-14.415
ater	-14.4151
rain	-14.4154
▁Sc	-14.4155
mode	-14.416
hydrazo	-14.4165
tio	-14.4166
▁benzylmagnesium	-14.4167
cholesterol	-14.4171
sancycline	-14.4171
▁SpeedROD	-14.4171
Spiro	-14.4171
Pyrazol	-14.4172
sample	-14.4174
▁dehydrate	-14.4175
Rad	-14.4183
methyltetrazol	-14.4183
▁multiplets	-14.4183
ko	-14.4185
TEMPO	-14.4186
commercial	-14.4186
▁pipetted	-14.4189
phon	-14.4189
alkylation	-14.4195
oxidopyridin	-14.4195
Pre	-14.4197
iodobenzaldehyde	-14.4199
rri	-14.42
stannic	-14.42
lar	-14.4201
▁HAr	-14.4203
desA	-14.421
trioxabicyclo	-14.4211
Deoxo	-14.4213
phenethoxy	-14.4215
pyridazina	-14.422
ley	-14.4225
chlo	-14.423
oxyacetic	-14.423
European	-14.423
cyclododecanone	-14.423
▁dichoromethane	-14.423
▁disk	-14.423
benzimidoyl	-14.423
methylsulphenyl	-14.4231
▁uniformly	-14.4231
▁(+/-)-	-14.4231
propiononitrile	-14.4231
ov	-14.4233
hexopyranosyl	-14.424
▁columned	-14.4243
oxoheptyl	-14.4243
Fluoren	-14.4243
combined	-14.425
bromohexyl	-14.4253
aseous	-14.4253
nitroanilino	-14.4257
chromatogra	-14.4258
trimethylphenoxy	-14.4259
▁Analogous	-14.426
Lutidine	-14.426
dimethylforamide	-14.426
▁lithiated	-14.426
▁Aldehyde	-14.426
▁PGI	-14.4261
tributylstannane	-14.4267
ana	-14.4274
propylethylamine	-14.4276
alic	-14.4283
phenylbutanoate	-14.4285
bicarbonate	-14.4285
▁dip	-14.4285
FW	-14.4286
levulinic	-14.429
AKU	-14.429
phosphonous	-14.4291
HYDROXY	-14.4291
pyrrolidon	-14.4292
shoulder	-14.4293
formiate	-14.4294
educt	-14.4307
mot	-14.4308
RMN	-14.4313
-((−)-	-14.4314
violet	-14.4314
fitted	-14.4315
Flu	-14.4316
ulin	-14.4318
portion	-14.4318
isopropylborate	-14.432
▁TEAB	-14.4322
Directed	-14.4323
sulfonohydrazide	-14.4324
Phen	-14.4325
▁Rac	-14.4327
▁crudely	-14.433
phenylpent	-14.4334
▁TMSI	-14.4335
▁purif	-14.4346
gauge	-14.4347
▁poor	-14.4348
borolan	-14.4349
▁program	-14.4351
Epoxy	-14.4351
▁fall	-14.4355
benzenemethanol	-14.4358
carbam	-14.4359
ele	-14.4364
lid	-14.4369
▁dibenzoate	-14.437
oxoisoindoline	-14.4375
xylo	-14.4378
▁stay	-14.4381
▁disposable	-14.4381
▁rotated	-14.4381
xanthate	-14.4381
▁Other	-14.4382
XXIV	-14.4384
tributylammonium	-14.4385
heptamethyl	-14.4386
formimidamide	-14.4388
pival	-14.4398
OXY	-14.4399
oxocyclopentyl	-14.4399
▁reveals	-14.4405
zole	-14.4411
▁Manufacturing	-14.4411
▁sheet	-14.4411
quinacridone	-14.4411
▁ramping	-14.4412
▁ammoniacal	-14.4412
Nor	-14.4414
DAB	-14.4418
carbonyloxyethyl	-14.4418
({[(	-14.442
hexylphenyl	-14.4422
Phenethyl	-14.4423
methylbutanamide	-14.4424
Per	-14.4424
▁Tube	-14.4429
▁Jab	-14.4433
phenoxyl	-14.4435
▁reactive	-14.4438
▁centigrade	-14.4442
▁dibromomethane	-14.4443
ergoline	-14.4444
▁recovering	-14.4445
▁solubilize	-14.4446
▁Sh	-14.4454
hydroxypropanoyl	-14.4454
trisamine	-14.4457
▁stages	-14.4467
butoxyacetate	-14.4467
swollen	-14.4472
pentylsulfonyl	-14.4474
nitr	-14.4478
methoxypyrazine	-14.4481
ridin	-14.4483
Naph	-14.4483
HEX	-14.4484
thienylacetamido	-14.4485
methylated	-14.4487
cho	-14.4492
phenylbutyrate	-14.4495
hydroborate	-14.4497
phenoxyphenoxy	-14.4499
dodecylamine	-14.4499
uming	-14.4503
REDISEP	-14.4503
▁Weinreb	-14.4503
▁Rotation	-14.4503
▁microanalysis	-14.4503
oxocyclohex	-14.4505
biscarbamate	-14.4506
mag	-14.4509
Strem	-14.451
Dowex	-14.451
▁evolve	-14.4515
phthalimid	-14.4515
▁absorptions	-14.4516
methylpropanal	-14.4519
octyloxyphenyl	-14.4522
cyclopentylidene	-14.4532
dimethylpyrrole	-14.4533
glycoside	-14.4534
▁failed	-14.4534
▁venting	-14.4534
dibenzylidine	-14.4535
osine	-14.454
-((((((	-14.4542
trimethoxysilyl	-14.4543
gon	-14.455
propargylamine	-14.4556
isoleucyl	-14.4563
▁Ko	-14.4563
▁substantial	-14.4564
▁create	-14.4565
▁dehydrating	-14.4565
▁titurated	-14.4565
▁Green	-14.4565
Tech	-14.4565
trimethylbenzoyl	-14.4569
dialkyl	-14.457
indolylcarbonyl	-14.457
corr	-14.457
GT	-14.4572
sulfonato	-14.4574
complete	-14.4574
Cyanomethyl	-14.4575
phenylenedi	-14.4576
leucinate	-14.4576
bromine	-14.4577
oxobutyric	-14.4583
yro	-14.4585
Ga	-14.4586
▁Triisopropyl	-14.459
WSC	-14.4594
▁chromatograpy	-14.4596
Bromopyridine	-14.4598
▁Prepare	-14.4601
▁dibenzylamine	-14.4602
vide	-14.4603
lene	-14.4607
ynoyl	-14.4612
▁NOE	-14.4613
azaindol	-14.462
▁forerun	-14.4624
▁intensive	-14.4626
Welch	-14.4627
▁oleic	-14.4627
cinnamamide	-14.4627
eous	-14.4636
divinylbenzene	-14.4638
▁Ann	-14.4639
eri	-14.4641
hydroxyaniline	-14.4641
clear	-14.4643
Thiol	-14.4644
oxohexan	-14.4646
phenylsulfinyl	-14.4651
▁Ste	-14.4654
▁Research	-14.4658
▁ensued	-14.4658
▁freezing	-14.4658
Alanine	-14.4658
Shaker	-14.4659
cumyl	-14.4661
dimorpholino	-14.4661
boxylic	-14.4661
bisphenol	-14.4665
block	-14.4667
bromomethylene	-14.4669
▁Reg	-14.4672
hexanediol	-14.4673
▁benzylester	-14.4675
Optical	-14.4676
METHANOL	-14.4676
conversion	-14.4677
chlorotoluene	-14.4677
Pyrimidin	-14.4686
aminohexyl	-14.4686
sulfin	-14.4687
bromohexanoate	-14.4687
screen	-14.4689
▁subsurface	-14.4689
difluoropropyl	-14.469
▁prewashed	-14.4691
isobutoxyphenyl	-14.4691
crotyl	-14.4693
ethylethylketone	-14.4697
anhyd	-14.4698
▁EL	-14.47
fil	-14.4704
pyridylthio	-14.4705
isobutyramido	-14.4708
caproic	-14.4713
▁stirr	-14.4719
▁Auto	-14.472
boratricyclo	-14.472
Atlantis	-14.472
malonaldehyde	-14.472
uitably	-14.472
uncorrected	-14.472
phenoxybenzene	-14.4721
▁faintly	-14.4721
dichloroacetone	-14.4721
▁(.+-.)-	-14.4721
acetylpiperazine	-14.4722
ular	-14.4723
▁cdc	-14.4733
mesitylene	-14.4738
ethenesulfonyl	-14.4739
separation	-14.4744
Org	-14.4744
Imidazo	-14.4745
▁Oxygen	-14.4752
▁guard	-14.4752
phosphonyl	-14.4754
▁semisaturated	-14.4756
lie	-14.4761
phosphon	-14.4763
methylethenyl	-14.4767
benzothiopyran	-14.4768
EPA	-14.4771
▁SD	-14.4773
chlorothiazole	-14.4776
▁distillated	-14.4777
also	-14.4778
ephedrine	-14.4783
Interchim	-14.4783
OpenLynx	-14.4783
PyBrOP	-14.4783
▁relatively	-14.4785
▁exothermed	-14.4788
▁Shi	-14.4789
esium	-14.4789
trifluoride	-14.479
llowed	-14.4794
▁homogenized	-14.4795
trifluo	-14.4802
ected	-14.4803
uni	-14.4808
oxobutanoyl	-14.4811
Diaion	-14.4811
methylsulphinyl	-14.4814
▁Recovered	-14.4815
napthalene	-14.4816
ABX	-14.4818
▁consist	-14.4821
▁treatments	-14.4822
carboxypentyl	-14.4827
methylsulfide	-14.483
Methylpiperazine	-14.483
ClFNO	-14.4834
▁mPa	-14.4837
methylpropene	-14.4846
▁Fifty	-14.4847
▁Intelliflash	-14.4847
serinate	-14.4847
▁ceric	-14.4847
▁brick	-14.4848
norleucine	-14.4848
volumetric	-14.4848
Ether	-14.485
phenylisoxazol	-14.4851
▁walls	-14.4853
phosphin	-14.4854
OCHF	-14.4857
strong	-14.4859
butylsulfanyl	-14.4867
dioxobenzo	-14.4867
omic	-14.4868
glucopyranos	-14.4868
nicotine	-14.4874
iethylethanamine	-14.4875
▁Detected	-14.4879
▁Germany	-14.4879
benzazocine	-14.4879
▁TMSCHN	-14.4879
▁going	-14.4879
pyrocarbonate	-14.4879
modified	-14.4879
▁Poured	-14.4879
uch	-14.4884
methylethylidene	-14.4884
ethynylpyridine	-14.4886
▁sides	-14.4892
XBridgeTM	-14.4896
cyclododecane	-14.4901
TD	-14.4904
heptanone	-14.4904
▁need	-14.4911
glyceryl	-14.4911
theophylline	-14.4911
uinoline	-14.4911
▁Said	-14.4912
insoluble	-14.4915
glycolate	-14.4915
cont	-14.4915
ethylhexanol	-14.4916
tlc	-14.4918
Kg	-14.4923
▁dish	-14.4924
▁dired	-14.4924
▁mil	-14.4932
▁Mole	-14.4935
flouro	-14.4935
▁tetraethylene	-14.4936
Rainin	-14.4943
▁Rotary	-14.4943
phosphonoalkyl	-14.4943
▁rotoevaporated	-14.4943
isoglutamine	-14.4943
branched	-14.4944
tetratriaconta	-14.4945
dihydrooxazol	-14.4945
▁exceeded	-14.4946
fluoroazetidine	-14.4947
checked	-14.4948
equipped	-14.4948
hexadec	-14.4949
sui	-14.4951
▁embodiments	-14.4958
▁purposes	-14.4964
acenaphthylen	-14.4972
▁spontaneous	-14.4975
▁Catalytic	-14.4975
▁body	-14.4975
▁desalted	-14.4975
▁dibasic	-14.4978
▁reveal	-14.4981
TMEDA	-14.4982
coupling	-14.4984
pyrazolidin	-14.4992
inner	-14.4993
methanesulfon	-14.4998
Triazol	-14.5005
Lobar	-14.5007
dimethoxypyridin	-14.5007
cyclopentadecine	-14.5009
onex	-14.5013
hydrido	-14.502
yco	-14.5025
NHNH	-14.5025
▁measurements	-14.5029
dimethoxybenzo	-14.503
silylated	-14.5034
methylcyclopent	-14.5038
triphosphinane	-14.5039
▁Specifically	-14.5039
▁Iodoethane	-14.504
▁hypo	-14.504
butyr	-14.5046
trifluorophenoxy	-14.5049
trienoic	-14.5049
oleate	-14.505
urr	-14.5057
phosphinan	-14.5058
inder	-14.5062
sulphur	-14.5067
isonitrile	-14.5068
▁ball	-14.507
nitropropane	-14.5071
SHIMA	-14.5072
vinblastine	-14.5072
floxacin	-14.5072
▁scraped	-14.5072
Johnson	-14.5072
▁reprecipitation	-14.5072
ureidomethyl	-14.5075
sulphon	-14.5075
tribenzyloxy	-14.5076
pyrro	-14.5078
due	-14.5082
hexoxy	-14.5085
methylphosphoric	-14.5085
tellur	-14.5086
onal	-14.5087
extraction	-14.5087
bond	-14.5089
bromopentyl	-14.5092
▁spent	-14.5093
▁activation	-14.5095
▁New	-14.5095
▁chromat	-14.5097
▁resonances	-14.5099
▁isopropanolic	-14.5099
▁MeSO	-14.5102
▁limited	-14.5104
Hydride	-14.5105
Carboxylic	-14.5105
oxoindoline	-14.5112
Ark	-14.5118
dibenzothiophen	-14.5119
hexachloro	-14.5119
tight	-14.5123
▁phenyltrimethyl	-14.5128
▁manual	-14.5137
prolonged	-14.5137
▁pestle	-14.5137
isonipecotic	-14.5137
▁iPrMgCl	-14.5138
▁alloy	-14.5138
trifluoroacetone	-14.5138
propoxycarbonyl	-14.5141
androstene	-14.5142
dimer	-14.5142
electric	-14.5146
Conditions	-14.5154
reversed	-14.5155
anic	-14.5157
pyranose	-14.5158
indo	-14.5158
disilane	-14.516
loc	-14.5164
Trifluoromethane	-14.5164
Hydr	-14.5167
▁particular	-14.517
hexaenamido	-14.517
▁thioether	-14.5172
▁drybox	-14.5172
▁alkylat	-14.5179
dark	-14.518
trimethylpentan	-14.5181
phenylazetidin	-14.5181
▁Do	-14.5185
aqeous	-14.5189
carbazate	-14.5192
iodobenzamide	-14.5193
malo	-14.5193
piperidyloxy	-14.5198
amidate	-14.52
▁blow	-14.5201
porous	-14.5203
▁Guard	-14.5203
▁Phosphoryl	-14.5203
▁pmr	-14.5203
▁lastly	-14.5205
hetero	-14.5206
trideoxy	-14.521
DCA	-14.5214
Rink	-14.5215
methansulfonyl	-14.5218
dodecanoyl	-14.5218
Naphthalen	-14.5221
equilibrated	-14.5227
nitrobenzenamine	-14.5227
celite	-14.5228
ability	-14.523
ete	-14.5232
pressurised	-14.5236
xemplary	-14.5236
▁analyzing	-14.5236
▁matched	-14.5236
naphthalocyanine	-14.5236
▁aldol	-14.5236
▁isocyanoacetate	-14.5236
▁perborate	-14.5237
▁tit	-14.5246
ode	-14.5258
▁Het	-14.5258
▁Adjust	-14.5259
TSP	-14.526
propylbenzene	-14.5262
oxamate	-14.5262
diameter	-14.5263
overall	-14.5263
uad	-14.5266
anis	-14.5267
isophorone	-14.5269
▁Extrelut	-14.5269
▁Small	-14.5269
▁baseline	-14.5271
benzothiadiazine	-14.5274
Dioxa	-14.5276
etraphenylborate	-14.5277
▁onset	-14.5278
site	-14.528
ign	-14.5282
hep	-14.5284
ank	-14.5289
methox	-14.5295
stationary	-14.5297
methoxynicotinic	-14.5298
lip	-14.5302
▁Spectroscopy	-14.5302
▁stirrable	-14.5302
menthol	-14.5304
nitroxy	-14.5306
oin	-14.5306
isopropoxide	-14.5306
hold	-14.5306
ski	-14.5308
furanose	-14.5313
chloropyrid	-14.5313
oxylate	-14.5316
▁NaOCH	-14.5317
Naphthalene	-14.5317
dibromohexane	-14.5321
etheno	-14.5323
aka	-14.5334
yellowish	-14.5335
Trade	-14.5335
▁certain	-14.5335
tolunitrile	-14.5336
▁recombined	-14.5336
diazoniabicyclo	-14.5337
▁ethanolate	-14.5338
effective	-14.5338
▁deuterium	-14.5339
▁Sieves	-14.5342
azobenzene	-14.5343
PtBu	-14.5344
lodo	-14.535
aminobutyrate	-14.5352
tain	-14.5355
pentaoxa	-14.5361
such	-14.5363
thiazolidinone	-14.5365
iu	-14.5366
pyrol	-14.5366
henyl	-14.5367
times	-14.5368
CAUTION	-14.5369
▁ACID	-14.5369
▁cps	-14.5369
phosphoramidate	-14.5371
XXV	-14.5371
heptenoate	-14.5373
hydrous	-14.5373
▁elementar	-14.5376
▁bistri	-14.5379
Benzofuran	-14.538
▁FeSO	-14.538
sulfite	-14.5381
eme	-14.5384
ough	-14.5388
dioxaborol	-14.5389
ulate	-14.5395
▁specified	-14.5403
Stage	-14.5406
▁petroleumether	-14.5406
chloronicotinoyl	-14.5408
▁Calcium	-14.5408
adamant	-14.5409
▁confirms	-14.5411
▁solidification	-14.5413
oxoazepan	-14.5413
spt	-14.5416
dodecanol	-14.5423
▁solvated	-14.5427
phenolato	-14.5429
AlCl	-14.543
▁claim	-14.5436
mannopyranosyl	-14.5436
Solmix	-14.5436
▁compatible	-14.5436
▁electrode	-14.5436
▁transferring	-14.5436
piperizine	-14.5437
[...]
