<unk>	0
<s>	0
</s>	0
▁	-2.70841
.	-2.83834
-	-3.06126
,	-3.09428
1	-3.13595
2	-3.28681
0	-3.30386
▁(	-3.37005
3	-3.59554
4	-3.72914
)	-3.7467
5	-3.76381
▁was	-4.16955
6	-4.17836
7	-4.22948
H	-4.26024
▁and	-4.32013
8	-4.35474
9	-4.61127
),	-4.64988
▁of	-4.65904
▁the	-4.73622
▁The	-4.81338
▁with	-4.88682
▁to	-4.91947
▁g	-4.96356
▁mmol	-5.01143
▁in	-5.03182
▁mL	-5.09095
▁a	-5.12769
-(	-5.22295
▁mixture	-5.29508
▁for	-5.35388
▁at	-5.37882
;	-5.47304
▁solution	-5.48041
▁mg	-5.48706
)-	-5.50437
°	-5.52292
▁added	-5.52401
▁C	-5.56951
=	-5.64902
▁ml	-5.68352
m	-5.69732
:	-5.73674
▁reaction	-5.77852
%	-5.88074
▁by	-5.88599
yl	-5.88774
▁stirred	-5.8901
/	-5.89223
]	-5.93267
d	-5.9428
).	-5.95903
▁J	-5.96198
s	-6.00905
▁temperature	-6.01164
(	-6.03485
▁Hz	-6.0538
▁water	-6.07985
▁under	-6.11363
▁acid	-6.13382
▁dried	-6.19684
▁were	-6.21539
▁concentrated	-6.24958
▁as	-6.2592
▁room	-6.29475
N	-6.29617
▁over	-6.29787
methyl	-6.30009
▁is	-6.30655
▁then	-6.31719
▁washed	-6.32052
▁acetate	-6.32169
▁ADD	-6.35525
▁ethyl	-6.35884
);	-6.36503
▁organic	-6.42077
▁sodium	-6.42792
[	-6.46478
▁solid	-6.46892
▁residue	-6.48833
M	-6.52626
C	-6.55288
▁hours	-6.56999
▁product	-6.58847
▁filtered	-6.59621
▁aqueous	-6.61732
▁h	-6.62316
▁To	-6.6615
▁purified	-6.67611
▁give	-6.69946
▁N	-6.70658
+	-6.72539
▁chromatography	-6.75645
▁After	-6.75735
▁extracted	-6.76796
▁A	-6.76881
S	-6.789
▁pressure	-6.80563
phenyl	-6.85114
▁chloride	-6.87845
▁reduced	-6.8796
-[	-6.90471
▁m	-6.91372
R	-6.95214
▁layer	-6.9561
▁yield	-6.96645
]-	-6.96662
amino	-6.96992
▁dissolved	-6.97824
▁δ	-6.98317
▁min	-6.99433
O	-6.99582
▁silica	-6.99633
▁gel	-7.00367
▁NMR	-7.02078
▁an	-7.05369
▁cooled	-7.05639
▁resulting	-7.05932
▁column	-7.06864
ethyl	-7.07406
▁brine	-7.07416
▁solvent	-7.09436
▁crude	-7.12332
▁sulfate	-7.13076
▁combined	-7.13916
▁compound	-7.1406
▁ether	-7.1556
▁saturated	-7.15939
t	-7.16323
%)	-7.16432
▁evaporated	-7.17423
▁heated	-7.17617
×	-7.17647
▁M	-7.17718
▁oil	-7.18836
butyl	-7.19393
▁minutes	-7.19767
chloro	-7.21816
▁EtOAc	-7.22805
▁MHz	-7.23009
▁anhydrous	-7.25086
▁obtained	-7.27891
▁from	-7.29363
▁vacuo	-7.30841
%).	-7.31761
▁dichloromethane	-7.3255
▁on	-7.33634
▁THF	-7.35207
▁methanol	-7.35517
▁mol	-7.36352
z	-7.37328
Cl	-7.37952
▁[	-7.39794
▁removed	-7.39853
▁yellow	-7.40927
▁stirring	-7.41107
▁white	-7.41877
▁dropwise	-7.44535
▁overnight	-7.45492
▁filtrate	-7.47319
▁which	-7.47567
):	-7.50646
a	-7.52304
▁diluted	-7.53479
SO	-7.53608
▁afford	-7.54607
▁phase	-7.54802
▁STIR	-7.56547
▁CH	-7.58403
▁CONCENTRATE	-7.58777
▁NOACTION	-7.6002
▁followed	-7.61981
▁ester	-7.63644
b	-7.64219
bromo	-7.646
methoxy	-7.64611
▁title	-7.64758
▁YIELD	-7.649
tert	-7.65985
dd	-7.66118
▁vacuum	-7.6643
▁Na	-7.66478
-((	-7.68612
dimethyl	-7.6874
fluoro	-7.69163
hydroxy	-7.69365
▁eq	-7.70277
▁HCl	-7.70834
carboxylate	-7.70968
L	-7.71236
▁MS	-7.71745
▁DCM	-7.72872
▁nitrogen	-7.73206
one	-7.7339
▁ice	-7.7472
▁off	-7.76314
▁hour	-7.77272
▁tert	-7.77474
▁using	-7.7759
▁into	-7.7837
dihydro	-7.78446
▁μ	-7.79642
▁DMF	-7.79734
carboxylic	-7.80064
▁addition	-7.83425
▁methyl	-7.84066
oxo	-7.84501
-[(	-7.84603
▁WAS	-7.84749
▁carbonate	-7.85113
▁magnesium	-7.85501
′-	-7.85625
▁separated	-7.85748
▁−	-7.86256
▁ethanol	-7.87676
pyridin	-7.87722
trifluoromethyl	-7.90235
▁s	-7.90378
SOLUTION	-7.90546
AKE	-7.90569
▁SLN	-7.90951
▁flask	-7.91168
▁toluene	-7.94317
▁further	-7.94703
▁are	-7.95257
▁layers	-7.95314
MS	-7.95915
▁filtration	-7.96496
▁allowed	-7.96753
▁suspension	-7.97722
▁pH	-7.98002
▁hydroxide	-7.99814
▁tetrahydrofuran	-7.99885
▁potassium	-8.00115
▁MeOH	-8.00173
▁reflux	-8.00205
▁treated	-8.00462
tetrahydro	-8.00689
▁flash	-8.03443
▁precipitate	-8.03544
OLL	-8.03714
CH	-8.04159
▁Example	-8.07092
hexane	-8.07707
▁obtain	-8.07836
amine	-8.09237
▁material	-8.09879
▁dry	-8.10199
c	-8.11822
pyridine	-8.11921
▁collected	-8.13148
▁HPLC	-8.13221
▁hydrochloric	-8.13345
▁equiv	-8.13874
▁hydrochloride	-8.14638
▁through	-8.14756
br	-8.14881
▁atmosphere	-8.1492
▁d	-8.17319
ER	-8.17329
AY	-8.17657
ECTL	-8.1791
▁CDCl	-8.18721
▁poured	-8.18772
p	-8.19162
▁MgSO	-8.19887
▁FILTER	-8.21064
▁this	-8.22972
▁diethyl	-8.23637
▁hexane	-8.25292
ESI	-8.25486
CDCl	-8.25533
▁DRYSOLUTION	-8.25715
g	-8.2659
▁keep	-8.2662
▁NaHCO	-8.267
▁quenched	-8.26994
benzyl	-8.27482
▁hydrogen	-8.28486
▁triethylamine	-8.28534
▁cooling	-8.29183
▁This	-8.29208
▁PURIFY	-8.29474
▁DMSO	-8.29628
▁purification	-8.29748
▁used	-8.3012
▁methylene	-8.30986
▁acetonitrile	-8.31077
▁chloroform	-8.32336
▁LCMS	-8.32552
▁bath	-8.34471
▁RT	-8.35001
▁ambient	-8.36329
}-	-8.374
pyrimidin	-8.37929
▁colorless	-8.38573
▁bicarbonate	-8.39299
bis	-8.40574
}	-8.40889
NMR	-8.409
methanol	-8.41001
CO	-8.41537
▁acetic	-8.42014
carbonyl	-8.42082
▁step	-8.42346
▁rt	-8.43918
imethylformamide	-8.44159
Hz	-8.44433
e	-8.44808
▁distilled	-8.45148
▁SETTEMPERATURE	-8.45432
▁Then	-8.45494
▁eluting	-8.46889
E	-8.47015
▁x	-8.48311
oxy	-8.48455
▁about	-8.48643
▁slowly	-8.4915
▁dryness	-8.49435
▁after	-8.50996
▁LC	-8.53156
propyl	-8.53429
▁desired	-8.53802
▁salt	-8.53878
▁times	-8.54804
-{	-8.55047
▁Step	-8.5611
▁L	-8.56175
▁without	-8.5623
▁crystals	-8.56426
▁EXTRACT	-8.57068
▁that	-8.57973
▁argon	-8.58012
▁found	-8.58187
▁containing	-8.58756
▁NH	-8.58964
▁ppm	-8.59033
▁hr	-8.59513
piperidine	-8.59756
▁extracts	-8.60184
▁NaOH	-8.61303
water	-8.61852
α	-8.62843
▁prepared	-8.63184
▁gave	-8.63921
▁brown	-8.64418
l	-8.6764
D	-8.6766
▁refluxed	-8.67888
▁gradient	-8.6793
▁up	-8.67956
▁ammonium	-8.68756
ethoxy	-8.69087
▁three	-8.69465
▁mole	-8.69543
▁provide	-8.69553
▁time	-8.70147
Na	-8.70373
▁between	-8.70671
▁charged	-8.72082
carboxamide	-8.72579
▁B	-8.73429
▁Pd	-8.73834
fluorophenyl	-8.74139
−	-8.74649
DMSO	-8.74838
ol	-8.75318
piperidin	-8.76198
▁t	-8.76255
▁TLC	-8.76414
▁until	-8.76596
▁TFA	-8.76861
pyrazol	-8.76868
▁hexanes	-8.77423
pyrimidine	-8.78805
nitro	-8.79339
▁n	-8.79969
▁acetone	-8.80217
▁next	-8.80684
EtOAc	-8.82184
▁pale	-8.82568
▁cm	-8.82728
benzo	-8.82816
cyclopropyl	-8.83002
▁phases	-8.83892
dimethylamino	-8.84219
▁completion	-8.84848
▁twice	-8.84916
▁it	-8.85192
▁powder	-8.85327
▁above	-8.85517
▁partitioned	-8.85774
][	-8.86158
pyrrolo	-8.86792
MeOH	-8.87258
▁hydride	-8.87651
▁thereto	-8.87731
▁additional	-8.87907
▁light	-8.88172
▁taken	-8.88626
butoxycarbonyl	-8.89167
▁round	-8.89267
▁In	-8.89396
dichloro	-8.89658
'-	-8.90573
▁dioxane	-8.92086
▁resultant	-8.92349
▁described	-8.93143
MgSO	-8.93153
benzyloxy	-8.934
acetic	-8.94621
OWOTHERPROCEDURE	-8.94722
▁liquid	-8.94938
▁recrystallized	-8.95522
]+.	-8.95803
▁pyridine	-8.96308
▁mp	-8.96759
carbamate	-8.96777
▁one	-8.97017
▁fractions	-8.97204
▁warm	-8.97338
mol	-8.97398
n	-8.9787
▁warmed	-8.98318
▁stir	-8.99058
▁two	-8.99424
′,	-8.99825
▁complete	-8.99927
▁K	-8.99977
▁evaporation	-9.00159
q	-9.00219
▁Yield	-9.00437
▁bromide	-9.00913
▁while	-9.01725
▁pure	-9.01738
difluoro	-9.02219
▁Et	-9.0228
hexanes	-9.02318
▁mixed	-9.02547
▁via	-9.02943
v	-9.04042
▁acidified	-9.04347
▁aq	-9.04621
▁extract	-9.04653
▁preparative	-9.04782
silica	-9.04986
chlorophenyl	-9.05003
▁mm	-9.05591
▁suspended	-9.05689
ES	-9.05801
tetramethyl	-9.06075
]+	-9.06217
methoxyphenyl	-9.0638
pyrrolidine	-9.06446
cyano	-9.07973
phenylphosphine	-9.08066
F	-9.09401
▁Water	-9.10339
imidazo	-9.11047
▁precipitated	-9.12075
▁eluent	-9.1278
OH	-9.12909
▁iodide	-9.13041
▁lithium	-9.13263
phenoxy	-9.13545
▁same	-9.13753
▁mmole	-9.14176
isopropyl	-9.14357
▁placed	-9.14701
)+.	-9.14871
benzoic	-9.14975
indole	-9.15375
pyrazolo	-9.15428
▁chromatographed	-9.15626
▁palladium	-9.1568
▁starting	-9.16299
▁subjected	-9.17435
cyclohexyl	-9.18616
J	-9.18941
▁remove	-9.1921
▁gas	-9.19634
dioxane	-9.19869
indol	-9.2001
'	-9.20366
ml	-9.20546
A	-9.21103
▁purity	-9.21269
▁out	-9.21529
sulfonyl	-9.21577
dione	-9.21821
▁procedure	-9.21913
▁cold	-9.22364
▁adjusted	-9.22686
▁anhydride	-9.22717
▁isolated	-9.22974
▁eluted	-9.23003
tri	-9.2306
ylmethyl	-9.2313
▁EtOH	-9.23171
▁continued	-9.23336
▁afforded	-9.23561
benzene	-9.23681
▁formed	-9.2402
di	-9.24869
II	-9.2487
▁hrs	-9.25041
white	-9.25117
biphenyl	-9.26313
imidazol	-9.26534
acetyl	-9.26609
▁portion	-9.27192
acetamide	-9.27258
acetate	-9.2746
▁amount	-9.27546
▁microwave	-9.27619
▁calcd	-9.27676
pyrrolidin	-9.28621
▁point	-9.28737
piperazine	-9.29314
▁sulphate	-9.29478
▁carbon	-9.29885
▁mass	-9.30176
▁Purification	-9.30193
pyrazole	-9.30309
▁grams	-9.30597
▁portions	-9.3085
▁Found	-9.3105
▁cool	-9.31382
pyran	-9.33392
mL	-9.33692
▁funnel	-9.33798
min	-9.34244
▁sat	-9.34327
+)	-9.34521
▁FOL	-9.34564
▁r	-9.34734
yloxy	-9.36786
′	-9.36812
▁clear	-9.3682
▁days	-9.36829
▁p	-9.36985
▁drying	-9.37259
CN	-9.37366
▁solids	-9.37989
▁trifluoroacetic	-9.38559
▁equipped	-9.38874
iodo	-9.39047
▁before	-9.39381
thiazol	-9.39396
sulfonamide	-9.3991
▁filter	-9.40656
▁alcohol	-9.40678
benzaldehyde	-9.40864
▁period	-9.40966
piperazin	-9.40984
▁triturated	-9.41132
palladium	-9.41609
▁Rf	-9.41761
▁parts	-9.42404
▁unknown	-9.43442
▁Celite	-9.44184
▁REFLUX	-9.44365
▁catalyst	-9.44856
▁sealed	-9.44864
▁analysis	-9.45125
▁thus	-9.45149
Chloro	-9.45726
▁orange	-9.45758
▁degassed	-9.45958
▁rotary	-9.46198
▁tube	-9.46346
yield	-9.46545
DCM	-9.46556
▁volume	-9.46576
MH	-9.46641
hydroxymethyl	-9.46781
▁ammonia	-9.47213
▁PH	-9.48425
▁heating	-9.48688
▁intermediate	-9.48739
trifluoro	-9.48874
▁showed	-9.50814
quinolin	-9.51398
▁reacted	-9.51662
▁ESI	-9.51775
quinoline	-9.51856
▁slurry	-9.51898
▁oily	-9.51908
carbonitrile	-9.52161
▁extraction	-9.52459
▁onto	-9.52477
benzoate	-9.52851
dimethoxy	-9.53142
methylphenyl	-9.53171
▁reactor	-9.53275
▁distillation	-9.53389
▁celite	-9.53492
-{[	-9.53732
▁foam	-9.54405
en	-9.54407
▁successively	-9.54747
OD	-9.5569
▁again	-9.5571
▁benzyl	-9.56005
▁vial	-9.5676
trimethylsilyl	-9.57319
▁bis	-9.57464
▁solvents	-9.5782
carbamoyl	-9.57906
h	-9.58445
▁directly	-9.58523
▁be	-9.58562
▁It	-9.58752
HPLC	-9.58795
benzonitrile	-9.58885
▁following	-9.59445
▁organics	-9.59902
▁adding	-9.59942
+).	-9.60172
▁tri	-9.60219
▁benzene	-9.60839
▁mmoles	-9.60872
benzamide	-9.6125
▁form	-9.61331
I	-9.61455
cyclohexane	-9.6196
P	-9.62213
▁Sodium	-9.62222
pyridyl	-9.62648
▁vessel	-9.62718
thiophene	-9.62731
aR	-9.63104
▁Ethyl	-9.63317
▁neutralized	-9.63514
ethanol	-9.63538
▁according	-9.63883
▁maintained	-9.64224
▁kg	-9.64389
▁down	-9.64497
methylene	-9.64498
bs	-9.64541
▁reverse	-9.64863
amide	-9.65055
ylamino	-9.65183
▁bottom	-9.65508
▁CHCl	-9.65606
▁Compound	-9.65704
heptane	-9.65766
▁crystallized	-9.65808
▁had	-9.66065
B	-9.6611
pyrido	-9.66142
▁pad	-9.67339
▁DIPEA	-9.67446
▁heptane	-9.68077
▁NaCl	-9.68346
▁W	-9.68496
′-(	-9.68639
▁being	-9.68688
▁calculated	-9.68949
▁excess	-9.69004
eluent	-9.69044
nitrophenyl	-9.6971
propionic	-9.69773
▁di	-9.69788
▁another	-9.70038
ppm	-9.70073
propan	-9.70278
Bromo	-9.70864
dioxo	-9.71146
▁Ar	-9.7127
▁stirrer	-9.71306
f	-9.71979
imidazole	-9.72512
▁diisopropyl	-9.72687
▁purged	-9.72918
▁below	-9.7313
▁melting	-9.7328
▁dark	-9.73405
benzoyl	-9.73419
-(((	-9.73923
trans	-9.74031
▁manner	-9.74591
diamine	-9.74743
▁dimethyl	-9.74752
▁concentration	-9.74781
dioxaborolan	-9.75293
▁drop	-9.7544
▁crystalline	-9.75953
▁small	-9.76454
▁example	-9.77153
▁high	-9.77442
ethylamine	-9.77618
acetone	-9.78117
▁or	-9.80225
▁F	-9.80268
▁condenser	-9.80329
triazol	-9.8039
dichloromethane	-9.80626
▁petroleum	-9.81203
▁system	-9.817
▁nm	-9.82316
▁HRMS	-9.8258
▁IR	-9.82746
▁left	-9.83414
acetonitrile	-9.8434
▁carried	-9.84457
methoxycarbonyl	-9.84589
methylsulfonyl	-9.8514
ecrystallization	-9.85271
benzofuran	-9.86259
▁Anal	-9.86306
propanol	-9.86432
necked	-9.86507
▁moles	-9.86545
▁evaporator	-9.86772
▁spectrum	-9.86862
mmol	-9.86876
▁PHASESEPARATION	-9.86962
SiO	-9.8709
trimethyl	-9.87099
▁D	-9.87573
-[[	-9.87756
▁Calcd	-9.88323
AIT	-9.88363
Example	-9.8853
petroleum	-9.88785
▁once	-9.88872
aS	-9.89302
carbodiimide	-9.8994
▁monitored	-9.90302
▁during	-9.90516
▁DRYSOLID	-9.90537
▁method	-9.90897
▁v	-9.9108
cyclopropane	-9.92314
ethanone	-9.92553
Amino	-9.9257
▁yielding	-9.92844
cyclopentyl	-9.9295
▁Rt	-9.93352
▁hot	-9.93417
LLI	-9.93504
YSTA	-9.93508
ECR	-9.93551
spiro	-9.94015
▁washing	-9.94177
▁base	-9.94293
▁rate	-9.94417
x	-9.94507
▁trans	-9.94749
carbamic	-9.94968
▁cake	-9.95163
hydroxyphenyl	-9.95395
▁indicated	-9.95821
▁monohydrate	-9.96316
▁HATU	-9.96829
▁elution	-9.97185
o	-9.97328
▁sulfuric	-9.97391
▁kept	-9.97415
▁borohydride	-9.97846
▁prep	-9.97861
▁more	-9.97888
▁weight	-9.9803
▁[(	-9.981
▁air	-9.9833
diisopropylethyl	-9.98572
methylamino	-9.98621
cooling	-9.98891
▁wt	-9.98908
naphthalen	-9.99279
methylthio	-9.99332
▁sequentially	-9.999
▁Methyl	-10.0004
pyrazin	-10.0035
▁red	-10.0042
▁An	-10.0043
triazolo	-10.0052
methoxybenzyl	-10.0056
PPh	-10.0064
▁dd	-10.0067
▁Into	-10.0075
▁cesium	-10.0084
▁copper	-10.0105
indazol	-10.0139
▁CD	-10.0142
▁removal	-10.0149
Butyl	-10.0242
▁isopropanol	-10.0254
ddd	-10.0259
ene	-10.0284
▁dilute	-10.0306
bottom	-10.0337
isoquinoline	-10.0338
▁mM	-10.0338
dichlorophenyl	-10.0362
▁At	-10.0362
boronic	-10.0374
▁TEA	-10.0384
prop	-10.0386
▁tetrakis	-10.0387
difluorophenyl	-10.0395
hydroxyethyl	-10.0405
Compound	-10.0411
Methyl	-10.0436
▁resin	-10.0471
dt	-10.0475
-{[(	-10.0502
▁subsequently	-10.0502
▁Upon	-10.0537
carbaldehyde	-10.0549
w	-10.0586
pyrrole	-10.0616
▁Under	-10.0646
▁each	-10.065
▁transferred	-10.0663
THF	-10.0707
▁Mass	-10.0714
▁re	-10.0724
▁yielded	-10.0726
thiazole	-10.0729
butoxy	-10.0798
aniline	-10.0817
▁thionyl	-10.0833
▁citric	-10.0841
azabicyclo	-10.0841
morpholin	-10.0853
CD	-10.0889
▁fraction	-10.0893
▁remaining	-10.0909
benzenesulfonyl	-10.0937
▁complex	-10.1002
quinazolin	-10.1017
formyl	-10.1039
▁amine	-10.1045
▁bar	-10.1062
butoxide	-10.1132
▁vigorously	-10.1138
prepared	-10.114
naphthalene	-10.1148
▁several	-10.1215
▁NaH	-10.1217
thio	-10.1224
▁conditions	-10.123
bromophenyl	-10.1233
▁tetra	-10.1279
▁MeCN	-10.1321
▁provided	-10.1343
▁suction	-10.1346
tetrahydrofuran	-10.1362
hexahydro	-10.1368
bromomethyl	-10.1381
▁completed	-10.1419
▁I	-10.1427
▁volatiles	-10.1429
▁glass	-10.143
phenol	-10.1449
▁approximately	-10.1484
▁residual	-10.1485
▁substance	-10.1505
ethoxycarbonyl	-10.1509
aminomethyl	-10.1512
▁colourless	-10.1534
▁isopropyl	-10.155
▁rinsed	-10.156
oxa	-10.1567
methanesulfonyl	-10.1628
▁Intermediate	-10.1657
▁drops	-10.1661
▁ratio	-10.1661
NH	-10.1702
▁mineral	-10.1706
▁four	-10.1715
methanone	-10.1718
propanoate	-10.174
▁Preparation	-10.177
UEN	-10.179
NO	-10.1795
▁oven	-10.1795
chloromethyl	-10.1836
▁Solvent	-10.1844
▁DIEA	-10.186
▁stand	-10.1877
▁magnetic	-10.1881
oxadiazol	-10.1886
▁basic	-10.193
▁observed	-10.1937
▁total	-10.1939
▁concentrate	-10.1943
δ	-10.1978
r	-10.2042
▁tR	-10.2052
vinyl	-10.2084
i	-10.2095
▁Reaction	-10.2108
▁percent	-10.2133
chloroform	-10.2154
iphenylphosphino	-10.2169
▁insoluble	-10.219
furan	-10.2213
butanol	-10.2226
thiophen	-10.2269
aq	-10.2284
▁crystal	-10.229
Intermediate	-10.2309
▁acidic	-10.231
▁made	-10.2311
dppf	-10.241
thieno	-10.2426
dihydroxy	-10.2432
Boc	-10.2469
▁giving	-10.2478
cyclopenta	-10.2486
pyridazin	-10.2526
▁conc	-10.2541
▁viscous	-10.2552
▁aluminum	-10.2556
▁calc	-10.2556
▁first	-10.2568
▁absolute	-10.2572
▁free	-10.2576
▁neutral	-10.2594
▁Column	-10.261
▁INVALIDACTION	-10.2617
▁chloroformate	-10.262
pyrazine	-10.265
▁DMAP	-10.2664
▁cyclohexane	-10.2717
OAc	-10.273
▁sample	-10.2759
▁hydrogenated	-10.2768
diphenyl	-10.2774
▁syringe	-10.2789
diethyl	-10.2802
isoquinolin	-10.2814
▁gradually	-10.2837
▁hydrate	-10.2844
▁having	-10.2845
▁conversion	-10.2854
▁all	-10.2889
▁EA	-10.2892
HCl	-10.2924
▁get	-10.2927
▁glacial	-10.2928
brs	-10.293
ydrogencarbonate	-10.2937
methanesulfonate	-10.2966
▁been	-10.2973
bicyclo	-10.299
▁flow	-10.306
▁Method	-10.3066
ing	-10.3074
▁cartridge	-10.3078
▁passed	-10.3123
propoxy	-10.3134
▁autoclave	-10.3139
▁equivalents	-10.3142
▁phosphate	-10.32
▁similar	-10.3208
▁{	-10.3211
▁hydrazine	-10.3218
neck	-10.3241
▁cis	-10.325
▁internal	-10.3251
▁resulted	-10.3358
trifluoromethoxy	-10.3362
▁thermometer	-10.3396
▁stream	-10.3445
butyldimethylsil	-10.3476
▁so	-10.3493
▁retention	-10.3514
▁maintaining	-10.3516
▁basified	-10.355
▁separation	-10.3595
benzotriazole	-10.3616
▁carefully	-10.3631
×).	-10.3639
]+=	-10.3666
U	-10.367
▁presence	-10.3672
oxazol	-10.3675
▁no	-10.3678
butyllithium	-10.3679
but	-10.3752
▁dispersion	-10.3759
▁saline	-10.3772
▁fluoride	-10.3786
▁tan	-10.3787
mg	-10.3793
▁not	-10.3799
propane	-10.3801
RS	-10.3832
▁introduced	-10.3848
toluene	-10.3853
▁amide	-10.3865
▁br	-10.3931
▁NaBH	-10.3934
▁psi	-10.3967
▁affording	-10.3982
▁ES	-10.3984
▁thereby	-10.3999
▁recovered	-10.4031
▁portionwise	-10.407
ethynyl	-10.4071
▁amorphous	-10.4078
▁When	-10.4116
)+:	-10.4127
▁back	-10.413
pyrrol	-10.4137
▁Flash	-10.4154
▁oxide	-10.4181
oxide	-10.4188
indazole	-10.4201
+):	-10.4212
▁thin	-10.4219
▁confirmed	-10.4226
▁theory	-10.4256
phenylamino	-10.4262
acetamido	-10.4288
▁Subsequently	-10.4296
▁formic	-10.4296
butylammonium	-10.4365
▁shaken	-10.4369
Method	-10.4369
▁performed	-10.4385
▁mobile	-10.4388
-[[(	-10.4403
EI	-10.4444
▁l	-10.45
Fluoro	-10.454
PO	-10.4549
hydride	-10.4569
▁zinc	-10.457
▁inert	-10.4581
compound	-10.4628
▁titled	-10.4635
dec	-10.4663
ether	-10.4666
▁oxalyl	-10.47
KBr	-10.4704
%):	-10.4706
triazin	-10.4727
aza	-10.4762
▁LiOH	-10.4781
▁equivalent	-10.4815
cis	-10.4816
propanoic	-10.482
oxoethyl	-10.4824
▁Synthesis	-10.4831
nitrobenzene	-10.4842
▁No	-10.4848
▁medium	-10.4875
▁Thereafter	-10.4951
cyclobutyl	-10.4958
%;	-10.4988
▁gum	-10.4991
morpholine	-10.4997
ferrocene	-10.5039
triazole	-10.5057
MHz	-10.508
dried	-10.515
▁azide	-10.5165
▁such	-10.5165
%);	-10.5176
▁dihydrochloride	-10.5218
▁eluant	-10.522
▁KOH	-10.5221
APCI	-10.5264
▁preparation	-10.5269
▁wise	-10.5299
▁ArH	-10.5321
bottomed	-10.5326
TION	-10.5356
▁second	-10.5357
▁PARTI	-10.5383
morpholino	-10.5386
pyridinyl	-10.5392
azetidin	-10.5396
naphthyridin	-10.5403
▁reagent	-10.5419
▁Following	-10.5423
▁night	-10.5424
td	-10.543
▁P	-10.5446
quinazoline	-10.5448
▁lyophilized	-10.5461
▁mesh	-10.5478
▁isomer	-10.5491
methylpyridin	-10.5506
benzimidazol	-10.5509
methane	-10.5516
naphthyl	-10.5538
methoxymethyl	-10.5543
▁general	-10.5586
▁AcOH	-10.5605
▁ACN	-10.5629
urea	-10.5648
ic	-10.567
▁contents	-10.5698
dimethoxyphenyl	-10.571
▁bubbled	-10.5724
',	-10.5725
▁triacetoxyboro	-10.5728
▁standing	-10.5735
▁ion	-10.5739
▁steps	-10.5759
HNMR	-10.583
phosphine	-10.5848
PE	-10.585
▁loaded	-10.5858
dibromo	-10.5859
pyridazine	-10.5863
▁dropping	-10.5864
dichloroethane	-10.5874
▁UV	-10.5877
TLC	-10.588
▁w	-10.5881
tolyl	-10.5921
▁formula	-10.5921
▁Evaporation	-10.5944
▁SiO	-10.5951
bath	-10.5961
▁upon	-10.6008
azetidine	-10.6096
-{(	-10.611
▁Boc	-10.6112
▁AcOEt	-10.6125
▁pentane	-10.6143
▁tris	-10.6149
▁trifluoro	-10.6153
CHCl	-10.6251
▁corresponding	-10.6254
octane	-10.6258
▁umol	-10.6323
▁final	-10.6327
▁hexa	-10.6344
piperidinyl	-10.6346
▁Methanol	-10.6349
in	-10.6353
wise	-10.636
dimethylethyl	-10.6372
ylamine	-10.6386
▁converted	-10.6402
dicarboxylate	-10.641
toluenesulfonic	-10.642
Aldrich	-10.6431
phase	-10.6438
▁mins	-10.6453
acetoxy	-10.6468
▁Chem	-10.648
▁charcoal	-10.6493
purin	-10.651
Yield	-10.6519
▁there	-10.6525
▁methoxide	-10.6525
▁ketone	-10.6543
Hydroxy	-10.6545
▁target	-10.6548
dba	-10.6559
▁boiling	-10.659
▁EDC	-10.6591
▁plug	-10.6607
▁ethylene	-10.6607
▁Prep	-10.6608
▁flushed	-10.6611
benzimidazole	-10.6621
pH	-10.6621
fluorobenzyl	-10.6623
tetrazol	-10.6632
▁GC	-10.6639
yellow	-10.6676
▁order	-10.6679
▁Reference	-10.6682
RATE	-10.6703
▁ca	-10.6704
▁TRIT	-10.6712
▁uL	-10.6733
EA	-10.6764
▁refluxing	-10.6821
▁repeated	-10.6833
▁peroxide	-10.685
▁Mobile	-10.6853
▁applied	-10.6938
difluoromethyl	-10.6951
carboxamido	-10.6966
▁structure	-10.6971
▁glycol	-10.6986
▁synthesized	-10.7003
BuLi	-10.7011
▁dichloride	-10.702
cm	-10.7034
▁filtrated	-10.7047
▁ethylacetate	-10.7075
▁HOBt	-10.7084
Me	-10.7087
▁mechanical	-10.7093
▁catalytic	-10.7094
-({	-10.7094
carboxy	-10.7095
▁sulfoxide	-10.7099
▁activated	-10.7099
diisopropyl	-10.7104
▁brought	-10.7138
▁produced	-10.7142
ethylamino	-10.7147
▁Triethylamine	-10.7164
trifluoroacetate	-10.7187
▁MTBE	-10.7221
▁G	-10.7229
tetrahydropyran	-10.7238
▁RP	-10.7258
allyl	-10.7284
▁yellowish	-10.7296
▁phosphorus	-10.7305
▁Organic	-10.7319
++	-10.7336
▁crystallization	-10.7348
▁Fractions	-10.736
gradient	-10.7393
▁color	-10.7398
▁vigorous	-10.7413
▁thick	-10.7461
▁became	-10.7468
▁completely	-10.7496
isoxazol	-10.7511
butyric	-10.7515
▁fitted	-10.7517
phenylboronic	-10.7524
▁Potassium	-10.754
▁Chromatography	-10.7554
▁molecular	-10.757
▁nitrite	-10.757
aminophenyl	-10.7579
ClN	-10.7588
▁separate	-10.7595
▁its	-10.76
methylethyl	-10.7608
▁apparatus	-10.7621
IR	-10.7621
▁half	-10.7635
inden	-10.7654
▁i	-10.7654
triazine	-10.7699
▁separatory	-10.7705
Et	-10.7721
▁PdCl	-10.7747
′),	-10.775
▁cyanide	-10.7754
cooled	-10.78
▁Stirring	-10.7802
Methoxy	-10.7811
pentyl	-10.7814
methylmorpholine	-10.782
▁redissolved	-10.7824
ylidene	-10.7825
▁finally	-10.7835
▁Cs	-10.7843
)+=	-10.7847
oxazole	-10.7847
]+,	-10.7861
▁value	-10.7864
diol	-10.7891
propionate	-10.7906
▁formation	-10.7923
▁beige	-10.7935
▁minute	-10.799
cold	-10.7998
Ethyl	-10.8023
enyl	-10.8033
ylmethoxy	-10.8034
▁hydroxylamine	-10.805
▁has	-10.8051
Hexane	-10.8061
naphthyridine	-10.8075
phosphonium	-10.808
thienyl	-10.8086
▁whereby	-10.8107
▁raised	-10.8108
V	-10.8117
▁triethyl	-10.8147
dicarboxylic	-10.8148
Br	-10.8185
azaspiro	-10.8196
methylpropyl	-10.8208
▁decanted	-10.8219
▁isocyanate	-10.8221
▁obtaining	-10.8267
▁within	-10.827
▁peak	-10.8308
carbonylamino	-10.8309
isobutyl	-10.8317
μ	-10.832
▁materials	-10.8328
oct	-10.8368
silyl	-10.8385
▁methanesulfonyl	-10.8387
Ph	-10.84
hydrazine	-10.8405
ethoxymethyl	-10.8407
▁contained	-10.842
thiadiazol	-10.8456
magnesium	-10.8458
▁than	-10.8459
phenylethyl	-10.8462
▁evolution	-10.8485
isopropoxy	-10.8493
Dimethyl	-10.8557
▁wet	-10.8557
▁expected	-10.8566
▁NMP	-10.8575
dioxolan	-10.859
)+;	-10.8628
▁Next	-10.863
ylcarbamate	-10.8634
y	-10.8647
▁Analysis	-10.8651
about	-10.8652
dibenzylidene	-10.8656
method	-10.8687
▁produce	-10.8693
▁determined	-10.8698
▁content	-10.8706
cyanophenyl	-10.8707
'-(	-10.8719
▁inlet	-10.8721
▁consumed	-10.8753
)+,	-10.8782
▁any	-10.8784
▁gives	-10.879
▁DEGAS	-10.8794
Bis	-10.8853
]+;	-10.8853
methylsulfanyl	-10.887
ethane	-10.8871
▁dicarbonate	-10.8878
ed	-10.8878
▁together	-10.8882
azodicarboxylate	-10.8902
azido	-10.8906
methylpiperazin	-10.891
▁keeping	-10.8913
▁Additional	-10.8918
▁wash	-10.8926
thia	-10.8961
dicyclohexyl	-10.8965
▁X	-10.8981
diazabicyclo	-10.9008
▁slightly	-10.9009
piperazinyl	-10.9013
▁isomers	-10.9035
isoxazole	-10.905
▁morpholine	-10.9054
up	-10.9057
tetra	-10.9059
▁Hg	-10.9062
from	-10.9079
FAB	-10.9094
methanamine	-10.9104
▁DME	-10.9109
imino	-10.9121
▁cc	-10.9129
aminoethyl	-10.9137
▁data	-10.9152
▁Biotage	-10.9211
mercapto	-10.9215
dimethylphenyl	-10.9216
▁react	-10.9223
▁five	-10.9226
▁Phase	-10.9236
▁vol	-10.9245
▁subsequent	-10.925
eluting	-10.9272
fluorophosphate	-10.9292
▁racemic	-10.9302
dipalladium	-10.9315
sodium	-10.9339
▁T	-10.9366
dioxide	-10.9382
diisopropylamine	-10.9392
▁quantitative	-10.9397
▁mbar	-10.9414
octahydro	-10.9421
▁precipitates	-10.9431
▁Calc	-10.9435
▁oxychloride	-10.9452
acetylamino	-10.9459
▁E	-10.948
▁analyzed	-10.9483
hept	-10.9483
▁analogous	-10.9483
piperidyl	-10.9505
▁stripped	-10.9509
LC	-10.9518
▁Saturated	-10.9523
▁Silica	-10.9527
▁Filtration	-10.9528
▁end	-10.9534
▁boron	-10.9554
▁requires	-10.9571
▁agitated	-10.9605
▁Combined	-10.9634
▁evacuated	-10.9656
ammonium	-10.9664
ca	-10.9666
▁pre	-10.9667
▁can	-10.9668
carbon	-10.967
broad	-10.9673
max	-10.9679
▁chilled	-10.9706
▁heat	-10.971
ice	-10.9724
on	-10.9729
cyanoborohydride	-10.9738
acetophenone	-10.9778
((	-10.9797
▁liter	-10.9801
▁Calculated	-10.9803
▁LRMS	-10.981
▁black	-10.9811
▁tetrachloride	-10.9828
hydroxypropyl	-10.9841
▁allyl	-10.9844
▁Dean	-10.9867
▁EDCI	-10.987
▁few	-10.9875
▁α	-10.9879
▁well	-10.9888
▁bromine	-10.9896
TFA	-10.9897
▁means	-10.991
Si	-10.9917
▁appropriate	-10.9919
▁green	-10.9953
▁solidified	-10.9967
▁OCH	-10.9974
▁Further	-10.9996
▁consumption	-11.0016
▁Concentration	-11.0035
▁Removal	-11.0039
dioxol	-11.0048
▁single	-11.0048
phenylmethyl	-11.0058
pentane	-11.008
]+:	-11.0084
sulfonic	-11.0089
containing	-11.0133
chlorobenzyl	-11.0133
isoindol	-11.0135
▁immediately	-11.0144
▁q	-11.0152
▁derivative	-11.0154
▁chiral	-11.0168
▁thiosulfate	-11.0179
triphenyl	-11.0194
▁follows	-11.0197
▁aldehyde	-11.0201
▁based	-11.0202
bR	-11.0209
CI	-11.0221
▁ISCO	-11.0223
DMF	-11.0248
brown	-11.0266
▁Aqueous	-11.0276
X	-11.0285
the	-11.0309
▁syrup	-11.0335
carboxaldehyde	-11.0341
methyloxy	-11.0346
difluoromethoxy	-11.0371
▁when	-11.0374
▁synthesis	-11.0375
▁removing	-11.0398
▁rac	-11.0404
trifluoroethyl	-11.0423
K	-11.0431
▁There	-11.0446
aminopropyl	-11.0451
▁temp	-11.0456
bromosuccinimide	-11.0472
▁Spectrum	-11.0481
chloropyridin	-11.0489
▁et	-11.0502
oxazin	-11.0519
▁Retention	-11.0535
▁semi	-11.0555
methoxyethyl	-11.0555
turned	-11.0559
hex	-11.056
dihydrobenzo	-11.0587
▁filtering	-11.0603
×),	-11.0633
′:	-11.0643
phenylsulfonyl	-11.0644
fluoropyridin	-11.0649
▁progress	-11.0678
ynyl	-11.0694
dimethylsilyloxy	-11.0696
▁formate	-11.0702
diamino	-11.0702
▁normal	-11.0702
▁diethylether	-11.0705
▁thoroughly	-11.0708
furo	-11.0726
pyrrolidinyl	-11.0726
▁o	-11.0738
chloride	-11.0753
pent	-11.0768
▁batch	-11.0771
sulfamoyl	-11.0778
▁Add	-11.0783
yn	-11.0799
methylpiperidin	-11.0799
▁previous	-11.0804
▁dissolve	-11.0811
▁mother	-11.082
▁For	-11.0834
▁Aldrich	-11.0842
▁slow	-11.0849
▁molar	-11.086
▁precipitation	-11.0867
▁irradiation	-11.0873
▁imidazole	-11.0895
propionyl	-11.0898
hexyl	-11.0925
▁leave	-11.0927
sulfonamido	-11.0931
▁held	-11.0933
oxazolidin	-11.0939
cyclopentane	-11.0946
▁part	-11.0952
▁short	-11.0965
imethylsulfoxide	-11.0966
▁homogeneous	-11.0972
LCMS	-11.098
▁al	-11.0982
▁trimethyl	-11.1007
EtOH	-11.101
Rf	-11.1016
▁kPa	-11.1026
quinoxaline	-11.1028
nicotinic	-11.103
▁available	-11.106
butan	-11.1063
▁matter	-11.107
▁buffer	-11.1104
propanamide	-11.1106
methylpyrrolidin	-11.1108
decane	-11.1112
▁dropped	-11.1125
▁Crude	-11.1126
▁Flow	-11.1128
column	-11.1136
▁iron	-11.1168
tetrafluoro	-11.1171
Stark	-11.1179
▁CuI	-11.1179
▁less	-11.1186
▁Eq	-11.1188
▁iodomethane	-11.1195
▁Parr	-11.1241
▁shown	-11.1244
▁stopped	-11.1256
cephem	-11.1259
▁whole	-11.1268
diyl	-11.1277
′′-	-11.128
▁adjust	-11.1281
▁consistent	-11.1313
▁dissolving	-11.1331
▁methylamine	-11.1335
▁Waters	-11.1389
FN	-11.1398
▁group	-11.1409
acrylate	-11.1422
▁On	-11.1426
▁iodine	-11.1426
[(	-11.1434
▁atmospheric	-11.1467
▁Part	-11.1488
▁dioxide	-11.1519
hydroxylamine	-11.1603
▁result	-11.1612
▁work	-11.1612
▁Chemical	-11.1655
diethylamino	-11.166
▁mono	-11.1664
pentanoic	-11.1682
▁put	-11.1688
▁day	-11.1694
diazaspiro	-11.1701
acrylic	-11.1703
chloroethyl	-11.1727
Hex	-11.1729
methoxyethoxy	-11.1744
▁filtrates	-11.1784
▁reached	-11.1789
OCH	-11.1791
extracted	-11.1797
▁formaldehyde	-11.1821
▁replaced	-11.1843
methanesulfonic	-11.1848
▁agent	-11.1858
▁POCl	-11.1863
▁sieves	-11.187
phosphino	-11.1886
▁recrystallised	-11.1896
Benzyl	-11.1904
▁discarded	-11.1913
T	-11.1916
▁constant	-11.1924
▁alumina	-11.1933
▁run	-11.1933
dioxaborolane	-11.1945
III	-11.1961
▁Product	-11.1971
▁process	-11.1977
▁CHLOROFORM	-11.1985
ureido	-11.1986
diimidazole	-11.1988
Dichloro	-11.2013
▁products	-11.2021
▁add	-11.2022
thiazolo	-11.2023
▁Gradient	-11.2035
▁balloon	-11.2052
methoxymethoxy	-11.2054
dihydropyridine	-11.2061
▁treatment	-11.2062
purine	-11.2065
▁ethereal	-11.2081
diaza	-11.2088
▁Procedure	-11.2112
▁remained	-11.2131
enoic	-11.217
sulfanyl	-11.2174
pyrimido	-11.2183
propionamide	-11.2185
dimethoxyethane	-11.2185
as	-11.2196
▁furnish	-11.2196
tris	-11.2211
▁needles	-11.222
▁xylene	-11.2226
methylpyridine	-11.2235
▁warming	-11.2246
▁hydrogenation	-11.2253
carbazole	-11.229
▁present	-11.2294
▁Lithium	-11.2295
▁some	-11.23
▁PE	-11.2301
decan	-11.2353
▁liquor	-11.2357
▁respectively	-11.2364
′-[	-11.2366
CF	-11.2368
▁tribromide	-11.2384
Hexanes	-11.2385
▁but	-11.2389
IV	-11.2432
methylpiperazine	-11.2434
alanine	-11.2485
trimethylsilane	-11.2498
succinimide	-11.2503
▁Toluene	-11.2511
▁liters	-11.2513
methoxypyridin	-11.2539
G	-11.257
▁away	-11.2571
diazepin	-11.2573
isomer	-11.2573
ly	-11.2584
▁piperidine	-11.2603
benzothiazol	-11.2654
▁whereupon	-11.2659
deoxy	-11.2664
fluoren	-11.2687
▁standard	-11.269
▁pump	-11.2695
▁salts	-11.2696
▁volatile	-11.2708
benzylamino	-11.2716
▁lower	-11.273
▁diastereomers	-11.2734
benzylamine	-11.2741
▁DMA	-11.2742
▁mmHg	-11.2744
Bu	-11.2755
benzazepine	-11.2765
nitrobenzyl	-11.2771
▁borane	-11.2776
▁rapidly	-11.279
trimethylsilanyl	-11.2817
▁Chloroform	-11.2827
nicotinamide	-11.2828
▁freshly	-11.2839
▁Melting	-11.284
obtained	-11.2841
ethanamine	-11.2844
▁ee	-11.2857
▁trap	-11.2867
▁major	-11.2871
▁initially	-11.2892
dibenzo	-11.2897
gel	-11.292
▁course	-11.2922
cyclohex	-11.2924
oxetan	-11.2931
silane	-11.294
▁Palladium	-11.2946
▁Diethyl	-11.2979
▁oxime	-11.2983
▁slurried	-11.3011
toluenesulfonyl	-11.3012
saturated	-11.3022
octan	-11.3024
▁Raney	-11.3037
benzyloxycarbon	-11.3066
▁bubbling	-11.3078
▁boronic	-11.3083
cyanomethyl	-11.3104
▁While	-11.3105
▁bed	-11.3108
▁Using	-11.3111
▁alkaline	-11.313
▁aniline	-11.3142
▁Co	-11.3155
▁deionized	-11.3156
▁analytical	-11.3162
▁adduct	-11.3182
▁nickel	-11.3182
butanoate	-11.3192
▁little	-11.3223
▁earth	-11.3225
▁HOBT	-11.324
▁reversed	-11.3249
cyclobutane	-11.325
proline	-11.3255
▁also	-11.3256
▁dimethylamine	-11.3263
▁worked	-11.327
oxopropyl	-11.3274
▁um	-11.3274
▁Once	-11.3288
▁acetyl	-11.3292
-({[	-11.3298
▁irradiated	-11.3311
▁quench	-11.3324
▁per	-11.3326
▁gram	-11.3328
phosphonate	-11.3358
▁Prepared	-11.3363
▁As	-11.3367
phenylamine	-11.3382
▁unreacted	-11.3393
▁increased	-11.3401
trityl	-11.3417
example	-11.3424
dioxa	-11.3425
▁Acetic	-11.3438
▁conducted	-11.3477
▁partially	-11.3496
▁pooled	-11.3499
▁most	-11.3505
diboron	-11.3516
▁polar	-11.3563
▁hold	-11.3572
▁detected	-11.358
dissolved	-11.359
▁co	-11.3614
acetaldehyde	-11.3641
▁By	-11.3671
▁identified	-11.3697
AcOEt	-11.3716
▁trituration	-11.3737
▁required	-11.3783
▁previously	-11.379
heptan	-11.3796
▁condensed	-11.3809
ethan	-11.3809
oxazine	-11.3811
▁bromoacetate	-11.3823
iso	-11.383
▁trifluoride	-11.3843
▁distilling	-11.3848
▁General	-11.3859
▁frit	-11.3862
▁set	-11.3873
▁sulfide	-11.3873
▁freeze	-11.3894
The	-11.391
butanoic	-11.3927
▁volumes	-11.3934
▁concentrating	-11.3963
▁mMol	-11.4007
▁compounds	-11.4016
▁dehydrated	-11.4022
{	-11.4037
▁(+)-	-11.4042
▁Mp	-11.4057
▁ceased	-11.4071
sat	-11.4075
▁agitation	-11.4088
▁allowing	-11.409
fluorophenoxy	-11.41
▁formamide	-11.4101
trifluoromethane	-11.4108
undec	-11.4109
pinacolato	-11.4176
ium	-11.4177
▁bottle	-11.419
solid	-11.421
naphtho	-11.424
benzylidene	-11.4249
▁low	-11.4271
▁washings	-11.4296
▁aluminium	-11.4296
Butoxycarbonyl	-11.4298
phenylalanine	-11.4307
neat	-11.4315
uronium	-11.4322
▁powdered	-11.4331
propenyl	-11.4332
indan	-11.4332
](	-11.437
▁where	-11.4379
isoindoline	-11.4389
▁With	-11.4402
oxadiazole	-11.4421
Benzyloxy	-11.4426
▁hydrobromide	-11.4438
▁diatomaceous	-11.4454
▁reach	-11.4465
▁methanesulfonic	-11.4468
▁milliliters	-11.4475
▁Thus	-11.4493
▁acetal	-11.4514
▁methanolic	-11.4529
furyl	-11.4531
▁aromatic	-11.4536
app	-11.4551
BuOH	-11.4561
▁still	-11.4584
methylbenzene	-11.4588
methylpropane	-11.4593
▁nitrate	-11.4619
▁de	-11.4648
sulfinamide	-11.4661
▁phenol	-11.467
▁condition	-11.467
aminopyridine	-11.4671
▁dichloroethane	-11.4675
▁trimethylsilyl	-11.468
azepin	-11.4684
hydrazino	-11.4688
methylpropan	-11.4689
benzoylamino	-11.4712
▁LiAlH	-11.4713
ve	-11.4716
indene	-11.4726
▁dicyclohexyl	-11.4733
▁During	-11.4734
▁Pure	-11.4741
▁thereafter	-11.4742
dimethoxybenzyl	-11.4774
benzothiazole	-11.4784
▁Dry	-11.4785
dihydropyridin	-11.4787
trichloro	-11.479
▁Hexane	-11.4804
see	-11.4806
▁Tert	-11.4868
etrafluoroborate	-11.4887
butane	-11.489
propylamine	-11.4899
phenethyl	-11.4911
▁minimum	-11.4913
▁Solid	-11.4924
▁theoretical	-11.4932
bromopyridin	-11.4964
▁purple	-11.4965
isoindole	-11.4974
nitropyridine	-11.4985
de	-11.4993
Biotage	-11.4997
▁colored	-11.5011
▁diastereomer	-11.5026
▁satd	-11.5029
▁Ltd	-11.5061
CAS	-11.5078
allyloxy	-11.5093
▁isobutyl	-11.5096
malonate	-11.5119
▁cloudy	-11.513
▁nitric	-11.5131
eq	-11.5147
▁area	-11.5153
pyrimidinyl	-11.5171
▁DBU	-11.5175
▁pink	-11.5192
▁MeOD	-11.5213
▁SCX	-11.5216
▁place	-11.522
▁objective	-11.5222
chloroperbenzoic	-11.5246
layer	-11.5252
sulfonyloxy	-11.5257
ACN	-11.5261
elution	-11.527
▁capped	-11.5302
▁plate	-11.5324
solvent	-11.5344
▁Concentrated	-11.5359
▁paper	-11.5364
▁protected	-11.5368
glycine	-11.5371
▁degrees	-11.5372
▁Scheme	-11.5374
▁chromatographic	-11.5374
▁instead	-11.5378
silanyloxy	-11.5394
benzenesulfonate	-11.541
nonane	-11.5412
▁yields	-11.5422
▁HCI	-11.5424
▁leaving	-11.5432
▁use	-11.5438
▁V	-11.5438
benzopyran	-11.5454
▁Trifluoroacetic	-11.5457
▁All	-11.5458
▁dihydrate	-11.5459
▁sulfite	-11.5472
pyrrolidone	-11.5473
▁weighed	-11.5477
propylamino	-11.5487
▁filled	-11.5499
intermediate	-11.5512
▁Ethanol	-11.5512
▁rise	-11.5547
pentamethyl	-11.555
▁Kg	-11.5552
HRMS	-11.5566
▁along	-11.5577
epoxy	-11.5619
▁prepare	-11.5622
▁TMS	-11.5623
▁maintain	-11.5631
benzamido	-11.5642
▁HBr	-11.5648
iodophenyl	-11.5652
aminocarbonyl	-11.5669
▁NCH	-11.5674
▁Ph	-11.5692
▁bright	-11.5706
▁except	-11.5716
pentan	-11.5723
▁Schlenk	-11.5725
▁amber	-11.5731
▁Di	-11.576
▁impurities	-11.5793
▁ethoxide	-11.5793
with	-11.5801
bi	-11.581
or	-11.5818
chroman	-11.582
▁dissolution	-11.5823
▁MICROWAVE	-11.5826
▁IPA	-11.5828
▁calcium	-11.583
▁benzoyl	-11.5832
to	-11.5835
methylamine	-11.5842
nicotinate	-11.5847
▁very	-11.586
ethenyl	-11.5865
▁HOAc	-11.5889
mp	-11.5901
▁trichloride	-11.5907
methylcarbamoyl	-11.5909
pentafluoro	-11.5931
BrN	-11.5956
▁DCE	-11.5963
▁crystallised	-11.5991
▁eluate	-11.5996
▁Benzyl	-11.601
▁Elution	-11.6012
▁NBS	-11.6012
trifluoroacetyl	-11.6018
benzoimidazol	-11.603
▁blue	-11.6041
Step	-11.6046
cyclohexanol	-11.6051
tosyl	-11.6052
MeCN	-11.606
filled	-11.606
▁triphenyl	-11.6069
butyloxycarbonyl	-11.6071
thiadiazole	-11.6079
▁active	-11.6095
chromen	-11.6099
diazepine	-11.6123
Cyano	-11.6124
▁procedures	-11.6133
▁sonicated	-11.6134
OMe	-11.6137
▁oxalate	-11.614
▁intensity	-11.6144
Preparation	-11.6165
BOC	-11.6175
azepine	-11.6186
▁adsorbed	-11.6188
▁DCC	-11.6223
▁commercially	-11.6226
phenylthio	-11.6246
′]	-11.6247
ylcarbamoyl	-11.6252
▁steam	-11.6262
▁TBAF	-11.6286
▁boiled	-11.629
enoate	-11.6297
▁shows	-11.63
octyl	-11.6307
Ar	-11.6313
▁film	-11.6323
butylphosphine	-11.6325
▁Dichloromethane	-11.6331
▁admixed	-11.6332
▁evaporating	-11.6366
▁analogy	-11.6426
lH	-11.6427
▁till	-11.6428
fluorobenzene	-11.6429
hexanoic	-11.6437
ethylenediamine	-11.648
)-(+)-	-11.6494
purity	-11.6505
▁workup	-11.6507
aqueous	-11.6521
▁consisting	-11.6523
▁reacting	-11.6533
evaporated	-11.6537
▁biphasic	-11.6538
methoxyimino	-11.654
Martin	-11.6548
bromoethyl	-11.6555
tt	-11.6556
▁Me	-11.6556
▁range	-11.656
▁silver	-11.6562
triaza	-11.6562
▁platinum	-11.6566
▁KHSO	-11.657
tetrazole	-11.6576
phthalimide	-11.6582
Dimethylamino	-11.6597
thiazolidine	-11.6602
quinoxalin	-11.6613
indoline	-11.6623
▁titanium	-11.6628
imidazolidin	-11.6632
▁providing	-11.6636
▁strength	-11.6645
+);	-11.6661
SR	-11.6689
propanoyl	-11.6709
methylbenzyl	-11.6727
▁WO	-11.6728
▁pos	-11.6733
pyrrolidinone	-11.6745
eluted	-11.6757
▁spectroscopy	-11.6775
product	-11.6776
▁vinyl	-11.6795
cyclohexanone	-11.6806
▁approx	-11.683
tBu	-11.6832
▁tin	-11.6835
▁XBridge	-11.6837
▁sticky	-11.6849
dioxan	-11.6866
+].	-11.6886
Difluoro	-11.6888
▁Dess	-11.6898
▁may	-11.6899
▁spot	-11.6916
▁cannula	-11.6917
ethylenedioxy	-11.6927
difluorobenzyl	-11.6934
dry	-11.6946
▁exchange	-11.6957
nicotinonitrile	-11.6959
▁broad	-11.6977
acrylamide	-11.6979
▁septum	-11.6982
W	-11.6986
▁azeotroped	-11.6989
▁later	-11.6994
▁Stir	-11.7
anhydrous	-11.7005
▁raw	-11.7016
▁amounts	-11.7019
phenoxyphenyl	-11.7022
▁disappearance	-11.703
▁stage	-11.7053
▁crushed	-11.7055
▁Hydrochloric	-11.708
▁SFC	-11.709
nitrophenoxy	-11.7104
▁iso	-11.7122
▁monitoring	-11.713
▁see	-11.7139
▁triphosgene	-11.7144
▁separating	-11.7171
methylenedioxy	-11.7198
phenoxymethyl	-11.72
▁ESIMS	-11.7259
by	-11.7265
▁Hydrogen	-11.729
dihydropyrido	-11.7298
▁Excess	-11.7323
oxopyrrolidin	-11.7326
carbonate	-11.733
anilino	-11.7346
Mass	-11.7348
▁cream	-11.7349
+=	-11.735
butanone	-11.7353
▁increasing	-11.7363
▁Drying	-11.7365
▁stored	-11.7376
▁only	-11.7383
crude	-11.7383
▁MP	-11.7389
▁From	-11.7389
formamide	-11.7394
▁metal	-11.7404
▁exothermic	-11.7427
methylbenzoic	-11.7436
▁According	-11.7441
▁coupling	-11.7449
Phenyl	-11.7449
▁diphenyl	-11.7477
▁aid	-11.7482
Nitro	-11.7487
morpholinyl	-11.7488
▁equal	-11.7502
hexan	-11.7503
▁separator	-11.7504
▁supernatant	-11.7506
▁fine	-11.7519
▁Acetonitrile	-11.752
▁other	-11.7524
nitroaniline	-11.7529
thiol	-11.753
butyryl	-11.755
▁methane	-11.756
developing	-11.7571
benzophenone	-11.7575
ate	-11.7602
nitrobenzoic	-11.7607
minute	-11.761
Pd	-11.7616
▁abs	-11.7627
Melting	-11.764
▁neck	-11.7644
methylcarbamate	-11.7658
▁quantity	-11.7665
butylphenyl	-11.7665
dioxaspiro	-11.7668
▁Ether	-11.7682
▁Purity	-11.7686
orange	-11.7688
▁started	-11.7696
benzotriazol	-11.7698
and	-11.77
dihydroquinolin	-11.7747
′(	-11.777
phosphonic	-11.777
phenylpropyl	-11.7774
▁acrylate	-11.7775
methylpiperidine	-11.7777
dioxolane	-11.7779
liter	-11.7781
isoxazolyl	-11.7794
]+).	-11.7795
fluorene	-11.7806
▁MPLC	-11.7819
▁Fmoc	-11.7823
▁hydrolyzed	-11.7833
ester	-11.7868
▁Argon	-11.7872
▁CHH	-11.7879
▁steel	-11.7881
▁sulphuric	-11.7886
▁crop	-11.7891
▁did	-11.7893
butene	-11.7902
▁phosphorous	-11.7906
HCO	-11.7927
▁subject	-11.7929
dichlorobenzyl	-11.7935
Column	-11.7935
▁UPLC	-11.7946
▁SOCl	-11.7948
▁polymer	-11.7957
TMS	-11.7967
u	-11.7971
▁HBTU	-11.7984
▁pyridinium	-11.7988
▁region	-11.8029
▁ret	-11.8047
▁silicagel	-11.8048
ii	-11.8049
methoxyphenoxy	-11.8074
oxopropan	-11.8106
▁object	-11.8119
▁brs	-11.8128
▁urea	-11.8134
▁Anhydrous	-11.8139
▁brownish	-11.8144
▁sub	-11.8148
cyclopent	-11.8161
methylcyclohexyl	-11.8172
▁malonate	-11.8173
imidazolidine	-11.8181
AB	-11.8187
propanenitrile	-11.8216
▁prior	-11.8218
▁monoxide	-11.822
▁Pa	-11.823
▁quickly	-11.8241
methylbenzoate	-11.8242
trifluoroethoxy	-11.8259
▁inner	-11.8291
▁Pyridine	-11.8293
hydroxyimino	-11.8297
benzodiazepine	-11.8303
▁both	-11.8322
Found	-11.8327
▁exotherm	-11.8333
butylamine	-11.8334
dihydrospiro	-11.8337
methylpyrimidin	-11.8347
▁large	-11.8358
▁bottomed	-11.8378
▁hydrolysis	-11.8379
▁LDA	-11.8379
▁disappeared	-11.8395
▁sulfur	-11.8405
▁heterogeneous	-11.8411
▁way	-11.8427
dihydroquinoline	-11.8433
tetrahydropyrido	-11.8434
nitrophenol	-11.8446
eluant	-11.8462
al	-11.8473
▁affords	-11.8488
▁components	-11.8503
solution	-11.8512
butyldiphenylsil	-11.8528
pentanoate	-11.8556
chloropyridine	-11.8557
nonan	-11.8559
se	-11.8565
▁{(	-11.8566
ylboronic	-11.8586
j	-11.8588
▁Grignard	-11.8603
chlorophenoxy	-11.8604
tricyclo	-11.8607
nitropyridin	-11.861
▁repeatedly	-11.8611
▁Inc	-11.8614
▁reduction	-11.8617
dq	-11.8639
▁manganese	-11.8639
oxoisoindolin	-11.8641
▁Dissolve	-11.8641
▁deposited	-11.8641
ISP	-11.8643
phenylcarbamoyl	-11.8649
paraformaldehyde	-11.8652
phenylacetic	-11.8653
ylcarbonyl	-11.8656
▁coupled	-11.8656
▁reddish	-11.8665
thiazolyl	-11.8669
▁TBTU	-11.8679
▁lyophilization	-11.8696
▁aliquot	-11.8715
dimethylpyridin	-11.8716
butylamino	-11.873
▁absorbed	-11.8745
▁distillate	-11.8745
▁impure	-11.8746
-({[(	-11.8755
dioxido	-11.8794
▁neat	-11.8814
propionitrile	-11.8815
colored	-11.884
hydrochloride	-11.8843
▁dimethoxyethane	-11.8859
diene	-11.8868
sulfonylamino	-11.8884
nitrobenzoate	-11.8893
isobenzofuran	-11.8898
▁BBr	-11.8903
chromene	-11.8911
indeno	-11.8922
▁characterized	-11.8934
▁Med	-11.8941
syn	-11.8951
bromopyridine	-11.8953
▁cautiously	-11.8973
▁sparged	-11.8975
▁OBD	-11.8976
thioxo	-11.8977
cyclohexylmethyl	-11.8981
▁para	-11.8984
▁ten	-11.8988
▁LiCl	-11.9017
▁size	-11.9018
Iodo	-11.9034
▁phosphoric	-11.9046
▁clean	-11.9061
▁spectra	-11.9062
▁Org	-11.907
▁One	-11.9074
▁absorption	-11.91
Phe	-11.9105
▁Br	-11.9108
toluenesulfonate	-11.9116
▁piperazine	-11.9138
▁component	-11.914
▁obsd	-11.9142
for	-11.9162
xylene	-11.9163
fluoromethyl	-11.9168
at	-11.9172
▁returned	-11.9177
methylbenzamide	-11.918
▁MPa	-11.9181
▁minor	-11.9187
▁dilution	-11.9192
▁optical	-11.9201
▁initial	-11.9208
▁oxygen	-11.9212
▁inorganic	-11.9227
benzodiazepin	-11.9231
rac	-11.9254
sulfonate	-11.9263
▁gummy	-11.9266
▁generated	-11.9291
▁Crystallization	-11.9296
methylaniline	-11.9308
▁comprising	-11.9314
phosphoryl	-11.9317
▁triethylsilane	-11.9319
quinolinyl	-11.9327
=−	-11.9331
▁inside	-11.9335
▁azeotropic	-11.9339
Acetyl	-11.9346
trimethoxy	-11.9357
▁orthoformate	-11.9368
cyclopentyloxy	-11.939
▁chlorobenzene	-11.9395
▁thereof	-11.9404
▁chromatograph	-11.9412
ylthio	-11.9415
Merck	-11.943
▁almost	-11.9443
diethoxy	-11.9451
hereinafter	-11.9454
▁FAB	-11.9455
mixture	-11.9458
▁could	-11.9474
▁batches	-11.9477
monitored	-11.9492
▁results	-11.9498
TOF	-11.9502
▁gentle	-11.9522
like	-11.9527
▁peaks	-11.954
pyrano	-11.9556
▁CF	-11.9558
film	-11.9561
step	-11.9562
ethylsulfonyl	-11.9565
hydrochloric	-11.9565
▁Tri	-11.9571
dioxin	-11.9572
▁overhead	-11.9578
chloropyrimidin	-11.9578
dichloropalladiu	-11.9582
▁Phenomenex	-11.9592
▁deep	-11.9593
benzoxazole	-11.9602
ethylthio	-11.9603
PrOH	-11.9604
▁positive	-11.9604
▁NEt	-11.9611
▁latter	-11.9616
isopropylidene	-11.9618
▁rotamers	-11.9625
brine	-11.9628
chlorobenzoyl	-11.9635
dimethylisoxazol	-11.9647
TM	-11.965
isopropylamino	-11.9651
▁Finally	-11.9663
▁protection	-11.9667
▁turn	-11.9674
pyrazino	-11.9677
▁detector	-11.9711
▁Two	-11.9716
▁APCI	-11.9719
methylidene	-11.9722
ecrystallisation	-11.9726
▁continuously	-11.9727
referred	-11.9728
▁operation	-11.9728
▁hydrazide	-11.973
▁six	-11.9739
protected	-11.9744
enoyl	-11.9754
methylimidazo	-11.9762
an	-11.9774
red	-11.9775
heptyl	-11.978
Waters	-11.9782
▁etherate	-11.9799
▁dust	-11.9801
▁therein	-11.9804
benzoimidazole	-11.9809
▁fresh	-11.9822
▁aged	-11.9833
▁NaHSO	-11.9838
ethylacetate	-11.9842
▁stainless	-11.9844
non	-11.985
▁mixing	-11.9851
▁heptanes	-11.9861
carbazol	-11.9873
▁substituting	-11.9881
oxymethyl	-11.9901
▁achieved	-11.9904
methylbenzo	-11.9905
cyclohexyloxy	-11.9908
▁THE	-11.9909
yloxymethyl	-11.9914
chloroformate	-11.9915
fluorobenzoyl	-11.9923
▁AD	-11.9924
▁refrigerator	-11.9928
▁represented	-11.9929
▁diethylamine	-11.9934
pyrid	-11.9943
▁extracting	-11.9948
▁MW	-11.996
oil	-11.997
▁evaporate	-11.9983
dien	-11.9984
salt	-11.9991
guanidine	-11.9995
▁therefrom	-12.0006
Dihydro	-12.0014
cyclopentadienyl	-12.0014
▁periodinane	-12.0022
dihydroimidazo	-12.0027
▁ODS	-12.0029
approximately	-12.0031
Lys	-12.0033
▁detection	-12.0034
Gly	-12.0041
phosphate	-12.0044
benzoxazol	-12.0044
▁sulfonic	-12.006
▁Hexanes	-12.0066
▁oxalic	-12.0089
Oxo	-12.0101
▁Luna	-12.0129
▁EXAMPLE	-12.0164
ance	-12.0181
hydroxyethoxy	-12.0189
chromatography	-12.0204
mobile	-12.0208
▁accord	-12.0214
▁like	-12.0214
▁grade	-12.0225
▁occurred	-12.0228
▁done	-12.0238
▁make	-12.0242
▁Acetone	-12.0244
methylsulfinyl	-12.0262
Dimethoxy	-12.0265
▁hydrobromic	-12.0278
▁minimal	-12.0281
relative	-12.0289
▁DIAD	-12.0298
methoxybenzene	-12.0301
triethylamine	-12.0317
diisopropylamide	-12.0319
▁grey	-12.0335
▁around	-12.0338
Ala	-12.034
em	-12.0341
isoindolin	-12.0344
▁eliminated	-12.0346
▁thermocouple	-12.0347
▁Trituration	-12.0354
▁eluents	-12.0357
title	-12.0359
▁anisole	-12.0368
butanamide	-12.0372
▁ethanolic	-12.0374
sulfinyl	-12.0399
ClF	-12.0402
alpha	-12.0421
dimethylpropyl	-12.0423
▁phosgene	-12.046
▁come	-12.0465
▁triflate	-12.0484
▁melted	-12.0487
▁revealed	-12.0495
Di	-12.0549
benzoxazin	-12.055
▁Mixture	-12.0561
▁flame	-12.0572
▁phosphine	-12.0583
isopropanol	-12.0584
▁began	-12.0588
▁enantiomer	-12.0588
hydroxypropan	-12.06
▁methylmagnesium	-12.0604
▁Int	-12.0608
dicarboxamide	-12.0616
carbonyloxy	-12.0622
thiourea	-12.063
▁Thereto	-12.063
▁psig	-12.063
▁Cool	-12.0633
acetoxymethyl	-12.0638
ethylidene	-12.0639
oxazolidine	-12.0651
dimethylsilane	-12.0665
dichlorobenzene	-12.0665
triisopropylsil	-12.0666
▁Extraction	-12.067
k	-12.0679
COOH	-12.0684
▁Diisopropyl	-12.0687
▁have	-12.0687
crown	-12.0707
▁dichlorobis	-12.071
▁plates	-12.0712
oC	-12.0731
▁bisulfite	-12.0734
▁More	-12.0742
phthalazin	-12.0743
▁closed	-12.0746
▁packed	-12.0755
▁insolubles	-12.0761
Trifluoromethyl	-12.0763
methano	-12.0768
)−.	-12.0777
▁KOAc	-12.0787
▁ESMS	-12.0788
methylthiazol	-12.0789
cyanoethyl	-12.0792
▁proton	-12.0793
ethylcarbamoyl	-12.0799
▁BOP	-12.0805
′′),	-12.0809
▁torr	-12.0811
▁washes	-12.0819
▁gently	-12.0822
▁U	-12.0828
▁Solvents	-12.083
benzoyloxy	-12.0833
▁pinacol	-12.0836
▁disulfide	-12.0843
▁mix	-12.0844
▁Detector	-12.0847
▁rinsing	-12.0849
▁new	-12.0854
▁Another	-12.0865
▁diameter	-12.0865
benzhydryl	-12.0889
bS	-12.0894
▁Soc	-12.0895
▁exceed	-12.0896
chloropropyl	-12.0908
▁Xantphos	-12.0909
▁Table	-12.0924
▁reduce	-12.094
▁employed	-12.0943
ISCO	-12.0953
cyclohepta	-12.0956
▁AlCl	-12.0959
tartaric	-12.0964
▁KI	-12.097
▁Added	-12.0973
▁type	-12.0987
)-(−)-	-12.0989
ethylene	-12.1032
▁phosphite	-12.1035
▁Thionyl	-12.104
lutidine	-12.1049
trifluorophenyl	-12.1058
▁Tetrahydrofuran	-12.106
concentrated	-12.1066
Nujol	-12.1069
▁proceed	-12.1077
▁Tetrakis	-12.1081
▁particles	-12.1091
methylphenol	-12.1093
▁micron	-12.1106
Table	-12.1109
Pr	-12.1119
pyridinium	-12.1122
▁shaking	-12.1135
▁borate	-12.1153
amido	-12.1155
▁cuprous	-12.1174
▁(−)-	-12.1186
▁Hunig	-12.1189
piperidino	-12.1192
Isopropyl	-12.1195
▁rotation	-12.1196
▁residues	-12.1196
▁forms	-12.1209
phenylene	-12.1217
▁quant	-12.1219
▁Bis	-12.1255
cyclohexylamino	-12.1256
▁Analytical	-12.1263
tetrahydrobenzo	-12.1265
▁nmr	-12.1275
methoxypyridine	-12.1277
-[[[	-12.1278
▁furnished	-12.1291
▁transparent	-12.1296
oxobutan	-12.1308
▁gms	-12.131
fluoropyridine	-12.132
OS	-12.1322
▁dimer	-12.1323
hydroxybenzoate	-12.1328
▁foamy	-12.1339
thione	-12.1339
▁become	-12.1342
oxirane	-12.1342
▁PPh	-12.1345
ethylcarbamate	-12.1354
methylphenoxy	-12.1361
phthalimido	-12.1366
volume	-12.1384
▁allow	-12.1396
▁tributyl	-12.1407
piperidone	-12.1408
▁linear	-12.141
triisopropyl	-12.1415
▁overall	-12.1441
Pro	-12.1441
▁appeared	-12.1457
▁weekend	-12.1468
▁tetrabutyl	-12.1472
oxime	-12.1481
cyclopropylamino	-12.1488
▁characteristics	-12.1502
benz	-12.1513
▁needle	-12.1517
▁reactant	-12.152
▁Chiral	-12.1521
free	-12.1525
isocyanato	-12.1528
▁Cu	-12.1533
▁identical	-12.1536
MgS	-12.1539
▁measured	-12.1542
▁org	-12.1555
▁TBME	-12.1558
▁judged	-12.1563
▁elute	-12.1579
aminopyridin	-12.158
carbomethoxy	-12.1584
▁Formula	-12.1588
▁rose	-12.1592
ylsulfonyl	-12.1593
ethylsulfanyl	-12.1601
▁Obtained	-12.1604
azidomethyl	-12.1605
tributylstannyl	-12.162
rel	-12.1622
′-((	-12.1623
twice	-12.1642
▁CDI	-12.165
▁quenching	-12.1667
triphenylmethyl	-12.1669
▁BOC	-12.1683
fluoroaniline	-12.1694
▁isothiocyanate	-12.1694
▁preparatory	-12.1718
decomp	-12.1719
▁Combine	-12.1725
approx	-12.1726
▁external	-12.1736
▁crystallize	-12.1743
isobutylaluminum	-12.1748
▁changed	-12.1749
sec	-12.1753
isopropylphenyl	-12.1768
▁rpm	-12.1787
ABq	-12.1789
▁III	-12.1793
Cyclopropyl	-12.1795
▁main	-12.1797
▁suitable	-12.1809
propionylamino	-12.1826
chloropyrimidine	-12.1828
▁ul	-12.1835
OEt	-12.1836
▁Oxalyl	-12.184
▁finished	-12.1841
er	-12.1841
▁slight	-12.1843
propanediol	-12.185
▁those	-12.1851
▁%:	-12.1856
acryloyl	-12.1857
bromobenzene	-12.1859
▁dispersed	-12.1874
▁gray	-12.1885
aminothiazol	-12.1909
▁waxy	-12.1914
quinolyl	-12.1915
▁mesylate	-12.1917
acetylene	-12.1917
▁benzylamine	-12.1929
▁NaNO	-12.1941
▁Purify	-12.1943
▁Elemental	-12.1949
benzoxazine	-12.1949
▁maleic	-12.1949
▁automated	-12.1951
▁resonance	-12.1952
▁Nitrogen	-12.1954
NEt	-12.1956
BF	-12.1962
▁whilst	-12.1972
dibenzyl	-12.1972
▁neutralised	-12.1983
iodobenzene	-12.1988
▁Acid	-12.1989
quin	-12.1995
catalytic	-12.2025
▁chlorine	-12.2033
carboxymethyl	-12.2041
phenylmethoxy	-12.2046
trien	-12.2052
▁impurity	-12.2054
▁contains	-12.2077
▁IN	-12.2082
▁analogously	-12.2086
cyclo	-12.209
▁CV	-12.2092
▁Dimethyl	-12.2108
adamantyl	-12.2111
▁White	-12.2112
▁mode	-12.2113
▁Volatiles	-12.2123
▁BINAP	-12.2127
oxan	-12.2132
chlorosilane	-12.2144
peroxybenzoic	-12.2149
butyrate	-12.2155
▁soln	-12.2157
▁fashion	-12.2172
▁substituted	-12.2173
nitrobenzyloxy	-12.2176
▁desiccant	-12.2178
total	-12.2186
biphenylyl	-12.2192
dimethylaniline	-12.2198
▁imine	-12.2204
propanamido	-12.2208
▁developing	-12.2234
▁diacetate	-12.2238
▁cycles	-12.2243
-((((	-12.2245
methoxybenzoate	-12.2252
▁EI	-12.2253
methylquinolin	-12.2266
methoxybenzoic	-12.2268
phenylsulfanyl	-12.227
Leu	-12.2273
chromeno	-12.2277
▁line	-12.2283
cyclopropa	-12.2283
▁isolate	-12.2289
dioxopiperidin	-12.2291
benzyloxymethyl	-12.23
▁checked	-12.2304
▁upper	-12.2309
′-[(	-12.2311
▁pressurized	-12.2311
▁attached	-12.2312
phenylethynyl	-12.2317
▁least	-12.2321
▁Ice	-12.234
▁collect	-12.2341
▁Si	-12.2343
thien	-12.2377
chlorosulfonyl	-12.239
▁preceding	-12.2402
methoxybenzoyl	-12.2403
▁tartrate	-12.2405
ethoxyphenyl	-12.2411
▁thiourea	-12.2414
▁DIBAL	-12.2435
▁CombiFlash	-12.2451
manufactured	-12.2456
isonicotinic	-12.2464
▁Y	-12.2475
▁spectral	-12.2486
▁infrared	-12.2487
▁decomposition	-12.2497
Diisopropylethyl	-12.2501
▁LAH	-12.2507
▁sintered	-12.2517
butoxyethoxy	-12.2524
oxazepine	-12.2526
▁diastereomeric	-12.2528
nitrobenzoyl	-12.2533
▁Ammonium	-12.2539
▁Preparative	-12.2544
phenylacetate	-12.2546
▁shaker	-12.2552
▁beaker	-12.2559
▁thrice	-12.2567
▁MeI	-12.257
thiomethyl	-12.2599
▁contain	-12.261
indolo	-12.2613
▁purge	-12.2613
▁NMM	-12.2614
guanidino	-12.2615
indolin	-12.2619
diphenylmethyl	-12.2621
triethylammonium	-12.2624
methanopyrido	-12.2629
imidazolyl	-12.2633
trifluoroacetic	-12.2648
▁moisture	-12.265
▁prisms	-12.2666
methylpyrimidine	-12.2675
propynyl	-12.2677
▁contaminated	-12.268
bromobenzyl	-12.269
▁HC	-12.2703
▁propargyl	-12.2703
Chlorophenyl	-12.2713
thiopyran	-12.2722
mentioned	-12.2724
phthalic	-12.2728
▁pouring	-12.2732
▁injected	-12.2733
dinitro	-12.2747
FA	-12.2748
isopropoxyphenyl	-12.2757
]−.	-12.2764
▁traces	-12.2774
hexanoate	-12.2783
▁pot	-12.2785
▁spec	-12.279
tetrahydrofurane	-12.2792
hydroxybenzyl	-12.2793
Dioxane	-12.28
▁lowered	-12.2806
▁trace	-12.2808
▁ligand	-12.2815
pyridylmethyl	-12.2823
ethylphenyl	-12.2831
▁reported	-12.2833
benzylthio	-12.2834
▁isohexane	-12.2839
ation	-12.284
▁millimoles	-12.285
▁glycine	-12.2851
▁case	-12.2864
isochromeno	-12.287
propen	-12.2871
borate	-12.2879
benzazepin	-12.2886
▁sequence	-12.289
▁methods	-12.2896
▁nM	-12.2899
chlorobenzene	-12.2902
propanone	-12.2912
▁pattern	-12.2917
hr	-12.2917
two	-12.292
chloroacetyl	-12.2924
hydrazide	-12.2926
azabenzotriazol	-12.2928
fluorobenzoic	-12.2935
aldehyde	-12.2958
▁usual	-12.2961
ij	-12.2964
▁developed	-12.2974
▁Most	-12.2983
▁METHANOL	-12.2984
▁cap	-12.2985
fluorobenzoate	-12.2995
difluoroethyl	-12.2997
▁Isco	-12.3004
▁LiHMDS	-12.3019
bout	-12.3027
exo	-12.3035
▁recovery	-12.3046
▁Ac	-12.3055
▁periodate	-12.3057
adamantan	-12.3063
▁enantiomers	-12.308
ichloropalladium	-12.3087
benzodioxol	-12.3089
acetyloxy	-12.3089
▁passing	-12.3098
formylphenyl	-12.3109
▁NaOMe	-12.3111
▁freezer	-12.3124
▁pet	-12.3126
▁original	-12.3138
oxobutanoate	-12.3142
RT	-12.3149
ylsulfanyl	-12.3166
benzocyclohepten	-12.3173
▁sufficiently	-12.3174
▁Buchner	-12.3182
acid	-12.3187
alanyl	-12.3187
▁FCC	-12.3201
isothiocyanato	-12.321
fumaric	-12.3218
Petroleum	-12.3219
decahydro	-12.322
▁sulfone	-12.3229
▁freed	-12.3239
oxopentanoate	-12.3245
▁phenylboronic	-12.325
methylbutyl	-12.3263
Glu	-12.3282
▁spectrometry	-12.3303
▁forward	-12.3304
oxycarbonyl	-12.3306
▁BF	-12.3307
▁non	-12.3308
▁assigned	-12.3308
trimethoxyphenyl	-12.3309
quantitative	-12.3314
▁SnCl	-12.3321
▁anh	-12.333
pressure	-12.3341
▁loading	-12.3344
▁CELITE	-12.3347
−)	-12.3348
▁mantle	-12.3354
▁Addition	-12.3362
▁sufficient	-12.3365
▁Insoluble	-12.3366
Val	-12.3367
▁Dioxane	-12.3372
▁Mg	-12.338
MW	-12.3396
bipyridine	-12.3398
dicyano	-12.3401
▁azeotropically	-12.3408
▁magnetically	-12.3411
octamethyl	-12.3412
+]	-12.3417
▁NaI	-12.3417
′=	-12.3419
▁rinse	-12.3431
▁controlled	-12.3435
▁paste	-12.3437
▁powdery	-12.3443
Butyllithium	-12.3453
ion	-12.3462
-[({	-12.3472
DMAP	-12.3473
▁Heat	-12.3474
▁these	-12.3482
using	-12.3485
phenylacetyl	-12.3495
Fluorophenyl	-12.351
titanium	-12.3519
▁Industries	-12.352
butenyl	-12.3521
conc	-12.3522
ine	-12.3525
anthracene	-12.3537
▁properties	-12.3542
OtBu	-12.3546
▁Torr	-12.3558
▁terminated	-12.3567
malonic	-12.3568
▁Ex	-12.3569
▁outline	-12.3573
▁RBF	-12.3576
▁exchangeable	-12.3583
carboximidamide	-12.3588
▁Hex	-12.3614
▁methacrylate	-12.3628
▁return	-12.3629
oxycarbonylamino	-12.363
endo	-12.3632
penta	-12.3664
hexafluoro	-12.3675
▁let	-12.3677
Y	-12.3679
preparative	-12.3689
′′,	-12.3689
valine	-12.3702
tetraen	-12.372
▁length	-12.3744
bipyridin	-12.3754
each	-12.3763
▁isocratic	-12.3765
▁BH	-12.3769
▁neutralization	-12.3784
▁careful	-12.3787
▁performance	-12.3788
chrysen	-12.38
sulphonic	-12.3815
▁given	-12.3815
▁Wash	-12.3818
▁Heptane	-12.3819
GC	-12.383
▁dihydrogen	-12.3831
over	-12.3833
oxazolo	-12.3841
▁collecting	-12.3846
Asp	-12.3848
▁trioxide	-12.3849
▁Symmetry	-12.3855
▁EtOAC	-12.3857
▁emulsion	-12.3873
▁higher	-12.3887
pyrimidineamine	-12.3889
benzodioxin	-12.3897
isopropylpropan	-12.39
API	-12.3903
adamantane	-12.3904
fluorophenol	-12.3905
dihydrothieno	-12.3921
▁carry	-12.3924
UV	-12.3936
▁causing	-12.3939
▁tosylate	-12.3942
▁control	-12.3945
vacuo	-12.3971
trimethylphenyl	-12.3976
azulene	-12.3985
carbamimidoyl	-12.3991
AA	-12.4008
hydrazinyl	-12.4013
▁iced	-12.4014
tetrahydrofuro	-12.4022
dihydrofuran	-12.4035
nicotinaldehyde	-12.4037
▁KF	-12.4038
▁chloromethyl	-12.4038
dichloride	-12.4042
▁neutralize	-12.4049
▁Filter	-12.4059
▁submitted	-12.407
▁protons	-12.4073
▁ground	-12.4074
▁phthalimide	-12.4076
▁cyclopropane	-12.4087
′′	-12.4088
isonicotinamide	-12.4101
▁third	-12.4101
▁Exact	-12.4103
▁fed	-12.4103
▁SP	-12.4104
▁briefly	-12.4121
phenylenediamine	-12.4142
eneoxyphenyl	-12.4143
Al	-12.4167
substituted	-12.4169
triene	-12.4181
▁mmoL	-12.4184
▁EX	-12.4196
buten	-12.4198
▁Starting	-12.4199
▁pentoxide	-12.4202
dioxoisoindolin	-12.4217
hexa	-12.422
methylimidazole	-12.4224
leucine	-12.4231
▁last	-12.4255
butyldicarbonate	-12.4259
▁sol	-12.4276
picolinamide	-12.4277
three	-12.4278
▁IC	-12.4281
Silica	-12.4287
ammonia	-12.4296
ence	-12.4296
▁test	-12.4299
diphenylphosphor	-12.4305
▁tlc	-12.4308
}(	-12.4311
styryl	-12.4321
▁modifier	-12.4324
▁Treatment	-12.4324
diastereoisomers	-12.4339
dibromoethane	-12.4349
▁Pat	-12.435
▁AB	-12.4362
flash	-12.4371
▁side	-12.4379
▁fluffy	-12.4387
▁assay	-12.4388
qd	-12.4389
▁RM	-12.439
octadecahydro	-12.4402
▁Gilson	-12.4412
▁tr	-12.4419
serine	-12.442
described	-12.4428
binaphthyl	-12.4438
▁head	-12.4439
Phos	-12.4452
▁Afterwards	-12.4486
glucopyranosyl	-12.4486
▁intended	-12.4491
▁And	-12.4495
ClFN	-12.4517
methylbut	-12.4539
methylbenzoyl	-12.455
▁Methanesulfonyl	-12.4555
▁state	-12.456
bromoacetate	-12.4567
butyldimethyl	-12.4571
▁SNAP	-12.4582
keto	-12.4594
▁connected	-12.4599
washed	-12.4606
oxazolyl	-12.461
▁top	-12.461
methoxyaniline	-12.4613
chloroimidazo	-12.4617
trichloromethane	-12.462
▁bomb	-12.463
'-[	-12.4632
AcOH	-12.4638
thiazin	-12.4641
▁Progress	-12.4642
oxopiperidine	-12.4647
azobis	-12.465
▁arom	-12.4652
VI	-12.4653
cyclohexene	-12.4657
▁sec	-12.4657
▁full	-12.466
▁continuous	-12.4665
▁reference	-12.4686
▁succinic	-12.4694
oxabicyclo	-12.4707
▁seeded	-12.471
▁recover	-12.4717
▁exact	-12.4726
quinolizine	-12.4736
▁fuming	-12.4742
▁Teflon	-12.4745
▁SPE	-12.4748
carbonylmethyl	-12.4754
▁scheme	-12.4756
▁pentachloride	-12.4756
▁Production	-12.4766
oxido	-12.4767
▁bp	-12.4768
melting	-12.4771
▁necessary	-12.4789
▁Wako	-12.4789
▁tetrakistri	-12.4792
▁vac	-12.4797
acetoacetate	-12.4798
Int	-12.4804
▁phosphoryl	-12.4805
▁deprotected	-12.4809
To	-12.481
▁essentially	-12.481
▁chloroacetyl	-12.481
▁band	-12.4811
▁PyBOP	-12.4814
methoxyethanol	-12.4815
Arg	-12.4819
dimethylsilyl	-12.4819
liquid	-12.483
Heptane	-12.4835
▁manufactured	-12.4835
Phenomenex	-12.4849
methoxypropoxy	-12.485
cd	-12.4853
▁hexamethyl	-12.486
naphthol	-12.4864
▁number	-12.4864
inc	-12.4864
▁ethylenediamine	-12.4875
▁Solution	-12.4878
dihydropyrimidin	-12.4887
fluoroanilino	-12.489
nitrile	-12.4898
isocyanate	-12.4898
dihydropyrrolo	-12.4907
▁Brine	-12.4907
xanthene	-12.4924
▁near	-12.4925
DCI	-12.4931
▁Isomer	-12.4935
benzyloxyphenyl	-12.4944
ynyloxy	-12.4946
▁poly	-12.4951
▁rapid	-12.4953
▁dt	-12.4959
▁RediSep	-12.496
oic	-12.4961
benzothiophene	-12.4965
phenylpropan	-12.4968
▁meta	-12.4968
▁(+/−)-	-12.4977
picolinic	-12.4984
▁immersed	-12.4984
▁NaCNBH	-12.4985
▁entitled	-12.4986
which	-12.4986
▁Fe	-12.4988
diazomethane	-12.4988
balloon	-12.5007
chlorobenzoic	-12.5026
methylpropanoate	-12.5027
ally	-12.503
▁chemical	-12.5033
▁colour	-12.5034
-({(	-12.5052
glycyl	-12.5062
▁crystallizes	-12.5064
▁preheated	-12.5064
▁Heating	-12.5065
▁nitrile	-12.5071
▁alpha	-12.5085
▁turnings	-12.5086
▁good	-12.5087
benzisoxazol	-12.5093
oxobutyl	-12.5098
▁container	-12.51
charcoal	-12.5106
yne	-12.5107
▁Residue	-12.5115
butylphosphino	-12.5123
cyclopropylamine	-12.5128
▁uptake	-12.5132
▁Ni	-12.5136
CDCI	-12.5152
▁tribasic	-12.5154
pyridazinone	-12.5162
▁forming	-12.5168
▁isolation	-12.517
▁enough	-12.517
was	-12.5176
oxazino	-12.5177
▁Extract	-12.5188
▁reagents	-12.5197
azepan	-12.5198
▁rotovap	-12.5199
▁relative	-12.5205
benzenamine	-12.5212
difluorophenoxy	-12.5213
aluminum	-12.5214
▁petrol	-12.5218
▁decomposed	-12.5224
▁Purified	-12.5224
▁fritted	-12.5237
▁Stirred	-12.5238
▁turbid	-12.524
MeOD	-12.5245
▁MnO	-12.5248
▁Merck	-12.5254
▁Concentrate	-12.527
methylquinoline	-12.527
▁ring	-12.5277
heptanoic	-12.5281
▁nitromethane	-12.5283
oxopyridin	-12.5285
bromoacetyl	-12.5285
▁effected	-12.5292
▁dioxan	-12.5298
▁purging	-12.5299
lithium	-12.5305
CDC	-12.5306
▁they	-12.5313
methoxyquinolin	-12.5314
▁{[	-12.5318
▁said	-12.5333
furanyl	-12.5334
▁treating	-12.534
▁Hydrazine	-12.5342
tetrakis	-12.5344
NaHCO	-12.5346
valyl	-12.535
▁deoxygenated	-12.5356
▁Al	-12.5356
▁effect	-12.5364
▁sieve	-12.5368
difluorobenzene	-12.5369
trichloroethyl	-12.5377
]-[	-12.5377
▁gaseous	-12.538
▁glassy	-12.5385
Tetrahydro	-12.5391
diisopropylether	-12.5398
thiadiazin	-12.5403
azepino	-12.5409
▁separately	-12.5415
aminosulfonyl	-12.5415
▁Temperature	-12.5416
ret	-12.5416
▁terminate	-12.5425
methyldisilazane	-12.5426
▁elevated	-12.5438
iodopropane	-12.5438
hour	-12.5442
▁diol	-12.5443
▁soluble	-12.5448
▁mCPBA	-12.5454
▁hydrophobic	-12.5454
tin	-12.5457
▁trihydrate	-12.5463
PYR	-12.5474
phenanthren	-12.5475
bipyridinyl	-12.5485
tetraaza	-12.5487
▁iPrOH	-12.5498
sulphonyl	-12.5499
▁purify	-12.5502
▁substantially	-12.5502
BuOK	-12.5504
▁Isopropyl	-12.551
▁rel	-12.5521
▁polyphosphoric	-12.5529
form	-12.5538
▁Observed	-12.5542
octa	-12.5546
acrylonitrile	-12.555
▁composition	-12.5554
▁rubber	-12.5555
▁thirty	-12.5557
dodeca	-12.5565
crystallized	-12.5567
▁sulfonate	-12.5584
undecane	-12.5585
methoxypropyl	-12.5594
indanone	-12.5595
▁Rate	-12.5596
▁First	-12.56
▁Copper	-12.5608
OBzl	-12.5609
▁homogenous	-12.5614
▁HP	-12.5617
▁decantation	-12.5617
▁longer	-12.5622
oxopropanoate	-12.5638
green	-12.5642
▁diazomethane	-12.5645
▁acetoacetate	-12.5647
thin	-12.5652
Bromomethyl	-12.5653
of	-12.5655
▁Phenyl	-12.5655
terphenyl	-12.5659
dodecyl	-12.566
Li	-12.566
▁CCl	-12.5663
retention	-12.5667
▁benzhydryl	-12.5669
decyl	-12.5672
propene	-12.5675
oxopyrrolidine	-12.5676
chloroaniline	-12.568
▁aryl	-12.5683
▁NaN	-12.5691
▁diluting	-12.5697
▁hypochlorite	-12.5701
▁Data	-12.5701
Fmoc	-12.5702
▁charge	-12.5712
▁seconds	-12.573
▁analytically	-12.574
▁pellets	-12.5741
dioxino	-12.5745
▁elemental	-12.575
Tyr	-12.5759
Water	-12.5759
dibenzylamino	-12.5762
▁Dilute	-12.577
▁blanket	-12.5805
pet	-12.5818
▁liquors	-12.5819
beta	-12.5823
pentyloxy	-12.5824
▁Form	-12.5828
▁Tetra	-12.5833
▁indicates	-12.5837
▁remainder	-12.5838
▁groups	-12.5838
phosphinic	-12.5845
▁maximum	-12.5848
▁Time	-12.5857
filtered	-12.5864
azetidinone	-12.5871
oxiran	-12.5872
benzotrifluoride	-12.5884
hydro	-12.5887
▁distributed	-12.5888
bromide	-12.5903
▁nearly	-12.5911
onohydrochloride	-12.5914
▁Methylene	-12.5921
Trifluoro	-12.5927
▁PS	-12.5931
▁acryloyl	-12.5934
▁centrifuged	-12.5936
▁(%):	-12.5949
NaOH	-12.5949
hydroxybenzoic	-12.5952
aminocyclohexyl	-12.5959
electrospray	-12.5962
▁selectivity	-12.5965
thiomorpholine	-12.5969
▁radial	-12.5983
phosphonoacetate	-12.5983
benzoxazepin	-12.599
isohexane	-12.6
ddt	-12.6003
▁adjusting	-12.6004
▁frozen	-12.6009
▁fumarate	-12.6012
formamido	-12.6019
▁melts	-12.6024
oxazepin	-12.6043
▁literature	-12.6047
▁utilizing	-12.6048
methylbutanoyl	-12.6055
▁propylene	-12.6061
▁FC	-12.6075
▁Trans	-12.6088
methoxyphenol	-12.6089
▁simultaneously	-12.6099
benzoquinone	-12.61
▁disodium	-12.6113
▁Lawesson	-12.6116
aluminium	-12.6119
decomposition	-12.6124
▁device	-12.6124
lysine	-12.6124
methylbiphenyl	-12.613
cyclohexan	-12.6139
propanal	-12.6154
bd	-12.6165
▁monomethyl	-12.6174
▁centrifugal	-12.6183
▁working	-12.6184
pyrrolidino	-12.6185
benzenethiol	-12.6186
acetylthio	-12.6188
commercially	-12.6192
carbohydrazide	-12.6198
stannane	-12.6198
gas	-12.6206
▁Sigma	-12.621
aryl	-12.6212
▁prism	-12.6213
]−	-12.6232
▁nuclear	-12.6234
benzenesulfonic	-12.6235
▁Cooled	-12.6237
)((	-12.6241
diacetoxy	-12.6248
imidazolium	-12.6258
▁strong	-12.6259
▁deprotection	-12.6262
IPA	-12.6265
▁AIBN	-12.627
▁BEH	-12.6276
butanoyl	-12.6279
benzyloxyimino	-12.628
▁Dowex	-12.629
▁provides	-12.6296
Ser	-12.6311
isothiazol	-12.6317
▁iodoethane	-12.633
pos	-12.6331
vacuum	-12.6336
dihydroxyphenyl	-12.6337
Gradient	-12.6347
▁Shimadzu	-12.635
▁transfer	-12.6351
▁plus	-12.6355
▁Petroleum	-12.6356
neopentyl	-12.6359
▁DEAD	-12.6365
indane	-12.6368
▁scale	-12.6382
▁caesium	-12.6387
▁melt	-12.6393
▁box	-12.64
Ethoxy	-12.6401
bp	-12.6407
▁crystallisation	-12.6412
▁Distillation	-12.6414
heptanes	-12.6416
dichlorobenzoyl	-12.642
▁isopropylamine	-12.6427
▁probe	-12.6427
▁Combiflash	-12.6438
▁Tr	-12.6446
▁mi	-12.6452
benzoxazepine	-12.646
ClNO	-12.6461
trichloromethyl	-12.6462
bromopropyl	-12.6466
▁bisulfate	-12.6468
▁tetrabromide	-12.6469
ribofuranosyl	-12.6475
▁remains	-12.6475
ated	-12.6484
Aminomethyl	-12.6485
Ac	-12.6487
methylbutan	-12.649
pentanone	-12.6493
▁vented	-12.6493
cyclopentylamino	-12.6495
bromoethoxy	-12.6495
CPBA	-12.6509
▁Chemistry	-12.6516
▁iPr	-12.6518
▁Celsius	-12.6519
dideoxy	-12.6525
benzisoxazole	-12.6528
benzothiophen	-12.6537
Rt	-12.654
TEA	-12.6543
▁Final	-12.6544
hydroxybutyl	-12.6546
▁Sat	-12.6559
methylthiazole	-12.6564
Dibromo	-12.6566
▁max	-12.6577
▁block	-12.6579
packed	-12.6583
▁centrifugation	-12.6585
▁values	-12.6602
▁WSC	-12.6605
▁ortho	-12.6615
chloropropoxy	-12.6617
dipropyl	-12.6647
▁drained	-12.6647
pentanol	-12.6656
IN	-12.6664
internal	-12.6669
▁MsCl	-12.6672
▁due	-12.6673
tritylamino	-12.6687
▁tripotassium	-12.6725
▁ddd	-12.6727
▁opened	-12.6734
isothiazole	-12.674
XBridge	-12.6758
chlorocarbonyl	-12.676
▁ketal	-12.676
Tetramethyl	-12.6762
▁maleate	-12.6768
▁released	-12.6771
reaction	-12.6773
BINAP	-12.6775
▁tricyclohexyl	-12.6779
▁Tetrahedron	-12.6788
▁Tris	-12.6792
morpholinomethyl	-12.68
tr	-12.6806
▁acidification	-12.6814
▁analyses	-12.6819
-(+)-	-12.682
allyloxycarbonyl	-12.6821
▁DI	-12.6827
▁epoxide	-12.6827
MTBE	-12.6848
▁acetaldehyde	-12.685
▁Cesium	-12.6858
diazepan	-12.686
cyclohexen	-12.6864
triisopropylbi	-12.6887
▁Rochelle	-12.6888
methylpyrazolo	-12.689
▁Gemini	-12.6892
▁Gel	-12.6893
Benzo	-12.6901
▁Ti	-12.6912
▁divided	-12.692
Hydroxymethyl	-12.6921
methylthiophene	-12.6927
▁JAB	-12.6929
methylpyrazole	-12.6939
▁Pt	-12.6946
▁seed	-12.6949
▁screw	-12.6949
dichloropyridin	-12.6949
ous	-12.6951
▁Remove	-12.6954
NCH	-12.6955
butyramide	-12.6957
▁Stage	-12.6961
▁employing	-12.6972
▁SM	-12.6973
dihydroisoxazol	-12.6984
trihydroxy	-12.6984
▁FA	-12.6987
▁Bromine	-12.6988
carboxamidine	-12.6994
▁signals	-12.7003
▁hexahydrate	-12.7007
▁nBuLi	-12.7011
isonicotinate	-12.7023
▁matters	-12.7029
▁basis	-12.7031
fluoropyrimidin	-12.7038
pyrimidinone	-12.7042
RP	-12.7049
▁settle	-12.7053
▁pumped	-12.7053
trioxa	-12.7056
oxaborol	-12.7084
▁cyclic	-12.709
▁NaOAc	-12.7091
▁Examples	-12.7098
▁pivalate	-12.7113
+)=	-12.7119
▁replacing	-12.7123
aminoethoxy	-12.7124
dioic	-12.7126
pentafluoroethyl	-12.713
aminophenol	-12.7132
▁jacketed	-12.7139
▁partial	-12.7141
trifluoroethanol	-12.7142
dimethylamine	-12.7149
▁permanganate	-12.7155
dimethylpyridine	-12.7159
▁Sunfire	-12.7162
propylcyclohexyl	-12.7163
▁commercial	-12.7168
off	-12.7182
▁Combi	-12.7183
▁fractionated	-12.72
▁Chiralpak	-12.7201
YMC	-12.721
▁Grams	-12.7214
▁composed	-12.7217
▁synthetic	-12.7233
isoquinolyl	-12.7247
▁thereinto	-12.7248
aminobenzoate	-12.725
phos	-12.7252
▁condensation	-12.7253
ide	-12.7256
▁Kugelrohr	-12.7258
▁MgS	-12.7262
wt	-12.7263
oxoethoxy	-12.7265
▁semisolid	-12.7267
▁producing	-12.7273
▁cobalt	-12.7274
▁Gas	-12.7275
▁osmium	-12.7286
▁Lett	-12.7288
oxindole	-12.7288
zinc	-12.7295
dimethylxanthene	-12.7303
ochloridate	-12.7304
naphthalenyl	-12.7306
olate	-12.7306
Cbz	-12.731
cinnamic	-12.7316
ne	-12.7319
▁fully	-12.7325
meth	-12.733
ethanesulfonyl	-12.733
picoline	-12.7331
methy	-12.7345
▁isopropoxide	-12.7346
▁IV	-12.7349
hydroxypyridine	-12.7352
▁bring	-12.7353
hexyloxy	-12.7355
▁tertiary	-12.7363
dimethoxytrityl	-12.7365
▁aimed	-12.7375
▁diazonium	-12.7375
triphenylphosph	-12.7377
▁milliliter	-12.7378
cysteine	-12.738
imine	-12.7384
picolinate	-12.7385
▁caused	-12.7395
bromophenoxy	-12.7397
Prep	-12.7405
aminophenoxy	-12.7409
carbethoxy	-12.741
propyloxy	-12.7415
quintet	-12.7422
enantiomer	-12.7422
boiling	-12.7425
thiazolidin	-12.7432
STR	-12.744
▁coevaporated	-12.7459
▁generation	-12.7461
▁entire	-12.7467
▁if	-12.7472
oxobutanoic	-12.7474
▁ended	-12.7474
+],	-12.7482
ethylhexyl	-12.7482
anhydro	-12.7484
base	-12.7488
▁distill	-12.7496
methylpropanoic	-12.7503
▁HR	-12.7503
▁acrylic	-12.7504
phthalazine	-12.751
toluoyl	-12.751
▁injection	-12.7514
oxyethyl	-12.7523
glycinate	-12.7525
▁rendered	-12.7532
▁ensure	-12.7534
butyn	-12.754
iv	-12.7546
▁additionally	-12.7554
methylmorpholin	-12.7555
▁checking	-12.7566
▁HCOOH	-12.7566
phenanthrene	-12.758
methoxybenzo	-12.7581
aminobenzyl	-12.759
cyanopyridin	-12.7593
WO	-12.7594
undecan	-12.761
calc	-12.7612
hydroxyl	-12.7616
▁Spec	-12.7617
▁Dried	-12.7617
propenoate	-12.7617
isopropenyl	-12.7627
BrNO	-12.763
▁evolved	-12.7637
petrol	-12.7638
▁succession	-12.7645
▁Acetate	-12.7647
▁Thin	-12.7647
phosphane	-12.7651
Elemental	-12.7653
hydrazono	-12.7656
chloropyrazin	-12.7661
▁refined	-12.7662
oxoacetate	-12.7668
butylphenol	-12.767
▁blown	-12.7675
diazepane	-12.7677
half	-12.7683
▁consecutively	-12.7685
▁Both	-12.7685
based	-12.7688
silanyloxymethyl	-12.7695
)+]	-12.7704
▁regioisomers	-12.7708
▁physical	-12.7708
▁HF	-12.7716
oxazinan	-12.7718
Bn	-12.772
▁conventional	-12.772
▁desiccator	-12.7725
▁coloured	-12.7734
▁open	-12.7736
Chloromethyl	-12.774
cresol	-12.7765
estra	-12.7774
▁Carbon	-12.7774
methanesulphonyl	-12.7775
dimethoxymethyl	-12.7776
nCl	-12.7776
▁incomplete	-12.7777
▁Total	-12.7778
▁mechanically	-12.7778
▁RB	-12.7789
▁Mo	-12.7792
▁methylate	-12.78
azulen	-12.7814
▁wherein	-12.7817
▁Phosphorus	-12.7826
▁greater	-12.7831
▁Magnesium	-12.7836
▁delta	-12.7836
▁Filtered	-12.7841
▁hydrogensulfate	-12.7848
▁similarly	-12.7854
▁covered	-12.7867
DMSOd	-12.7868
iodopyridine	-12.7873
pyridone	-12.7877
▁particle	-12.7878
▁refilled	-12.7879
Ru	-12.788
dimethylphenoxy	-12.7886
▁every	-12.7888
dichloropyridine	-12.7911
Cyclohexyl	-12.7911
Formyl	-12.7917
▁subtitle	-12.792
▁EIMS	-12.7925
▁sulfuryl	-12.793
▁possible	-12.7935
ynoic	-12.7942
chloroethoxy	-12.7946
picolinonitrile	-12.7946
trione	-12.7949
major	-12.795
▁dimethylacetal	-12.7958
▁combiflash	-12.7963
diazo	-12.7966
▁Solids	-12.7966
▁valve	-12.7975
aminopiperidine	-12.7977
characterization	-12.7982
▁DAST	-12.7982
xanthen	-12.7983
methylacetamide	-12.8
▁proceeded	-12.8012
▁mols	-12.8016
':	-12.8019
AUC	-12.8021
bromophenol	-12.8024
FNO	-12.8025
iodide	-12.8028
▁finely	-12.803
▁ArCH	-12.8042
iii	-12.8055
▁diastereoisomer	-12.806
triazaspiro	-12.8068
hexahydropyrrolo	-12.8069
ATR	-12.8074
penten	-12.808
produced	-12.8084
▁CAS	-12.8092
ethylbenzene	-12.8092
▁ruthenium	-12.81
hi	-12.8103
oxazolidinone	-12.8104
heated	-12.8109
dipiperidine	-12.8111
ethoxyvinyl	-12.8112
phenylacetamido	-12.812
▁stirbar	-12.8125
nitrobenzamide	-12.813
hydroxypiperidin	-12.8131
▁ethanolamine	-12.8132
hydrogen	-12.8136
phenanthroline	-12.8149
▁thiocyanate	-12.8151
▁anion	-12.8154
exchange	-12.816
carbostyril	-12.8161
Condition	-12.8161
▁Synthetic	-12.8175
dihydropyridazin	-12.818
isobutyronitrile	-12.8181
piperazino	-12.8183
benzeneboronic	-12.8184
methylisoxazol	-12.8184
▁Vol	-12.8186
calculated	-12.8187
▁settling	-12.8221
▁u	-12.8224
▁invention	-12.8233
▁perform	-12.8237
dioxole	-12.8241
thiazine	-12.8241
dioxopyrrolidin	-12.8244
▁stop	-12.8255
▁Optical	-12.8259
Methoxycarbonyl	-12.8261
▁golden	-12.8264
▁Precipitated	-12.8276
oxoquinoline	-12.8279
methyluridine	-12.8283
coloured	-12.829
▁polarity	-12.8291
▁Formic	-12.8308
▁HOAt	-12.8313
diethoxyphosphor	-12.8318
▁KOtBu	-12.832
comp	-12.8323
methylbutanoic	-12.8331
▁hydrolysed	-12.8332
difluorobenzoyl	-12.8334
▁Boron	-12.8339
nonyl	-12.8342
ylmethylene	-12.8343
ketone	-12.8346
corresponding	-12.8356
chloroquinolin	-12.8358
▁resolution	-12.8365
apci	-12.8367
▁change	-12.8367
chloropropane	-12.8373
▁Ammonia	-12.8374
diazatetracyclo	-12.838
▁lactone	-12.8382
▁increase	-12.8384
iodosuccinimide	-12.8402
▁substrate	-12.8405
′);	-12.8416
▁Crystals	-12.8419
indenyl	-12.8423
available	-12.8428
▁Resulting	-12.8428
stirred	-12.8429
methoxyquinoline	-12.844
▁DL	-12.8447
pentanoyl	-12.8454
iodomethyl	-12.8454
trioxo	-12.8457
▁bi	-12.8459
▁mentioned	-12.846
BrF	-12.8468
▁rotamer	-12.8475
tolylphosphine	-12.848
succinic	-12.8487
phenylhydrazine	-12.8496
▁cyanuric	-12.8496
glucopyranoside	-12.8497
cyclohepten	-12.8498
▁gravity	-12.8502
methyleneoxy	-12.8502
is	-12.8506
butyronitrile	-12.8514
▁nD	-12.8518
tartrate	-12.8524
▁known	-12.8527
▁acetylene	-12.8545
propylcarbamate	-12.8547
▁singlet	-12.8552
▁plastic	-12.8553
temperature	-12.8562
▁resuspended	-12.8565
quint	-12.8569
▁confirming	-12.8572
lactone	-12.8573
▁pivaloyl	-12.8582
▁ozone	-12.8583
▁mercury	-12.8587
tetralone	-12.8599
▁extractions	-12.8609
adenine	-12.861
pentacosa	-12.8618
pyridyloxy	-12.8626
phenylpiperidine	-12.8626
▁quantitatively	-12.8629
pentanamide	-12.8633
▁aliquots	-12.8637
▁Approximately	-12.864
▁diglyme	-12.8642
ethoxyimino	-12.8642
▁glove	-12.8653
▁dripped	-12.8653
▁Iodomethane	-12.8653
ArH	-12.8656
hydroxyquinoline	-12.866
▁precipitating	-12.8665
▁reactants	-12.8665
AP	-12.8665
sulphonamide	-12.8668
▁Acetyl	-12.8668
benzylcarbamoyl	-12.867
chlorobenzo	-12.8671
lit	-12.8674
benzofuro	-12.869
nd	-12.8694
▁polymerization	-12.8694
▁optically	-12.8696
▁FTIR	-12.8707
triethylsilyl	-12.8717
▁YMC	-12.8717
cyclohexylamine	-12.8726
▁triacetoxy	-12.8726
▁cat	-12.8727
▁including	-12.8727
▁capacity	-12.8729
methylsulphonyl	-12.8734
Butoxy	-12.8735
▁spray	-12.8738
▁PtO	-12.8742
▁herein	-12.8746
opropylmagnesium	-12.8751
▁subsided	-12.8756
▁degree	-12.8756
mass	-12.8757
▁bubbler	-12.8763
nor	-12.877
benzamidine	-12.8771
found	-12.8785
morpholinophenyl	-12.8793
▁cyclohexanone	-12.8796
dihydropyrazolo	-12.88
Pyridin	-12.8814
▁tetraethyl	-12.8817
▁hydroquinone	-12.8817
▁gr	-12.8821
nitroimidazole	-12.8822
propionaldehyde	-12.8826
ray	-12.8828
▁acyl	-12.883
▁crops	-12.8834
bromoimidazo	-12.885
(+)-	-12.8852
quinuclidin	-12.8855
no	-12.8857
octadeca	-12.8874
complex	-12.8875
cyclopropoxy	-12.8875
▁metered	-12.8876
▁twenty	-12.8883
diazatricyclo	-12.8884
▁deg	-12.8891
cyanobenzyl	-12.8892
naphth	-12.8892
oxooxazolidin	-12.8903
chlorophenol	-12.8914
phosphinyl	-12.8919
us	-12.8924
▁rhodium	-12.8926
methylindole	-12.8953
▁CuSO	-12.8959
▁Organics	-12.896
dimethylethoxy	-12.8962
methylisoxazole	-12.8962
▁Cooling	-12.8964
▁enantiomeric	-12.8972
▁cation	-12.8974
▁Company	-12.8993
▁LiBH	-12.8993
phosphono	-12.9
▁continue	-12.9001
▁TiCl	-12.9006
▁Nickel	-12.901
▁monomer	-12.9014
oxazoline	-12.9028
▁isomeric	-12.9033
Methoxyphenyl	-12.9035
Sigma	-12.9042
▁collection	-12.9046
succinate	-12.9047
tyrosine	-12.9052
trifluoropropan	-12.9054
▁Isolute	-12.9066
BB	-12.9068
Methanesulfonyl	-12.9081
Acetone	-12.9092
▁Appropriate	-12.9092
um	-12.9092
▁resolved	-12.9093
cyanophenoxy	-12.9094
DME	-12.9097
enone	-12.9101
▁double	-12.9101
▁Base	-12.9118
ylidenemethyl	-12.9119
th	-12.9122
phenylalanyl	-12.9124
▁Peak	-12.9127
malononitrile	-12.9128
oxazolylmethoxy	-12.9139
orthoformate	-12.914
methylethoxy	-12.9142
▁greenish	-12.9142
▁bulk	-12.9146
VII	-12.9148
▁millimole	-12.9149
phosphinate	-12.9153
Py	-12.9163
methyldisilazide	-12.917
▁Molecular	-12.9173
▁supported	-12.9179
diethoxymethyl	-12.9184
▁precursor	-12.9189
▁scintillation	-12.9191
sulfonimide	-12.9192
borohydride	-12.9203
▁accomplished	-12.9204
isothiocyanate	-12.9212
▁fluid	-12.9215
indolyl	-12.9217
▁eggplant	-12.9218
▁fractional	-12.9219
Formula	-12.9219
phosphorane	-12.9226
condition	-12.923
▁tetroxide	-12.9231
▁diethylene	-12.9234
methoxybenzyloxy	-12.9234
▁milky	-12.9236
aminoethanol	-12.924
azanediyl	-12.924
toluenesulphonic	-12.9243
▁Whatman	-12.925
calcd	-12.925
fluoroethyl	-12.9252
apparent	-12.9255
▁j	-12.9268
▁went	-12.927
dibromopyridine	-12.9285
azodicarbonyl	-12.9292
dichlorophenoxy	-12.9297
▁Bu	-12.9299
azide	-12.93
Diamino	-12.9301
▁hydro	-12.9304
bromothiophene	-12.931
▁eV	-12.9317
▁lamp	-12.9317
▁soda	-12.9319
cyclopentadiene	-12.9321
borane	-12.9335
▁Filtrate	-12.9339
▁wavelength	-12.934
nitroso	-12.9345
Vis	-12.9348
▁dil	-12.935
▁un	-12.9351
-[[[(	-12.9355
propylthio	-12.9355
Methanol	-12.9357
ylethynyl	-12.9357
octanoic	-12.9361
diiodo	-12.9363
Reference	-12.9378
▁bulb	-12.938
▁took	-12.9384
difluorobenzo	-12.9386
purified	-12.9387
mono	-12.9389
potassium	-12.9398
oxepin	-12.9399
NaO	-12.9401
oxaspiro	-12.9403
▁does	-12.9406
▁intervals	-12.9416
morpholinoethyl	-12.9427
▁triflic	-12.9439
amyl	-12.9445
AS	-12.9456
▁micro	-12.9459
▁litre	-12.9465
benzylcarbamate	-12.9467
cyclopropanamine	-12.947
▁INT	-12.947
chlorosulfonic	-12.9472
difluoroacetate	-12.9477
▁Xbridge	-12.9481
▁Redi	-12.9485
▁anhyd	-12.9488
imide	-12.9488
'),	-12.9494
▁Alternatively	-12.9495
isoquinolinyl	-12.9497
▁CuCl	-12.9501
acetanilide	-12.9501
EDC	-12.9504
boc	-12.9505
▁Ru	-12.9518
▁measurement	-12.9526
▁membrane	-12.9529
▁stock	-12.9534
▁start	-12.954
TsOH	-12.9545
▁Separate	-12.9552
▁diphenylmethyl	-12.9554
adenosine	-12.9557
bromoaniline	-12.9558
sept	-12.9559
shaped	-12.9561
oxoazetidine	-12.9566
dicyclohexylurea	-12.9572
▁deposit	-12.9577
▁epichlorohydrin	-12.9578
▁post	-12.958
sulfo	-12.9586
distilled	-12.9594
septet	-12.9597
▁benzophenone	-12.9618
▁proposed	-12.9627
▁degassing	-12.9627
ruthenium	-12.9634
System	-12.965
diphenylsilyloxy	-12.9656
▁outlet	-12.9664
te	-12.9665
zirconium	-12.9665
▁either	-12.9666
NaCl	-12.9668
perhydro	-12.9669
trimethoxysilane	-12.9673
▁dibenzyl	-12.9677
amidino	-12.9685
▁triisopropyl	-12.9708
MNa	-12.9711
▁formalin	-12.9713
fluorobenzamide	-12.9715
dioxine	-12.9722
▁chromium	-12.9726
▁unit	-12.9727
py	-12.9727
light	-12.9729
hydrate	-12.9729
methylquinazolin	-12.9733
Anal	-12.9741
ar	-12.9743
formate	-12.9756
▁pulverized	-12.9758
▁Trifluoro	-12.9762
▁NCS	-12.9762
Dioxo	-12.9771
▁spatula	-12.9776
▁xylenes	-12.9788
▁corresponds	-12.9794
iminoacetamido	-12.9794
▁processed	-12.9795
ethoxyethanol	-12.98
triethoxysilane	-12.98
glycerol	-12.9803
▁undissolved	-12.9809
▁supra	-12.9818
▁XPhos	-12.9821
Dimethylethyl	-12.9823
cyanopyridine	-12.9829
▁eight	-12.9836
▁hydroiodide	-12.985
methoxybenzamide	-12.9852
▁cotton	-12.9855
▁byproduct	-12.9855
dibenz	-12.986
▁olefin	-12.9863
oate	-12.9864
▁Each	-12.9873
▁assumed	-12.9895
carbo	-12.9899
▁GP	-12.99
benzenesulphonyl	-12.9902
▁diester	-12.9903
naphthoic	-12.991
nm	-12.9912
▁Title	-12.9919
octyloxy	-12.993
▁Some	-12.993
▁viscosity	-12.9933
Dichlorophenyl	-12.9936
methylthieno	-12.9946
carboethoxy	-12.9949
▁agitator	-12.9973
▁guanidine	-12.9988
dicarbonate	-12.999
▁oxidation	-12.9991
▁dec	-12.9991
ethoxyethyl	-13.0002
cyclooctadiene	-13.0002
▁Colorless	-13.001
▁NaSO	-13.002
▁dehydration	-13.0021
vac	-13.0022
▁recooled	-13.0035
Dihydroxy	-13.0044
homo	-13.0046
▁If	-13.0049
bromopropane	-13.0057
▁HNO	-13.0059
dibenzofuran	-13.0065
carboxyl	-13.0076
NMe	-13.0079
isobutoxy	-13.0081
alcohol	-13.0085
▁EDCl	-13.0086
mole	-13.0088
▁mercaptan	-13.0089
▁chlorite	-13.0089
HATU	-13.0094
Bromophenyl	-13.0096
▁Erlenmeyer	-13.0097
▁examples	-13.0105
▁stood	-13.011
▁GCMS	-13.011
▁malonic	-13.0117
butadiene	-13.0119
dimethoxyethyl	-13.0124
▁peptide	-13.0126
▁Borane	-13.0126
▁Layer	-13.014
▁initiated	-13.014
oxyimino	-13.0141
drying	-13.0142
ethyloxy	-13.0142
JHH	-13.0145
rt	-13.0149
▁Material	-13.0152
▁cyanogen	-13.0163
▁pipette	-13.0173
▁combi	-13.0174
ylmethanol	-13.0174
after	-13.0178
▁include	-13.0183
under	-13.0188
basic	-13.0209
▁discharged	-13.0214
▁lot	-13.0222
▁DETL	-13.0229
hose	-13.0231
▁dl	-13.0234
phosphoramidite	-13.0242
▁partition	-13.0243
trifluoropropyl	-13.0243
heptanoate	-13.0245
glutamic	-13.0247
▁thioacetate	-13.0261
pyrazinyl	-13.0264
propylidene	-13.0269
▁Iron	-13.0273
ee	-13.0274
Azido	-13.0283
cat	-13.0284
▁polystyrene	-13.0284
▁now	-13.0285
▁respect	-13.0293
es	-13.0302
▁Work	-13.031
▁caustic	-13.031
fluorobiphenyl	-13.031
kg	-13.0314
eth	-13.0323
−):	-13.0323
butylate	-13.0326
▁Jones	-13.0326
methyltetrahydro	-13.0332
phosphite	-13.0334
▁cause	-13.0344
OTf	-13.0349
▁vmax	-13.0351
▁Allyl	-13.0357
▁sonication	-13.0369
▁Trimethyl	-13.0371
trideca	-13.0373
formula	-13.0374
▁litres	-13.0375
▁hydroperoxide	-13.0383
aminopiperidin	-13.0384
hexanol	-13.0386
▁Patent	-13.0386
▁solidifies	-13.0386
DMA	-13.0391
▁hygroscopic	-13.0393
chemical	-13.0395
trifluoroborate	-13.0395
chlorobenzoate	-13.04
MASS	-13.0403
▁jacket	-13.041
▁sulphoxide	-13.041
isobutyryl	-13.0417
▁diisobutyl	-13.042
▁trimethylamine	-13.0422
ane	-13.0433
Cyclopentyl	-13.0434
▁Florisil	-13.0434
alaninate	-13.044
CHCH	-13.0446
alkyl	-13.0453
▁isoamyl	-13.0455
▁HCL	-13.0456
aking	-13.0459
iodobenzoate	-13.0462
▁generate	-13.0464
▁purifying	-13.0469
(+)	-13.0469
BH	-13.0469
▁rotavap	-13.0477
▁dimethylamide	-13.0481
anthraquinone	-13.0483
carbothioamide	-13.0483
azidoethyl	-13.0493
azetidinyl	-13.0495
)-(-)-	-13.0496
annulen	-13.0496
salicylic	-13.0498
▁recorded	-13.0506
excess	-13.0508
pt	-13.0508
▁multiplet	-13.0512
▁DEA	-13.0519
▁Yellow	-13.053
▁benzotriazol	-13.0534
▁ferric	-13.0541
chloropyrazine	-13.0543
methylpyrazin	-13.0551
▁DPPA	-13.0562
▁Subsequent	-13.0567
▁foil	-13.0575
CIR	-13.0584
▁St	-13.0589
sulfonylchloride	-13.0596
▁throughout	-13.0599
isomers	-13.0599
enamide	-13.06
cyclopenten	-13.0604
Ni	-13.0605
heptafluoro	-13.0611
▁STEP	-13.0613
pentene	-13.0618
▁Aq	-13.062
cyclopentanone	-13.0622
Thr	-13.0623
▁NaHC	-13.0627
benzohydrazide	-13.0633
▁silyl	-13.0636
propiophenone	-13.0644
iodopyridin	-13.0655
PdCl	-13.0656
▁Over	-13.0659
▁foaming	-13.0667
▁CsF	-13.0667
▁dye	-13.0676
▁thiophenol	-13.0681
aminothiazole	-13.0683
methylbutanoate	-13.0695
▁electrospray	-13.07
▁Amberlite	-13.0701
AV	-13.0701
propylcarbamoyl	-13.0703
Trp	-13.0703
▁Furthermore	-13.0705
)[(	-13.0708
carbamoyloxy	-13.071
phenylacetamide	-13.0723
dimethylbenzene	-13.0761
benzodioxole	-13.0762
YL	-13.0763
▁barium	-13.0769
▁azeotrope	-13.077
▁sublimation	-13.077
▁feed	-13.0776
propargyl	-13.078
▁KMnO	-13.0784
diazepino	-13.0786
▁heavy	-13.0798
sulfonium	-13.0804
ter	-13.081
▁substances	-13.0813
methylpiperazino	-13.0815
▁nucleoside	-13.0817
▁tetrahydrate	-13.0823
hexafluoropropan	-13.0838
octanoate	-13.084
▁CuBr	-13.0844
▁endo	-13.085
ArC	-13.0855
phenylcarbamate	-13.0859
▁CeliteTM	-13.0866
triol	-13.0871
▁cyanamide	-13.088
methylpent	-13.0882
▁cyanate	-13.089
▁Trimethylsilyl	-13.0896
▁highly	-13.0898
▁solubilized	-13.09
fluoropiperidin	-13.0907
co	-13.0916
butynyloxy	-13.0917
▁hydrazone	-13.0918
▁needed	-13.0919
Celite	-13.0924
carboxyphenyl	-13.0928
quant	-13.0935
▁naturally	-13.0941
▁rotavapor	-13.0941
▁racemate	-13.0942
▁experiment	-13.0947
▁tosyl	-13.0948
oxyphenyl	-13.0951
▁chlorochromate	-13.0952
▁SunFire	-13.0953
▁protective	-13.0956
▁cupric	-13.0957
▁reextracted	-13.0959
hydroxypropoxy	-13.0965
docosa	-13.0966
DIPEA	-13.0966
CNMR	-13.0971
aminosulfur	-13.0971
Biphenyl	-13.098
▁Charge	-13.098
▁reducing	-13.098
▁NaOtBu	-13.0991
▁CMA	-13.0996
′′]	-13.1001
indolizine	-13.1003
Allyl	-13.1005
▁wave	-13.1012
▁Separately	-13.1012
phenylisocyanate	-13.102
polar	-13.103
PS	-13.1032
▁methacrylic	-13.104
cyclobutoxy	-13.1043
preparation	-13.1052
phenylpiperidin	-13.1053
chloroquinoline	-13.1056
hexahydrofuro	-13.1058
rimethylaluminum	-13.1069
heptyloxy	-13.1074
Acetoxy	-13.1078
hydroxyphenoxy	-13.109
▁Fraction	-13.109
′;	-13.1093
butyraldehyde	-13.1118
dioxolo	-13.1129
▁Three	-13.1133
▁(−)	-13.1143
hexanoyl	-13.1145
▁cyanoacetate	-13.1151
▁characteristic	-13.1154
▁Chemicals	-13.116
chloromethane	-13.1161
▁partitioning	-13.1163
▁dichlormethane	-13.1164
suspended	-13.1164
propyn	-13.1165
oxoazetidin	-13.1171
prolyl	-13.1174
▁PTLC	-13.1179
erythromycin	-13.118
Sep	-13.1188
dibenzyloxy	-13.119
interm	-13.119
▁Stark	-13.1192
phasic	-13.1206
▁Vacuum	-13.1206
methyleneamino	-13.1211
▁Mol	-13.1214
▁MDAP	-13.1216
▁effervescence	-13.1222
▁Re	-13.1224
▁strongly	-13.1226
dimethoxypropane	-13.123
▁styrene	-13.1231
▁protocol	-13.1232
dimethoxybenzene	-13.1237
▁rest	-13.1246
indacen	-13.1269
phen	-13.1272
▁VI	-13.1273
▁introduction	-13.1279
▁PTFE	-13.1292
CB	-13.1293
PEG	-13.1293
methylpentan	-13.1297
carboline	-13.1305
thienylmethyl	-13.1329
▁NaHMDS	-13.1329
dihydroxypropyl	-13.1333
DCC	-13.1334
octadecyl	-13.1334
methylpyrazol	-13.1336
▁Eluent	-13.1339
▁Oxone	-13.1343
′-{	-13.1346
BN	-13.1355
▁taking	-13.1356
trichlorophenyl	-13.1359
▁microwaves	-13.1362
bromoethanol	-13.1362
cyclohexanamine	-13.1368
il	-13.137
▁completing	-13.137
Flash	-13.1384
methoxypyrimidin	-13.1386
▁analysed	-13.1387
diisopropylamino	-13.1387
ethene	-13.139
)+]:	-13.1395
▁exchanged	-13.1396
▁exclusion	-13.14
▁instrument	-13.14
▁acidify	-13.1404
▁Benzene	-13.1408
▁DIPE	-13.1409
quinolinone	-13.1412
difluoroaniline	-13.1415
▁Li	-13.1418
carboxyethyl	-13.1419
▁MeMgBr	-13.142
minor	-13.1424
fluorobenzo	-13.1427
propionyloxy	-13.1428
Propyl	-13.1432
emed	-13.1434
▁Cbz	-13.1434
▁respective	-13.1437
sulfinic	-13.1437
uracil	-13.1437
▁stannous	-13.1437
methylpyrido	-13.1438
▁Companion	-13.1439
▁generally	-13.144
oxopiperidin	-13.1442
oxospiro	-13.1445
cyclopropylethyl	-13.1445
aminobenzoic	-13.1446
▁Triethyl	-13.1446
▁Separation	-13.1453
▁Hydroxylamine	-13.1454
▁boil	-13.1454
content	-13.1455
▁TsOH	-13.1467
▁wax	-13.1471
pyridazinyl	-13.1474
able	-13.1474
▁acrylonitrile	-13.1479
▁Acquity	-13.148
▁ID	-13.148
▁CEM	-13.1481
DL	-13.1496
disiloxane	-13.1501
▁name	-13.1503
phosphoric	-13.151
▁consisted	-13.1512
▁thiosulphate	-13.1514
Note	-13.1519
▁High	-13.153
pregna	-13.1532
methanesulfinyl	-13.1534
tosyloxy	-13.1539
▁conduct	-13.1545
▁morning	-13.1546
▁close	-13.1553
▁Chromatographic	-13.1558
▁Corporation	-13.1562
▁glycerol	-13.1564
▁JCF	-13.1572
fluoropyrrolidin	-13.1582
nitrogen	-13.1584
threo	-13.1588
▁gold	-13.1591
▁combine	-13.1596
butyrolactone	-13.1605
▁enol	-13.1612
▁regioisomer	-13.1613
azabenzotriazole	-13.1615
Analysis	-13.1627
▁will	-13.163
benzylbromide	-13.1633
▁System	-13.1635
▁seen	-13.1636
anging	-13.1644
trihydrochloride	-13.1644
aspartic	-13.1647
dibromopropane	-13.167
▁FT	-13.1671
▁xantphos	-13.1673
methylpentanoate	-13.1677
phenylbutyl	-13.1681
▁secondary	-13.169
▁alkylated	-13.1692
Bzl	-13.1694
▁Varian	-13.1696
▁speed	-13.1697
▁ethane	-13.1699
▁successive	-13.1707
▁excessive	-13.1707
▁average	-13.1708
Gemini	-13.1709
nitroquinoline	-13.171
▁split	-13.1711
▁hydrogenator	-13.1716
{[	-13.1717
sil	-13.1717
methylprop	-13.1719
▁mostly	-13.172
oxoprop	-13.1722
▁mesyl	-13.1726
chromane	-13.173
thiophenol	-13.1736
▁loss	-13.174
▁DD	-13.174
▁adapter	-13.1741
nickel	-13.1744
▁noted	-13.1748
benzylpiperidin	-13.1749
phenethylamine	-13.1755
cycloheptene	-13.1765
▁uniform	-13.1767
dddd	-13.1767
sulphoxide	-13.1773
▁decompose	-13.1782
▁DSC	-13.1783
▁Pro	-13.1791
oranylidene	-13.1801
▁Isolera	-13.1801
▁equimolar	-13.181
fluorenyl	-13.1817
methylpropionic	-13.1819
▁oxone	-13.182
▁ethylmagnesium	-13.183
quat	-13.1837
▁negative	-13.1837
DBU	-13.1838
Trt	-13.184
▁hydroxyl	-13.1842
HOBt	-13.1847
▁anti	-13.1852
azepane	-13.1853
phenylethanone	-13.1858
anhydride	-13.186
bromobenzoate	-13.1864
methyloxazol	-13.1868
▁destroyed	-13.1871
▁CuCN	-13.1881
fold	-13.1893
▁signal	-13.1898
sulfoxonium	-13.1906
isobutyramide	-13.1906
Ir	-13.1907
▁phthalic	-13.1912
Benzyloxycarbon	-13.1913
▁sucked	-13.1915
▁Diluted	-13.192
quinazolinone	-13.1921
Ethoxycarbonyl	-13.1923
Benzoyl	-13.1927
▁exo	-13.1938
▁decahydrate	-13.1941
phosphonomethyl	-13.1942
▁sequential	-13.1947
▁bond	-13.1948
Scheme	-13.195
▁thiol	-13.1952
Calculated	-13.1957
▁buffered	-13.1957
▁iodobenzene	-13.1968
▁alkylation	-13.1968
tetrachloro	-13.1972
phenoxycarbonyl	-13.1988
+];	-13.1995
▁chlorocarbonate	-13.1996
chloropurine	-13.1996
▁Use	-13.2004
▁finishing	-13.2011
azaindole	-13.2016
isothiourea	-13.202
anisidine	-13.202
Carboxy	-13.2022
Agilent	-13.2025
all	-13.2029
▁mercuric	-13.2038
hydantoin	-13.2048
▁flush	-13.2048
SPC	-13.2052
dimethylbenzyl	-13.2073
coumarin	-13.2078
formic	-13.2083
quinolinamine	-13.2089
made	-13.209
{(	-13.2095
▁paraffin	-13.2097
oxoimidazolidin	-13.2103
▁ascorbate	-13.2103
▁NaCN	-13.2113
′-{[	-13.2115
VIII	-13.212
▁microns	-13.2121
▁perchlorate	-13.2125
enyloxy	-13.2126
▁Completion	-13.2127
FD	-13.2131
▁weighing	-13.2145
butyloxy	-13.2147
undecene	-13.2148
cyclobutanol	-13.2149
EXAMPLE	-13.215
▁concd	-13.2155
▁powders	-13.2156
OSu	-13.216
wet	-13.2163
methylbenzofuran	-13.2165
▁aspirator	-13.2168
isoxazolo	-13.2175
series	-13.2178
performance	-13.2179
NMP	-13.2179
tetrahydrothieno	-13.2183
▁just	-13.2186
diastereomer	-13.2187
▁raising	-13.219
▁Wavelength	-13.219
fluoroquinolin	-13.2192
)+].	-13.2195
Ex	-13.2208
▁majority	-13.2208
triazatricyclo	-13.2209
fluoropyrimidine	-13.221
▁methylhydrazine	-13.2216
▁deliver	-13.2216
evaporation	-13.2227
butyne	-13.2228
▁Parts	-13.2232
indolizin	-13.2233
aromatic	-13.2237
▁index	-13.2241
vol	-13.2244
oxazolidinyl	-13.225
▁phosphonate	-13.2255
MALDI	-13.2256
quinuclidine	-13.2256
chromatographed	-13.2256
▁OCB	-13.2265
crystallization	-13.2266
▁decolorizing	-13.2271
▁KCN	-13.2277
▁overlapping	-13.2279
conditions	-13.2279
benzylsulfanyl	-13.2286
▁achieve	-13.229
▁turns	-13.2299
oxyl	-13.2299
▁Tokyo	-13.2305
▁recrystallizing	-13.2307
▁precooled	-13.2308
guanine	-13.2328
▁alkali	-13.2331
methylimidazol	-13.2338
▁Rh	-13.2343
▁Piperidine	-13.2345
bromopyrimidin	-13.2351
bromopropoxy	-13.2351
▁separates	-13.2353
orbax	-13.2353
type	-13.2355
dimethylphenol	-13.2358
▁ordinar	-13.236
▁PhCH	-13.237
tertiary	-13.2373
erythro	-13.2375
▁alkyl	-13.2378
▁PCl	-13.2381
▁USA	-13.2381
benzothiazepin	-13.2392
synthesized	-13.2393
rhodium	-13.2399
▁(+)-(	-13.2405
DIEA	-13.2412
Isomer	-13.2422
pyrrolyl	-13.2422
▁metallic	-13.2427
▁THP	-13.2432
anisole	-13.2432
▁Methanesulfonic	-13.2434
toluidine	-13.2435
BrO	-13.2435
dibromobutane	-13.2438
ethanolamine	-13.2438
▁Louis	-13.2445
▁seven	-13.2451
pentylcyclohexyl	-13.2451
iPr	-13.2455
butylsulfinyl	-13.2473
▁granular	-13.2475
oxocyclohexyl	-13.2475
▁doublet	-13.2479
formylamino	-13.2482
▁syn	-13.2485
▁selenium	-13.2505
products	-13.2513
▁cerium	-13.2518
tetraene	-13.252
cyclopentene	-13.2521
▁coarse	-13.2528
▁thiomethoxide	-13.2528
']	-13.2534
hydroxybenzoyl	-13.2541
yloxytris	-13.2542
ox	-13.2543
methoxypropan	-13.2548
▁SB	-13.2554
▁tributyltin	-13.2561
▁fifteen	-13.2565
butylcarbamoyl	-13.257
CAN	-13.2573
▁Amberlyst	-13.258
androst	-13.2583
acridine	-13.2586
Cpd	-13.2587
hepta	-13.2594
aminooxy	-13.2595
-[((	-13.2601
▁KP	-13.2609
argon	-13.2612
]+),	-13.2612
▁Bn	-13.2622
hexanamide	-13.2633
▁cycle	-13.2638
phosphoramide	-13.2641
▁obscured	-13.2641
▁Catalyst	-13.2652
ethylpiperazin	-13.2656
▁perchlori	-13.2657
dithia	-13.2664
iodoaniline	-13.2666
imidazolidinone	-13.2667
▁citrate	-13.267
particle	-13.2671
▁led	-13.2672
methylthiophenyl	-13.2673
fluoroimidazo	-13.2676
DSC	-13.2681
oyl	-13.2683
bromobenzo	-13.2686
METHYL	-13.2689
▁EDAC	-13.2691
cyclopentanol	-13.2693
▁enriched	-13.2696
prep	-13.2697
▁ABq	-13.2699
Chiralpak	-13.2702
▁silane	-13.2711
fluoropiperidine	-13.2714
▁violet	-13.2721
normal	-13.2722
butyrylamino	-13.2723
butylthio	-13.2723
+]+=	-13.2725
butynyl	-13.2725
▁Ret	-13.2731
pteridin	-13.2737
propylphenyl	-13.2738
aminobutyl	-13.2748
quinolone	-13.2748
decanoic	-13.2753
▁OC	-13.2765
thiocarbamoyl	-13.2767
▁Platform	-13.2773
thiochroman	-13.2782
▁dithionite	-13.2782
▁evacuation	-13.2792
▁biotage	-13.2792
evant	-13.2801
thioureido	-13.2813
▁aside	-13.2817
▁introducing	-13.2818
▁percentage	-13.2824
recrystallized	-13.2824
phthalonitrile	-13.2827
cyclohexylidene	-13.2831
▁Morpholine	-13.2831
sulfamic	-13.284
'(	-13.2842
dithio	-13.2844
▁KHCO	-13.2847
ethoxymethylene	-13.285
fluorobenzyloxy	-13.2858
▁TMSCl	-13.2858
▁structural	-13.2859
pentanamido	-13.286
▁source	-13.2861
phenylpiperazine	-13.2863
cyanamide	-13.2868
▁copious	-13.2868
▁lead	-13.2872
isophthalic	-13.2874
▁RuCl	-13.2881
▁NaIO	-13.2885
re	-13.2886
▁PA	-13.2887
▁Extracted	-13.2888
▁phenylmethyl	-13.2899
▁hand	-13.2901
▁Scientific	-13.2907
▁laboratory	-13.2907
un	-13.2909
cyclohexenyl	-13.2911
el	-13.2914
▁con	-13.2915
▁returning	-13.2927
▁subtitled	-13.2931
▁pentafluorophen	-13.2934
propanediamine	-13.2936
decomposed	-13.2949
leading	-13.296
▁malononitrile	-13.2962
▁pentahydrate	-13.2965
trimethylstannyl	-13.2965
▁hexafluoro	-13.2965
cycloheptyl	-13.2965
▁extra	-13.2976
Nitrophenyl	-13.2986
neutral	-13.2989
UPLC	-13.299
cinnolin	-13.2992
▁VII	-13.3003
▁Distilled	-13.3004
stilbene	-13.3009
starting	-13.3011
NHCH	-13.3015
oxoacetyl	-13.3016
methylfuran	-13.3019
phenylethylamine	-13.302
▁solvate	-13.3024
DMT	-13.3033
butanediol	-13.3036
brd	-13.3037
ized	-13.3038
pivaloyloxy	-13.304
borono	-13.3043
▁cut	-13.3044
butanamido	-13.306
▁activity	-13.3068
▁Standard	-13.3069
▁named	-13.3069
▁agitating	-13.3072
ex	-13.3073
▁flushing	-13.3073
▁bound	-13.3081
io	-13.3084
pyridinone	-13.309
▁decreased	-13.3092
▁methylester	-13.3103
▁cyclohexylamine	-13.3104
pyrimidinedione	-13.3105
▁Gold	-13.3105
▁mainly	-13.3105
▁gradual	-13.3107
▁methyltriphenyl	-13.3108
Bromosuccinimide	-13.3117
▁constituents	-13.3123
penicillanate	-13.3133
diylbis	-13.3138
naphthoquinone	-13.3138
▁inch	-13.314
disulfide	-13.314
-[{	-13.3141
dicarbonitrile	-13.3141
dibutyl	-13.3142
aRS	-13.3143
▁power	-13.3145
▁though	-13.3164
▁boronate	-13.3174
▁vapor	-13.3177
′′-(	-13.3192
▁supplied	-13.3192
(+):	-13.3193
phenylpropionic	-13.3197
▁oC	-13.3218
Isco	-13.3222
pro	-13.3224
naphthylmethyl	-13.3229
▁Ester	-13.3236
lactam	-13.3238
▁attain	-13.3239
diethylether	-13.3239
▁AUC	-13.3247
▁Initiator	-13.3249
▁mild	-13.3251
▁primary	-13.3261
▁stripping	-13.3261
▁level	-13.3264
▁specific	-13.3279
isochroman	-13.3283
▁amination	-13.3285
▁dibutyltin	-13.3291
naphthoate	-13.3291
imidazoline	-13.33
▁LHMDS	-13.33
methylcarbapen	-13.3305
phenoxybenzyl	-13.3307
phenothiazine	-13.3308
▁sealable	-13.3316
▁indicating	-13.332
▁CHCH	-13.3324
▁Proton	-13.3331
▁ultrasonic	-13.3341
▁metabisulfite	-13.3341
▁HMPA	-13.3346
AD	-13.3356
▁IA	-13.3358
▁kieselguhr	-13.3362
▁decolorized	-13.3364
methylanilino	-13.3365
▁perfluoro	-13.3367
cyclohexanedione	-13.3367
oxiranyl	-13.3369
enecarboxylate	-13.3369
SiH	-13.337
+−	-13.3374
sulfur	-13.3378
deoxo	-13.338
imidazolin	-13.3385
▁decanting	-13.3392
Fluka	-13.3394
Ox	-13.3396
But	-13.3404
azo	-13.3408
Trimethyl	-13.3411
chloroethane	-13.3416
perfluoro	-13.3422
▁trichloro	-13.3431
esidual	-13.3431
▁discontinued	-13.3432
hexadecahydro	-13.3433
▁beta	-13.3433
▁Its	-13.3435
▁Electrospray	-13.3436
▁SPD	-13.3437
▁titration	-13.3438
until	-13.3438
▁Industry	-13.3442
treatment	-13.3456
▁AA	-13.3457
benzothiazepine	-13.3457
▁methylamide	-13.346
▁application	-13.3463
benzylamide	-13.3467
bromobenzoyl	-13.347
▁oxidized	-13.3478
▁dibutyl	-13.348
▁IPE	-13.348
undecyl	-13.348
▁Imidazole	-13.3484
▁holding	-13.3486
▁house	-13.3487
ynoate	-13.3494
carbapen	-13.3496
▁surface	-13.3497
▁COCH	-13.3499
molar	-13.3499
▁anhydrate	-13.3506
acetimidate	-13.3508
▁clarified	-13.3514
▁solubility	-13.3514
▁RF	-13.3515
▁running	-13.3517
hexadecyl	-13.3522
▁Cold	-13.3535
▁Isopropanol	-13.3537
▁incorporated	-13.3539
des	-13.3539
▁TMEDA	-13.3542
PF	-13.3546
▁stereochemistry	-13.3547
int	-13.3547
carb	-13.3548
▁comprised	-13.3548
▁moiety	-13.3555
▁MALDI	-13.3562
Rh	-13.3563
dimethylpropane	-13.3564
COCH	-13.3564
phenylpyridine	-13.3566
▁PSI	-13.3574
▁therefore	-13.3576
▁moderate	-13.3576
▁Sephadex	-13.3581
▁controller	-13.3587
▁Milwaukee	-13.3588
▁keto	-13.3593
methylspiro	-13.3594
purged	-13.3595
leucyl	-13.3607
▁thiophosgene	-13.3607
BBN	-13.3607
▁See	-13.3616
methylmorpholino	-13.3616
nitrotoluene	-13.3618
Teledyne	-13.3625
pivaloyl	-13.3631
▁development	-13.3631
lined	-13.3632
carbobenzyloxy	-13.3634
nig	-13.3637
▁chloroacetate	-13.3649
▁Cis	-13.3654
▁occurs	-13.3657
triacetoxy	-13.3664
▁week	-13.3665
▁termination	-13.3669
▁reaching	-13.3671
▁spin	-13.3676
bt	-13.3678
▁reprecipitated	-13.3681
epoxypropane	-13.3681
sulfanylidene	-13.3683
▁rises	-13.3684
▁Present	-13.3684
▁milligrams	-13.3693
nitropyrimidine	-13.3695
▁samples	-13.37
▁Five	-13.3701
▁sulphide	-13.3704
▁Mw	-13.3704
ph	-13.3721
▁protecting	-13.3723
bromothiazole	-13.3724
▁bromobenzene	-13.3729
furanone	-13.373
▁broken	-13.3732
Neat	-13.3736
Pet	-13.3738
sulphonate	-13.3747
pentanenitrile	-13.3757
▁Detection	-13.3759
Eluent	-13.3759
▁Iodine	-13.3763
tetrahydroborate	-13.3765
exothermic	-13.3765
▁alkyne	-13.3767
diethylphosphono	-13.3768
activated	-13.3773
▁exch	-13.3773
anisoyl	-13.3774
ethylsulfinamido	-13.3776
▁Py	-13.3781
▁OTHERLANGUAGE	-13.3784
▁digested	-13.3784
▁repurified	-13.3785
bora	-13.3786
▁stepwise	-13.3791
▁dibromide	-13.3791
phenylethanol	-13.38
hydrazone	-13.3802
flask	-13.3805
▁Isolated	-13.3807
mmole	-13.3813
▁glovebox	-13.3816
fluoropropyl	-13.3819
▁methyllithium	-13.3821
nitropyrimidin	-13.3824
para	-13.3825
▁AG	-13.3827
▁receiver	-13.3827
dimethoxybenzoyl	-13.3837
▁Collected	-13.3837
hexaene	-13.384
tetralin	-13.3843
dienyl	-13.3847
▁syrupy	-13.385
methylpropanoyl	-13.3854
tetraisopropyl	-13.3859
▁quartet	-13.3865
norbornene	-13.3872
▁Cpd	-13.388
▁estimated	-13.3881
hexamethyl	-13.3886
propylphenoxy	-13.3888
aminium	-13.389
sulfate	-13.3895
In	-13.3903
dimethylcyclohex	-13.3904
Cys	-13.3904
▁modified	-13.3911
▁BuLi	-13.3913
▁production	-13.3914
▁zirconium	-13.3917
Piperidin	-13.3919
androstan	-13.3923
eferential	-13.3926
▁meso	-13.3927
formylphenoxy	-13.3928
OsO	-13.3939
]}	-13.3942
phenylglycine	-13.3942
it	-13.3944
▁spectroscopic	-13.3945
Carbonyldi	-13.3947
undeca	-13.3951
diethylaniline	-13.3958
methylindol	-13.3963
dihydrofuro	-13.3965
▁NIS	-13.3968
dihydrotetrazol	-13.3971
propenone	-13.3974
▁dram	-13.3988
▁Sulfuri	-13.3988
Acetylamino	-13.3997
▁tightly	-13.3998
Tert	-13.3999
▁Evaporate	-13.4004
▁boric	-13.4006
▁supply	-13.4006
▁crashed	-13.401
demineralized	-13.4011
▁EP	-13.4014
amphorsulfonic	-13.4015
dimethylbutanoyl	-13.4024
▁height	-13.4027
▁vaccum	-13.403
▁Racemic	-13.4031
acetohydrazide	-13.4031
chloropyridazin	-13.4036
▁destroy	-13.4041
COCl	-13.4043
methanaminium	-13.4043
iodoimidazo	-13.4056
pre	-13.4069
BuONa	-13.4074
nitroquinolin	-13.4083
▁GLC	-13.4087
See	-13.409
propylammonium	-13.4091
styrene	-13.4094
histidine	-13.4095
MP	-13.4097
hiosemicarbazide	-13.4099
▁support	-13.4102
▁cyclopentanone	-13.4104
▁Pharm	-13.4113
▁preferably	-13.4119
▁CaCl	-13.4119
cinnoline	-13.4122
▁DM	-13.4126
glycidyl	-13.4133
EDCI	-13.4133
cyclopentenone	-13.4134
glutamate	-13.4139
▁bars	-13.4145
Calcd	-13.4169
▁DABCO	-13.4173
propyne	-13.4175
▁alkene	-13.418
▁significant	-13.4184
pyridinylmethyl	-13.4189
▁JHF	-13.4199
methylenebis	-13.4202
▁faint	-13.4208
'-[(	-13.4211
dihydropyrano	-13.4211
POS	-13.4218
▁atom	-13.4219
hexene	-13.4224
JC	-13.4225
pyrimidone	-13.423
androstane	-13.423
Cu	-13.4236
▁steady	-13.4248
oxocyclohexane	-13.4252
carbamoylmethyl	-13.4252
thiadiazolidin	-13.4257
▁KHMDS	-13.426
hydroxypyridin	-13.4266
▁stopper	-13.4268
ceph	-13.4269
▁radiation	-13.427
naphthaldehyde	-13.4271
dimethanol	-13.4274
ithout	-13.4275
propanamine	-13.428
propenyloxy	-13.4281
▁Since	-13.4282
Cq	-13.4286
phenylpyridin	-13.4287
▁spots	-13.4288
▁Chromatograph	-13.4291
▁dichromate	-13.4293
▁identity	-13.4293
▁Aluminum	-13.4293
dihydropyrimido	-13.4297
thiocarbonyl	-13.4303
▁Mn	-13.4303
cyclic	-13.4312
chlorothiophen	-13.4315
benzodiazol	-13.4324
Volume	-13.4325
azatricyclo	-13.4327
▁Ten	-13.4343
formamidine	-13.4343
pentenyl	-13.4344
isophthalate	-13.4344
▁Xterra	-13.4356
difluoroacetic	-13.4357
-(−)-	-13.4374
determined	-13.4375
colorless	-13.4375
thioacetic	-13.438
pure	-13.4389
▁Volatile	-13.4391
▁Start	-13.4393
▁aforementioned	-13.4393
fluorosulfonyl	-13.4393
▁Also	-13.4394
tetradecyl	-13.4399
phenyloxy	-13.4399
▁XantPhos	-13.4402
▁should	-13.4403
▁CHIRALPAK	-13.4405
▁phenylmagnesium	-13.4409
▁dropwisely	-13.4411
▁confirm	-13.4413
▁Reflux	-13.4421
difluorobenzoic	-13.4424
COD	-13.4433
▁CDC	-13.4434
aceto	-13.4436
nujol	-13.4438
positive	-13.4447
▁coated	-13.4448
▁deaerated	-13.4449
piperidinium	-13.4455
▁FABMS	-13.4464
▁COMPOUND	-13.4466
▁much	-13.4473
▁blowing	-13.4474
▁CONH	-13.4481
methylammonium	-13.4487
▁succinimide	-13.4494
No	-13.4495
TA	-13.4496
oxopentanoic	-13.4497
dimethylbutyl	-13.4501
Butyldimethylsil	-13.4503
aspartyl	-13.4506
butylester	-13.4507
butylmethylether	-13.451
▁Description	-13.4511
bromobenzoic	-13.4512
▁sulfolane	-13.4517
methylpropoxy	-13.4519
rCl	-13.4525
▁Conc	-13.4528
IX	-13.453
dibromobenzene	-13.4531
per	-13.4533
less	-13.4543
▁Benzoyl	-13.4543
CV	-13.4543
glutaric	-13.4544
▁Enantiomer	-13.4544
butylamide	-13.4546
▁succinate	-13.4546
benzylsulfonyl	-13.455
benzhydryloxy	-13.4554
phenylimino	-13.4555
Toluene	-13.4556
▁Point	-13.4558
▁cannulated	-13.4563
▁US	-13.457
▁OJ	-13.4572
cyclopentylamine	-13.4573
Cond	-13.4576
▁cleavage	-13.4577
▁SCH	-13.458
isoindolinone	-13.4584
▁obs	-13.4588
▁silicon	-13.4594
▁copolymer	-13.4597
DELT	-13.4608
diphenylsilane	-13.4613
dimethylbutan	-13.4617
mandeli	-13.4619
BA	-13.4627
Solvent	-13.4628
pivalamide	-13.4631
tetrazolo	-13.4635
diphenylamine	-13.4638
Benzenesulfonyl	-13.4643
▁stationary	-13.4646
▁derived	-13.4646
▁Reagent	-13.4649
ionized	-13.4656
▁common	-13.4657
▁lactam	-13.4663
overlapping	-13.4667
hydroxyazetidine	-13.4677
tricyclohexyl	-13.4678
Mobile	-13.4679
bound	-13.468
cyclopropan	-13.4681
Diethyl	-13.4684
▁separable	-13.4685
itric	-13.4691
cyanoacetate	-13.4692
▁aging	-13.4694
▁reductive	-13.47
CONH	-13.4701
diacetyl	-13.4713
valeric	-13.472
▁Analogously	-13.4724
lactic	-13.4726
oxopentyl	-13.4727
ato	-13.4728
▁showing	-13.4735
▁neutrality	-13.4735
▁liberated	-13.4738
black	-13.4741
dioxidothio	-13.4743
thiepin	-13.4748
butanal	-13.4748
▁hundred	-13.4749
moles	-13.475
trimethoxybenzyl	-13.4751
CHO	-13.4751
bromopropionate	-13.4754
chloroacetamide	-13.4756
▁formamidine	-13.4757
glucitol	-13.4758
cod	-13.4762
▁Again	-13.477
Toluenesulfonic	-13.4771
isocyano	-13.4775
epi	-13.4778
oxybispropane	-13.4782
methylpentyl	-13.4783
difluorophenol	-13.479
racemic	-13.4791
Chem	-13.4793
dispiro	-13.4796
▁pieces	-13.4801
chlor	-13.4804
anti	-13.4809
octanol	-13.4809
ratio	-13.481
▁couple	-13.4811
thiomorpholin	-13.4812
LRMS	-13.4817
▁filtercake	-13.4817
cyclobutylmethyl	-13.4818
butyltin	-13.4825
▁derivatives	-13.4826
▁immediate	-13.4827
Trimethylsilyl	-13.4832
sulfide	-13.4838
▁Similarly	-13.4838
acetoxyethyl	-13.4839
▁authentic	-13.484
octahydropyrrolo	-13.4845
oxetane	-13.4845
Gln	-13.485
position	-13.4853
Difluorophenyl	-13.486
▁hplc	-13.487
methylpropionate	-13.4874
OCF	-13.4879
▁Commercially	-13.4887
dihydrodibenzo	-13.4888
▁tank	-13.4888
CHLOROFORM	-13.4892
butylphosphonium	-13.4893
benzylpiperidine	-13.4902
butenoate	-13.4903
hydroxybenzene	-13.4905
pyrimidinamine	-13.4906
gassed	-13.4907
Nitrobenzyl	-13.491
BrClN	-13.4912
methyloxetan	-13.4916
pheny	-13.4919
cyanobiphenyl	-13.4932
▁isobutyryl	-13.4932
treated	-13.4936
butylether	-13.4937
▁solved	-13.495
methylpyridinium	-13.4952
oxolan	-13.4952
dihydroisoxazole	-13.4959
benzothiazolyl	-13.4959
aminobenzoyl	-13.496
phenylpropanoate	-13.4963
▁pour	-13.4966
▁sit	-13.4972
thiazepine	-13.4976
chlorothieno	-13.4978
▁persisted	-13.4981
▁decreasing	-13.4981
▁quantities	-13.4981
benzooxazol	-13.4985
▁situ	-13.4989
propynyloxy	-13.499
▁monoethyl	-13.499
ortho	-13.4991
dmso	-13.4993
▁ceases	-13.4996
▁Japan	-13.4999
ity	-13.5009
▁eliminate	-13.5015
▁propionate	-13.5017
▁polyethylene	-13.5021
▁reache	-13.5021
▁avoid	-13.5021
benzothiazine	-13.5022
▁NaOEt	-13.5023
hydroquinone	-13.5031
▁anhy	-13.5038
▁dryer	-13.504
▁glycidyl	-13.5045
phenylpyrazolo	-13.5058
▁Chiralcel	-13.5058
▁cone	-13.5059
▁pipe	-13.5071
▁TBSCl	-13.5072
▁permitted	-13.5077
Diphenyl	-13.508
ul	-13.5081
isothiazolo	-13.5087
▁saturation	-13.5089
formylbenzoate	-13.509
▁Wis	-13.5091
octene	-13.5093
pentaen	-13.5099
▁centrifuge	-13.5111
+]=	-13.5111
chlorobutane	-13.5114
dimethoxyaniline	-13.5114
ac	-13.5115
butanenitrile	-13.5118
▁Conversion	-13.5119
tetracarboxylic	-13.512
▁ABX	-13.5121
▁seal	-13.5125
▁alkalized	-13.5126
Pak	-13.5133
▁triacetate	-13.514
morphinan	-13.5143
oxopiperazine	-13.5151
▁iridium	-13.5159
▁ir	-13.516
▁isocyanide	-13.5171
JCF	-13.5171
methylthiophen	-13.5182
analytical	-13.5186
▁teflon	-13.5198
oxopentan	-13.5199
▁OMe	-13.5203
hrs	-13.5205
▁flowing	-13.5205
▁drawn	-13.521
▁hydrosulfite	-13.521
▁earlier	-13.521
▁VIII	-13.5212
Wako	-13.5212
chlorothiophene	-13.5212
▁MCPBA	-13.5213
enol	-13.5216
Morpholin	-13.5217
Sil	-13.5222
Aza	-13.5224
phenylbut	-13.5226
chlorobiphenyl	-13.5228
cymene	-13.5234
▁lyophilised	-13.5234
▁facilitate	-13.5234
▁Steps	-13.5235
acetylpiperazin	-13.524
Tri	-13.5248
▁chain	-13.525
▁soon	-13.5255
▁Precipitate	-13.5257
▁silicate	-13.5257
registered	-13.5259
diisopropoxy	-13.5268
ant	-13.5279
▁cyclized	-13.5283
ethynylphenyl	-13.5285
▁typical	-13.5285
ur	-13.5291
HPO	-13.5294
circumflex	-13.5295
▁fractionally	-13.5309
dehydro	-13.531
piperidinol	-13.5315
▁visible	-13.5317
HOAc	-13.5322
▁multiple	-13.5331
▁Da	-13.5331
propylphosphonic	-13.5332
prolinamide	-13.5332
▁Workup	-13.5332
▁gun	-13.5335
▁chlorosulfonyl	-13.5342
▁halide	-13.5342
▁recrystalized	-13.5344
▁Liquid	-13.5349
▁prevent	-13.5351
Diazabicyclo	-13.5354
▁Activated	-13.5357
▁Suzuki	-13.5366
▁Cap	-13.5367
▁pp	-13.537
▁AcCN	-13.5372
cyclohexylphenyl	-13.5374
maleimide	-13.5375
aminopyrimidine	-13.5383
octadecyloxy	-13.5388
naphthoyl	-13.5393
▁hydrous	-13.5393
anthranilic	-13.5395
phenylsulphonyl	-13.5397
▁TEMPO	-13.5399
▁cyclohexene	-13.5401
dichlorosilane	-13.5412
▁carbazate	-13.5414
▁EM	-13.5418
▁stiffing	-13.5419
id	-13.5436
▁stoppered	-13.5442
car	-13.5444
▁path	-13.5444
ring	-13.5444
not	-13.5453
▁SEM	-13.5454
▁NiCl	-13.5455
▁DIC	-13.5459
▁trityl	-13.5462
dimethylethane	-13.5463
▁apply	-13.5468
▁FeCl	-13.547
SMe	-13.5477
▁show	-13.548
cephalosporani	-13.5481
▁orthoacetate	-13.5483
methylpyrazine	-13.5483
pyrimidyl	-13.549
▁Pour	-13.5493
▁diminished	-13.5493
▁Cat	-13.5498
copper	-13.5503
▁came	-13.5507
▁replacement	-13.551
▁Hyflo	-13.5511
tetrahydrospiro	-13.5516
▁interest	-13.5518
▁exhibited	-13.5518
▁methylated	-13.5521
uridine	-13.5522
phenylpyrrolidin	-13.5523
inter	-13.5524
Gilson	-13.553
▁bromoacetyl	-13.553
)−;	-13.554
formamidothiazol	-13.5542
▁modification	-13.5543
bromobutyrate	-13.5543
DCE	-13.5546
phenylimidazo	-13.5555
Glacial	-13.5556
▁gauge	-13.5557
esired	-13.556
triethylsilyloxy	-13.5567
platinum	-13.5571
acidic	-13.5572
▁Titanium	-13.5581
glucopyranose	-13.5582
▁thionylchloride	-13.5586
▁CIS	-13.559
dimethylbut	-13.5597
MeTHF	-13.5603
▁opaque	-13.5607
INT	-13.5607
ethoxyethoxy	-13.5609
androsta	-13.561
▁acetophenone	-13.5611
vinyloxy	-13.5615
▁extractive	-13.5615
▁Light	-13.5619
▁Shield	-13.5619
BrFN	-13.5621
difluoroethoxy	-13.5621
tan	-13.5622
▁resorcinol	-13.5625
dicarbamate	-13.5625
methoxyethane	-13.5626
hydroxybenzo	-13.5627
butoxyphenyl	-13.5634
▁PhMe	-13.5635
reverse	-13.5639
▁TFAA	-13.5646
aminocyclohexane	-13.5648
▁sinter	-13.5661
INTERMEDIATE	-13.5665
exchanged	-13.5666
dithiol	-13.5669
▁triturating	-13.567
salicylaldehyde	-13.568
▁hemihydrate	-13.568
propylsulfonyl	-13.5682
alkylated	-13.5693
▁takes	-13.5694
▁diffraction	-13.5696
▁Four	-13.5696
▁CSH	-13.5697
▁PEG	-13.5701
ll	-13.5703
line	-13.5716
▁EDTA	-13.5718
▁combining	-13.5721
▁disclosed	-13.5724
▁PAL	-13.5729
CCH	-13.5731
▁Fluka	-13.5731
▁eqv	-13.5731
pyridinamine	-13.5731
▁sampled	-13.574
▁Amine	-13.5743
piperidinomethyl	-13.5745
ro	-13.5745
▁vaccuo	-13.5747
▁monochloride	-13.5748
▁parallel	-13.5758
HOBT	-13.5761
vinylphenyl	-13.5762
▁Synergi	-13.5766
benzodioxine	-13.577
▁sublimed	-13.5773
ethylammonium	-13.5776
hexenyl	-13.5778
acetal	-13.5783
triiodo	-13.5783
▁dimethylsulfide	-13.5789
▁EE	-13.5795
▁ppt	-13.5797
iodobenzyl	-13.5798
Pt	-13.58
Ethynyl	-13.58
▁Ag	-13.5803
▁Analogix	-13.5806
▁Hydrochloride	-13.5807
Indol	-13.5807
▁chromatogram	-13.5811
cinnamate	-13.582
Fe	-13.5822
ethylimino	-13.5823
▁Temp	-13.5824
oxoquinazolin	-13.5828
sulfane	-13.5829
(((	-13.583
▁phenylhydrazine	-13.5842
Phenoxy	-13.5849
▁Crystallisation	-13.585
octenyl	-13.5859
bromoquinoline	-13.5863
▁take	-13.5867
methylnaphthalen	-13.5868
▁refrigerated	-13.5876
SiMe	-13.588
▁AT	-13.5883
pregn	-13.5889
▁behind	-13.5889
▁exposed	-13.5889
silanyl	-13.5899
▁consists	-13.5899
▁retained	-13.5902
Carbamoyl	-13.5902
▁Mel	-13.591
cl	-13.5913
▁weakly	-13.5915
yloxyethyl	-13.5917
dimethoxysilane	-13.592
dienoic	-13.5921
ethy	-13.5926
FLASH	-13.5928
trideuterio	-13.5941
qt	-13.5942
▁substitution	-13.5949
▁Soxhlet	-13.5952
▁typically	-13.5954
acetamidine	-13.5955
▁combination	-13.5956
▁aromatics	-13.5956
dimethylimidazo	-13.5957
diethylamine	-13.5958
▁find	-13.596
diphenylamino	-13.596
▁Cy	-13.5964
▁pellet	-13.5967
▁Freshly	-13.5967
▁They	-13.5969
▁RuPhos	-13.5971
methylpyrrole	-13.5973
Trichloro	-13.5974
▁appears	-13.5978
▁effluent	-13.598
▁exhaustively	-13.598
le	-13.5981
OSi	-13.5984
▁Chloride	-13.5985
benzoxazolyl	-13.5985
▁appearance	-13.5986
deca	-13.5987
▁ML	-13.5991
▁Agitation	-13.5993
▁lit	-13.5998
vi	-13.6
thiomorpholino	-13.6002
dinitrophenyl	-13.6003
+]:	-13.6004
▁Redisep	-13.6006
acrylamido	-13.6008
methionine	-13.6009
anilide	-13.601
decyloxy	-13.6013
▁PHENOMENEX	-13.6019
area	-13.6019
diethoxyphenyl	-13.6021
▁transformation	-13.6022
▁microliters	-13.6025
Bridge	-13.6025
Luna	-13.6026
phenylprop	-13.603
aminopyrimidin	-13.6031
▁initiate	-13.6033
bromopyrimidine	-13.6038
▁analog	-13.6041
▁additive	-13.6043
pentadeca	-13.6043
▁equilibrated	-13.6045
loaded	-13.6045
▁Invention	-13.6046
▁Tf	-13.605
flow	-13.6053
ClO	-13.606
nicotinoyl	-13.6066
oxoquinolin	-13.6067
▁paragraph	-13.6073
▁replace	-13.6073
benzylalcohol	-13.6079
trityloxy	-13.6081
▁glyoxal	-13.6085
▁bromoacetic	-13.6098
sulfenyl	-13.6103
▁patent	-13.6118
▁Wt	-13.6125
▁incubated	-13.6126
pyrimid	-13.6127
onitrile	-13.6135
methanobenzo	-13.6141
▁different	-13.6148
▁against	-13.6154
▁tBuOH	-13.6165
methylurea	-13.6166
PN	-13.6168
▁quaternary	-13.6171
▁freebase	-13.6177
Blocks	-13.6179
▁foregoing	-13.6179
▁ionization	-13.6179
tryptophan	-13.6184
room	-13.6186
▁k	-13.6187
▁Deprotection	-13.6193
arom	-13.6193
▁PBr	-13.6195
aminopyrrolidine	-13.6196
bromobutyl	-13.6196
iodophenol	-13.6199
▁propionyl	-13.6209
▁afterwards	-13.6209
CHOH	-13.6216
pentanedione	-13.6218
▁agreement	-13.622
▁Hydrogenation	-13.622
▁([{	-13.6224
▁Bull	-13.6225
triethyl	-13.6225
▁configuration	-13.6227
ethano	-13.6229
diethoxyethyl	-13.6232
arginine	-13.6233
ted	-13.6234
titled	-13.6239
racemate	-13.624
hydroxybenzamide	-13.6244
▁thorough	-13.6246
▁mPEG	-13.6246
ylmethylamine	-13.6252
▁fast	-13.6253
▁bands	-13.6256
▁withdrawn	-13.626
pentanal	-13.6261
▁determine	-13.6261
oxid	-13.6261
concentration	-13.6269
▁TR	-13.627
RuCl	-13.6271
phenylbenzoate	-13.6272
barbituric	-13.6274
cyclopentan	-13.6275
▁Aesar	-13.6277
dimethylpropan	-13.6282
crystallizations	-13.6283
▁Isobutyl	-13.6283
▁Ml	-13.6288
▁Reverse	-13.6292
isobutylphenyl	-13.6294
dihydronaphtho	-13.6296
tetradeca	-13.6301
▁cyclization	-13.6301
nitrobiphenyl	-13.6302
▁crystallizing	-13.6304
aminopropan	-13.6306
addition	-13.6309
▁pentasulfide	-13.6314
▁Salt	-13.6317
▁FIG	-13.632
succinimidyl	-13.6324
camptothecin	-13.6326
▁Working	-13.6328
dicyclopropyl	-13.6329
pentenoate	-13.633
▁corrected	-13.6334
▁hood	-13.6348
OBn	-13.6349
▁inseparable	-13.6349
phenoxyethyl	-13.6349
ef	-13.6351
▁Treat	-13.6355
vinylpyridine	-13.6356
▁partly	-13.6357
▁propiolate	-13.6358
phenoxyacetamido	-13.6359
▁stereoisomers	-13.6361
▁Note	-13.6362
nona	-13.6366
methylthiomethyl	-13.6371
first	-13.6371
ethylbenzyl	-13.6374
met	-13.6375
▁sparging	-13.6382
trimethylsiloxy	-13.6383
directed	-13.6385
▁Vigreux	-13.6392
quinazolinyl	-13.6398
unsaturated	-13.6399
pyrrolidinium	-13.6404
ethylmorpholine	-13.6407
▁isobutylene	-13.6413
▁titrated	-13.6414
▁th	-13.6418
methylsulfamoyl	-13.6419
Thio	-13.642
epoxypropyl	-13.6423
▁BCl	-13.6424
Hydroxyphenyl	-13.6425
ethoxymethoxy	-13.6425
▁drive	-13.6426
hydroxyamino	-13.6431
''-	-13.6436
▁enzyme	-13.6437
▁GF	-13.6441
NBS	-13.6442
methylureido	-13.6443
thiazepin	-13.6444
▁Letters	-13.6452
▁Washing	-13.6466
dibromophenyl	-13.6469
▁help	-13.6479
propanedioate	-13.6479
thiolate	-13.6486
▁beads	-13.6491
▁whereafter	-13.6493
ylamide	-13.6505
tolyloxy	-13.6505
ethylpropyl	-13.6511
▁phosphor	-13.6515
oxohexahydro	-13.6518
cyclobutan	-13.6518
ethylpiperazine	-13.652
▁induce	-13.6521
▁Tin	-13.6527
sh	-13.6529
PCC	-13.6532
▁storage	-13.6534
triethoxysilyl	-13.6534
oxopyrido	-13.6534
glycolic	-13.6536
▁calcined	-13.6538
▁spontaneously	-13.6548
▁MeNH	-13.6549
isobutyraldehyde	-13.655
fluor	-13.6556
▁CBr	-13.6557
uench	-13.6562
triamine	-13.6566
▁undesired	-13.6578
hydroxylammonium	-13.658
EP	-13.6585
▁evidence	-13.6592
▁spirit	-13.6593
high	-13.6593
▁EC	-13.6608
▁HV	-13.6609
ben	-13.6621
acac	-13.6622
hexahydropyrido	-13.6628
▁triamide	-13.663
▁property	-13.6631
▁(%)=	-13.6635
octahydrobenzo	-13.6635
butenoic	-13.6641
▁monitor	-13.6641
diaminopropane	-13.665
sealable	-13.6653
▁Dimroth	-13.666
▁benzyltrimethyl	-13.6666
▁{[(	-13.6667
▁moist	-13.6668
▁Allow	-13.6672
▁settled	-13.6672
tricarboxylate	-13.6673
▁Technologies	-13.6674
thioxanthone	-13.668
▁release	-13.6682
▁inhibitor	-13.6683
▁ex	-13.6684
epicatechin	-13.6688
▁GPC	-13.6693
▁Immediately	-13.6696
▁propionaldehyde	-13.67
▁proceeding	-13.6703
tolylsulfonyl	-13.6708
COO	-13.6708
phenyloxazolidin	-13.6709
isopropylamine	-13.6711
diazocine	-13.6716
hysical	-13.6719
▁Iso	-13.6719
methyloxiran	-13.6724
camphor	-13.6733
▁Teledyne	-13.6734
bulb	-13.6744
dichlorophenol	-13.6748
▁sulphonic	-13.675
FO	-13.6762
▁DMPU	-13.6763
▁Process	-13.6764
▁raise	-13.6764
aminobenzene	-13.6765
xanthine	-13.6767
Co	-13.6768
tributylstannan	-13.6771
▁PL	-13.6774
dithiane	-13.6775
enenitrile	-13.6775
Sn	-13.6778
▁injections	-13.6778
▁sixteen	-13.6787
ribofuranose	-13.679
▁purchased	-13.6791
▁Weight	-13.6794
Mercapto	-13.6796
IT	-13.6809
la	-13.681
fluorophenethoxy	-13.6814
▁esterification	-13.6818
▁cyclo	-13.682
carboxymethoxy	-13.6821
dioxabicyclo	-13.6822
▁tar	-13.6826
▁Ethylene	-13.6826
phenylbutane	-13.6826
▁confirmation	-13.683
▁phenylacetylene	-13.6835
▁trifluor	-13.684
▁begins	-13.685
fluoroquinoline	-13.6853
)/(	-13.6855
propoxyphenyl	-13.6856
▁transformed	-13.6859
silyloxy	-13.6861
pyrone	-13.6869
phenylbutan	-13.6871
▁kettle	-13.6873
▁dianhydride	-13.6874
propylene	-13.6881
oxepine	-13.6882
▁SONICATE	-13.6887
▁exceeding	-13.6889
acetylphenyl	-13.6889
thyl	-13.6891
pentalene	-13.6891
IE	-13.6892
▁attained	-13.6897
CHF	-13.6897
▁SA	-13.6898
▁heptahydrate	-13.69
methoxymethylene	-13.6901
ethylhexanoate	-13.6904
][(	-13.6906
▁ninhydrin	-13.6911
dichloroaniline	-13.6912
▁NaCI	-13.6914
ethoxypyridin	-13.6929
▁verified	-13.6931
▁PTSA	-13.6938
cyclohexa	-13.6939
aminocrotonate	-13.694
▁IX	-13.6945
ir	-13.695
mult	-13.6956
Hydroxyethyl	-13.6958
hydroxyacetate	-13.6959
▁diimidazole	-13.696
▁selected	-13.6967
▁SF	-13.697
diethylphenyl	-13.6973
▁TBS	-13.6973
glucose	-13.6974
▁inches	-13.6974
dioxy	-13.6974
fluorophenethyl	-13.6982
▁cleaved	-13.6982
isochromen	-13.6986
▁Collect	-13.6987
▁suspending	-13.6988
pentylamino	-13.6988
▁hydantoin	-13.6991
XI	-13.6995
theoretical	-13.7005
catalyst	-13.7006
tetraoxa	-13.7008
trichloroethoxy	-13.7008
▁long	-13.7009
methylnicotinate	-13.7011
pyrene	-13.7013
▁cyanohydrin	-13.7015
phospho	-13.7021
enal	-13.7028
Mn	-13.7028
▁oligomer	-13.7029
pyr	-13.703
▁Cul	-13.703
Methylmorpholine	-13.703
Methoxybenzyl	-13.7031
▁reconcentrated	-13.7034
analysis	-13.7037
dimethylglycine	-13.7037
methylbutane	-13.7038
▁Pyrrolidine	-13.7048
▁layered	-13.7066
formylpyridin	-13.707
▁vials	-13.7082
crotonate	-13.7082
triyl	-13.7086
furoyl	-13.7087
▁PPTS	-13.709
cyclobut	-13.7095
glycero	-13.7098
▁equ	-13.7101
boron	-13.7109
▁Cyclohexane	-13.711
phenoxyacetate	-13.7111
pregnan	-13.7111
▁NMO	-13.7113
ite	-13.7117
▁dihydrobromide	-13.7121
dion	-13.7124
▁septa	-13.7127
phenylsulfonium	-13.7128
▁)}[	-13.713
▁Pre	-13.7132
estr	-13.7132
▁experimental	-13.7133
mesityl	-13.7135
▁Number	-13.7135
suming	-13.7144
▁Methylmagnesium	-13.7148
dichloropyrazine	-13.715
▁faster	-13.7151
dipyrido	-13.7152
enecarboxylic	-13.7159
ra	-13.7161
picolyl	-13.7161
▁atmospheres	-13.7163
picolinaldehyde	-13.7164
▁dipeptide	-13.7167
thymidine	-13.7168
▁route	-13.7175
dithian	-13.7176
methylnicotinic	-13.7177
▁tip	-13.7179
hexahydroazepino	-13.718
▁adsorption	-13.7181
lo	-13.7187
NB	-13.7189
HBr	-13.7194
Analytical	-13.7194
four	-13.7195
chlorothiazol	-13.7198
pyruvic	-13.7204
pyrazolyl	-13.7207
▁Triphosgene	-13.7208
perfluoropropan	-13.7209
way	-13.7211
▁Methylamine	-13.7226
▁vacuuo	-13.7238
{[(	-13.724
onic	-13.7241
methoxyphenethyl	-13.7244
▁diacid	-13.7245
DI	-13.7245
resin	-13.7247
iPrOH	-13.7248
dtd	-13.7252
ent	-13.7256
methylazetidin	-13.7256
▁transition	-13.7268
▁polypropylene	-13.7271
tetramethylene	-13.7273
Analogix	-13.7274
▁Claisen	-13.7277
▁Elut	-13.728
dienoate	-13.7283
▁Meanwhile	-13.7283
▁assayed	-13.7284
▁imide	-13.7285
hydroxyhexyl	-13.7286
benzodiazole	-13.7286
MeO	-13.729
▁utilized	-13.7298
Aminoethyl	-13.7298
▁weak	-13.7301
▁preferred	-13.7304
▁initiator	-13.7313
▁seeding	-13.7314
oxopiperazin	-13.7319
▁extractor	-13.7323
Pyridine	-13.7327
▁Buffer	-13.733
pyridazino	-13.7332
adipic	-13.7334
After	-13.7338
diamide	-13.7338
]−=	-13.7346
▁load	-13.7349
sulfuric	-13.735
▁current	-13.736
▁firstly	-13.7362
Chloroethyl	-13.7363
▁DMAc	-13.7366
▁sand	-13.7366
tolu	-13.7373
▁Grubbs	-13.7374
▁glyoxylic	-13.7381
▁HOAT	-13.7383
Trans	-13.7386
controlling	-13.7389
▁azeotroping	-13.7391
ethanediyl	-13.7391
cyanocyclopropyl	-13.7396
out	-13.7398
▁established	-13.7403
▁RN	-13.7406
methoxyl	-13.7407
cinnamyl	-13.7407
phenylboric	-13.7409
Aminophenyl	-13.741
pentanedioate	-13.7415
synthesis	-13.7418
imethylhydantoin	-13.742
butylidene	-13.7421
nicotinamido	-13.7427
▁enamine	-13.7429
coated	-13.7435
▁supercritical	-13.7435
Synthesis	-13.7435
oiling	-13.7436
ax	-13.7438
▁variations	-13.7439
butylcarbamate	-13.7444
CA	-13.7446
▁Of	-13.7449
epithiopropyl	-13.7454
tube	-13.7463
methyloxime	-13.7464
methanobenzofuro	-13.7464
▁Kieselgel	-13.7468
Dicyclohexyl	-13.7474
ArCH	-13.7479
▁would	-13.7479
▁Washed	-13.748
galactopyranosid	-13.7481
▁dissolves	-13.7483
carbamothioyl	-13.7485
arabinofuranosyl	-13.7495
aminobiphenyl	-13.7498
molecular	-13.7501
▁CHO	-13.7503
alaninamide	-13.7506
Pbf	-13.7509
tribromo	-13.751
ch	-13.7513
hours	-13.7517
▁PCC	-13.752
pyrrolidinol	-13.7522
▁Silysia	-13.7525
ESIMS	-13.7527
benzothiepine	-13.7529
chiral	-13.7531
▁stain	-13.7542
identified	-13.755
▁isobutyric	-13.7555
▁preparing	-13.7556
trade	-13.7556
tosylate	-13.7557
′′′-	-13.7559
▁carbonic	-13.7559
▁Ba	-13.7563
▁bisphenol	-13.7565
mix	-13.7566
aziridine	-13.7568
carbobenzoxy	-13.7569
▁pass	-13.757
fluoroethoxy	-13.7571
▁Degussa	-13.7574
▁TsCl	-13.7575
chloronicotinate	-13.7577
▁INTERMEDIATE	-13.7578
terephthalic	-13.7582
alumina	-13.7583
atmosphere	-13.7583
methoxybiphenyl	-13.7583
this	-13.7586
supported	-13.7599
benzothieno	-13.7599
dioxaborinan	-13.76
▁treat	-13.7602
Butanol	-13.7602
▁Acros	-13.7603
morpholinoethoxy	-13.7608
methoxyanilino	-13.7612
sulfone	-13.7618
▁HCO	-13.7623
dipropylamino	-13.7625
oxobut	-13.763
isothiazolidin	-13.7632
external	-13.7633
ab	-13.7633
hexen	-13.7633
tributyltin	-13.7645
peak	-13.7645
▁ethanethiol	-13.7647
abs	-13.7647
▁DMP	-13.7648
chi	-13.7653
▁Journal	-13.7666
TP	-13.7668
▁esterified	-13.7668
Trifluoromethoxy	-13.7671
▁Dur	-13.7673
carbox	-13.7675
Calc	-13.7676
methylpyridazin	-13.7678
lambda	-13.768
▁cylinder	-13.768
▁swirled	-13.768
glass	-13.768
terephthalate	-13.7681
value	-13.7683
idine	-13.7687
oxiranylmethyl	-13.7693
▁HPFC	-13.7695
ethanesulfonic	-13.7704
dihydroindol	-13.7705
EtOAC	-13.7717
▁mesitylene	-13.772
buta	-13.7721
pyrazolin	-13.7728
Asn	-13.7729
nmr	-13.773
pale	-13.7731
ascorb	-13.7732
▁flakes	-13.7734
trimethylbenzene	-13.7743
ino	-13.7744
isonicotinoyl	-13.7746
added	-13.7749
▁saponified	-13.7752
quinolizin	-13.7755
phenylquinoline	-13.7763
propylimidazol	-13.777
▁elimination	-13.7772
man	-13.7773
oxocyclopentane	-13.7774
▁sparge	-13.7779
)+];	-13.7782
sulfonimidoyl	-13.7789
▁Spectra	-13.7789
▁Dimethylamine	-13.7793
▁ethoxymethylene	-13.7795
hydroxypentyl	-13.7796
phenylthiazole	-13.7798
▁vacuumed	-13.7798
▁Personal	-13.7798
dihydroisoindol	-13.7799
▁acetylacetonate	-13.78
benzoylchloride	-13.7808
oxohexanoate	-13.7812
phenoxypropyl	-13.7814
phenylcyclohexyl	-13.7815
′-(((	-13.7816
Combi	-13.7817
IS	-13.7821
azidoethoxy	-13.783
bromothiophen	-13.7831
benzothien	-13.7838
indacene	-13.7841
▁vols	-13.7842
▁tributylamine	-13.7842
▁EtAc	-13.7849
Purity	-13.7851
deoxyuridine	-13.7851
conditioned	-13.7852
degassed	-13.7857
anyloxy	-13.7859
hepten	-13.7861
▁benzylbromide	-13.7863
▁Precipitation	-13.7868
▁bubble	-13.7868
sulfamoylphenyl	-13.7872
oxopyrimidin	-13.7882
▁chromotography	-13.7884
benzimidamide	-13.7885
▁Recrystallize	-13.7888
lic	-13.7889
▁trichloroacetyl	-13.789
▁NaClO	-13.7894
phenanthridine	-13.7901
▁diazoacetate	-13.7902
▁included	-13.7909
▁check	-13.7914
iridium	-13.7915
SSi	-13.7917
]−,	-13.7922
▁proportion	-13.7923
cap	-13.7932
▁lots	-13.7937
▁trademark	-13.7938
butylbenzene	-13.794
enetetramine	-13.794
oxiranylmethoxy	-13.795
brom	-13.7951
▁forth	-13.7953
naphthylamine	-13.7957
Imidazol	-13.7958
SOCD	-13.7959
phenylethylamino	-13.7962
fluorobicyclo	-13.7962
benzisothiazol	-13.7965
benzyloxybenzyl	-13.7979
▁chilling	-13.798
indazoline	-13.798
▁synthesizer	-13.798
▁stable	-13.7986
▁Red	-13.7986
weight	-13.7988
est	-13.7991
oxopropionate	-13.7994
▁pentaerythritol	-13.7998
tetrahydroxy	-13.7998
Pos	-13.8004
powder	-13.8004
TETRAHYDRO	-13.8011
▁efficient	-13.8012
▁Hydrolysis	-13.8012
mutilin	-13.8012
▁periodically	-13.8012
toluenesulphonyl	-13.8025
▁cautious	-13.8028
abbreviation	-13.8028
▁Resin	-13.8037
▁phosphonic	-13.8052
▁runs	-13.8057
BEN	-13.8059
picolinamido	-13.806
▁position	-13.8062
▁starts	-13.8065
▁Smith	-13.8068
op	-13.8072
▁dodecyl	-13.8073
mixed	-13.8074
▁methyliodide	-13.8074
furaldehyde	-13.8078
▁convert	-13.8079
diacetate	-13.8079
ethanoate	-13.8081
chrysene	-13.8085
dodecane	-13.809
▁determination	-13.8093
▁BB	-13.8095
lactate	-13.8095
phthalide	-13.8095
Ile	-13.81
biphen	-13.8103
phenacyl	-13.8104
▁Infrared	-13.8106
chloroacetamido	-13.8108
▁Application	-13.8109
▁roundbottom	-13.8128
active	-13.8138
benzopyrano	-13.814
silicagel	-13.8141
▁their	-13.8142
tetramethoxy	-13.8152
▁Mhz	-13.8155
▁eluates	-13.8156
naphthonitrile	-13.8158
APCl	-13.8159
▁cooler	-13.8163
dodecyloxy	-13.8163
▁Neat	-13.8167
tetradecahydro	-13.8169
▁hazy	-13.8174
phenylpropionate	-13.8183
ure	-13.819
▁Mono	-13.819
▁however	-13.819
▁zero	-13.8191
isopropylsilanyl	-13.8191
▁remain	-13.8198
mercaptomethyl	-13.8199
▁(+/−)	-13.8201
▁MIBK	-13.8203
thiocarbonyldi	-13.8203
▁flashed	-13.8204
ating	-13.821
▁pear	-13.8221
succinamic	-13.8223
▁changing	-13.8223
▁partioned	-13.8223
▁scrubber	-13.8223
▁stabilized	-13.8227
▁PCT	-13.8233
▁roto	-13.8235
im	-13.8239
▁Microwave	-13.824
cyclohexadiene	-13.824
indanyl	-13.8243
thiazoline	-13.8254
bromothiazol	-13.8272
▁Powdered	-13.8273
valinamide	-13.8273
pump	-13.8277
system	-13.8284
▁Harom	-13.8286
Methylthio	-13.8288
▁Similar	-13.8289
▁Through	-13.8289
▁Phosphorous	-13.8289
▁commenced	-13.8291
od	-13.8295
oxohexyl	-13.8296
▁Injection	-13.8297
ive	-13.8298
▁Afterward	-13.8299
formaldehyde	-13.8301
propionamido	-13.8306
▁Twenty	-13.8306
▁tartaric	-13.8306
thiocyanato	-13.8306
nic	-13.8306
sulphanyl	-13.8313
dinitrobenzene	-13.8316
▁extensively	-13.8322
▁increments	-13.8324
oximino	-13.8332
Mg	-13.8334
▁Separated	-13.8336
▁cell	-13.8338
▁neutralizing	-13.8339
microcrystalline	-13.8339
▁diiodomethane	-13.834
minutes	-13.8347
dithiocarbamate	-13.8349
▁illustrated	-13.8351
chloropropionyl	-13.8354
amidine	-13.8356
diborane	-13.8357
quinone	-13.8358
▁mHz	-13.836
▁MDC	-13.8361
five	-13.8364
▁De	-13.8368
▁silicone	-13.8369
▁readily	-13.8372
▁beginning	-13.8372
Isopropoxy	-13.8374
▁Bio	-13.8375
chloropyridazine	-13.8377
PA	-13.8378
▁Alfa	-13.8379
SP	-13.8382
▁metaperiodate	-13.8389
▁captioned	-13.839
critical	-13.8393
dodecahydro	-13.8394
tridecyl	-13.8397
sed	-13.8399
▁comparison	-13.8406
▁MeLi	-13.8406
bromoprop	-13.8407
▁resinous	-13.8407
▁DE	-13.8414
▁hydrogensulfite	-13.8423
freshly	-13.8427
▁oxalylchloride	-13.8427
ethoxyl	-13.8429
cyanide	-13.8437
-[({[	-13.8438
Chloroperbenzoic	-13.844
▁Obs	-13.8442
methan	-13.845
▁WX	-13.8451
▁hyflo	-13.8454
Azabenzotriazol	-13.8454
▁tetrazole	-13.8458
CBz	-13.8458
pyrazoline	-13.8466
▁IM	-13.8469
carbonothioyl	-13.8473
▁Bond	-13.8476
Methylamino	-13.8476
methylpyrrolo	-13.8481
isopropylpyridin	-13.8482
Diethylamino	-13.8482
benzodioxan	-13.8484
▁rotatory	-13.8486
multiplet	-13.8494
lysyl	-13.8496
tion	-13.8496
acryloyloxy	-13.8497
valerate	-13.8501
▁sulphite	-13.8504
isoxazoline	-13.8506
oxoindolin	-13.8507
▁Schiff	-13.8507
methanimine	-13.8509
epoxide	-13.8512
Butyloxycarbonyl	-13.8513
▁cellulose	-13.8513
Cyclobutyl	-13.8515
uenched	-13.8522
▁({	-13.8524
oxathiazepin	-13.8525
methyloxazole	-13.8526
▁PMB	-13.8527
overnight	-13.8535
Benzotriazol	-13.854
▁anhydrified	-13.8541
)−=	-13.8542
)+],	-13.8544
suspension	-13.8553
Azetidin	-13.8556
▁Triethylsilane	-13.8558
▁butyrate	-13.8559
hexaen	-13.8563
cy	-13.8567
morpholinothieno	-13.8567
▁DCU	-13.8568
benzothiazin	-13.8572
▁Sub	-13.8574
chner	-13.8576
THP	-13.8576
benzisothiazole	-13.8577
▁Diphenyl	-13.8578
dimethylbenzoyl	-13.8582
gram	-13.8583
▁TMSOTf	-13.8589
enamido	-13.8589
delta	-13.859
adsorbed	-13.859
▁Calif	-13.8592
phenylurea	-13.8592
▁condensate	-13.8593
▁Formation	-13.8597
▁Ultra	-13.8603
difluoropyridin	-13.8607
pentalen	-13.8608
▁IMS	-13.8611
pyrazolidine	-13.8612
)−,	-13.8613
His	-13.8614
oxobutyrate	-13.8623
▁reslurried	-13.8626
glycinamide	-13.8627
phenylthiazol	-13.863
diphenylmethane	-13.863
▁mortar	-13.8631
phenylquinolin	-13.8634
singlet	-13.8635
▁embodiment	-13.8635
ethoxybenzyl	-13.8638
aminopyrazole	-13.865
▁carbons	-13.8653
▁saponification	-13.8653
▁Manganese	-13.866
tetraazatricyclo	-13.8661
▁Chim	-13.8661
Acetonitrile	-13.8663
▁COMU	-13.8666
seco	-13.8673
▁adjustment	-13.8677
▁precatalyst	-13.8677
▁acidifying	-13.8681
Sar	-13.8684
▁stereoisomer	-13.869
isopentyl	-13.8697
enedioxyphenyl	-13.87
iodophenoxy	-13.8702
▁CHCI	-13.8703
▁SI	-13.8703
]−;	-13.8704
dihydroxyethyl	-13.8705
▁PMR	-13.8706
CHLORO	-13.8711
octanoyl	-13.8715
thiadiazine	-13.8717
▁pivali	-13.8717
▁AP	-13.8722
hydroxybiphenyl	-13.8723
▁sweep	-13.8729
▁However	-13.8729
▁Uniplate	-13.8729
▁dripping	-13.8729
▁terms	-13.8729
Tetra	-13.8741
valinate	-13.8746
carboxyaldehyde	-13.8751
malonamide	-13.8764
dibutylamino	-13.877
Chiralcel	-13.8774
▁table	-13.8777
dimethylbiphenyl	-13.8778
do	-13.878
meso	-13.8784
yophilization	-13.8785
fluorenylmethyl	-13.8788
et	-13.8788
▁rotor	-13.879
▁brd	-13.8793
▁trimethylacetyl	-13.8795
▁etc	-13.8795
methylchroman	-13.8802
mercaptoacetate	-13.8802
tetraone	-13.8805
▁Diastereomer	-13.8805
▁saturate	-13.8807
Sunfire	-13.8811
▁condensor	-13.8816
▁Corp	-13.8816
pyridinol	-13.8818
hydroxycarbonyl	-13.882
▁meq	-13.8821
cake	-13.883
▁dihydropyran	-13.8831
▁occasional	-13.8832
threonine	-13.8833
▁equipment	-13.8833
piperazinone	-13.8837
▁glutaric	-13.8844
oxoisoquinolin	-13.8848
▁machine	-13.8851
▁dmso	-13.8852
dithiophene	-13.8866
penem	-13.8867
▁twelve	-13.8868
▁overlapped	-13.8869
pentyn	-13.8874
bar	-13.8877
▁LR	-13.8878
▁break	-13.8879
Retention	-13.8887
trimethylammoniu	-13.8888
phenylisoxazole	-13.8895
▁RPHPLC	-13.8902
propenamide	-13.8908
XII	-13.8909
▁Hastelloy	-13.8915
neg	-13.8918
▁filterate	-13.8918
▁diethanolamine	-13.892
dimethoxybenzoic	-13.8922
Toluenesulfonyl	-13.8923
▁arbitrarily	-13.8925
oxazepan	-13.8954
▁correct	-13.8956
▁Formaldehyde	-13.8956
octen	-13.8958
thioxomethyl	-13.896
▁triggered	-13.8967
ie	-13.8967
▁uv	-13.8968
▁absorbance	-13.8971
Fuji	-13.898
▁alone	-13.8982
pr	-13.8982
▁exp	-13.8984
▁DMT	-13.8987
ethylphosphonate	-13.8993
fluorenone	-13.8994
iodomethane	-13.8997
AC	-13.9003
trioxide	-13.9013
distillation	-13.9016
ropanocyclopenta	-13.9018
▁Structure	-13.9019
▁MEK	-13.9019
▁interval	-13.902
fg	-13.9021
azatetracyclo	-13.9021
Allyloxy	-13.9026
▁stifling	-13.9027
sep	-13.9028
both	-13.9028
iphenylsulfonium	-13.9029
▁diisocyanate	-13.903
(+))	-13.9038
pentanoylamino	-13.9041
aminopropoxy	-13.9044
▁dipotassium	-13.9047
PI	-13.9053
▁shift	-13.9056
ylthiomethyl	-13.9057
reagent	-13.9057
ami	-13.906
▁PPA	-13.9064
El	-13.9073
▁alcoholic	-13.908
▁Kasei	-13.9081
CHC	-13.9082
Hept	-13.9089
cyclobutylamino	-13.9092
Pyridyl	-13.9094
▁conical	-13.9099
▁tetraacetate	-13.9099
▁portioned	-13.9101
butylsulfonyl	-13.9101
binaphthalene	-13.9103
hydroxyazetidin	-13.9103
thienylsulfonyl	-13.9106
butylisoxazol	-13.9109
dodecan	-13.9113
▁Slowly	-13.9117
ylacetate	-13.9119
▁species	-13.9135
WX	-13.9135
▁Xphos	-13.9136
sulfonyloxyimino	-13.9144
TSA	-13.915
chlorophenethyl	-13.9158
[[(	-13.9159
NX	-13.9163
phosphinoyl	-13.9166
%].	-13.9166
phenylpropane	-13.9168
trihydrofluoride	-13.9172
▁FDMS	-13.9173
ylethoxy	-13.9175
pyridinio	-13.9183
▁charging	-13.9186
dihydroxypropoxy	-13.9189
isobutyric	-13.9199
▁XRPD	-13.92
▁benzylic	-13.9211
▁detectable	-13.9211
difluoromethane	-13.9217
▁simple	-13.9225
▁Sep	-13.9229
Varian	-13.9231
▁CDCI	-13.9234
▁Compounds	-13.9238
dimethylpentan	-13.924
▁Perkin	-13.9243
▁ultraviolet	-13.9243
Propanol	-13.9244
▁Fisher	-13.9248
Pyrrolo	-13.9259
phenylcarbonyl	-13.9259
▁continuing	-13.9261
phenyloxazole	-13.9262
▁thru	-13.9262
Diisopropyl	-13.9268
iodoethyl	-13.9274
phenoxyacetic	-13.9275
▁passage	-13.928
pyranyloxy	-13.928
oxazepane	-13.9282
poly	-13.9285
▁Fischer	-13.9291
dibenzoyl	-13.9293
ethanesulfonate	-13.9297
▁Platinum	-13.9298
▁tubes	-13.9299
single	-13.93
▁thioglycolate	-13.9309
▁SC	-13.931
benzylpiperazine	-13.9311
cyanobenzoyl	-13.9311
Deoxy	-13.9312
▁Pyridinium	-13.9316
▁Synthesize	-13.9318
▁vinylmagnesium	-13.9318
naphthamide	-13.9318
▁indicator	-13.9318
▁chased	-13.9321
▁care	-13.9326
Bz	-13.9326
▁synthesize	-13.9327
▁cal	-13.9328
be	-13.9337
▁section	-13.9339
▁methanolate	-13.9339
acridin	-13.9342
▁shake	-13.9343
TBME	-13.9349
▁Air	-13.9349
aminobutyric	-13.9354
propanethiol	-13.9361
▁suctioned	-13.9362
▁prepacked	-13.9364
nonadeca	-13.9364
▁switched	-13.9366
butylmagnesium	-13.9366
▁Horizon	-13.9374
▁grad	-13.9374
▁batchwise	-13.9376
▁thiomorpholine	-13.9377
▁silylated	-13.9386
benzhydrylidene	-13.939
NOS	-13.9392
oxoheptan	-13.9394
▁TBDMS	-13.9408
valeronitrile	-13.9408
disulfanyl	-13.941
phthalate	-13.9414
▁diethylacetal	-13.9414
methylpentanoyl	-13.9421
NI	-13.9422
▁wool	-13.9428
pentaene	-13.9432
▁Kanto	-13.9436
quinolinolato	-13.9436
Ia	-13.9437
bromoacetamide	-13.9438
▁MI	-13.9444
benzoxepine	-13.9447
methoxypyridazin	-13.9449
Diisopropylamine	-13.9449
▁carbazole	-13.9452
▁sultone	-13.9453
▁eventually	-13.9455
▁Appl	-13.9457
▁Wang	-13.946
formed	-13.946
▁ionic	-13.9461
▁glucose	-13.9464
▁beforehand	-13.9464
▁triethylene	-13.9467
▁monosodium	-13.9467
ethylpyridin	-13.9467
EE	-13.9469
bromonaphthalene	-13.947
▁Ia	-13.9473
DMS	-13.9473
▁perruthenate	-13.9474
hydroxybutanoate	-13.9477
nitrobenzo	-13.9481
▁erythro	-13.9481
methylvinyl	-13.9481
▁That	-13.9483
▁we	-13.9485
▁series	-13.9488
▁BiotageTM	-13.949
acyl	-13.9491
chlorophenylthio	-13.9493
butylcyclohexyl	-13.9494
ocarbonate	-13.9494
bromoquinolin	-13.9504
hydroxymethylene	-13.9505
ization	-13.9506
▁Super	-13.9507
▁Mitsubishi	-13.951
▁operations	-13.9511
bipyridyl	-13.9511
▁approximate	-13.9513
▁canula	-13.9517
arious	-13.952
▁fractionation	-13.9522
chlorobutyl	-13.9528
▁advance	-13.9531
dine	-13.9531
′′)	-13.9537
▁supplemented	-13.9539
▁Bioorg	-13.954
dodec	-13.9542
orpholinopropoxy	-13.9544
anisaldehyde	-13.9545
ODS	-13.9546
piperidinone	-13.9552
▁periodic	-13.9553
dihydrochloride	-13.9555
bromoanisole	-13.9556
▁Silver	-13.9557
▁fatty	-13.9562
▁triplet	-13.9564
oxobicyclo	-13.9566
▁proportions	-13.9568
sulfamide	-13.957
oxooctahydro	-13.9571
▁Isolation	-13.9573
▁accompanied	-13.9578
IO	-13.9587
assumed	-13.9595
▁Optimizer	-13.9595
▁creamy	-13.9597
▁mark	-13.9601
bromobiphenyl	-13.9605
▁sold	-13.9605
porphyrin	-13.9608
▁trade	-13.9613
▁begun	-13.9614
▁persulfate	-13.9614
▁Diaion	-13.9615
bromobutane	-13.9616
cyclobutanone	-13.9616
aminoquinoline	-13.9621
xy	-13.9621
dimethylpentyl	-13.9622
KOH	-13.9624
▁NHCH	-13.9625
CDI	-13.9627
phenylmethylene	-13.9631
▁buff	-13.9633
bu	-13.9633
fur	-13.9635
amin	-13.9637
SiCl	-13.9641
oxomorpholin	-13.9642
▁chloroacetone	-13.9646
Tetrahedron	-13.9648
carbolin	-13.965
▁super	-13.9651
thiopseudourea	-13.9653
▁rising	-13.9653
▁catalytically	-13.9653
▁NHS	-13.9657
hafnium	-13.9658
sextet	-13.9667
dram	-13.9669
amycin	-13.967
icosahydro	-13.9671
ase	-13.9676
hexahydrobenzo	-13.9681
tetrazolyl	-13.9686
methylcyclobutyl	-13.9686
oxepino	-13.9687
mineral	-13.9689
▁ivory	-13.969
trihydroborate	-13.969
mercaptopropyl	-13.9695
didehydro	-13.9701
Acetamido	-13.9701
▁nmol	-13.9701
▁Strem	-13.9703
mercaptoethanol	-13.9704
▁unpurified	-13.9709
bromoindole	-13.9709
▁Darco	-13.971
▁Bz	-13.9717
▁aliphatic	-13.972
▁icebath	-13.9721
▁produces	-13.9722
SFC	-13.9724
propargyloxy	-13.9729
ylmethylthio	-13.9732
anil	-13.9733
▁Methane	-13.9734
▁XI	-13.9735
phenylmagnesium	-13.9738
naphthyloxy	-13.9739
furanylmethyl	-13.9742
▁reside	-13.9742
iphenylmethylene	-13.9747
picolinoyl	-13.9747
CDCL	-13.9748
Fluorobenzyl	-13.9758
boric	-13.9761
phenylethanamine	-13.9766
▁dense	-13.9767
▁dibenzoyl	-13.9768
elected	-13.9769
▁liner	-13.9771
CHCO	-13.9771
butylstannyl	-13.9774
methylquinoxalin	-13.9783
▁Acidification	-13.9785
▁dimethylsulfate	-13.9787
log	-13.9787
thioxanthen	-13.9789
▁isobutanol	-13.9789
Cy	-13.979
▁atropisomers	-13.9797
top	-13.98
▁Ozone	-13.9805
▁smaller	-13.9807
▁Phenol	-13.9809
▁dq	-13.9812
▁Brown	-13.9812
▁MgCl	-13.9817
ment	-13.9823
▁EtMgBr	-13.9825
methacryloyloxy	-13.9826
seleno	-13.9827
flushed	-13.9833
eluate	-13.9833
▁florisil	-13.984
▁pentafluoro	-13.984
▁FD	-13.9841
LSIMS	-13.9845
carboaldehyde	-13.9845
phenoxyacetyl	-13.985
ethylaniline	-13.9851
CombiFlash	-13.9854
phe	-13.9854
benzothiadiazole	-13.986
▁hemi	-13.9861
▁cyanomethyl	-13.9862
grading	-13.9868
hydroxybutan	-13.9872
yi	-13.9875
LiCl	-13.988
▁Publication	-13.9882
▁redistilled	-13.9883
Pyrrolidin	-13.9885
▁Phases	-13.9886
soluble	-13.9887
din	-13.9888
methoxypiperidin	-13.9891
na	-13.9894
cc	-13.9894
▁isobutyrate	-13.9896
▁cabinet	-13.9901
chlorobenzamide	-13.9902
▁MTB	-13.9905
▁Pale	-13.9906
ig	-13.9909
BNO	-13.9913
Chlorobenzyl	-13.9916
OiPr	-13.9919
dimethylsulfide	-13.9924
▁damp	-13.9925
Methylsulfonyl	-13.9925
▁CIMS	-13.9929
▁diazo	-13.993
▁DC	-13.9933
iodobenzoyl	-13.9935
▁former	-13.9936
▁Daicel	-13.9936
cyanoacetyl	-13.9937
benzimidazolyl	-13.994
▁reflectance	-13.994
oxobenzeneacetic	-13.9944
▁cyclobutanone	-13.9947
oxalate	-13.995
ting	-13.9952
mer	-13.9954
▁MICRO	-13.9962
aminoacetate	-13.9964
ethylphenoxy	-13.9966
▁isotope	-13.9968
▁isobutylamine	-13.997
▁chlorophosphate	-13.997
walled	-13.9978
galactopyranosyl	-13.9979
▁gelatinous	-13.9981
)[[	-13.9981
▁lactate	-13.9981
COOCH	-13.9982
▁azobisisobutyro	-13.9993
diphenylmethoxy	-13.9994
▁pore	-13.9994
▁Polymer	-13.9998
▁methanethiolate	-13.9999
guanidinomethyl	-14.0001
demethyl	-14.0002
cyclopentanamine	-14.0003
pentadecyl	-14.0005
▁amines	-14.0006
Select	-14.0008
▁tBu	-14.0009
▁Condition	-14.0009
Hexahydro	-14.0009
tertbutyl	-14.0009
Chloropyridin	-14.0018
Caution	-14.0019
pyrroline	-14.0021
monohydrate	-14.0022
methoxysilane	-14.0035
Tr	-14.0035
DCl	-14.0036
glutamyl	-14.0038
▁tungstate	-14.0038
▁pasty	-14.0038
pyrrolizine	-14.004
oxopropoxy	-14.0046
thi	-14.0048
nitroanisole	-14.0052
methylcyclohex	-14.0054
amylene	-14.0057
cytosine	-14.0064
phenylethoxy	-14.0065
hydrazinocarbon	-14.0068
isopropylphenoxy	-14.007
▁spun	-14.0078
cycloocta	-14.0079
piperid	-14.008
onate	-14.0081
collidine	-14.0083
benzeneacetic	-14.0092
▁tacky	-14.0095
▁molecule	-14.0096
▁Warm	-14.0097
▁changes	-14.0098
▁crystallises	-14.0098
isobutylamino	-14.0103
▁molten	-14.0103
carbamyl	-14.0105
capped	-14.0105
heptene	-14.0112
dimethy	-14.0119
▁allylic	-14.0119
▁aminoguanidine	-14.0122
BO	-14.013
butylphenoxy	-14.0131
phenoxyaniline	-14.0137
▁deionised	-14.0138
▁KNO	-14.0138
cf	-14.0138
via	-14.0139
▁represents	-14.0141
fluoran	-14.0143
phenylethenyl	-14.0145
▁tent	-14.015
sulfonylmethyl	-14.0153
▁because	-14.0157
▁kugelrohr	-14.0158
carbonylchloride	-14.0159
▁iodomethyl	-14.0159
▁resumed	-14.016
▁sulphur	-14.0163
▁diethylzinc	-14.0167
▁byproducts	-14.0167
lin	-14.0176
▁dicalite	-14.0177
methylallyl	-14.0186
▁etheral	-14.0186
fraction	-14.0187
▁fluorine	-14.0189
▁penta	-14.019
Electrospray	-14.0191
outlet	-14.0191
absolute	-14.0191
▁induced	-14.0191
▁repeating	-14.0197
▁refractive	-14.0198
late	-14.021
Nuclear	-14.0211
Molecular	-14.0212
ferrocenyl	-14.0214
▁pigment	-14.0217
▁Heated	-14.0218
▁bromoethane	-14.0219
precipitated	-14.0223
anthracen	-14.0226
▁Pentane	-14.0227
▁HBF	-14.0228
difluoroacetyl	-14.0233
chlorobenzofuran	-14.0234
▁fridge	-14.0237
hexahydropyrano	-14.0241
etraisopropoxide	-14.0242
azidopropyl	-14.0244
terpyridin	-14.0245
propenoyl	-14.0246
▁moving	-14.0247
▁Cyclopropane	-14.0249
dimethylurea	-14.0251
benzylideneamino	-14.0251
diphenylethyl	-14.0253
homopiperazine	-14.0257
▁alkalified	-14.0257
dicarboximide	-14.0258
phosphonooxy	-14.0259
allylamino	-14.0262
EV	-14.0267
iodophenylamino	-14.0274
▁SPhos	-14.0278
NBA	-14.0279
▁depicted	-14.028
▁Half	-14.0286
nitroindole	-14.0295
nitromethyl	-14.0297
▁schlenk	-14.0298
bipiperidine	-14.0302
SF	-14.0302
fluorenylmethoxy	-14.0305
▁acetylated	-14.0307
▁tetraoxide	-14.0309
▁molybdenum	-14.0312
▁Second	-14.0317
crotonic	-14.0318
▁Sum	-14.0319
▁roughly	-14.0322
▁ylide	-14.0325
phenylvinyl	-14.033
▁allylamine	-14.0335
-[({[(	-14.0338
methyloxirane	-14.034
DIAD	-14.0343
▁Evaporated	-14.0347
▁units	-14.0349
▁picolinic	-14.0349
Ti	-14.0361
▁Flashmaster	-14.0364
▁Hold	-14.0365
▁phenolate	-14.0371
oxobutanamide	-14.0372
NBr	-14.0374
chloropyrazolo	-14.0378
histidyl	-14.0379
li	-14.0381
gold	-14.0383
(−):	-14.0389
NF	-14.0397
cyclobutylethyl	-14.0398
▁XII	-14.0399
▁alkalinized	-14.0399
▁isolating	-14.0399
Dimethoxyphenyl	-14.0402
▁glyme	-14.0408
acetamidophenyl	-14.041
tR	-14.0413
▁rotomers	-14.0418
▁fourth	-14.0423
iminomethyl	-14.0424
▁slower	-14.0425
quinol	-14.0425
Max	-14.0426
indanol	-14.0428
dichlorobenzoic	-14.0429
▁Chloroacetyl	-14.0431
diisobutyl	-14.0432
hydroxyprop	-14.0432
▁difficult	-14.0432
▁turning	-14.0439
chromic	-14.0442
▁CLMS	-14.0448
methoxymethyloxy	-14.0454
phenylalaninate	-14.0456
meta	-14.0459
methanesulfinate	-14.046
▁chamber	-14.0461
▁anhydr	-14.0466
▁neopentyl	-14.0469
]+);	-14.0472
▁cent	-14.0474
▁heater	-14.0475
morpholinium	-14.0475
carba	-14.0475
▁ramp	-14.0481
▁Off	-14.0486
glycol	-14.0491
difluoropyridine	-14.0492
selectivity	-14.0495
▁Jo	-14.0496
▁pyruvate	-14.0499
▁drier	-14.0501
imidodicarbonate	-14.0501
tripyrrolidino	-14.0502
▁des	-14.0504
oxopropanoyl	-14.0505
if	-14.0505
▁Pet	-14.0505
pentylcarbamate	-14.0505
DA	-14.0507
tryptamine	-14.0509
▁bleach	-14.051
▁reheated	-14.0524
▁NaOCl	-14.0528
▁OXONE	-14.0529
crystalline	-14.0534
benzylpiperazin	-14.0537
methylpyridazine	-14.0541
▁corresponded	-14.0544
▁delivered	-14.0544
▁admixture	-14.0545
BOP	-14.0547
TG	-14.0547
cholan	-14.0549
phenylpropanoyl	-14.0556
▁disc	-14.0557
ELSD	-14.0562
hexadeca	-14.0572
OP	-14.0577
benzofuranyl	-14.0579
oxatricyclo	-14.0581
▁reconstituted	-14.0585
▁We	-14.0585
▁DPPF	-14.0598
OCOCH	-14.0599
acet	-14.06
mercaptoethyl	-14.0603
▁condensing	-14.0606
▁Psi	-14.0606
▁Pearlman	-14.0611
dibromopentane	-14.0612
▁NaOt	-14.0612
methoxypropane	-14.0615
pivaloylamino	-14.0615
methylhex	-14.0616
diallyl	-14.0619
▁International	-14.0622
methanethiol	-14.0624
fluoroquinazolin	-14.0624
▁meter	-14.0627
pseudo	-14.0627
carbamoylphenyl	-14.0627
NaSO	-14.0632
▁conjugate	-14.0636
▁watts	-14.0639
′-{[(	-14.064
thaw	-14.0642
▁directed	-14.0643
▁cross	-14.0647
▁intermediates	-14.0651
▁IRA	-14.0651
▁thermal	-14.0655
pyri	-14.0657
▁tap	-14.0661
dihydroindeno	-14.0663
carbonylbicyclo	-14.0667
propoxymethyl	-14.0668
▁homogeneity	-14.067
cinnamaldehyde	-14.0672
xi	-14.0685
Cyanophenyl	-14.0686
CBS	-14.0689
▁contact	-14.0689
▁metabisulphite	-14.069
difluoroazetidin	-14.0692
aminothiophenol	-14.0696
very	-14.0696
▁published	-14.0707
cyanophosphonate	-14.0707
▁Sulfur	-14.0708
benzen	-14.0708
▁swirling	-14.0711
Dimethoxyethane	-14.0713
pentamethylene	-14.0716
Chiral	-14.0718
HBTU	-14.0719
cholest	-14.0719
NHS	-14.0721
▁Ber	-14.0727
cytidine	-14.0733
▁displacement	-14.0733
hexanamido	-14.0737
phenylpyrimidine	-14.0738
▁Per	-14.0748
dibromomethyl	-14.0751
nitrovinyl	-14.0755
ified	-14.0755
▁space	-14.0761
ut	-14.0774
▁dr	-14.0776
▁mml	-14.0777
pi	-14.078
he	-14.0782
aminobenzo	-14.0782
▁TFE	-14.0783
▁alternatively	-14.0784
developer	-14.0786
▁wall	-14.0794
▁ions	-14.0795
difuran	-14.0795
▁diamide	-14.0795
▁chips	-14.0801
thioacetamide	-14.0803
ru	-14.0804
▁Elementar	-14.0809
pteridine	-14.081
▁minus	-14.0811
▁Chlorine	-14.0817
benziodoxol	-14.0817
▁compared	-14.0817
boronate	-14.0819
▁industrial	-14.0821
thiadiazolo	-14.0828
hexylamine	-14.0829
Kieselgel	-14.0832
purchased	-14.0833
ince	-14.0835
benzoxepin	-14.0836
▁regioisomeric	-14.0837
▁topped	-14.0837
▁scratching	-14.0838
Met	-14.0842
phosphoryloxy	-14.0843
▁ref	-14.0851
ethylureido	-14.0851
ethanediamine	-14.0852
ose	-14.0861
)−]	-14.0863
(−)	-14.0864
dimethylpyrazole	-14.0865
▁molpeak	-14.0868
▁isopropenyl	-14.0869
tyrosyl	-14.087
semicarbazide	-14.087
jk	-14.0872
ethanoic	-14.0875
carbinol	-14.0876
ilution	-14.0877
▁rod	-14.0877
though	-14.088
enantiomerically	-14.0883
▁methoxylamine	-14.0884
cycloheptane	-14.0887
epoxypropoxy	-14.0889
terpyridine	-14.0892
esi	-14.0894
propanoyloxy	-14.0894
ci	-14.0896
methylamide	-14.0896
▁namely	-14.0897
HCI	-14.0901
DAST	-14.0901
▁turbidity	-14.0902
butoxymethyl	-14.0903
cyanopropan	-14.0906
Benzhydryl	-14.0906
cyclohexylethyl	-14.0907
bithiophene	-14.0912
oxazonine	-14.0921
BP	-14.0922
glutarimide	-14.0924
IC	-14.0928
▁CrO	-14.0928
▁LiBr	-14.0931
▁IPAc	-14.0932
▁diphenylamine	-14.0934
mi	-14.0936
phosphanyl	-14.0942
▁linker	-14.0945
oxazaborolidine	-14.0945
aminopropanoate	-14.0945
▁diallyl	-14.0945
chloroindole	-14.0947
filter	-14.0947
washing	-14.0948
▁Triturate	-14.095
nitrooxy	-14.0952
▁phenothiazine	-14.0953
octacos	-14.0954
▁Micromass	-14.0954
ethanethiol	-14.0958
▁trimer	-14.0962
Isobutyl	-14.0963
silicon	-14.0964
▁Tlc	-14.0967
Infrared	-14.097
cyanoacetamide	-14.0976
benzoyloxymethyl	-14.0983
formylpiperidine	-14.0986
▁Several	-14.0988
▁Degassed	-14.0988
indolizino	-14.0989
▁threo	-14.099
Fu	-14.0991
▁exchanger	-14.0993
TBTU	-14.0994
SCX	-14.0994
▁Glu	-14.0995
bromoisobutyrate	-14.1002
′′);	-14.1005
Bromopyridin	-14.1007
▁alcohols	-14.101
isobutyrate	-14.101
▁media	-14.101
▁acylated	-14.101
vis	-14.1012
anh	-14.1017
▁BnBr	-14.1019
▁Complete	-14.1019
ethylsulfonamido	-14.1022
▁acetonide	-14.1024
aminopyrazine	-14.1024
▁technique	-14.1029
▁integration	-14.1031
▁feeding	-14.1033
▁boc	-14.1033
▁NaB	-14.1034
ri	-14.1035
riphenylphospine	-14.105
PP	-14.1051
▁bromopyruvate	-14.1051
▁Thirty	-14.1054
FID	-14.1055
hexanone	-14.1063
MPLC	-14.1068
trifluoroprop	-14.1068
sila	-14.1068
Tos	-14.1068
▁designate	-14.1071
▁AgNO	-14.1072
Crown	-14.1075
▁clay	-14.1076
mouth	-14.1076
trimethyloxonium	-14.1076
▁solidify	-14.1077
pregnane	-14.1088
PrMgCl	-14.1088
trimethoxybenzo	-14.109
polystyrene	-14.1091
▁stayed	-14.1097
dimethylammonium	-14.1099
▁Mix	-14.11
trifluorobut	-14.1101
tripropyl	-14.1106
isouronium	-14.1115
▁totally	-14.1119
▁straw	-14.1119
carbothioic	-14.1119
▁larger	-14.1123
propylsulfanyl	-14.1123
▁pair	-14.1126
indolinone	-14.1136
SIL	-14.114
▁Alcohol	-14.1141
Wakogel	-14.1143
▁Art	-14.1149
▁sponge	-14.1152
OXA	-14.1152
purple	-14.1158
This	-14.1158
▁trimethylborate	-14.1164
hydroxyquinolin	-14.1165
bSR	-14.1166
oxathiazolidine	-14.1168
▁multi	-14.1168
▁ligroin	-14.1168
▁epimeric	-14.1178
Burgess	-14.1181
▁occur	-14.1183
rimethylboroxine	-14.1183
▁AcCl	-14.1184
dihexyl	-14.1184
▁LTD	-14.1187
butylbenzyl	-14.1187
cyclobutene	-14.1187
▁hydrated	-14.1191
mide	-14.1203
glacial	-14.1205
▁tetrachloro	-14.1219
▁cumene	-14.1219
fluorotetrahydro	-14.122
butyryloxy	-14.1223
▁methacryloyl	-14.1224
cyanoethoxy	-14.1227
dimethylbenzoic	-14.1228
loading	-14.1229
RediSep	-14.123
▁Collection	-14.123
vs	-14.1231
▁deuterated	-14.1232
driven	-14.1233
dimethylbenzo	-14.1233
isoleucine	-14.1235
▁Aniline	-14.1238
methoxyacrylate	-14.124
▁adenosine	-14.1241
ido	-14.1243
phenanthridin	-14.1246
▁Selectfluor	-14.1246
▁carbinol	-14.1248
▁liquids	-14.1249
▁premixed	-14.1252
▁singlets	-14.1253
▁mmo	-14.126
▁Triton	-14.1261
iodonium	-14.1274
▁Acta	-14.1275
hydroxycarbamoyl	-14.1277
bipiperidin	-14.1278
oxypropyl	-14.1284
′′=	-14.1286
hexamethylene	-14.1293
▁Therefore	-14.1296
organic	-14.1297
▁distribution	-14.1297
▁optionally	-14.1299
▁Skellysolve	-14.1302
ethylurea	-14.1303
alkoxy	-14.1305
tetrabromo	-14.1306
Aib	-14.1308
▁DOWEX	-14.131
desoxy	-14.1313
▁stoichiometric	-14.1315
▁packing	-14.1315
acetamino	-14.1319
▁moved	-14.1321
▁progressed	-14.1323
▁comprises	-14.1323
qui	-14.1324
▁Cyclopropyl	-14.1328
phenylazo	-14.1328
▁predominantly	-14.1331
▁paddle	-14.1333
hydroxybut	-14.1335
benzenediamine	-14.1339
salicylidene	-14.1341
trifluoroethane	-14.1342
difluorobiphenyl	-14.1343
propanesulfonate	-14.1344
reflux	-14.1348
▁direct	-14.1353
tol	-14.1359
▁Specific	-14.1362
rapped	-14.1363
▁TBDMSCl	-14.1367
)];	-14.1372
XX	-14.1373
▁sorbitol	-14.1373
AIBN	-14.1375
PHENYL	-14.1378
▁epimers	-14.1379
HAHB	-14.1382
ole	-14.1385
▁inorganics	-14.1387
▁Ir	-14.1388
▁Hunigs	-14.1392
ammonio	-14.1396
Methoxymethyl	-14.1397
Nickel	-14.1397
rotamers	-14.1401
Pyr	-14.1422
tent	-14.1422
ethanediol	-14.1423
▁TBAI	-14.1423
SiCH	-14.1423
isopropylthio	-14.1424
▁BA	-14.1427
trifluoroacetoxy	-14.1427
DM	-14.1428
mmoles	-14.143
nitrothiophene	-14.1431
▁Absolute	-14.1431
idin	-14.1434
▁thickness	-14.1436
▁vanillin	-14.1437
hy	-14.1437
IA	-14.1438
methylmethane	-14.1441
▁TMSCN	-14.1444
cyclopentenyl	-14.1448
▁Reduction	-14.1454
terior	-14.1454
▁sludge	-14.1455
dibenzothiophene	-14.1457
({	-14.1464
−).	-14.1471
▁backwashed	-14.1479
▁Kromasil	-14.148
Cha	-14.1483
▁Catalog	-14.1489
doublet	-14.1497
▁eighteen	-14.15
piperdine	-14.1501
▁tested	-14.1501
diphenylsilyl	-14.1501
▁BR	-14.1502
ill	-14.151
methoxyindole	-14.1511
▁Amide	-14.1512
icinal	-14.1512
were	-14.1514
▁carrier	-14.1517
ST	-14.1519
TBAF	-14.1519
chromanone	-14.1519
▁melamine	-14.1526
ylmethylamino	-14.1526
▁JCP	-14.1529
▁Low	-14.1529
▁COOH	-14.1535
oxobenzo	-14.1535
triflate	-14.1536
ton	-14.154
XIV	-14.154
▁do	-14.1543
Combiflash	-14.1543
▁la	-14.1544
polymer	-14.1545
▁evident	-14.1545
▁ratios	-14.1547
▁Sample	-14.1549
▁phenolic	-14.155
thiophenyl	-14.1553
▁recharged	-14.1569
tetrafluoroboric	-14.1571
cyanophenol	-14.1572
▁aqu	-14.1574
▁acylation	-14.1577
oxotetrahydro	-14.158
nitrophenylamino	-14.1581
▁Coupling	-14.1584
▁glycolate	-14.1584
thiobenzamide	-14.1584
▁MeO	-14.1585
hydroxybutanoic	-14.1588
▁pulled	-14.1591
▁Referr	-14.1592
grade	-14.1596
aminoindane	-14.1605
nonafluoro	-14.1606
▁Unreacted	-14.1614
▁darkened	-14.1614
pentylphenyl	-14.1616
heptanol	-14.162
Tolyl	-14.162
ner	-14.1621
bipiperidinyl	-14.1623
age	-14.1627
tetraphenyl	-14.1629
succinamide	-14.1632
Bi	-14.1632
▁individual	-14.1637
rate	-14.1642
Dichloroethane	-14.1642
naphthalenone	-14.1644
▁sure	-14.1645
dichlorobis	-14.1645
▁Fractional	-14.1646
trifluorobenzene	-14.1649
nonadec	-14.1651
ile	-14.1653
▁blade	-14.1653
tic	-14.1656
▁gathered	-14.1661
▁monobasic	-14.1661
heptenoic	-14.1664
Protocol	-14.1665
▁granulated	-14.1667
▁weeks	-14.1669
TIS	-14.1673
aminothiophene	-14.1679
oxoimidazolidine	-14.168
LDA	-14.1681
quinoxalinyl	-14.1683
▁conclusion	-14.1684
▁lyophilisation	-14.1684
acetato	-14.1685
pyridylmethoxy	-14.1687
trichlorosilane	-14.1689
▁capillary	-14.169
▁eluants	-14.1691
▁salicylate	-14.1691
▁absorb	-14.1697
iodoethane	-14.1703
norbornane	-14.1707
menthyl	-14.1707
phosphorylazide	-14.171
clo	-14.1712
▁bubbles	-14.172
+/−	-14.1727
▁hydrolyze	-14.1728
▁HCHO	-14.1731
note	-14.1732
▁HMDS	-14.1732
MgBr	-14.1733
XV	-14.1734
tetradecane	-14.1739
ylpropoxy	-14.1741
Acros	-14.1741
▁malonyl	-14.1741
tritylthio	-14.1742
▁anal	-14.1742
mmHg	-14.1742
tributyl	-14.1746
Tol	-14.1747
oxazepino	-14.1756
▁azo	-14.1762
aluminate	-14.1764
chloroquinazolin	-14.1767
amidinophenyl	-14.1769
imidazolylmethyl	-14.1776
PCy	-14.1777
▁elevating	-14.1777
▁diphosgene	-14.1777
▁triethanolamine	-14.1779
XIII	-14.178
ically	-14.1781
resorcinol	-14.1784
benzooxazole	-14.1789
Hypersil	-14.179
fluoropropan	-14.1793
▁cases	-14.1799
▁heterogenous	-14.1801
ethanesulphonate	-14.1802
▁dosed	-14.1804
▁ClCH	-14.1806
▁epoxy	-14.1807
▁Acryloyl	-14.1812
NNaO	-14.1816
phospha	-14.1819
▁crystallise	-14.182
▁characterised	-14.1824
▁customary	-14.1824
▁diborane	-14.1828
▁Triphenyl	-14.1829
thenoyl	-14.1831
CeCl	-14.1838
▁here	-14.184
▁hexamethylene	-14.184
▁fluorescent	-14.1842
▁Conditions	-14.1845
dimethylsilylene	-14.1852
vinylbenzene	-14.1854
morpholinopropyl	-14.1861
▁ethylester	-14.1865
fluoroethane	-14.1866
▁Periodinane	-14.1871
▁whitish	-14.1871
oxybisethane	-14.1872
▁experiments	-14.1874
diaminobutane	-14.1874
nitrobenzylidene	-14.1879
▁Gly	-14.1882
octadec	-14.1885
▁elutant	-14.1886
isopropylsilane	-14.1886
rd	-14.1887
Butyldiphenylsil	-14.1888
▁apparent	-14.1889
aminoindan	-14.189
caprolactam	-14.189
iodobutane	-14.1891
filtration	-14.1893
azoniabicyclo	-14.1894
▁(−)-(	-14.1894
▁pinkish	-14.1895
action	-14.1899
▁Measured	-14.1899
▁density	-14.1899
▁olefinic	-14.1901
oxaborole	-14.1903
azine	-14.1907
CHOCH	-14.1908
onyl	-14.1911
▁Ra	-14.1915
▁Inertsil	-14.1916
▁catechol	-14.1922
diphenoxy	-14.1923
-[[[[	-14.1925
methylmercapto	-14.1928
final	-14.1928
indolium	-14.1928
reference	-14.1929
propylmagnesium	-14.193
▁TOTU	-14.1932
carboxyamide	-14.1935
po	-14.1935
ethylpyridine	-14.1935
▁salicylic	-14.1938
▁acrolein	-14.1938
diethylcarbamoyl	-14.194
▁grayish	-14.1943
▁hydrofluori	-14.1943
fer	-14.1944
dimethylbenzoate	-14.1945
cyanuric	-14.1946
▁BHT	-14.1951
borabicyclo	-14.1953
▁maleimide	-14.1955
IM	-14.1955
cel	-14.1962
▁inter	-14.1963
bromobut	-14.1965
rbamimidothioate	-14.1966
▁Major	-14.1966
▁bicyclic	-14.1967
cycl	-14.1967
▁nylon	-14.1967
▁Har	-14.1968
theory	-14.1969
({[	-14.1973
▁diketone	-14.1975
▁amidine	-14.1979
dimethylfuran	-14.198
oxane	-14.1985
▁CAN	-14.1989
BI	-14.199
dioxaborinane	-14.1994
▁Poly	-14.1995
Preparative	-14.1995
bromospiro	-14.2
ix	-14.2005
▁sulphonyl	-14.2007
▁NaBr	-14.2014
▁CHEMICAL	-14.2014
▁Initially	-14.2014
Trimethoxy	-14.2016
ethylpiperidine	-14.2019
phenylpropionyl	-14.2021
hydroxyproline	-14.2023
▁XRD	-14.2025
spherical	-14.2025
methylacrylate	-14.2026
bromopyrazin	-14.2026
▁rf	-14.2028
▁vacua	-14.2029
ioxoimidazolidin	-14.2033
DD	-14.2035
acetylpiperidin	-14.2036
oxalyl	-14.2037
phenethylamino	-14.2038
SPIRO	-14.2038
mesyl	-14.204
▁hydrogenolysis	-14.2041
PhCH	-14.2045
▁glycinate	-14.2047
perfluorophenyl	-14.2049
fluoronicotinic	-14.205
ylchloride	-14.2052
fluorobenzamido	-14.2052
▁equalizing	-14.2055
succinyl	-14.2055
▁Chloromethyl	-14.2058
deoxycytidine	-14.206
mercaptophenyl	-14.206
▁me	-14.2062
▁satisfactory	-14.2063
vap	-14.2063
▁infra	-14.2064
phenylpiperazin	-14.2071
▁Agilent	-14.2074
▁propargylamine	-14.2075
▁virtual	-14.2078
▁DMAC	-14.2081
▁Elute	-14.2084
▁consecutive	-14.2087
sulfamyl	-14.2087
▁visualization	-14.2087
hexenoate	-14.2089
▁pyr	-14.2089
oxoethylidene	-14.2089
▁exception	-14.2093
brt	-14.2093
seryl	-14.2094
hexachloroethane	-14.2096
NHCO	-14.2096
Pack	-14.2096
sulphonyloxy	-14.2101
nt	-14.2101
penam	-14.2106
triethylammonio	-14.2111
▁bisulphite	-14.2111
buty	-14.2113
phenylhydrazone	-14.2116
thiopyrano	-14.2117
dropwise	-14.2126
▁SUS	-14.2128
undecanoic	-14.213
tationary	-14.2131
▁Genevac	-14.2133
▁leaves	-14.2134
▁dessicator	-14.2135
ethylcyclohexyl	-14.2135
prolinol	-14.2136
elute	-14.2136
COOMe	-14.2137
chromone	-14.214
oxatetracyclo	-14.214
▁nil	-14.2142
▁fiber	-14.2143
▁shifts	-14.2144
▁glyoxylate	-14.2148
ESP	-14.2148
ethyleneglycol	-14.2149
Prepared	-14.215
tetraacetic	-14.2152
tolylamino	-14.2155
▁dioxanes	-14.2167
▁includes	-14.2168
equivalent	-14.2171
fluorescein	-14.2175
▁Meldrum	-14.218
homoerythromycin	-14.2184
propenal	-14.2184
DIP	-14.2185
▁Samples	-14.2186
▁lipase	-14.2188
imidazolidinyl	-14.2189
sulfinate	-14.2191
▁Benzaldehyde	-14.2192
▁Min	-14.2193
benzoylphenyl	-14.22
▁trimethyltin	-14.2202
▁matrix	-14.2204
tocopherol	-14.2208
phenylbenzoyl	-14.2209
bromopyrazine	-14.221
fluoroethylene	-14.2211
bromotoluene	-14.2212
onochlorobenzene	-14.2212
▁hereinafter	-14.2214
cinnamoyl	-14.2219
▁tic	-14.2224
Difluoromethyl	-14.2225
▁hydrocarbon	-14.2227
▁Lux	-14.2231
phenanthro	-14.2233
▁diketene	-14.2233
▁exposure	-14.2233
Cube	-14.2237
▁antimony	-14.2238
▁filteration	-14.2239
dihydrodibenz	-14.2239
▁processing	-14.224
methoxypyrazin	-14.224
▁Cyclo	-14.2242
▁ascorb	-14.2244
▁bismuth	-14.2244
EX	-14.2246
▁aqeu	-14.2247
Ts	-14.2249
trityloxyimino	-14.225
-[{[	-14.2254
foam	-14.2256
PtCl	-14.2257
▁Deionized	-14.2257
▁hydrosulfide	-14.2257
imido	-14.2258
▁disulphide	-14.2259
diatomaceous	-14.2265
phthaloyl	-14.2265
CMe	-14.2268
▁ultra	-14.2269
▁synthesised	-14.2275
]−).	-14.2278
azocine	-14.2279
trifluorobenzyl	-14.2281
selenophene	-14.2283
▁presented	-14.2286
KP	-14.2288
formyloxy	-14.2289
biphenol	-14.229
▁thioanisole	-14.229
debenzoyl	-14.2298
▁acetylacetone	-14.2298
▁Rel	-14.2298
acylated	-14.2302
butylaniline	-14.2303
phenylethane	-14.2304
▁simultaneous	-14.2307
▁SepaFlash	-14.2307
▁lyophilizer	-14.2308
▁iPrOAc	-14.2309
mesylate	-14.2311
Methylsulfanyl	-14.2313
▁ytterbium	-14.2315
▁ethylate	-14.2317
aminopyrrolidin	-14.2318
sext	-14.2318
methylbutanamido	-14.2321
▁dilaurate	-14.2324
▁methylboronic	-14.2325
trifluoropropane	-14.2328
▁Triflic	-14.2331
▁degased	-14.2332
▁terminal	-14.2333
disuccinimidyl	-14.2333
methoxyprop	-14.2333
isopropylphenol	-14.2335
dihydropyrazol	-14.2335
▁enone	-14.2341
▁trisodium	-14.2352
▁acidity	-14.2352
pentyne	-14.2356
▁ESHRMS	-14.2362
acetylchloride	-14.2363
ni	-14.2371
perylene	-14.2374
▁JHH	-14.2374
nonafluorobutane	-14.2375
octylphenyl	-14.2379
▁probucol	-14.2381
▁XAD	-14.2382
CHCI	-14.2382
air	-14.2385
▁phenyllithium	-14.2385
▁forty	-14.2386
adduct	-14.2387
Grubbs	-14.2387
▁GS	-14.2391
▁fume	-14.2393
diastereoisomer	-14.2395
▁assignment	-14.2398
▁Continue	-14.2407
tetrasiloxane	-14.2411
bromonaphthalen	-14.2411
▁sarcosine	-14.2411
cyan	-14.2412
Methylphenyl	-14.2417
MSD	-14.2426
▁thermowell	-14.2431
▁fused	-14.2432
▁Ethylacetate	-14.2434
▁appropriately	-14.2434
microwave	-14.2441
chilled	-14.2442
sulfoxide	-14.2442
oxazolin	-14.2449
chloropyrrolo	-14.2454
▁desire	-14.2455
glutamine	-14.2456
▁Karl	-14.2463
carboxypropyl	-14.2465
diphenylpropyl	-14.2466
Personal	-14.2468
BrCl	-14.2474
cin	-14.2475
acetylsulfanyl	-14.2475
tetraoxo	-14.2477
ce	-14.2478
methylheptanoyl	-14.2481
▁triphenylmethyl	-14.2483
NP	-14.2484
▁refiltered	-14.2484
▁vs	-14.2485
nitroquinazolin	-14.2487
▁sulfamide	-14.2492
▁mMole	-14.2496
anol	-14.2499
▁isooctane	-14.2502
third	-14.2503
OF	-14.2504
▁Benzylamine	-14.2504
bromopyrazolo	-14.2504
sulphamoyl	-14.2506
methyloxazolidin	-14.2508
benzodioxane	-14.251
ionic	-14.2513
▁ter	-14.2514
Tris	-14.2516
Instrument	-14.252
▁diethylamide	-14.2521
▁Cr	-14.2521
Alfa	-14.2522
phenothiazin	-14.2529
Elementar	-14.2531
▁Vigorous	-14.2532
▁placing	-14.2532
▁lyophilate	-14.2532
▁brominated	-14.2535
▁peach	-14.2539
succinimido	-14.2539
▁SGC	-14.2542
Azidomethyl	-14.2544
Reaction	-14.2549
adamantanol	-14.2554
yp	-14.2556
malonamic	-14.2557
▁suggested	-14.2557
▁Precipitates	-14.2557
Form	-14.256
pentoxy	-14.2567
▁Aliquat	-14.2569
silacyclohexane	-14.2575
▁Hexa	-14.2577
PG	-14.2579
chlorophosphate	-14.2579
tetrahydronaphth	-14.258
▁largely	-14.2584
▁TBF	-14.2585
▁acetonitril	-14.2585
oven	-14.2588
guanosine	-14.2589
diethylbenzamide	-14.259
cycloprop	-14.2591
▁hPa	-14.2593
iodobenzonitrile	-14.2595
▁Silicycle	-14.2596
dihydroxybenzoic	-14.2596
▁defined	-14.2597
phosphorus	-14.26
▁abbreviated	-14.2602
nonyloxy	-14.2606
Cyclohexane	-14.2606
Indole	-14.2607
▁company	-14.2608
Diethoxy	-14.2611
lower	-14.2617
phenylacetylene	-14.2621
chloromethoxy	-14.2623
▁IB	-14.2625
isopropyloxy	-14.2628
PGF	-14.263
subjected	-14.2631
ling	-14.2633
nitroimidazol	-14.2633
▁Glauber	-14.2633
ear	-14.2634
glu	-14.2635
FCC	-14.2637
heptanoyl	-14.2638
diaminoethane	-14.2638
ti	-14.2641
Difluoromethoxy	-14.2641
furoic	-14.2643
▁Baker	-14.2645
difluorobenzoate	-14.2651
▁thermo	-14.2652
diyne	-14.2658
▁ultrasound	-14.2659
▁unchanged	-14.2659
▁seperated	-14.2659
mercaptoacetic	-14.266
path	-14.266
▁ethyleneglycol	-14.2661
chloropyrido	-14.2663
▁CaCO	-14.2664
TT	-14.2665
triphenylene	-14.2665
▁radical	-14.2666
hydroxyindole	-14.2666
trimethylene	-14.2677
acetonyl	-14.2678
DEA	-14.2679
piperidinyloxy	-14.2681
▁bleed	-14.2684
▁environment	-14.2685
▁Crystalline	-14.2685
pentet	-14.2685
▁Dichlorobis	-14.2688
▁aceto	-14.2691
isothiazolidine	-14.2692
▁Theory	-14.2705
cyclohept	-14.2706
▁MASS	-14.2707
▁dist	-14.2708
wetted	-14.2712
equiv	-14.2714
crystal	-14.2716
deoxyadenosine	-14.2719
pyridineboronic	-14.272
▁received	-14.272
▁follow	-14.2725
▁rota	-14.2728
▁doublets	-14.2729
▁Commun	-14.2736
▁Kogyo	-14.2736
▁evacuating	-14.2736
▁listed	-14.2736
benzoylthio	-14.2736
]{	-14.2737
Aq	-14.2739
caution	-14.274
methylsulphanyl	-14.274
dipyridine	-14.2741
vinylbenzyl	-14.2742
methylpropionyl	-14.2743
maleimido	-14.2746
▁headspace	-14.2762
pregnadiene	-14.2763
anomer	-14.2767
carrier	-14.2768
previously	-14.2769
KH	-14.2775
▁culture	-14.2777
methylether	-14.2779
acetoxyphenyl	-14.2781
▁taxol	-14.2782
perbenzoic	-14.2783
▁Place	-14.2787
NAPHTHALENE	-14.2788
▁Chromatorex	-14.2789
vinyldecahydro	-14.2791
ary	-14.2791
▁Dicyclohexyl	-14.2792
▁Vinyl	-14.2793
▁Experimental	-14.2796
▁disappears	-14.2799
quinolinol	-14.2805
-(((((	-14.2815
▁WSCI	-14.2817
acetonide	-14.2824
triggered	-14.2824
methacrylate	-14.2824
quartet	-14.2824
▁JF	-14.2827
′′′,	-14.2828
bridge	-14.283
ylmethanamine	-14.2831
▁static	-14.2833
▁receiv	-14.2836
▁Thio	-14.2837
▁Partition	-14.284
▁Dowtherm	-14.284
▁Complex	-14.2841
▁porosity	-14.2841
phenoxazine	-14.2842
benzanilide	-14.2842
▁terephthalic	-14.2848
isatin	-14.2849
beige	-14.2852
▁phenoxide	-14.2857
dioxothiazolidin	-14.2869
acetylpyridine	-14.2874
thiazolium	-14.2877
mercaptopyridine	-14.2878
▁atoms	-14.288
RhCl	-14.2884
NMM	-14.2889
▁dumped	-14.2892
acetimidamide	-14.2892
▁Refluxing	-14.2893
▁quint	-14.2894
▁Burgess	-14.2898
dihydrochromeno	-14.2899
ylmethylsulfanyl	-14.29
phenyloxazol	-14.2903
▁phenylacetyl	-14.2905
iodopyrimidine	-14.2905
ethylendioxy	-14.2913
▁Butyllithium	-14.2914
▁COMBIFLASH	-14.2916
▁diacetoxy	-14.2918
biguanide	-14.2918
prolinate	-14.2918
▁octadecyl	-14.2921
▁milled	-14.2921
isopropylaniline	-14.2922
▁hydroxyamide	-14.2924
▁displaced	-14.2925
▁proved	-14.2926
▁uM	-14.2928
diphosphetane	-14.2928
▁isopropylether	-14.2928
hydrofuran	-14.2935
methylmalonate	-14.2937
decanedioic	-14.2937
▁proof	-14.2942
uantitative	-14.2943
▁Typical	-14.2945
▁Wittig	-14.2945
▁methoxyamine	-14.2945
oc	-14.2947
′′′)	-14.295
cyanobenzene	-14.2952
▁porphyrin	-14.2953
▁Xtimate	-14.2959
cyclosporin	-14.2962
cyanopiperidine	-14.2963
▁cyclopentadiene	-14.2966
hydroxyacetyl	-14.2969
nBr	-14.297
▁detect	-14.297
▁elutes	-14.297
▁AXIA	-14.2971
▁coevaporation	-14.2971
cyanomethoxy	-14.2975
trioxolane	-14.2978
▁PCy	-14.2984
ropanephosphonic	-14.2984
ethylphenol	-14.2992
rot	-14.2993
▁regio	-14.2993
amount	-14.2993
litre	-14.2993
without	-14.2994
diaminomethylene	-14.2995
benzodioxepin	-14.2996
▁Rotavapor	-14.2998
▁deminerali	-14.2998
hexanal	-14.3002
▁Inj	-14.3003
▁EtoAc	-14.3005
aminopropane	-14.3005
pot	-14.3006
▁salicylaldehyde	-14.3007
▁deactivated	-14.3016
ethylpyrrolidine	-14.3025
hexacyclo	-14.3025
some	-14.3026
Cis	-14.3032
used	-14.3039
XVI	-14.304
furfuryl	-14.3047
esterification	-14.305
cyanopyrazin	-14.3053
trimethylbicyclo	-14.3054
▁sulfamate	-14.3054
ethylpiperidin	-14.3054
butylsulfamoyl	-14.3058
▁propionitrile	-14.3062
pentanediol	-14.3066
minoacetaldehyde	-14.3069
ending	-14.3074
▁Th	-14.3076
▁intense	-14.3077
▁depressurized	-14.3077
cycloundecaphane	-14.3078
typically	-14.3078
exact	-14.3078
benzoazocine	-14.3081
▁equip	-14.3081
(−)-	-14.3086
malic	-14.3087
hydrox	-14.3092
deacetyl	-14.3094
benzenesulfinate	-14.3095
dimercapto	-14.3095
AT	-14.3095
Hep	-14.3104
bromobutoxy	-14.3104
▁Overall	-14.3107
pyrazolio	-14.3109
propanesulfonyl	-14.3116
▁Piperazine	-14.3121
obs	-14.3123
benzal	-14.3125
divinyl	-14.3127
IntelFlas	-14.3131
▁extreme	-14.3131
▁saved	-14.3131
▁tripeptide	-14.3132
diffuse	-14.3134
phenylsulfamoyl	-14.3135
pyridylboronic	-14.3136
separated	-14.3137
TBS	-14.314
▁OR	-14.3144
went	-14.3144
▁automatic	-14.3145
oxophthalazin	-14.3145
time	-14.3148
▁spirits	-14.3151
pristin	-14.3158
▁warn	-14.3159
tritylsulfanyl	-14.3161
High	-14.3162
▁ELSD	-14.3162
process	-14.3165
methylimino	-14.3166
Petrol	-14.3166
▁BrettPhos	-14.3167
▁tungsten	-14.3172
MA	-14.3173
chlorobutyryl	-14.3174
▁pipet	-14.3174
imidate	-14.3175
▁Any	-14.3176
dihydropyrazino	-14.3176
▁Syn	-14.3179
sulfonanilide	-14.3181
ng	-14.3182
▁allylmagnesium	-14.3184
▁oxidant	-14.3185
▁Spectrometry	-14.3185
diaminobenzene	-14.3186
▁art	-14.3186
▁already	-14.3187
▁Carbonate	-14.3188
▁TA	-14.3191
nitrophthalic	-14.3191
mandelate	-14.3192
butanedione	-14.3192
equalizing	-14.3193
▁rotating	-14.3195
disulfonate	-14.32
▁Let	-14.3201
SnCl	-14.3202
▁XIV	-14.3207
diluted	-14.3207
phenylanthracene	-14.3208
▁Partial	-14.321
valyloxy	-14.3212
ornithine	-14.3212
▁granules	-14.3212
▁hemiacetal	-14.3215
▁KOt	-14.3216
magnesiumbromide	-14.3217
▁outer	-14.322
EtN	-14.3221
so	-14.3224
xanthone	-14.3229
MF	-14.3232
dimethylpent	-14.3232
si	-14.3234
aSR	-14.3235
au	-14.3235
▁outside	-14.3237
▁Reactor	-14.3238
▁orbital	-14.3239
▁discharge	-14.324
INO	-14.3241
benzylammonium	-14.3243
methylhydrazine	-14.3245
point	-14.3252
SepTM	-14.3252
▁cald	-14.3252
▁cells	-14.3252
glyoxylate	-14.3252
adjusted	-14.3253
ai	-14.3258
diaminopyridine	-14.3258
thion	-14.3258
methylsilanolate	-14.3261
▁HI	-14.3262
▁nitroethane	-14.3263
▁chlorinated	-14.3263
▁easily	-14.3266
carboximidate	-14.3266
▁triethyloxonium	-14.3266
▁succinimidyl	-14.3269
CY	-14.3274
NCO	-14.3275
oxopent	-14.3277
hydroxybutyrate	-14.3277
part	-14.3278
▁recycled	-14.3278
▁monoester	-14.3279
Description	-14.328
percent	-14.3281
ethanaminium	-14.3287
▁middle	-14.3289
ia	-14.329
propanoylamino	-14.3291
homoserine	-14.3293
▁decrease	-14.3297
PHOS	-14.3298
chloroethanol	-14.3298
Lancaster	-14.3309
FIG	-14.331
▁egg	-14.3315
oo	-14.3316
ised	-14.3317
acetylated	-14.332
Selectride	-14.3321
aspartate	-14.3321
▁Cellulose	-14.3322
ylcarbonylamino	-14.3322
▁analogue	-14.3323
▁hard	-14.3324
▁Molar	-14.3327
▁lined	-14.3328
glucamine	-14.3329
methylpyrid	-14.3332
Peak	-14.3339
▁enolate	-14.3339
avermectin	-14.334
IPE	-14.334
tetraazol	-14.3346
ace	-14.3347
▁mixer	-14.3349
chloroacetate	-14.3354
PPC	-14.3354
▁Millipore	-14.3355
methanimidate	-14.3357
bromopropionyl	-14.336
▁adamantane	-14.3365
▁Distill	-14.3367
quino	-14.3367
TBDMS	-14.3367
spectrum	-14.3369
diphosphonate	-14.337
▁rotoevaporation	-14.3375
▁AlMe	-14.3377
ylsulphonyl	-14.3384
anthra	-14.3388
FIN	-14.3389
nitroquinazoline	-14.3391
▁Content	-14.3394
isolated	-14.3398
according	-14.3398
▁rich	-14.3401
▁port	-14.3401
ka	-14.3402
▁examined	-14.3403
▁perfluorophenyl	-14.3403
▁TBAB	-14.3403
▁Thereby	-14.3405
oxooctyl	-14.3408
dioctyl	-14.3409
▁RPLC	-14.341
hexylamino	-14.3416
Morpholino	-14.3418
CMA	-14.3421
▁Theoretical	-14.3422
bromobutanoate	-14.3423
phenylpentyl	-14.3425
Kromasil	-14.3427
deuterated	-14.3427
▁Followed	-14.3431
Paraformaldehyde	-14.3431
▁atomosphere	-14.3431
▁pounds	-14.3431
▁sealing	-14.3431
benzimidate	-14.3432
octafluoro	-14.3433
▁chem	-14.3435
halo	-14.3438
triethylsilanyl	-14.344
tetrahydropyrano	-14.3442
Benzimidazol	-14.3442
reacted	-14.3442
▁tBuOK	-14.3443
▁San	-14.3445
benzylpyrrolidin	-14.3447
generated	-14.3449
▁denatured	-14.345
▁API	-14.3454
trichloroacetyl	-14.3456
▁Generation	-14.3458
▁demonstrated	-14.3458
▁triturate	-14.346
side	-14.3467
▁TPAP	-14.3468
iodopropyl	-14.3469
octylamine	-14.3471
SNa	-14.3473
▁Ligand	-14.3473
▁Was	-14.3484
phenylbutanoic	-14.3485
▁Propargyl	-14.3485
CYCLOBUTYL	-14.3486
▁unidentified	-14.3486
bipyrazinyl	-14.3486
SNAP	-14.3487
second	-14.3487
quinolinium	-14.3489
▁wa	-14.3492
▁MF	-14.3494
NCS	-14.35
trichlorobenzene	-14.35
flowing	-14.3502
▁molybdate	-14.3513
Comparative	-14.3514
▁initiation	-14.3514
tridec	-14.3515
▁Agela	-14.3515
imidazolinium	-14.3515
▁MeONa	-14.3516
reduced	-14.3517
▁TMSBr	-14.3517
diketo	-14.3517
FT	-14.3518
iastereoisomeric	-14.3518
▁sugar	-14.3521
bromofuran	-14.3521
▁Fieser	-14.3525
′′′	-14.3528
▁Bar	-14.353
▁JP	-14.3531
fluoropicolinate	-14.3532
methoxyimidazo	-14.3537
▁EED	-14.354
MgCl	-14.3541
▁diatomite	-14.3542
▁amalgam	-14.3542
▁stiffed	-14.3542
▁zeolite	-14.3543
dipyridyl	-14.3544
ketal	-14.3545
olefin	-14.3547
pentaaza	-14.3547
Hexyl	-14.3548
cyclobutanamine	-14.3548
diazenyl	-14.3554
▁Run	-14.3556
AG	-14.3557
XVII	-14.3563
▁nonpolar	-14.3567
fluoronaphthalen	-14.3569
▁inserted	-14.357
▁proper	-14.357
▁hexamethylditin	-14.3571
▁coloration	-14.3572
Mw	-14.3574
heating	-14.3577
▁circulating	-14.3587
▁IBX	-14.3593
phenylmethane	-14.3593
▁ferrous	-14.3598
▁flaky	-14.3598
propanedinitrile	-14.3598
hydroxypropane	-14.3603
▁Free	-14.3603
dichloropyrid	-14.3613
fluro	-14.3614
▁Stop	-14.3621
hydr	-14.3624
▁HORI	-14.3626
carbamoylmethoxy	-14.3628
azaindolin	-14.3631
FIA	-14.3637
▁Oil	-14.3637
epichlorohydrin	-14.3637
blue	-14.3638
pentynyl	-14.3638
)+(	-14.3642
▁XIII	-14.3645
bpy	-14.3649
chlorobenzamido	-14.3652
AcO	-14.3658
oro	-14.3661
▁millimols	-14.3662
isocyanurate	-14.3665
dioxopiperazin	-14.3667
nonanoi	-14.3667
deutero	-14.3668
BC	-14.3669
▁asymmetric	-14.3674
▁eluated	-14.3679
nium	-14.3679
▁alternately	-14.3683
▁pressed	-14.3683
gamma	-14.3684
▁starch	-14.3684
▁blanketed	-14.3685
oxycarbonyloxy	-14.3686
aminobicyclo	-14.3688
AX	-14.3694
Dinitro	-14.3695
Argonaut	-14.3697
▁dichloromethyl	-14.3697
stirring	-14.3698
cyanopropyl	-14.3702
VP	-14.3703
PB	-14.3704
PGE	-14.3706
dichlorovinyl	-14.3707
pyrrolizin	-14.3709
benzoquinon	-14.3709
BrFNO	-14.3711
tro	-14.3711
mannitol	-14.3711
▁Phosgene	-14.3711
▁flocculent	-14.3711
▁Resolution	-14.3711
▁net	-14.3714
▁Suspend	-14.3716
phenylpyrimidin	-14.3717
pectroscopically	-14.3717
▁zone	-14.3718
▁MAO	-14.3719
sol	-14.3719
methyldisulfanyl	-14.3719
exotherm	-14.372
ylsulfamoyl	-14.3721
idene	-14.3723
ethylester	-14.3727
allo	-14.3736
thiazino	-14.3737
our	-14.3738
▁Paar	-14.374
▁measuring	-14.3741
▁solubilised	-14.3741
▁CHP	-14.3745
▁hydroxyde	-14.3745
▁setting	-14.3747
aminoiminomethyl	-14.3748
▁Jgem	-14.3748
rin	-14.3749
any	-14.375
pregnene	-14.3752
coming	-14.3758
thymine	-14.3759
repeated	-14.3759
▁trichlorosilane	-14.3767
Porter	-14.3768
sisomicin	-14.3768
▁unstable	-14.3768
salicylate	-14.3769
adamantanone	-14.3771
▁exclude	-14.3772
▁page	-14.3773
nitrophenylthio	-14.3777
piperidinamine	-14.3779
▁Synth	-14.3782
phenylenebis	-14.3783
oxathiolane	-14.3785
▁SS	-14.379
▁ethanethioate	-14.3792
▁icy	-14.3796
aminoethylamino	-14.3799
LST	-14.3799
ler	-14.3804
chloroanilino	-14.3806
▁adsorbent	-14.3806
▁Axia	-14.3811
acetamidomethyl	-14.3812
▁Mega	-14.3814
Degussa	-14.382
butoxyethyl	-14.3826
▁indium	-14.3826
once	-14.3826
▁Kinetex	-14.3829
diiridium	-14.3829
▁[(+)	-14.383
▁gases	-14.3831
low	-14.3831
▁Emrys	-14.3831
tetraazacyclodo	-14.3833
▁ArOCH	-14.3834
▁alkylat	-14.3838
naphthalenyloxy	-14.3839
▁NT	-14.3841
thiobenzoic	-14.3842
der	-14.3848
methylfuro	-14.385
sulfamate	-14.3853
▁rotovapped	-14.3854
pin	-14.3856
▁recrystallize	-14.3857
▁polymorph	-14.3857
furoate	-14.3866
dimethylcarbamyl	-14.3868
▁Res	-14.387
butyldiphenyl	-14.387
▁IIa	-14.3875
lg	-14.3876
derivative	-14.3877
▁parent	-14.388
▁Grace	-14.388
Adamantan	-14.3881
methyi	-14.3881
negative	-14.3882
Methoxyethyl	-14.3882
optical	-14.3882
▁Lindlar	-14.3882
irregular	-14.3883
▁Ro	-14.3883
▁preformed	-14.3884
▁XDB	-14.3884
aminopropionic	-14.389
methacryloxy	-14.3895
icosa	-14.3898
▁Diethylamine	-14.3903
▁urethane	-14.3906
diisobutylamino	-14.3907
▁wetted	-14.3911
EPINE	-14.3912
leucinamide	-14.3912
▁somewhat	-14.3912
butenedioate	-14.3913
su	-14.3915
butylnitrite	-14.3916
acrolein	-14.3917
▁scavenger	-14.3918
benzylchloride	-14.3918
ize	-14.3918
thiadiazolidine	-14.3918
decene	-14.3922
▁lactol	-14.3922
▁iii	-14.3923
phenylureido	-14.3928
trifluorobutoxy	-14.393
▁seeds	-14.3931
Prop	-14.3933
sulphate	-14.3933
▁alternative	-14.3936
▁weigh	-14.3938
carbimidoyl	-14.3941
▁faded	-14.3945
▁WSCD	-14.3946
pink	-14.3946
▁nicotinoyl	-14.395
ISN	-14.3952
▁Gram	-14.3954
dimethylacetal	-14.3955
tetracyclo	-14.3956
diethoxysilane	-14.3958
phenylthiophene	-14.3959
▁jar	-14.3971
TES	-14.3971
▁joined	-14.3978
▁aziridine	-14.398
▁complexed	-14.3985
▁droplets	-14.3988
atom	-14.3989
=(+)	-14.399
isophthalamide	-14.3998
▁Aluminium	-14.3999
▁hypophosphite	-14.4
▁intensively	-14.4
MI	-14.4001
▁Reprosil	-14.401
hlorosulfonic	-14.4012
▁nove	-14.4016
ten	-14.4017
▁ChiralPak	-14.4021
▁dilithium	-14.4024
▁alkoxide	-14.4024
▁balance	-14.4029
▁everything	-14.4029
▁oxybromide	-14.403
sic	-14.4034
anthranilate	-14.4037
act	-14.404
bed	-14.404
▁developer	-14.4042
▁riboside	-14.4045
▁Tosyl	-14.4047
hydroperoxide	-14.4048
FABMS	-14.4049
▁Expected	-14.4049
Benzylamino	-14.4053
AR	-14.4053
▁MeCl	-14.4058
▁brief	-14.4058
▁Heterocyclic	-14.4059
▁TH	-14.4064
hydroxyacetamide	-14.4067
▁benzenesulfonic	-14.407
sul	-14.4078
hexadecyloxy	-14.4079
oxopropanoic	-14.4081
▁render	-14.4088
isopropylborate	-14.4089
phenylfuro	-14.4089
benztriazole	-14.4091
maleic	-14.4092
▁Pressure	-14.4093
plate	-14.4095
▁Eur	-14.4095
acenaphthylene	-14.4099
FP	-14.4101
▁isopentyl	-14.4106
▁Glycine	-14.4106
▁Products	-14.4109
▁basify	-14.4117
▁cacld	-14.4118
▁quality	-14.4118
oxaziridine	-14.4118
▁sitting	-14.4118
decanol	-14.4121
▁techniques	-14.4121
▁sh	-14.4123
methylethanamine	-14.4126
toluyl	-14.4132
aseous	-14.4132
▁sep	-14.4138
TS	-14.4141
ish	-14.4141
▁PREPARATI	-14.4145
▁benzylmagnesium	-14.4145
▁visualized	-14.4146
▁SpeedROD	-14.4147
aminobenzamide	-14.4149
▁semicarbazide	-14.415
▁dehydrate	-14.4151
▁crudely	-14.4159
propanyl	-14.4162
▁Pyr	-14.4162
▁pipetted	-14.4164
iodobenzaldehyde	-14.4165
▁quarter	-14.4165
TEMPO	-14.4165
commercial	-14.4165
pyridazina	-14.4168
DAP	-14.4176
dicarboxy	-14.4177
inate	-14.418
desA	-14.4183
stannic	-14.4185
oxidopyridin	-14.4186
trioxabicyclo	-14.4187
▁nine	-14.4188
phenethoxy	-14.4191
methyltetrazol	-14.4193
▁steroid	-14.4195
methylformamide	-14.4198
OBut	-14.4206
benzimidoyl	-14.4207
▁uniformly	-14.4207
trimethylphenoxy	-14.4214
Pyrazol	-14.4214
▁columned	-14.4218
′-({	-14.422
indola	-14.4222
chloromethylene	-14.4223
maleate	-14.4228
combined	-14.4229
carbonyloxyethyl	-14.4234
▁comb	-14.4236
▁Analogous	-14.4237
Lutidine	-14.4237
dimethylforamide	-14.4237
Proline	-14.4237
▁Aldehyde	-14.4239
mic	-14.4241
tributylstannane	-14.4245
phenylbutanoate	-14.4247
methylsulphenyl	-14.4249
benzenedi	-14.4256
▁lightly	-14.4258
▁imidate	-14.4258
bicarbonate	-14.4263
Piperazin	-14.4265
pyrrolidon	-14.4266
▁desiccat	-14.4267
AKU	-14.4267
Ba	-14.4268
▁photo	-14.427
▁disk	-14.4271
cyanomethylene	-14.4271
▁dichoromethane	-14.4274
▁multiplets	-14.4282
phenylpent	-14.4291
butyramido	-14.4293
Furan	-14.4294
fitted	-14.4294
▁JPC	-14.4297
sulfonohydrazide	-14.4298
Directed	-14.4299
▁America	-14.4305
ESMS	-14.4309
-((−)-	-14.4314
ran	-14.4314
stark	-14.4324
more	-14.4324
BT	-14.4325
gauge	-14.4326
may	-14.4327
hydroxide	-14.4328
Epoxy	-14.4328
▁lithiated	-14.433
▁even	-14.4337
▁Nova	-14.4338
hexylphenyl	-14.4339
▁isonipecotate	-14.4339
ET	-14.4339
enylamino	-14.434
cyclooctyl	-14.4346
▁sept	-14.4348
ale	-14.435
oxoisoindoline	-14.4352
methylacetamido	-14.4352
fluorinated	-14.4357
▁PGI	-14.4357
▁disposable	-14.4357
▁Other	-14.4358
formimidamide	-14.436
carboxylicacid	-14.436
cr	-14.4361
oxoheptyl	-14.4361
gen	-14.4361
▁rotated	-14.4363
ara	-14.4364
tributylammonium	-14.437
▁reveals	-14.4381
▁Jab	-14.4382
phenylthiomethyl	-14.4387
▁Manufacturing	-14.4388
ak	-14.4388
▁ramping	-14.4388
▁never	-14.4389
▁acetylchloride	-14.439
▁TEAB	-14.439
▁ammoniacal	-14.4391
alkane	-14.4393
methoxyacetyl	-14.4394
▁TMSI	-14.4399
▁Triisopropyl	-14.4402
IIa	-14.4405
nol	-14.4408
trisamine	-14.441
▁hydroxyamine	-14.4412
phenylbutyrate	-14.4413
▁technical	-14.4417
▁centigrade	-14.4418
▁dibromomethane	-14.442
▁recovering	-14.4421
pyruvate	-14.4422
▁camphor	-14.4422
▁solubilize	-14.4423
▁Tube	-14.4423
▁Pivaloyl	-14.4424
OAC	-14.4431
butoxyacetate	-14.4431
▁stages	-14.4433
hydroxypropanoyl	-14.4435
heptamethyl	-14.4436
▁cinnamate	-14.4436
anisyl	-14.4437
methylbutanamide	-14.4438
methoxypyrazine	-14.4438
▁caution	-14.4445
pentylsulfonyl	-14.4446
phenoxyphenoxy	-14.4448
hexadiene	-14.4451
ACA	-14.4455
ay	-14.4459
yloxyphenyl	-14.4464
ethen	-14.4465
▁tray	-14.4465
DAB	-14.4466
biscarbamate	-14.4471
head	-14.4471
hydroborate	-14.4473
▁Rotation	-14.448
▁Weinreb	-14.448
▁microanalysis	-14.448
res	-14.448
▁absorptions	-14.4484
▁Rac	-14.4484
Strem	-14.4489
benzenemethanol	-14.4489
Dowex	-14.449
dimethylpyrrole	-14.449
onium	-14.449
▁(+/-)-	-14.4493
▁SD	-14.4508
▁failed	-14.451
▁venting	-14.4511
dibenzylidine	-14.4512
▁appear	-14.4516
▁usually	-14.4522
▁reactive	-14.4524
▁silic	-14.4525
▁Fuji	-14.4531
▁bromination	-14.4531
trimethylbenzoyl	-14.4531
trihydro	-14.4531
ier	-14.4532
DE	-14.4533
propargylamine	-14.4534
trimethoxysilyl	-14.4535
▁SiCH	-14.4535
ethylpyrrolidin	-14.4538
▁trichloromethyl	-14.454
isoleucyl	-14.454
▁substantial	-14.4541
iminium	-14.4541
▁titurated	-14.4541
methylpropanal	-14.4541
dihydropyran	-14.4547
▁Type	-14.4547
Bromopyridine	-14.4547
ge	-14.4549
▁Nuclear	-14.455
glyoxylic	-14.4552
cyclopentylidene	-14.4557
▁representing	-14.4558
oxobutyric	-14.4559
ethylthiazol	-14.456
Cyanomethyl	-14.4562
▁NCO	-14.4564
hydroxyaniline	-14.4572
▁chromatograpy	-14.4572
▁dibenzylamine	-14.4573
▁Prepare	-14.4577
HCOOH	-14.4582
▁coming	-14.4583
thienylacetamido	-14.4589
▁dehydrating	-14.4589
▁undergo	-14.459
▁Green	-14.4594
▁PMA	-14.4595
Bromoethyl	-14.4597
dimorpholino	-14.4597
azaindol	-14.4599
▁intensive	-14.4603
cinnamamide	-14.4603
US	-14.4606
mesyloxy	-14.4611
Lit	-14.4616
▁organo	-14.4618
▁TIPS	-14.4619
▁Ion	-14.4622
difluoropropyl	-14.4622
penicillani	-14.4623
VE	-14.4628
pack	-14.4629
▁Tributyl	-14.4633
▁ensued	-14.4634
▁freezing	-14.4634
Alanine	-14.4635
benzenedimethan	-14.4635
▁Discover	-14.4637
methylcarbamic	-14.4638
acetylpiperazine	-14.4639
etherate	-14.4641
bromohexanoate	-14.4642
▁purif	-14.4645
ethylethylketone	-14.4645
chlorotoluene	-14.4649
pyrane	-14.465
tetradecanoyl	-14.4651
Optical	-14.4656
conversion	-14.4656
METHANOL	-14.4656
▁vent	-14.4658
oxohexan	-14.466
▁Research	-14.466
carbonylbis	-14.4664
oestra	-14.4672
phenylsulfinyl	-14.4672
methylethenyl	-14.4673
decanoyl	-14.4674
isobutyramido	-14.4674
uitably	-14.4688
dichloroacetone	-14.4689
▁oleic	-14.4689
DC	-14.4691
aminohexyl	-14.4694
boratricyclo	-14.4697
▁coumarin	-14.4697
malonaldehyde	-14.4697
▁faintly	-14.4697
aminonaphthalene	-14.47
oxocyclopentyl	-14.4709
phenylmethanone	-14.4713
chlorothiazole	-14.4713
▁dibenzoate	-14.4715
ry	-14.4718
jet	-14.4721
iethylethanamine	-14.4722
separation	-14.4723
Org	-14.4723
Harom	-14.4727
eno	-14.4727
hexanediol	-14.4728
▁Oxygen	-14.4728
▁guard	-14.4729
▁semisaturated	-14.4732
▁equi	-14.4733
▁regular	-14.4734
▁distillated	-14.4736
octyne	-14.4737
ell	-14.4737
▁El	-14.4741
benzothiopyran	-14.4744
thiocarbamate	-14.4745
Imidazo	-14.4746
▁chlorination	-14.4748
▁pivaloyloxy	-14.4754
aminopyrrolo	-14.4757
▁subsurface	-14.4757
also	-14.4757
OpenLynx	-14.476
▁relatively	-14.4761
▁exothermed	-14.4763
▁homogenized	-14.4766
phenoxybenzene	-14.4773
methylsulphinyl	-14.4775
▁ethylamide	-14.4778
▁treatments	-14.478
carboxypentyl	-14.4783
▁sp	-14.4786
bromomethylene	-14.4787
Diaion	-14.479
▁Recovered	-14.4792
Methylpiperazine	-14.4794
aminopropionate	-14.4794
napthalene	-14.4794
ea	-14.4795
methylpropene	-14.4798
▁consist	-14.4798
▁Indole	-14.4798
▁Hoveyda	-14.48
ABX	-14.4801
octyloxyphenyl	-14.4809
▁ph	-14.4809
nicotine	-14.481
▁prewashed	-14.481
fumarate	-14.4813
rn	-14.4819
OCHF	-14.4822
▁Fifty	-14.4823
▁Intelliflash	-14.4823
▁ceric	-14.4823
▁brick	-14.4824
norleucine	-14.4824
bromohexyl	-14.4826
methylethylidene	-14.4827
▁walls	-14.4829
▁Precursor	-14.4829
▁mesityl	-14.483
EST	-14.4833
glucopyranos	-14.4837
AM	-14.4839
ride	-14.484
▁Sn	-14.4842
disilane	-14.4844
dioxobenzo	-14.4847
ethenesulfonyl	-14.485
ethylhexanol	-14.4853
▁Detected	-14.4855
▁Germany	-14.4855
▁TMSCHN	-14.4855
▁Poured	-14.4856
benzazocine	-14.4856
▁sides	-14.4857
modified	-14.4859
peroxy	-14.4861
AL	-14.4866
▁pocket	-14.4868
Kg	-14.4871
lation	-14.4872
▁thioacetamide	-14.4872
heptanone	-14.4877
▁ran	-14.4881
Methylene	-14.4882
ethynylpyridine	-14.4883
chlorobenzyloxy	-14.4884
▁Normal	-14.4886
▁need	-14.4888
▁Said	-14.4888
phenylbenzene	-14.4888
▁decomposes	-14.4889
▁sucrose	-14.4889
vii	-14.4889
ClFNO	-14.4893
▁improve	-14.4894
insoluble	-14.4894
pyridylamino	-14.4898
tet	-14.4898
inner	-14.4902
▁dibromoethane	-14.4909
ue	-14.4917
Rainin	-14.4919
▁Rotary	-14.4919
phosphonoalkyl	-14.4919
▁rotoevaporated	-14.4919
isoglutamine	-14.492
▁exceeded	-14.4921
▁PG	-14.4922
dimethylpyrazolo	-14.4923
amid	-14.4923
ethanimidamide	-14.4923
pyridylthio	-14.4925
equipped	-14.4928
checked	-14.4928
fluoroazetidine	-14.4928
ArOCH	-14.4929
▁dired	-14.4929
phenoxyl	-14.493
oxobutanoyl	-14.4932
▁(.+-.)-	-14.4933
▁embodiments	-14.4933
▁purposes	-14.494
Oxa	-14.494
inch	-14.4946
methylcyclopent	-14.4948
▁Catalytic	-14.4951
▁body	-14.4951
▁desalted	-14.4951
indolylcarbonyl	-14.4952
▁dibasic	-14.4954
▁Here	-14.4957
▁acetamidine	-14.4958
▁reveal	-14.4959
▁theor	-14.4959
resistant	-14.4959
phenylphenol	-14.496
benzy	-14.496
TMEDA	-14.4962
phenylisoxazol	-14.4967
▁spontaneous	-14.4969
SI	-14.4969
pen	-14.4974
▁Hi	-14.4975
▁benzylester	-14.4975
▁counter	-14.4977
dimethoxybenzo	-14.4979
▁BSA	-14.4982
dimethoxypyridin	-14.4983
▁KCl	-14.4984
butylsulfanyl	-14.4985
hexopyranosyl	-14.4985
cyclopentadecine	-14.4985
▁Reg	-14.499
▁measurements	-14.5003
▁MgBr	-14.5005
proton	-14.5006
ureidomethyl	-14.5006
trifluorophenoxy	-14.5008
▁going	-14.5012
methylated	-14.5013
triphosphinane	-14.5016
▁Specifically	-14.5016
▁Iodoethane	-14.5016
caproic	-14.502
aminoquinolin	-14.5025
▁cdc	-14.5034
▁semicarbazone	-14.5035
nitropropane	-14.5036
▁Amount	-14.5036
methylphosphonic	-14.5036
▁collidine	-14.504
CHPh	-14.5041
Cr	-14.5043
dihydrooxazol	-14.5047
ribose	-14.5047
▁chromatotron	-14.5048
▁scraped	-14.5049
▁reprecipitation	-14.5049
▁phthalate	-14.505
TE	-14.5051
▁spent	-14.5051
▁MeSO	-14.5061
▁resonances	-14.5069
▁isopropanolic	-14.5072
nitroanilino	-14.5072
▁elementar	-14.5075
pentylamine	-14.508
emaining	-14.508
asparagine	-14.5081
tribenzyloxy	-14.5081
▁limited	-14.5081
oxoindoline	-14.5082
▁XV	-14.5083
▁cinnamyl	-14.5095
sulfonylphenyl	-14.5095
▁TO	-14.5102
SE	-14.5102
are	-14.5103
phenylazetidin	-14.5107
trifluoroacetone	-14.511
Ind	-14.5111
OK	-14.5113
▁manual	-14.5114
▁pestle	-14.5114
▁overlap	-14.5114
▁alloy	-14.5114
uinoline	-14.5114
▁iPrMgCl	-14.5114
▁BIOTAGE	-14.5122
isonipecotic	-14.5122
NHCl	-14.5125
issolving	-14.5127
Conditions	-14.5129
ylideneamino	-14.5131
iodobenzamide	-14.5132
reversed	-14.5134
phenylimidazole	-14.5137
ff	-14.5139
pentafluoropent	-14.5142
sulpho	-14.5143
dark	-14.5144
▁particular	-14.5146
▁drybox	-14.5148
▁presumed	-14.515
▁phenyltrimethyl	-14.5151
Trifluoromethane	-14.5153
SB	-14.5154
▁activation	-14.5155
oxocyclohex	-14.5158
▁dip	-14.5159
piperidyloxy	-14.5159
aqeous	-14.5162
ei	-14.5167
hexoxy	-14.5167
De	-14.5171
ist	-14.5176
androstene	-14.5177
▁Guard	-14.5179
▁pmr	-14.518
▁lastly	-14.518
trideoxy	-14.5182
tetradec	-14.5182
▁elut	-14.5182
Rink	-14.5184
naphtyl	-14.519
▁cartridges	-14.519
TF	-14.519
▁gallon	-14.5193
XVIII	-14.5195
Naphthalen	-14.5199
methylolpropane	-14.5202
Carboxylic	-14.5205
chol	-14.5206
equilibrated	-14.5206
celite	-14.5207
▁azodi	-14.5211
▁rapamycin	-14.5212
qu	-14.5212
nitrobenzenamine	-14.5212
▁cyclosporin	-14.5212
naphthalocyanine	-14.5212
pressurised	-14.5212
▁matched	-14.5212
coupling	-14.5213
▁perborate	-14.5214
▁Phosphoryl	-14.5214
▁degas	-14.5214
▁analyzing	-14.5214
ipped	-14.5216
ethylimidazo	-14.5224
azole	-14.523
aminobutyrate	-14.5241
diameter	-14.5242
overall	-14.5242
▁Extrelut	-14.5246
▁baseline	-14.5247
Pa	-14.5252
benzothiadiazine	-14.5252
aminopropanol	-14.5256
alkylation	-14.5263
▁isatin	-14.5265
GA	-14.5267
hydroxypyrimidin	-14.5268
stationary	-14.5276
methoxynicotinic	-14.5276
▁stay	-14.5278
▁Spectroscopy	-14.5279
▁stirrable	-14.5279
menthol	-14.5284
▁NaOCH	-14.5287
gluco	-14.5288
dicarbonyl	-14.5292
Naphthalene	-14.5293
lieu	-14.5294
▁Bridge	-14.5297
EG	-14.5298
propylbenzene	-14.53
arene	-14.53
▁bistri	-14.53
ano	-14.5302
chalcone	-14.5304
chloronicotinoyl	-14.5304
dibromohexane	-14.5304
PtBu	-14.5311
▁Small	-14.5311
▁certain	-14.5312
tolunitrile	-14.5312
Trade	-14.5312
▁recombined	-14.5313
diazoniabicyclo	-14.5313
yellowish	-14.5314
dipyridin	-14.5316
Pyrimidin	-14.5318
peptide	-14.5318
▁Sieves	-14.5319
imi	-14.5321
▁thioether	-14.5324
propioli	-14.5326
▁dish	-14.5326
▁alternating	-14.5328
trifluorobutyl	-14.5331
hyd	-14.5338
lane	-14.5339
val	-14.534
diaminodiphenyl	-14.5343
PPTS	-14.5343
times	-14.5344
hydrous	-14.5344
lan	-14.5345
CAUTION	-14.5346
▁ACID	-14.5346
thiazolidinone	-14.5346
phosphoramidate	-14.5349
heptenoate	-14.535
ies	-14.5354
▁FeSO	-14.5354
▁cps	-14.5356
▁solidification	-14.5358
azobenzene	-14.5359
chloropyrid	-14.5359
han	-14.536
bromopentyl	-14.5362
pe	-14.5362
phenolato	-14.5365
diformyl	-14.5368
Benzofuran	-14.5368
pinacol	-14.5371
▁Ann	-14.5374
spt	-14.5376
iminodi	-14.5377
▁oxazolidinone	-14.5379
▁specified	-14.5379
isopropoxide	-14.5381
▁Calcium	-14.5383
Stage	-14.5385
▁confirms	-14.5386
▁distil	-14.5387
▁Benzo	-14.5389
▁isocyanoacetate	-14.5398
AlCl	-14.5402
▁Amer	-14.5402
sulf	-14.5403
▁disolved	-14.541
▁ethanolate	-14.5411
mannopyranosyl	-14.5412
▁Seed	-14.5413
▁claim	-14.5413
▁compatible	-14.5413
▁electrode	-14.5413
▁transferring	-14.5413
▁onset	-14.5414
dithiolan	-14.5415
▁constantly	-14.5416
fi	-14.5419
▁stearic	-14.5422
atmospheric	-14.5422
glutarate	-14.5423
end	-14.5427
▁reparatory	-14.5434
trimethylpentan	-14.5434
tetramethylbutyl	-14.5436
etraphenylborate	-14.5438
▁generating	-14.5447
▁decompressed	-14.5447
▁deuterium	-14.5449
▁sets	-14.5451
then	-14.5455
propylbenzyl	-14.5458
acetylacetonate	-14.5458
triazolyl	-14.546
sealed	-14.5469
▁phenylamide	-14.5473
ho	-14.5478
▁stopcock	-14.548
▁detailed	-14.5481
night	-14.5481
isobutoxyphenyl	-14.5482
bb	-14.5482
bromoisoquinolin	-14.5485
benzofur	-14.5491
flavone	-14.5492
azacyclododecane	-14.5492
triethylsilane	-14.5495
Sodium	-14.5496
▁anomers	-14.5497
ESIpos	-14.5499
Dichloromethane	-14.5502
cyclohexylpropyl	-14.5504
metho	-14.5505
mo	-14.5506
propoxycarbonyl	-14.5509
oxygenated	-14.5512
▁Sulfuryl	-14.5514
▁increases	-14.5515
phenoxypyridin	-14.5515
▁camptothecin	-14.5518
oxoazepan	-14.5522
such	-14.5527
pyrazinone	-14.553
named	-14.553
ethanedithiol	-14.553
oxazolone	-14.5531
cyanopyrimidin	-14.5531
▁vanadium	-14.5535
▁TCI	-14.5537
▁methionine	-14.5538
CEM	-14.5539
agnetic	-14.5541
sample	-14.5541
gassing	-14.5544
dioxaborolanyl	-14.5546
▁Fresh	-14.5548
▁cylindrical	-14.5549
characterisation	-14.5549
mesoDAP	-14.5549
butylbenzoyl	-14.5552
▁neg	-14.5552
▁filler	-14.5553
▁auto	-14.5555
▁SiOH	-14.5556
con	-14.5557
oxyacetic	-14.5565
▁Het	-14.5566
▁Pyrex	-14.5567
developed	-14.5567
chlorospiro	-14.557
APM	-14.5572
methoxybenzamido	-14.5572
▁protein	-14.5573
slightly	-14.5574
round	-14.5577
uro	-14.5582
▁glassware	-14.5583
tetranor	-14.5584
triazinane	-14.5585
▁petroleumether	-14.5585
trace	-14.5586
trimethylphenol	-14.5588
propylpyrimidin	-14.5593
methylbicyclo	-14.5598
DEAD	-14.5606
AF	-14.5607
▁fit	-14.5608
norbornyl	-14.5609
valinyl	-14.5611
▁pip	-14.5612
methylstyrene	-14.5613
▁solvated	-14.5614
phenoxazin	-14.5616
tridecane	-14.5616
▁instantly	-14.5617
Valine	-14.5618
POCl	-14.5619
▁operat	-14.5619
Fluoren	-14.562
▁Back	-14.562
anhyd	-14.5621
thiobis	-14.5622
aminopentyl	-14.5624
bromonicotinic	-14.5624
▁wide	-14.5631
TR	-14.5632
=(−)	-14.5633
hydroxyadamantan	-14.5635
Phenethyl	-14.5638
Xantphos	-14.5641
nitroethylene	-14.5642
Ether	-14.5642
EO	-14.5646
methylphosphoric	-14.5649
plenty	-14.5652
acryl	-14.5653
▁PLC	-14.5654
pyridinemethanol	-14.5654
trienoic	-14.5657
▁aquous	-14.5657
nonaen	-14.5658
fluoroazetidin	-14.5659
▁practical	-14.566
butylperoxy	-14.566
PD	-14.5663
▁CDCL	-14.5664
▁sharp	-14.5668
▁AK	-14.5669
▁ST	-14.5674
▁hydroxami	-14.568
▁monobenzyl	-14.5684
tetrachloride	-14.5684
aminocyclobutyl	-14.5685
▁basification	-14.5686
▁mildly	-14.5687
ari	-14.5688
▁Iodide	-14.5688
▁whereas	-14.569
tetracosa	-14.5696
quinuclidinol	-14.5696
▁salted	-14.5697
MeLeu	-14.5705
olide	-14.5705
▁microL	-14.5709
bromobenzofuran	-14.571
▁tautomers	-14.5711
OBz	-14.5713
▁catalog	-14.5715
rotary	-14.5715
slurry	-14.5715
naphthal	-14.5716
▁terephthalate	-14.5717
▁DEPT	-14.5717
▁Aromatic	-14.572
▁vortexed	-14.5721
▁Repeated	-14.5721
▁diluent	-14.5721
hold	-14.5721
Piperidine	-14.5722
▁sought	-14.5722
▁cleaned	-14.5724
▁Benzenesulfonyl	-14.5727
XIX	-14.5732
Chloroform	-14.5733
ric	-14.5734
inyl	-14.5738
methylbenzamido	-14.574
▁Film	-14.5741
ian	-14.5743
▁indenyl	-14.5744
▁Monomer	-14.5745
dodecanoyl	-14.5746
▁Ta	-14.5747
complete	-14.5748
ynoyl	-14.5753
clear	-14.5753
▁mixure	-14.5756
mercaptophenol	-14.5757
isopropylidenedi	-14.5757
Naphthyl	-14.5758
▁inerted	-14.5768
▁Chromolith	-14.5768
▁Hept	-14.5772
▁amido	-14.5772
'-((	-14.5773
diazabenzo	-14.5776
▁opening	-14.5777
formylpyridine	-14.5778
▁hypophosphor	-14.5782
fluorotoluene	-14.5782
▁Fr	-14.5787
oxocyclobutane	-14.5787
trimethylstannan	-14.579
lodo	-14.579
carnitine	-14.5791
dipyrromethane	-14.5791
▁Kagaku	-14.5791
▁sampling	-14.5791
▁stops	-14.5793
▁Novozym	-14.5795
▁fixed	-14.5797
▁manipulation	-14.5801
Dibenzyl	-14.5802
diphenylphosphan	-14.5811
▁leads	-14.5811
▁tautomer	-14.5812
▁funnels	-14.5814
sulfanylphenyl	-14.5815
▁isoprene	-14.582
▁cysteamine	-14.5821
naphthacene	-14.5825
▁must	-14.5826
▁quartz	-14.5826
PHENOMENEX	-14.5827
▁allylbromide	-14.5827
corr	-14.5829
▁HONB	-14.5831
▁Strata	-14.5833
▁phosphoramidite	-14.5834
▁attempt	-14.5836
benzyloxyethyl	-14.5839
▁functionalized	-14.5845
valeryl	-14.5845
▁dean	-14.5847
CT	-14.5853
▁arm	-14.5856
trityloxymethyl	-14.5857
heptanedione	-14.5862
▁Moreover	-14.5862
borontrifluoride	-14.5863
▁externally	-14.5863
methyloctahydro	-14.5864
propion	-14.5866
hexadecane	-14.5871
▁Haro	-14.5875
▁CHIRALCEL	-14.588
▁Take	-14.5882
Ag	-14.5886
allyloxyimino	-14.5887
DBT	-14.5891
diethoxyethane	-14.5895
▁Cartridge	-14.5896
▁duration	-14.5896
VA	-14.5897
methoxyazetidin	-14.5898
▁Accordingly	-14.5899
▁phenacyl	-14.5899
▁PP	-14.5901
▁RPM	-14.5908
▁PYBOP	-14.5908
][[	-14.5913
where	-14.5915
trifluro	-14.592
pivalamido	-14.5921
▁chlor	-14.5921
bromopentane	-14.5925
IF	-14.5927
dimethylpyrazol	-14.5927
isobutyryloxy	-14.5927
▁thioamide	-14.5929
▁assembly	-14.5932
▁fell	-14.5932
alaninyl	-14.5937
▁CG	-14.5939
Fluor	-14.594
DIBAL	-14.5941
▁strip	-14.5943
▁diimide	-14.5943
nitrophenethyl	-14.5944
nitroxy	-14.5947
NHC	-14.5948
▁Mark	-14.5948
siloxy	-14.5949
dihydrothiazolo	-14.5949
bromopropanoate	-14.5952
▁pretreated	-14.5952
▁NHCO	-14.5952
aminocyclopropyl	-14.5966
▁suspend	-14.5967
Clopidogrel	-14.5968
▁installed	-14.5968
▁vary	-14.5969
▁rotovaped	-14.5969
hexadecanoic	-14.5969
▁Due	-14.5969
ap	-14.597
▁LiN	-14.597
▁walled	-14.5971
▁sulphonate	-14.5987
cyanobenzoate	-14.5989
ial	-14.5996
enetriamine	-14.5996
ator	-14.5996
oxybis	-14.6
butyrophenone	-14.6002
trifluorobutan	-14.6003
azidobenzyl	-14.6003
drift	-14.6003
▁epibromohydrin	-14.6003
▁octahydrate	-14.6003
▁letting	-14.6003
SCH	-14.6004
▁tRet	-14.6004
ind	-14.6005
▁dialkylated	-14.6005
furancarboxylic	-14.601
▁Fine	-14.601
HYDROXY	-14.6011
▁aldol	-14.6011
phosphonyl	-14.6011
desmethyl	-14.6012
▁Pos	-14.6012
▁illustrate	-14.6014
dimethoxymethane	-14.6015
octadecane	-14.6016
tlc	-14.6017
present	-14.6017
absorbed	-14.6017
▁gamma	-14.6018
mPEG	-14.602
aminoethanethiol	-14.6023
IPr	-14.6027
hexyne	-14.6027
chlorine	-14.6029
arabino	-14.6035
▁IP	-14.6038
pentafluorophen	-14.6039
▁physico	-14.6039
▁chloral	-14.6039
▁polish	-14.604
nate	-14.6041
carboximidoyl	-14.6041
ethyne	-14.6045
arginyl	-14.6045
▁hydroxamate	-14.6048
phenylpyrrolo	-14.6054
purification	-14.6055
protection	-14.6056
▁litmus	-14.6059
biotin	-14.6059
Bromobenzyl	-14.6059
OSiMe	-14.6064
▁pTSA	-14.6065
▁TSTU	-14.6066
▁continues	-14.6067
diaminophenyl	-14.6071
▁Consequently	-14.6075
▁Resonance	-14.6075
▁IsoleraTM	-14.6075
▁benzine	-14.6075
▁ArC	-14.6077
dimethylhexyl	-14.6082
anthryl	-14.6086
▁Carbonyl	-14.6088
WSC	-14.609
▁magnet	-14.6093
including	-14.6094
trioxane	-14.6095
pyrro	-14.6095
DMTr	-14.6096
JCP	-14.6097
izing	-14.6101
▁LRESI	-14.6101
Carbomethoxy	-14.6106
▁considered	-14.6111
▁colloid	-14.6111
▁Thereupon	-14.6111
oxalamide	-14.6111
▁cleared	-14.6111
methylpentane	-14.6112
▁col	-14.6114
]+(	-14.6115
▁wire	-14.6115
dioate	-14.6117
▁got	-14.6117
▁dimethylsilyl	-14.6118
▁pumping	-14.6121
thiobenzoyl	-14.6123
▁ball	-14.6129
▁ent	-14.6132
SPE	-14.6132
Micromass	-14.6133
followed	-14.6133
bipyrimidinyl	-14.6135
mercaptan	-14.6137
▁PXRD	-14.6138
methoxyethoxyl	-14.6142
nitrobenzoyloxy	-14.6144
pp	-14.6146
▁difference	-14.6147
▁extent	-14.6147
▁triethylborane	-14.6148
▁elapsed	-14.6151
▁wad	-14.6151
iron	-14.6153
methylsilane	-14.6153
drop	-14.6154
▁tk	-14.6154
phosphor	-14.6155
isoquino	-14.6157
▁peroxy	-14.6158
chlorooxoacetate	-14.6158
▁butadiene	-14.6159
anal	-14.616
dibenzothiophen	-14.6161
ani	-14.6162
▁naltrexone	-14.6167
▁rinses	-14.6169
extraction	-14.6172
▁cyclopentanol	-14.6173
phenylbenzyl	-14.6174
▁cracked	-14.6184
▁chomatography	-14.6184
▁olive	-14.6184
heptet	-14.6184
▁decarboxylation	-14.6184
▁CELITETM	-14.6184
▁assume	-14.6185
dimethylglycyl	-14.6186
aminoazetidine	-14.6187
▁equilibrate	-14.6194
▁jet	-14.6194
benzil	-14.6197
tolyloxazol	-14.6199
▁odor	-14.62
▁Hypersil	-14.62
▁maxima	-14.6206
▁Matrix	-14.6209
nitrate	-14.6211
dichloromethyl	-14.6212
ynylamino	-14.6216
▁lauryl	-14.6218
▁ethanedioate	-14.622
▁progressively	-14.622
▁triisopropylsil	-14.6222
methylisothiazol	-14.6224
▁Nmr	-14.6224
▁mgKOH	-14.6228
siloxane	-14.6233
fluorochroman	-14.6235
DP	-14.6236
▁Express	-14.6239
isoquinolinone	-14.6244
decanoate	-14.6244
mesh	-14.6245
chromium	-14.625
grey	-14.625
valeramido	-14.6253
butanesulfonyl	-14.6253
tq	-14.6254
▁cy	-14.6255
imidothioate	-14.6256
SHIMA	-14.6257
▁electromagnetic	-14.6257
▁hydriodide	-14.6257
Iso	-14.6258
bisphosphonate	-14.6261
▁HgCl	-14.6263
choro	-14.6264
▁BP	-14.6268
catechol	-14.6269
▁Tetrahydro	-14.627
▁Ts	-14.627
▁poor	-14.6272
cube	-14.6273
▁But	-14.6273
LV	-14.6275
llowed	-14.6284
▁considerabl	-14.6284
phenylspiro	-14.6288
observed	-14.629
▁identification	-14.6294
▁metering	-14.6294
phenazine	-14.6295
dithiolane	-14.6297
benzena	-14.6298
▁tetraethylene	-14.6299
▁NOE	-14.6301
▁trifluroaceti	-14.6301
iodoanisole	-14.6302
phenylglycinol	-14.6303
▁XX	-14.6305
▁DB	-14.6305
aziridin	-14.6308
ack	-14.6308
dichloropyrido	-14.6308
▁SX	-14.6311
▁chemistry	-14.6311
ou	-14.6312
fluorobenzofuran	-14.6315
▁swollen	-14.6319
hydroxyamine	-14.632
▁baccatin	-14.6327
Diastereomer	-14.6329
ylium	-14.6329
▁newly	-14.6332
Pre	-14.6332
contains	-14.6333
▁lbs	-14.634
PC	-14.6341
NaBH	-14.6341
▁conformers	-14.6343
▁Bi	-14.6357
fl	-14.6361
pentylidene	-14.6362
sulphonamido	-14.6366
Ascentis	-14.6368
▁ultimately	-14.6368
pip	-14.6368
CHIRALPAK	-14.6369
anager	-14.637
indoleacetic	-14.6373
disubstituted	-14.6374
▁useful	-14.6378
Va	-14.6379
Butylamino	-14.6382
mins	-14.6383
FTMS	-14.6386
satd	-14.6399
dihydropyrrole	-14.6402
thianthren	-14.6403
tyrosinate	-14.6405
▁Sweden	-14.6405
▁reservoir	-14.6405
nitroamino	-14.6407
Xbridge	-14.6409
)]:	-14.6414
chromatographic	-14.6416
acetimidoyl	-14.6416
▁impregnated	-14.6425
carboxybenzyl	-14.6427
amic	-14.6432
▁thioester	-14.6433
odichloridate	-14.6433
▁bicarb	-14.6437
hexadec	-14.6439
wards	-14.644
dimethylheptyl	-14.6441
▁codistilled	-14.6443
benzoxepino	-14.6443
CIN	-14.6445
alkene	-14.6449
dimer	-14.6452
BCl	-14.6456
mesitylene	-14.6456
-([(	-14.6462
▁KPa	-14.6466
difluoropropan	-14.6468
ethylhexanoic	-14.6472
TB	-14.6475
▁pro	-14.6476
pine	-14.6476
dex	-14.6477
Anhydro	-14.6478
▁PyBroP	-14.6478
methoxyspiro	-14.6479
triethoxy	-14.6482
crystallised	-14.6483
▁Preferred	-14.6484
▁pTsOH	-14.6485
▁Additionally	-14.6485
Daicel	-14.6488
her	-14.6489
urethane	-14.6489
bromine	-14.6492
methyldisiloxane	-14.6493
pyridazinol	-14.6495
vinblastine	-14.6501
char	-14.6501
phenylpentanoate	-14.6502
tolylthio	-14.6508
▁hydroiodi	-14.651
UITY	-14.6517
▁nonahydrate	-14.6517
▁MPaG	-14.6519
trifluor	-14.6521
▁DIPA	-14.6525
▁Norit	-14.6526
}-[	-14.6526
measured	-14.6529
site	-14.654
androsten	-14.654
▁cyclododecanone	-14.654
hydroxyphosphin	-14.6541
diyn	-14.6542
ration	-14.6545
cyclopropanol	-14.6547
backextracted	-14.6549
palmitoyl	-14.655
[...]
