<unk>	0
<s>	0
</s>	0
▁	-2.69672
.	-2.84579
-	-3.06853
,	-3.10172
1	-3.14334
2	-3.2942
0	-3.31125
▁(	-3.37725
3	-3.60293
4	-3.73653
)	-3.75438
5	-3.7712
▁was	-4.17691
6	-4.18575
7	-4.23687
H	-4.26298
▁and	-4.32754
8	-4.36213
9	-4.61866
),	-4.656
▁of	-4.66638
▁the	-4.74335
▁The	-4.82049
▁with	-4.89416
▁to	-4.92662
▁g	-4.96991
▁mmol	-5.01873
▁in	-5.03752
▁mL	-5.09835
▁a	-5.13347
-(	-5.22976
▁mixture	-5.30247
▁for	-5.36063
▁at	-5.38575
;	-5.4793
▁solution	-5.48782
▁mg	-5.49436
)-	-5.50934
°	-5.53027
▁added	-5.5314
▁C	-5.569
=	-5.65408
m	-5.67476
▁ml	-5.69096
:	-5.74323
▁reaction	-5.78592
yl	-5.8616
%	-5.88802
▁by	-5.89328
▁stirred	-5.8975
/	-5.89891
d	-5.90317
s	-5.91608
]	-5.93432
).	-5.96211
▁J	-5.96558
▁temperature	-6.01904
(	-6.03513
▁Hz	-6.06131
▁water	-6.08725
▁under	-6.12067
▁acid	-6.1404
▁dried	-6.20425
▁were	-6.22279
methyl	-6.23125
▁concentrated	-6.25697
▁as	-6.26544
N	-6.2813
▁room	-6.30205
▁over	-6.30507
▁is	-6.31403
▁then	-6.32473
▁washed	-6.32798
▁acetate	-6.32994
▁ADD	-6.36242
▁ethyl	-6.3668
);	-6.37099
▁organic	-6.42795
▁sodium	-6.435
[	-6.46681
▁solid	-6.47558
M	-6.49493
▁residue	-6.49552
C	-6.5103
▁hours	-6.5774
▁product	-6.59551
▁filtered	-6.60364
▁aqueous	-6.62472
▁h	-6.62858
▁To	-6.66643
▁purified	-6.68351
▁give	-6.70661
▁N	-6.7079
+	-6.72342
S	-6.73249
phenyl	-6.74257
▁A	-6.7608
▁chromatography	-6.76384
▁After	-6.76459
▁extracted	-6.77536
▁pressure	-6.81304
▁chloride	-6.88636
▁reduced	-6.88695
amino	-6.89442
-[	-6.91111
▁m	-6.91264
R	-6.91887
O	-6.94029
▁layer	-6.9621
]-	-6.97296
▁yield	-6.97359
▁dissolved	-6.98568
▁δ	-6.99059
▁min	-7.00041
▁silica	-7.00393
ethyl	-7.00479
▁gel	-7.01104
▁NMR	-7.02854
t	-7.04671
▁an	-7.05936
▁cooled	-7.06382
▁resulting	-7.06669
▁column	-7.07527
▁brine	-7.08156
▁solvent	-7.10158
▁crude	-7.13004
▁sulfate	-7.13838
butyl	-7.13987
▁M	-7.14436
▁combined	-7.14659
▁compound	-7.14779
chloro	-7.16104
▁ether	-7.16229
▁saturated	-7.16684
%)	-7.16957
▁evaporated	-7.1817
▁heated	-7.18358
×	-7.18376
▁oil	-7.19533
▁minutes	-7.20498
▁EtOAc	-7.23559
▁MHz	-7.23752
▁anhydrous	-7.25826
▁obtained	-7.28635
▁from	-7.30104
▁vacuo	-7.31583
%).	-7.32457
▁dichloromethane	-7.33296
z	-7.33593
Cl	-7.3419
a	-7.34566
▁on	-7.3458
▁THF	-7.35951
▁methanol	-7.36191
▁mol	-7.36505
▁removed	-7.40593
▁[	-7.40637
▁yellow	-7.41674
▁stirring	-7.41847
▁white	-7.42631
▁dropwise	-7.45026
▁overnight	-7.46231
▁filtrate	-7.48021
▁which	-7.48308
):	-7.51237
SO	-7.53062
▁diluted	-7.54212
bromo	-7.54283
▁afford	-7.55313
▁phase	-7.55525
b	-7.56304
▁STIR	-7.57286
methoxy	-7.57446
▁CH	-7.58137
▁CONCENTRATE	-7.59516
▁NOACTION	-7.6076
hydroxy	-7.61084
dimethyl	-7.61276
fluoro	-7.61811
▁followed	-7.62714
▁ester	-7.64435
▁Na	-7.65326
▁title	-7.65503
▁YIELD	-7.65639
one	-7.65974
dd	-7.66169
tert	-7.66232
▁vacuum	-7.66949
L	-7.68881
-((	-7.69173
▁eq	-7.70673
carboxylate	-7.71244
▁HCl	-7.71518
oxo	-7.72553
▁MS	-7.72728
▁DCM	-7.73624
▁nitrogen	-7.73949
▁ice	-7.7519
dihydro	-7.75527
▁off	-7.7703
▁hour	-7.7794
▁tert	-7.78245
▁using	-7.78331
▁into	-7.79117
carboxylic	-7.80307
▁DMF	-7.80349
▁μ	-7.80384
pyridin	-7.82823
▁addition	-7.84166
-[(	-7.84416
▁methyl	-7.85247
▁WAS	-7.85488
▁carbonate	-7.85938
▁magnesium	-7.86312
′-	-7.86344
▁separated	-7.86488
▁s	-7.86557
▁−	-7.87159
▁ethanol	-7.8824
trifluoromethyl	-7.90961
SOLUTION	-7.91285
AKE	-7.91308
▁SLN	-7.91689
▁flask	-7.91907
MS	-7.93278
▁toluene	-7.95149
▁further	-7.95335
▁are	-7.95997
▁layers	-7.96118
c	-7.96523
▁filtration	-7.97237
▁allowed	-7.97492
amine	-7.97551
▁suspension	-7.98462
▁pH	-7.98807
tetrahydro	-7.98966
OLL	-7.99085
CH	-7.99166
p	-7.99981
▁tetrahydrofuran	-8.0053
▁hydroxide	-8.00563
▁potassium	-8.00863
▁MeOH	-8.00942
▁reflux	-8.0095
▁treated	-8.01218
▁flash	-8.03839
▁precipitate	-8.04242
▁Example	-8.06882
hexane	-8.07131
pyridine	-8.07894
▁obtain	-8.08558
g	-8.08679
▁material	-8.10589
▁dry	-8.10781
e	-8.11318
br	-8.13488
▁collected	-8.13882
▁HPLC	-8.14008
▁hydrochloric	-8.14086
▁equiv	-8.14549
▁atmosphere	-8.15278
▁hydrochloride	-8.15394
▁through	-8.15406
benzyl	-8.16509
ER	-8.17566
▁d	-8.1839
AY	-8.18396
ECTL	-8.18648
▁poured	-8.1951
▁CDCl	-8.1953
▁MgSO	-8.20662
▁FILTER	-8.21804
▁diethyl	-8.22809
▁this	-8.23684
ESI	-8.25108
▁hexane	-8.26135
CDCl	-8.26197
▁DRYSOLUTION	-8.26455
▁keep	-8.27355
▁NaHCO	-8.27441
▁quenched	-8.2773
▁hydrogen	-8.28113
▁triethylamine	-8.29276
oxy	-8.2989
▁cooling	-8.29946
▁This	-8.29947
▁PURIFY	-8.30213
▁DMSO	-8.30415
▁purification	-8.30497
▁used	-8.30876
▁acetonitrile	-8.31832
▁methylene	-8.31931
▁chloroform	-8.33013
pyrimidin	-8.331
▁LCMS	-8.33266
E	-8.33678
▁bath	-8.35256
▁RT	-8.35764
▁ambient	-8.37062
carbonyl	-8.37158
CO	-8.37645
bis	-8.37928
}-	-8.38032
propyl	-8.39128
▁colorless	-8.39313
methanol	-8.39498
▁bicarbonate	-8.40022
}	-8.4019
NMR	-8.40429
▁acetic	-8.43004
▁step	-8.43039
l	-8.44166
Hz	-8.4455
▁rt	-8.44702
imethylformamide	-8.45086
▁distilled	-8.45904
▁SETTEMPERATURE	-8.46171
▁Then	-8.46379
▁eluting	-8.47634
▁x	-8.49118
▁about	-8.49389
ol	-8.4943
D	-8.49619
piperidine	-8.49845
▁slowly	-8.49881
▁dryness	-8.50171
▁L	-8.51177
▁after	-8.51456
ethoxy	-8.53792
▁LC	-8.5395
▁salt	-8.54246
▁desired	-8.54531
-{	-8.55469
▁times	-8.55545
▁Step	-8.5612
▁without	-8.56952
▁crystals	-8.57163
▁EXTRACT	-8.57807
▁that	-8.58704
▁argon	-8.58754
▁found	-8.58927
▁NH	-8.5895
▁containing	-8.59502
▁ppm	-8.59716
▁hr	-8.60342
▁extracts	-8.60937
nitro	-8.60974
▁NaOH	-8.61956
water	-8.62108
α	-8.63516
▁prepared	-8.63941
di	-8.64654
▁gave	-8.64664
▁brown	-8.65172
▁B	-8.65377
benzo	-8.67194
Na	-8.67477
▁refluxed	-8.68623
▁gradient	-8.68679
▁up	-8.68866
▁ammonium	-8.69421
▁mole	-8.69577
n	-8.69786
▁three	-8.70205
piperidin	-8.70258
▁provide	-8.70258
−	-8.70554
▁time	-8.70915
▁between	-8.71406
pyrazol	-8.71811
▁charged	-8.72808
carboxamide	-8.72964
pyrimidine	-8.74084
fluorophenyl	-8.74287
▁Pd	-8.74456
DMSO	-8.75487
▁t	-8.75804
▁TFA	-8.76791
▁TLC	-8.77185
▁until	-8.77336
▁n	-8.77754
▁hexanes	-8.78264
cyclopropyl	-8.79675
dichloro	-8.80781
▁acetone	-8.81145
▁next	-8.81423
EtOAc	-8.82846
A	-8.82955
▁pale	-8.83316
▁cm	-8.83504
F	-8.84567
dimethylamino	-8.84628
▁phases	-8.84718
▁powder	-8.84802
pyrrolo	-8.85118
▁completion	-8.8558
▁twice	-8.85658
][	-8.85885
▁it	-8.85986
▁above	-8.86243
▁partitioned	-8.86506
v	-8.87217
▁In	-8.87826
MeOH	-8.87934
▁light	-8.88287
▁thereto	-8.8847
▁hydride	-8.88504
▁additional	-8.88644
benzyloxy	-8.88999
cyano	-8.89197
▁round	-8.89314
▁taken	-8.89357
acetic	-8.89891
butoxycarbonyl	-8.89913
tri	-8.90375
'-	-8.91528
carbamate	-8.91854
▁K	-8.92304
▁dioxane	-8.92417
▁resultant	-8.93088
MgSO	-8.93818
▁described	-8.93887
q	-8.93935
difluoro	-8.94445
▁liquid	-8.95115
OWOTHERPROCEDURE	-8.95461
mol	-8.95817
▁recrystallized	-8.96263
phenoxy	-8.96518
]+.	-8.96663
▁mp	-8.9767
▁fractions	-8.97941
▁pyridine	-8.97949
▁warm	-8.98
▁stir	-8.98764
▁warmed	-8.99047
▁one	-8.99868
▁two	-8.99988
▁complete	-9.0037
▁Et	-9.0048
′,	-9.00679
▁Yield	-9.00829
▁evaporation	-9.00936
▁bromide	-9.01993
▁pure	-9.02165
▁while	-9.02479
hexanes	-9.03
▁mixed	-9.03287
benzene	-9.03297
▁aq	-9.03606
▁via	-9.03646
]+	-9.04
pyrrolidine	-9.04044
silica	-9.04058
ES	-9.04085
▁extract	-9.04389
imidazo	-9.04394
tetramethyl	-9.04471
acetyl	-9.04614
o	-9.04886
isopropyl	-9.05065
▁acidified	-9.05074
chlorophenyl	-9.05138
▁preparative	-9.05524
▁mm	-9.05585
▁suspended	-9.06429
acetate	-9.06497
methoxyphenyl	-9.06628
benzoic	-9.08105
sulfonyl	-9.08725
phenylphosphine	-9.08968
indole	-9.0948
cyclohexyl	-9.09944
OH	-9.10758
'	-9.10941
▁Water	-9.11065
pyrazolo	-9.12051
▁precipitated	-9.12796
▁eluent	-9.13554
en	-9.13887
▁iodide	-9.13959
J	-9.13982
▁lithium	-9.14004
▁same	-9.14475
indol	-9.14746
▁placed	-9.15438
biphenyl	-9.15453
▁mmole	-9.1546
)+.	-9.15602
piperazine	-9.1577
▁chromatographed	-9.16367
▁palladium	-9.16517
▁starting	-9.17039
▁subjected	-9.18175
dione	-9.18563
P	-9.18775
iodo	-9.19018
ylmethyl	-9.1943
acetamide	-9.19566
▁gas	-9.19654
dioxane	-9.1985
▁remove	-9.19935
ml	-9.20371
imidazol	-9.20383
▁out	-9.20662
▁purity	-9.22033
II	-9.22316
▁procedure	-9.22618
▁cold	-9.23119
▁adjusted	-9.23453
▁anhydride	-9.23507
▁isolated	-9.23673
▁eluted	-9.23755
pyrrolidin	-9.23794
▁p	-9.239
▁EtOH	-9.23923
▁continued	-9.24074
▁afforded	-9.24333
▁formed	-9.24815
h	-9.24889
white	-9.25539
▁hrs	-9.25734
I	-9.25827
B	-9.2608
▁microwave	-9.26273
pyrazole	-9.26758
▁portion	-9.26982
min	-9.26985
yloxy	-9.27657
▁carbon	-9.28149
▁amount	-9.28157
▁di	-9.28317
▁calcd	-9.28422
pyran	-9.2893
▁point	-9.29433
▁r	-9.30089
▁sulphate	-9.30327
▁mass	-9.30648
▁cool	-9.30658
▁Purification	-9.30926
▁grams	-9.31326
▁portions	-9.31586
amide	-9.31617
thiazol	-9.31696
▁Found	-9.31796
′	-9.31958
CN	-9.32885
piperazin	-9.33838
▁funnel	-9.33994
mL	-9.34322
▁sat	-9.34661
+)	-9.35016
Chloro	-9.35373
trifluoro	-9.35548
f	-9.36028
▁clear	-9.36595
▁days	-9.37564
▁drying	-9.38014
ed	-9.38328
▁solids	-9.39164
▁filter	-9.39239
▁trifluoroacetic	-9.39303
▁alcohol	-9.3933
▁equipped	-9.39573
sulfonamide	-9.39981
▁before	-9.40121
▁period	-9.40563
benzaldehyde	-9.40936
palladium	-9.41622
quinolin	-9.41799
▁triturated	-9.41865
▁Rf	-9.42526
▁parts	-9.43141
▁F	-9.43545
benzoate	-9.44128
▁unknown	-9.44178
quinoline	-9.44893
▁Celite	-9.4493
▁REFLUX	-9.45104
▁tri	-9.45176
▁catalyst	-9.45203
▁sealed	-9.45563
▁thus	-9.45888
▁analysis	-9.4594
▁tube	-9.45943
▁orange	-9.46291
▁degassed	-9.46698
▁rotary	-9.46896
yield	-9.47004
hydroxymethyl	-9.47004
DCM	-9.47217
▁volume	-9.473
▁ammonia	-9.4766
MH	-9.48118
▁intermediate	-9.48465
dimethoxy	-9.48654
▁heating	-9.49377
thio	-9.49392
▁PH	-9.49494
benzoyl	-9.50109
carbamoyl	-9.50733
thiophene	-9.51146
OD	-9.51333
▁showed	-9.51548
▁slurry	-9.52126
▁reacted	-9.52418
▁benzyl	-9.52527
methylene	-9.52552
▁oily	-9.52645
carbonitrile	-9.52893
▁ESI	-9.52998
-{[	-9.53039
▁extraction	-9.53137
▁onto	-9.53222
methylphenyl	-9.53222
pyridyl	-9.53837
▁reactor	-9.54034
▁distillation	-9.54162
▁celite	-9.54185
benzamide	-9.54191
ene	-9.54492
ethanol	-9.545
▁foam	-9.54774
ing	-9.54796
▁successively	-9.55483
▁bis	-9.55616
▁be	-9.55802
pyrido	-9.55831
▁vial	-9.55893
cyclohexane	-9.56267
▁again	-9.56445
propan	-9.56743
▁It	-9.57087
HPLC	-9.57432
trimethylsilyl	-9.57989
▁FOL	-9.58132
▁W	-9.58649
benzonitrile	-9.58694
▁solvents	-9.58826
▁directly	-9.59255
▁following	-9.60171
▁adding	-9.60672
+).	-9.60896
bs	-9.61068
▁organics	-9.61206
▁form	-9.61538
▁mmoles	-9.61689
aR	-9.62066
▁D	-9.62182
▁Ethyl	-9.62357
in	-9.62505
propionic	-9.62525
ylamino	-9.62656
Bromo	-9.62681
dioxo	-9.6275
▁benzene	-9.62884
▁Sodium	-9.62962
▁vessel	-9.63004
heptane	-9.63302
▁according	-9.64221
▁neutralized	-9.64242
▁kg	-9.6447
i	-9.64714
ic	-9.64944
▁maintained	-9.64955
▁down	-9.64958
▁Compound	-9.651
▁reverse	-9.65645
▁bottom	-9.66401
▁CHCl	-9.66419
▁crystallized	-9.66558
▁had	-9.66796
nitrophenyl	-9.67111
▁NaCl	-9.67479
imidazole	-9.6778
▁Ar	-9.67858
▁pad	-9.68039
▁DIPEA	-9.68187
′-(	-9.68702
diamine	-9.68836
▁heptane	-9.69008
eluent	-9.69292
▁being	-9.69426
r	-9.69534
▁calculated	-9.69691
▁excess	-9.69746
ppm	-9.70394
▁another	-9.70767
ethylamine	-9.71513
x	-9.71606
▁stirrer	-9.72036
acetone	-9.72427
trimethyl	-9.72553
▁re	-9.72723
▁dark	-9.72815
▁dimethyl	-9.72826
▁drop	-9.73602
▁purged	-9.73661
▁below	-9.7383
-(((	-9.73894
trans	-9.73989
▁melting	-9.74024
w	-9.74121
▁diisopropyl	-9.74198
▁concentration	-9.74869
dioxaborolan	-9.75203
▁manner	-9.7533
prop	-9.75458
▁small	-9.75693
benzofuran	-9.76491
▁crystalline	-9.7673
spiro	-9.77642
▁high	-9.77734
▁example	-9.7789
ly	-9.77985
triazol	-9.78354
▁condenser	-9.81048
▁petroleum	-9.81146
dichloromethane	-9.81292
vinyl	-9.81688
▁IR	-9.81733
▁system	-9.81833
▁nm	-9.82096
▁or	-9.8299
Amino	-9.83267
▁HRMS	-9.83479
▁v	-9.83815
▁left	-9.83874
propanol	-9.84246
methoxycarbonyl	-9.84962
acetonitrile	-9.85002
▁carried	-9.85183
phenol	-9.85381
methylsulfonyl	-9.85567
▁Anal	-9.85796
ecrystallization	-9.86798
aniline	-9.86933
necked	-9.87142
mmol	-9.8737
▁moles	-9.87455
▁evaporator	-9.87565
▁spectrum	-9.87601
SiO	-9.87699
▁PHASESEPARATION	-9.87701
butoxy	-9.8792
-[[	-9.88049
naphthalen	-9.88085
aS	-9.88534
y	-9.89034
▁Calcd	-9.89071
AIT	-9.8909
methylthio	-9.89127
petroleum	-9.89155
Example	-9.89187
cyclopentyl	-9.89359
▁once	-9.89496
carbodiimide	-9.90663
pyrazin	-9.90893
▁monitored	-9.91051
▁during	-9.91208
▁DRYSOLID	-9.91276
▁I	-9.91322
▁method	-9.91642
formyl	-9.9171
ethanone	-9.91795
Methyl	-9.92484
al	-9.92706
cyclopropane	-9.92978
▁Rt	-9.93334
▁base	-9.93641
▁yielding	-9.93657
▁hot	-9.93868
carbamic	-9.94099
LLI	-9.94242
YSTA	-9.94247
ECR	-9.94282
▁trans	-9.9443
ddd	-9.94627
furan	-9.94635
▁washing	-9.94895
u	-9.95052
hydroxyphenyl	-9.95494
oxa	-9.95572
▁rate	-9.95684
▁cake	-9.95957
▁An	-9.96156
▁indicated	-9.96533
quinazolin	-9.96749
diphenyl	-9.96979
▁monohydrate	-9.97057
methylamino	-9.97059
▁HATU	-9.97572
diisopropylethyl	-9.97635
▁prep	-9.97742
▁elution	-9.97941
▁weight	-9.98076
▁kept	-9.98139
▁sulfuric	-9.98153
▁[(	-9.98177
Butyl	-9.98305
▁Methyl	-9.98543
boronic	-9.98574
▁borohydride	-9.98629
▁air	-9.98693
▁more	-9.98704
on	-9.98723
cooling	-9.98939
pyrrole	-9.99335
thiazole	-9.9967
▁wt	-9.99743
NH	-9.99773
propoxy	-9.9992
ate	-10.0039
methoxybenzyl	-10.0061
▁sequentially	-10.0063
▁red	-10.0084
triazolo	-10.0126
PPh	-10.0131
▁CD	-10.0145
bottom	-10.0146
▁Into	-10.0148
▁cesium	-10.0158
indazol	-10.0176
▁copper	-10.018
▁dd	-10.0211
▁isopropanol	-10.0212
▁removal	-10.022
hexahydro	-10.0268
▁TEA	-10.0312
▁tetra	-10.0312
dt	-10.0333
▁At	-10.0357
-{[(	-10.0388
▁dilute	-10.039
hydroxyethyl	-10.04
isoquinoline	-10.04
dichlorophenyl	-10.0403
▁mM	-10.0417
▁resin	-10.0442
▁tetrakis	-10.0457
difluorophenyl	-10.0463
naphthalene	-10.0477
Compound	-10.0477
morpholin	-10.0492
pyridazin	-10.0519
carbaldehyde	-10.0523
thiophen	-10.0544
CD	-10.0551
▁subsequently	-10.0576
▁Upon	-10.0611
▁fraction	-10.0621
propane	-10.07
▁bar	-10.0713
▁Under	-10.0718
NO	-10.073
bicyclo	-10.0734
▁transferred	-10.0736
▁each	-10.0741
but	-10.0743
THF	-10.0773
▁Mass	-10.0775
azabicyclo	-10.078
▁P	-10.0784
▁yielded	-10.0812
▁complex	-10.0842
thieno	-10.0859
benzenesulfonyl	-10.0898
▁thionyl	-10.0905
▁citric	-10.0912
▁remaining	-10.0982
propanoate	-10.1058
U	-10.1069
pyrazine	-10.1116
butoxide	-10.1131
ethane	-10.1136
▁NaH	-10.1179
T	-10.1186
▁suction	-10.1197
bromophenyl	-10.1205
prepared	-10.1206
▁vigorously	-10.1212
dihydroxy	-10.123
▁several	-10.1289
▁conditions	-10.1305
ethoxycarbonyl	-10.1316
aminomethyl	-10.1321
▁isopropyl	-10.1328
diethyl	-10.1386
▁MeCN	-10.1396
▁provided	-10.142
bromomethyl	-10.1424
tetrahydrofuran	-10.1426
▁completed	-10.1497
▁volatiles	-10.1504
▁glass	-10.1508
▁amine	-10.1553
▁residual	-10.1555
▁ratio	-10.1559
▁approximately	-10.1559
▁substance	-10.1574
▁colourless	-10.1604
methanesulfonyl	-10.1616
▁rinsed	-10.1631
▁crystal	-10.1644
▁Intermediate	-10.1652
methanone	-10.1659
an	-10.1669
▁conc	-10.1673
oxadiazol	-10.171
▁percent	-10.1714
▁drops	-10.1737
ether	-10.1758
chloromethyl	-10.1774
▁mineral	-10.1782
▁four	-10.1787
▁total	-10.1796
▁oven	-10.1844
▁Preparation	-10.1845
UEN	-10.1859
OAc	-10.1872
aza	-10.1917
▁Solvent	-10.1918
▁DIEA	-10.1935
▁stand	-10.1938
▁basic	-10.1945
▁magnetic	-10.1952
butanol	-10.196
▁sample	-10.1969
dec	-10.1989
▁observed	-10.2011
▁concentrate	-10.2013
methane	-10.2041
cyclopenta	-10.2042
δ	-10.2044
▁tR	-10.2074
chloroform	-10.2137
aq	-10.2143
isoquinolin	-10.2157
▁Reaction	-10.2182
iphenylphosphino	-10.2212
Boc	-10.2249
▁insoluble	-10.2254
Intermediate	-10.2375
oxide	-10.238
▁made	-10.2386
▁acidic	-10.2406
dppf	-10.2484
acetamido	-10.2488
▁neutral	-10.2508
▁calc	-10.2524
toluene	-10.2536
▁giving	-10.255
▁free	-10.2612
tetra	-10.2621
▁viscous	-10.2622
▁aluminum	-10.2627
oxazol	-10.2628
▁first	-10.2641
▁absolute	-10.2646
▁Column	-10.2686
▁INVALIDACTION	-10.2691
▁chloroformate	-10.2698
ethynyl	-10.2715
▁DMAP	-10.2739
▁syringe	-10.2761
▁hydrate	-10.2776
HCl	-10.2814
▁hydrogenated	-10.2841
▁cyclohexane	-10.2858
▁all	-10.2868
pentyl	-10.2878
dibromo	-10.2905
▁gradually	-10.2911
cyclobutyl	-10.2922
▁having	-10.2922
▁conversion	-10.2928
▁flow	-10.2986
▁cartridge	-10.3
▁glacial	-10.3002
▁get	-10.3006
▁EA	-10.3017
brs	-10.3021
▁been	-10.3047
methanesulfonate	-10.3052
urea	-10.3071
PO	-10.3076
▁Method	-10.3092
▁br	-10.3115
▁so	-10.3131
pyrrol	-10.3131
▁passed	-10.3195
▁autoclave	-10.3213
▁equivalents	-10.3214
K	-10.3247
ydrogencarbonate	-10.3272
▁similar	-10.328
neck	-10.3289
▁internal	-10.3298
ine	-10.3335
▁cis	-10.3338
er	-10.3346
▁phosphate	-10.3346
▁hydrazine	-10.3353
▁{	-10.3377
▁no	-10.3431
▁resulted	-10.3432
trifluoromethoxy	-10.3437
azetidin	-10.3449
▁thermometer	-10.3469
or	-10.3475
▁l	-10.348
▁stream	-10.3514
imino	-10.3526
morpholino	-10.3551
▁maintaining	-10.3586
▁retention	-10.3588
benzotriazole	-10.3597
▁basified	-10.3622
RS	-10.3625
%):	-10.3661
▁not	-10.3661
▁separation	-10.3669
Fluoro	-10.3675
▁carefully	-10.3703
×).	-10.3706
naphthyl	-10.372
Br	-10.3728
▁G	-10.3734
]+=	-10.3744
▁presence	-10.3744
▁ES	-10.3745
butyllithium	-10.3754
acetoxy	-10.3758
iso	-10.3769
▁tan	-10.3806
+):	-10.3807
▁back	-10.381
indazole	-10.3819
▁dispersion	-10.3828
▁saline	-10.3845
▁Flash	-10.3861
mg	-10.3914
▁fluoride	-10.3917
▁introduced	-10.3921
hydride	-10.3938
butylammonium	-10.3958
▁psi	-10.3988
▁NaBH	-10.3995
butyldimethylsil	-10.4021
phenylamino	-10.4047
ation	-10.4054
▁w	-10.4058
▁affording	-10.4062
▁thereby	-10.4073
carboxy	-10.4077
▁recovered	-10.4101
▁portionwise	-10.4143
▁amorphous	-10.4147
▁T	-10.4149
ium	-10.4167
▁When	-10.4189
PE	-10.4201
)+:	-10.4201
tolyl	-10.4212
EI	-10.4239
▁thin	-10.4277
triazin	-10.4281
▁confirmed	-10.43
▁theory	-10.432
morpholine	-10.4322
▁Subsequently	-10.4367
▁formic	-10.4373
▁amide	-10.4387
▁oxide	-10.4394
▁inert	-10.4408
Method	-10.4436
▁shaken	-10.4442
▁performed	-10.4459
-[[(	-10.4464
▁mobile	-10.4464
Me	-10.4518
nitrobenzene	-10.4539
diol	-10.4552
propanoic	-10.4607
▁No	-10.4624
V	-10.4628
KBr	-10.4629
compound	-10.4694
▁zinc	-10.4696
▁titled	-10.4698
cis	-10.47
mercapto	-10.4711
ar	-10.479
▁oxalyl	-10.4801
benzimidazol	-10.483
silyl	-10.4847
▁LiOH	-10.4848
as	-10.4867
oxoethyl	-10.4874
▁equivalent	-10.4898
triazole	-10.4903
▁Synthesis	-10.4905
▁medium	-10.494
pyridinyl	-10.497
ferrocene	-10.4986
quinazoline	-10.4992
G	-10.4993
X	-10.4996
▁Thereafter	-10.5025
▁eluant	-10.5038
%;	-10.5039
hexyl	-10.5066
▁gum	-10.5071
allyl	-10.5094
propionate	-10.5133
dried	-10.5144
magnesium	-10.515
MHz	-10.5151
pyridazine	-10.5166
azetidine	-10.5183
Hydroxy	-10.5208
▁such	-10.5228
%);	-10.5236
APCI	-10.5253
▁azide	-10.5259
▁dihydrochloride	-10.5271
▁preparation	-10.5276
TION	-10.5301
▁KOH	-10.5307
methoxymethyl	-10.533
▁night	-10.5364
▁second	-10.5368
▁wise	-10.5391
bottomed	-10.5394
enyl	-10.5402
▁ArH	-10.5409
phosphine	-10.5418
▁isomer	-10.5426
td	-10.5442
▁PARTI	-10.5457
naphthyridin	-10.5476
bath	-10.5483
▁reagent	-10.549
▁Following	-10.5496
▁ca	-10.5502
▁mesh	-10.5509
▁lyophilized	-10.5532
wise	-10.5583
ylamine	-10.5601
methylpyridin	-10.5604
octane	-10.5613
bi	-10.5627
▁general	-10.5655
▁E	-10.567
▁AcOH	-10.568
▁ACN	-10.571
▁triacetoxyboro	-10.5715
TLC	-10.5768
▁contents	-10.5774
dimethoxyphenyl	-10.578
▁ion	-10.5783
▁bubbled	-10.5795
▁standing	-10.5809
▁formula	-10.5824
▁steps	-10.5845
HNMR	-10.5854
▁SiO	-10.5854
up	-10.5866
Ph	-10.5887
',	-10.5889
EA	-10.5893
tetrazol	-10.5909
▁UV	-10.592
▁loaded	-10.5934
▁dropping	-10.5938
dichloroethane	-10.5942
isobutyl	-10.5981
▁Evaporation	-10.6017
de	-10.6023
▁hexa	-10.6033
▁Boc	-10.6074
▁upon	-10.608
▁Chem	-10.6091
ylidene	-10.6099
-{(	-10.6149
▁there	-10.6163
Methoxy	-10.6168
▁tris	-10.6175
▁trifluoro	-10.6192
▁AcOEt	-10.6202
ethylamino	-10.6214
▁pentane	-10.6262
▁Methanol	-10.627
CHCl	-10.6273
dicarboxylate	-10.6276
▁corresponding	-10.6287
▁umol	-10.629
oxazole	-10.6303
piperidinyl	-10.6306
phase	-10.6333
▁Prep	-10.6335
CI	-10.6336
BuLi	-10.6338
purin	-10.6352
▁final	-10.6403
dimethylethyl	-10.6404
▁charcoal	-10.6424
▁converted	-10.6473
▁RP	-10.6477
fluorobenzyl	-10.649
toluenesulfonic	-10.6491
Aldrich	-10.6498
yellow	-10.6535
Yield	-10.6585
▁methoxide	-10.6596
▁X	-10.6602
▁mins	-10.6606
isoxazol	-10.6607
▁plug	-10.6608
▁target	-10.6614
▁mono	-10.6628
dba	-10.663
Et	-10.6635
▁EDC	-10.6641
benzimidazole	-10.6649
chloride	-10.665
▁boiling	-10.6665
▁flushed	-10.6685
butane	-10.6707
▁ketone	-10.6716
▁GC	-10.6748
▁order	-10.6753
▁Reference	-10.6756
RATE	-10.676
ca	-10.6763
▁TRIT	-10.6787
▁uL	-10.68
Si	-10.6815
▁ethylene	-10.6834
▁glycol	-10.6839
▁pre	-10.6871
oct	-10.6879
carboxamido	-10.6885
▁refluxing	-10.689
▁repeated	-10.689
▁structure	-10.6896
azido	-10.6897
▁peroxide	-10.6913
▁Mobile	-10.6928
tetrahydropyran	-10.6931
butyric	-10.6947
cm	-10.6948
-({	-10.6965
▁thick	-10.6977
max	-10.6998
pH	-10.6999
thienyl	-10.7001
▁applied	-10.701
difluoromethyl	-10.7055
▁synthesized	-10.7077
++	-10.7095
▁dichloride	-10.7096
▁de	-10.7103
pent	-10.7111
▁triethyl	-10.7111
▁catalytic	-10.7118
phosphonium	-10.7119
▁color	-10.712
diisopropyl	-10.7138
▁filtrated	-10.7145
ent	-10.7154
hydrazine	-10.7158
▁HOBt	-10.7159
▁mechanical	-10.7163
▁ethylacetate	-10.7167
IR	-10.7178
hept	-10.7182
diamino	-10.7182
▁sulfoxide	-10.7185
pentane	-10.7194
▁activated	-10.7197
▁brought	-10.7212
▁produced	-10.7219
thia	-10.7226
▁Triethylamine	-10.7236
trifluoroacetate	-10.7264
Ethyl	-10.727
▁MTBE	-10.7296
hex	-10.7316
aminophenyl	-10.733
▁yellowish	-10.7356
▁phosphorus	-10.736
▁Organic	-10.7385
▁crystallization	-10.7428
▁Fractions	-10.7436
gradient	-10.7459
inden	-10.7462
ated	-10.7465
methylethyl	-10.7477
phenylboronic	-10.7485
▁vigorous	-10.7487
▁i	-10.7506
ion	-10.7517
▁became	-10.7539
▁completely	-10.7573
▁fitted	-10.7591
ClN	-10.7608
▁Potassium	-10.7611
▁its	-10.7612
▁Chromatography	-10.7625
▁molecular	-10.7648
triazine	-10.7652
isopropoxy	-10.7655
▁separate	-10.7664
▁nitrite	-10.7674
▁half	-10.768
▁apparatus	-10.7688
octahydro	-10.777
▁separatory	-10.7779
cooled	-10.782
▁PdCl	-10.7823
′),	-10.7827
▁cyanide	-10.7839
methylmorpholine	-10.7856
thiadiazol	-10.7862
at	-10.7864
ylmethoxy	-10.7868
Dimethyl	-10.7872
▁Stirring	-10.7875
▁redissolved	-10.7898
▁finally	-10.7907
)+=	-10.792
carbonylamino	-10.792
sulfamoyl	-10.7923
▁value	-10.7936
]+,	-10.7994
▁beige	-10.801
▁formation	-10.8016
triphenyl	-10.8022
Bu	-10.8025
cold	-10.8032
▁has	-10.8093
▁minute	-10.8098
furo	-10.81
ethoxymethyl	-10.8106
Hexane	-10.8124
▁hydroxylamine	-10.8131
naphthyridine	-10.815
silane	-10.8154
▁whereby	-10.8181
▁raised	-10.8182
dicarboxylic	-10.8183
phenylethyl	-10.8216
LC	-10.8236
azaspiro	-10.8266
methylpropyl	-10.8269
isoxazole	-10.8275
▁allyl	-10.8288
▁decanted	-10.8293
▁produce	-10.8324
propionyl	-10.8325
▁obtaining	-10.8347
▁Cs	-10.8367
▁isocyanate	-10.8377
μ	-10.8386
▁peak	-10.8405
FAB	-10.8413
▁materials	-10.8438
▁vol	-10.8467
▁methanesulfonyl	-10.8482
▁contained	-10.8486
▁within	-10.8493
▁than	-10.8503
▁wet	-10.8539
▁evolution	-10.8552
dioxolan	-10.8556
butan	-10.8565
yn	-10.8595
ylcarbamate	-10.8607
cyanophenyl	-10.8607
methylsulfanyl	-10.8616
sulfanyl	-10.8632
carbon	-10.8636
the	-10.8639
▁expected	-10.864
▁NMP	-10.8651
sodium	-10.8654
'-(	-10.8663
▁react	-10.87
)+;	-10.8702
▁Next	-10.8702
about	-10.8718
dibenzylidene	-10.8722
▁Analysis	-10.8726
aminoethyl	-10.873
method	-10.8752
methanamine	-10.8757
▁any	-10.8766
▁Additional	-10.8766
ammonium	-10.8768
▁content	-10.8778
▁determined	-10.8778
▁inlet	-10.8794
et	-10.8798
▁Phase	-10.8813
is	-10.8817
▁consumed	-10.8827
)+,	-10.8852
▁DEGAS	-10.8868
ice	-10.8877
▁Hg	-10.89
Bis	-10.8903
]+;	-10.8933
methylpiperazin	-10.8942
▁dicarbonate	-10.8966
▁together	-10.8969
azodicarboxylate	-10.8971
▁co	-10.8974
cyclo	-10.8977
▁keeping	-10.8986
piperazinyl	-10.9002
[(	-10.9004
▁gives	-10.9015
piperidyl	-10.9031
diazabicyclo	-10.9033
dicyclohexyl	-10.9044
acetophenone	-10.9046
▁DME	-10.9052
▁slightly	-10.9065
phenylmethyl	-10.9067
k	-10.9088
decane	-10.9113
sulfonic	-10.9132
ynyl	-10.9137
▁boron	-10.9138
from	-10.9145
▁isomers	-10.9155
dimethylphenyl	-10.9156
▁Calc	-10.916
▁cc	-10.9182
▁wash	-10.9203
▁morpholine	-10.9211
it	-10.9213
▁data	-10.9218
acetylamino	-10.9282
fluorophosphate	-10.9286
▁Biotage	-10.9291
mp	-10.9297
▁five	-10.93
isoindol	-10.9305
▁subsequent	-10.932
▁heat	-10.9323
eluting	-10.9339
▁end	-10.935
▁mbar	-10.9355
▁can	-10.9371
▁racemic	-10.9376
dipalladium	-10.9394
▁derivative	-10.9415
nicotinic	-10.9428
▁Silica	-10.9445
dioxide	-10.945
▁quantitative	-10.9475
diisopropylamine	-10.9476
acrylate	-10.9502
▁oxychloride	-10.9519
ureido	-10.9539
▁precipitates	-10.9549
▁analyzed	-10.955
isomer	-10.9554
▁analogous	-10.9555
▁stripped	-10.958
▁Saturated	-10.9596
((	-10.9598
▁Filtration	-10.9602
oxazolidin	-10.9602
▁appropriate	-10.9612
IV	-10.9614
ide	-10.9626
▁requires	-10.964
▁trimethyl	-10.9654
▁agitated	-10.9675
▁Combined	-10.9707
▁black	-10.9714
▁evacuated	-10.9725
▁progress	-10.9727
▁al	-10.9733
broad	-10.974
TFA	-10.9753
acrylic	-10.9777
▁chilled	-10.978
cyanoborohydride	-10.9812
▁Co	-10.9816
hydroxypropyl	-10.9834
trityl	-10.9879
▁Calculated	-10.9881
phosphonate	-10.9881
▁tetrachloride	-10.9884
OCH	-10.9894
▁LRMS	-10.9897
▁liter	-10.9916
ane	-10.9919
dioxol	-10.9924
▁Dean	-10.9928
▁few	-10.9933
▁EDCI	-10.9945
▁bromine	-10.9953
▁synthesis	-10.9977
Stark	-10.9984
▁means	-10.9985
▁well	-10.9999
▁temp	-11.0004
▁q	-11.0013
▁OCH	-11.0018
Dichloro	-11.0022
▁α	-11.0024
▁green	-11.0032
▁solidified	-11.004
▁Further	-11.0067
chlorobenzyl	-11.0077
▁chiral	-11.0083
▁semi	-11.009
▁consumption	-11.009
methyloxy	-11.0092
deoxy	-11.0093
▁Concentration	-11.0108
▁Removal	-11.0112
dimethylsilyloxy	-11.0128
▁single	-11.0158
]+:	-11.0163
oxazin	-11.0168
▁There	-11.0174
carboxaldehyde	-11.0177
cyclopentane	-11.018
trichloro	-11.0186
aminopropyl	-11.0191
brown	-11.0191
containing	-11.0199
{	-11.02
▁dissolve	-11.0211
▁immediately	-11.0217
▁thiosulfate	-11.0247
▁ISCO	-11.0256
▁follows	-11.0271
▁based	-11.0282
TM	-11.0288
▁rac	-11.029
phenethyl	-11.0291
DMF	-11.0314
▁aldehyde	-11.0315
bR	-11.032
octyl	-11.0322
▁Aqueous	-11.0347
diyl	-11.0357
el	-11.0377
▁et	-11.0392
▁syrup	-11.0406
Hex	-11.0417
benz	-11.0424
trifluoroethyl	-11.0431
difluoromethoxy	-11.0435
▁when	-11.0438
decan	-11.0465
sulfonamido	-11.0467
▁removing	-11.047
▁slow	-11.0479
pyrrolidinyl	-11.0528
phosphino	-11.0542
bromosuccinimide	-11.0547
▁short	-11.0547
▁Spectrum	-11.0549
diaza	-11.0567
▁leave	-11.0569
chloropyridin	-11.0573
dihydrobenzo	-11.0574
▁Di	-11.0587
▁normal	-11.0592
indan	-11.0593
methoxyethyl	-11.0595
tetrafluoro	-11.0606
▁Retention	-11.0609
turned	-11.0638
×),	-11.0674
▁filtering	-11.0675
▁diethylether	-11.0676
phenylsulfonyl	-11.0676
fluoropyridin	-11.0693
′:	-11.0706
ul	-11.0715
co	-11.0721
CF	-11.0722
▁For	-11.0728
▁part	-11.073
▁per	-11.0751
gel	-11.0763
quinoxaline	-11.0773
▁thoroughly	-11.0782
methylpiperidin	-11.0815
ethan	-11.0817
▁batch	-11.0837
▁formate	-11.0841
′′-	-11.0865
▁Add	-11.0865
▁previous	-11.0875
▁mother	-11.0891
▁Part	-11.0894
▁homogeneous	-11.0897
purine	-11.0903
se	-11.0912
▁Aldrich	-11.0928
▁irradiation	-11.0943
thiazolo	-11.0952
▁molar	-11.0959
▁precipitation	-11.0967
▁Flow	-11.0971
carbazole	-11.0994
▁held	-11.1006
Rf	-11.1022
to	-11.1041
Benzyl	-11.1043
LCMS	-11.1047
column	-11.1063
EtOH	-11.1071
imethylsulfoxide	-11.1075
th	-11.1078
▁kPa	-11.1091
methylpyrrolidin	-11.1096
▁available	-11.1135
▁matter	-11.1142
▁imidazole	-11.1143
ir	-11.1162
pentanoic	-11.1166
ve	-11.1181
benzothiazol	-11.1182
▁buffer	-11.1183
propanamide	-11.1191
▁Crude	-11.1192
▁Eq	-11.1194
diimidazole	-11.1197
▁dropped	-11.1199
succinimide	-11.1201
▁iron	-11.1221
▁CuI	-11.1239
cephem	-11.1248
dibenzo	-11.1262
▁iodomethane	-11.1283
▁run	-11.1286
▁less	-11.1287
enoic	-11.1288
butanoate	-11.1295
▁Parr	-11.1304
▁shown	-11.1313
benzylamine	-11.1323
acetaldehyde	-11.1325
▁stopped	-11.133
▁whole	-11.1342
▁adjust	-11.135
▁On	-11.1352
heptan	-11.1354
ter	-11.1359
▁process	-11.1363
▁atmospheric	-11.1375
▁group	-11.1375
penta	-11.1379
▁consistent	-11.138
j	-11.1385
W	-11.139
▁dissolving	-11.1397
li	-11.1404
FN	-11.142
tris	-11.1424
oxetan	-11.1427
fluoren	-11.144
methoxyethoxy	-11.1441
diethylamino	-11.145
cyclohex	-11.147
▁Waters	-11.1478
▁methylamine	-11.1482
▁iodine	-11.1484
dioxa	-11.1491
▁DMA	-11.1496
▁constant	-11.1514
III	-11.1521
▁iso	-11.1562
ethanamine	-11.1579
▁dioxide	-11.1603
▁put	-11.1623
hydroxylamine	-11.1646
chloroethyl	-11.1659
▁Product	-11.1661
▁work	-11.1678
▁result	-11.168
us	-11.1699
▁agent	-11.1709
▁Chemical	-11.1713
▁day	-11.1716
diazaspiro	-11.1776
▁treatment	-11.1792
ethylene	-11.1799
▁add	-11.1853
extracted	-11.1863
▁reached	-11.1864
pyrimido	-11.1882
anilino	-11.1882
▁formaldehyde	-11.1899
methanesulfonic	-11.1903
ester	-11.1908
▁replaced	-11.1913
▁POCl	-11.1914
▁Me	-11.1924
▁present	-11.1929
chroman	-11.1943
▁sieves	-11.1945
alanine	-11.1953
▁filtrates	-11.1953
▁recrystallised	-11.1959
▁discarded	-11.1974
▁Procedure	-11.1991
▁alumina	-11.2007
dioxaborolane	-11.2023
es	-11.205
▁CHLOROFORM	-11.206
▁Gradient	-11.2111
methoxymethoxy	-11.2118
re	-11.2126
▁balloon	-11.2128
▁furnish	-11.2137
dihydropyridine	-11.2143
▁ethereal	-11.2151
carbonate	-11.2188
▁some	-11.2195
propionamide	-11.2203
▁remained	-11.2205
▁Diethyl	-11.2205
dimethoxyethane	-11.2253
methylpyridine	-11.2267
octan	-11.2282
▁needles	-11.2291
▁xylene	-11.2316
▁warming	-11.232
′-[	-11.2323
▁hydrogenation	-11.2328
▁Lithium	-11.2332
▁products	-11.234
naphtho	-11.2358
nitrobenzyl	-11.2385
ch	-11.2392
cyanomethyl	-11.2415
▁liquor	-11.2417
▁pump	-11.2429
▁respectively	-11.2435
ro	-11.2438
▁tribromide	-11.2451
Hexanes	-11.2455
cyclobutane	-11.2471
▁o	-11.2473
red	-11.2485
methylpiperazine	-11.2487
▁PE	-11.2493
diazepin	-11.2499
nicotinate	-11.2513
benzylamino	-11.2525
Di	-11.2535
proline	-11.254
trimethylsilane	-11.2565
▁lower	-11.2583
▁Toluene	-11.2584
▁liters	-11.259
methoxypyridin	-11.2594
saturated	-11.2614
▁away	-11.2648
le	-11.2679
▁V	-11.2698
▁whereupon	-11.2733
▁trap	-11.2739
▁standard	-11.2748
malonate	-11.2776
CAS	-11.2777
▁mmHg	-11.2782
glycine	-11.2784
▁volatile	-11.2784
▁diastereomers	-11.2795
benzylidene	-11.2799
▁salts	-11.2808
benzazepine	-11.2839
▁TMS	-11.2844
▁set	-11.2853
▁rapidly	-11.2864
▁Chloroform	-11.2871
epoxy	-11.288
trimethylsilanyl	-11.2894
nicotinamide	-11.2902
propanoyl	-11.2905
▁but	-11.2905
obtained	-11.2907
▁freshly	-11.2913
▁Melting	-11.2918
butanoic	-11.2932
benzamido	-11.2933
▁major	-11.2946
furyl	-11.2958
▁initially	-11.296
▁Palladium	-11.2982
uronium	-11.2985
▁course	-11.2996
▁borane	-11.3007
toluenesulfonyl	-11.3009
▁ee	-11.3051
thiol	-11.3057
▁slurried	-11.3086
lo	-11.3094
▁Raney	-11.3103
▁adduct	-11.3122
▁bubbling	-11.314
▁acetyl	-11.3144
▁bed	-11.3166
▁While	-11.3179
▁Using	-11.3181
▁oxime	-11.3183
pentan	-11.3193
▁alkaline	-11.3196
app	-11.3202
▁As	-11.3216
▁deionized	-11.3217
▁analytical	-11.3236
undec	-11.3244
oxopropyl	-11.3267
▁nickel	-11.3268
-({[	-11.3269
mo	-11.3282
isoindoline	-11.3283
▁little	-11.3297
▁earth	-11.3299
▁also	-11.3301
▁reversed	-11.3301
▁HOBT	-11.3315
dissolved	-11.332
▁boronic	-11.3322
oxazine	-11.3328
phenylamine	-11.3341
▁dimethylamine	-11.3342
▁worked	-11.3345
▁mMol	-11.3359
▁Once	-11.3362
▁irradiated	-11.3381
▁gram	-11.3381
diethoxy	-11.3396
▁quench	-11.3397
▁Prepared	-11.3436
ne	-11.3446
example	-11.3451
▁unreacted	-11.3458
Ar	-11.346
amido	-11.3467
ethenyl	-11.3474
OMe	-11.3475
▁increased	-11.3477
sat	-11.349
▁Acetic	-11.3502
▁aromatic	-11.3506
id	-11.3544
▁conducted	-11.3551
▁partially	-11.3558
diboron	-11.3565
▁most	-11.3567
▁pooled	-11.3573
quinoxalin	-11.3584
propenyl	-11.3585
hydrazino	-11.3587
▁Ph	-11.3588
▁hold	-11.3619
tosyl	-11.362
The	-11.364
▁detected	-11.3644
▁polar	-11.3691
ex	-11.3705
tBu	-11.3708
Benzyloxy	-11.371
▁By	-11.374
▁Re	-11.3752
▁um	-11.3754
un	-11.3754
benzyloxycarbon	-11.3766
AcOEt	-11.3782
▁Mp	-11.3787
▁aniline	-11.3793
▁identified	-11.3806
▁trituration	-11.3809
allyloxy	-11.3845
▁required	-11.3848
▁previously	-11.3865
▁General	-11.3874
▁condensed	-11.3876
▁sulfide	-11.3889
▁bromoacetate	-11.39
▁trifluoride	-11.3903
pinacolato	-11.3913
▁distilling	-11.3922
](	-11.3931
▁frit	-11.3933
fluorophenoxy	-11.395
▁freeze	-11.3962
▁(+)-	-11.3974
solid	-11.3978
propylamine	-11.3984
▁exchange	-11.4013
Cyano	-11.4014
▁volumes	-11.4024
te	-11.4035
▁concentrating	-11.4037
▁where	-11.4047
Y	-11.4052
act	-11.406
▁dehydrated	-11.4072
enoate	-11.4077
▁isobutyl	-11.4092
▁bottle	-11.4105
neat	-11.4107
hexan	-11.4107
eq	-11.4125
▁ceased	-11.4145
▁agitation	-11.4161
indene	-11.4161
trifluoromethane	-11.4163
▁allowing	-11.4164
BuOH	-11.4169
il	-11.4175
azepin	-11.4187
▁phenol	-11.4191
oxadiazole	-11.4197
phenylalanine	-11.4236
cyclohexanone	-11.4237
▁aluminium	-11.4238
▁compounds	-11.4253
phenylthio	-11.4254
indoline	-11.4255
Phenyl	-11.4262
ph	-11.4282
pentafluoro	-11.4311
▁formamide	-11.4321
aminopyridine	-11.4353
meth	-11.4362
Butoxycarbonyl	-11.4376
▁washings	-11.438
▁With	-11.4395
methylbenzene	-11.4395
▁powdered	-11.44
HRMS	-11.444
and	-11.4447
▁eluate	-11.4484
▁diatomaceous	-11.4487
▁hydrobromide	-11.4492
▁nitrate	-11.4493
▁reach	-11.4498
methylpropan	-11.452
▁low	-11.4534
dichloropalladiu	-11.4535
guanidine	-11.4543
▁milliliters	-11.4549
um	-11.4551
▁methanesulfonic	-11.4553
silanyloxy	-11.4561
▁Thus	-11.4565
sulfinamide	-11.4571
butyryl	-11.4575
ri	-11.4577
pyrimidinyl	-11.4587
methylpropane	-11.4591
▁methanolic	-11.4605
▁Tri	-11.4609
ized	-11.4632
▁still	-11.4632
ac	-11.4653
ant	-11.4655
tt	-11.4658
▁trimethylsilyl	-11.4661
benzoylamino	-11.4683
▁sub	-11.4703
methylamine	-11.4712
▁condition	-11.4738
▁Tert	-11.474
solvent	-11.4761
▁dichloroethane	-11.4767
propylamino	-11.477
▁LiAlH	-11.4771
▁acetal	-11.4788
Difluoro	-11.4794
▁During	-11.4805
▁theoretical	-11.4805
▁Pure	-11.4815
▁thereafter	-11.4816
▁Dry	-11.4823
▁IPA	-11.4829
benzotriazol	-11.4837
isoindole	-11.4837
dimethoxybenzyl	-11.4849
benzothiazole	-11.4851
tetrazole	-11.4863
dihydropyridin	-11.4872
see	-11.4886
▁Hexane	-11.489
▁dicyclohexyl	-11.4893
benzophenone	-11.4931
formamide	-11.4947
Acetyl	-11.4965
▁Solid	-11.4973
▁minimum	-11.4977
etrafluoroborate	-11.4981
hexa	-11.5005
▁Ethanol	-11.5005
Biotage	-11.5006
bromopyridin	-11.5032
tin	-11.5033
iodophenyl	-11.5036
▁purple	-11.5039
sulfonyloxy	-11.5043
▁use	-11.5052
layer	-11.506
▁diastereomer	-11.5061
nitropyridine	-11.5063
▁plate	-11.5066
▁satd	-11.5084
▁Benzyl	-11.5102
▁colored	-11.5113
▁area	-11.5114
▁poly	-11.512
▁All	-11.5125
▁spot	-11.513
if	-11.5134
▁Ltd	-11.5135
▁rise	-11.5169
pentamethyl	-11.5196
▁cloudy	-11.52
▁triphenyl	-11.5202
▁nitric	-11.5205
em	-11.5216
▁pink	-11.5228
pyrid	-11.5246
▁DBU	-11.525
triaza	-11.526
acetylene	-11.5265
thiadiazole	-11.5267
ACN	-11.527
nonane	-11.5279
chloroperbenzoic	-11.5282
sulfonate	-11.5282
AB	-11.5289
▁MeOD	-11.529
▁SCX	-11.529
▁place	-11.5293
▁objective	-11.5294
▁NCH	-11.5311
with	-11.5318
elution	-11.5336
▁capped	-11.5398
benzopyran	-11.5398
aldehyde	-11.5401
azepine	-11.5407
thiazolidine	-11.5408
▁paper	-11.5428
ous	-11.5431
▁Concentrated	-11.5433
▁instead	-11.5438
heptyl	-11.5445
▁degrees	-11.5447
▁Scheme	-11.5449
▁amber	-11.5451
▁HCI	-11.5454
▁protected	-11.5485
idine	-11.5495
aminocarbonyl	-11.5497
bromide	-11.5498
▁leaving	-11.5503
benzenesulfonate	-11.5504
▁dihydrate	-11.5507
▁Trifluoroacetic	-11.5512
▁chromatographic	-11.5536
▁weighed	-11.554
pyrrolidone	-11.5547
▁Pa	-11.5553
intermediate	-11.5578
▁filled	-11.5583
▁sulfite	-11.5589
im	-11.5597
▁Kg	-11.5601
butyrate	-11.5611
▁along	-11.5612
phosphate	-11.5618
ating	-11.5619
hexanoic	-11.5641
ox	-11.5644
HCO	-11.5649
▁HBr	-11.5656
cyclopent	-11.5685
▁prepare	-11.5692
Nitro	-11.5694
▁maintain	-11.5704
▁yields	-11.5718
evaporated	-11.5725
enoyl	-11.5741
▁bright	-11.5754
dioxan	-11.5782
phosphonic	-11.5783
▁except	-11.5783
methylcarbamoyl	-11.5784
alkyl	-11.579
▁Schlenk	-11.5795
+].	-11.5811
ur	-11.584
hydro	-11.5841
ethylenedioxy	-11.5854
▁impurities	-11.5863
▁HOAc	-11.5872
syn	-11.5878
▁calcium	-11.588
chromen	-11.5883
▁dissolution	-11.5886
phthalimide	-11.5891
▁MICROWAVE	-11.59
diazepine	-11.5904
▁ethoxide	-11.5914
diene	-11.592
′′	-11.5945
▁very	-11.5967
▁trichloride	-11.5968
BrN	-11.5973
BOC	-11.5989
fluorene	-11.5991
imidazolidin	-11.5999
▁NBS	-11.6
by	-11.6028
ap	-11.603
▁DCE	-11.6038
benzoimidazol	-11.6074
ist	-11.6074
▁DCC	-11.608
▁Elution	-11.6081
▁crystallised	-11.609
▁benzoyl	-11.6093
trifluoroacetyl	-11.6098
filled	-11.6103
Step	-11.6112
▁blue	-11.6115
▁steam	-11.6115
butyloxycarbonyl	-11.6115
ylcarbamoyl	-11.6117
cyclohexanol	-11.6119
MeCN	-11.6127
ted	-11.6148
butene	-11.6176
hi	-11.6181
per	-11.6199
▁sonicated	-11.6202
▁intensity	-11.6211
phosphoryl	-11.6213
▁active	-11.6227
Preparation	-11.6232
ra	-11.6232
▁procedures	-11.6233
acrylamide	-11.6254
▁adsorbed	-11.6262
purity	-11.6265
▁oxalate	-11.6272
pro	-11.628
form	-11.6297
▁commercially	-11.6303
▁TBAF	-11.6307
ethylenediamine	-11.6318
′]	-11.6333
butylphosphine	-11.6338
▁boiled	-11.6364
minute	-11.6366
▁Dichloromethane	-11.6369
mer	-11.6372
▁shows	-11.6375
la	-11.6384
oxymethyl	-11.6384
▁admixed	-11.6406
fluorobenzene	-11.6409
methylenedioxy	-11.641
▁film	-11.6412
▁evaporating	-11.6424
SR	-11.6438
▁pos	-11.6457
Pr	-11.646
▁stage	-11.6474
hexanoate	-11.6475
▁till	-11.6475
Gly	-11.6476
▁diphenyl	-11.6492
indolin	-11.6493
su	-11.6495
methoxyimino	-11.6499
▁analogy	-11.65
PA	-11.6513
phen	-11.6518
▁XBridge	-11.6521
dien	-11.6521
)-(+)-	-11.6544
bromoethyl	-11.6546
product	-11.6552
▁workup	-11.6581
▁large	-11.6584
aqueous	-11.6587
methylbenzyl	-11.6588
▁consisting	-11.6591
▁reacting	-11.6608
▁biphasic	-11.6612
ato	-11.6613
▁KHSO	-11.6613
▁silver	-11.6614
solution	-11.6615
Martin	-11.6621
liter	-11.6623
Iodo	-11.6635
+);	-11.6636
▁cannula	-11.664
▁platinum	-11.6646
non	-11.6661
Dimethylamino	-11.6669
▁range	-11.6693
nonan	-11.6697
▁strength	-11.6708
▁providing	-11.671
eluted	-11.6745
dry	-11.6747
hydrazide	-11.675
sulfinyl	-11.6752
▁titanium	-11.6755
phos	-11.6757
▁tin	-11.6757
▁abs	-11.6775
ab	-11.6782
▁Hydrogen	-11.6805
pyrrolidinone	-11.681
▁WO	-11.6816
▁spectroscopy	-11.6842
▁methane	-11.685
DA	-11.685
▁vinyl	-11.6864
▁other	-11.6864
▁approx	-11.6888
triisopropyl	-11.6903
▁broad	-11.6912
▁sticky	-11.6915
▁may	-11.6922
TMS	-11.6922
▁equal	-11.6925
nicotinonitrile	-11.6927
▁According	-11.6943
nitrophenoxy	-11.6944
▁Dess	-11.6953
io	-11.6953
nor	-11.696
for	-11.6962
difluorobenzyl	-11.6973
Dimethoxy	-11.6979
quin	-11.698
]−	-11.699
▁spec	-11.6995
▁FAB	-11.7007
thioxo	-11.7012
butylamine	-11.7022
indeno	-11.7023
▁azeotroped	-11.7055
▁septum	-11.7056
ive	-11.706
ance	-11.7061
▁see	-11.7067
▁later	-11.7068
▁raw	-11.707
anhydrous	-11.7071
▁Stir	-11.7074
phenoxymethyl	-11.7076
ii	-11.7078
▁disappearance	-11.7091
▁metal	-11.7096
phenoxyphenyl	-11.7096
▁exothermic	-11.7105
▁amounts	-11.712
▁crushed	-11.7123
▁Hydrochloric	-11.7141
tricyclo	-11.7145
▁polymer	-11.7145
▁SFC	-11.7164
Mass	-11.7164
MgS	-11.7173
▁monitoring	-11.7184
▁Excess	-11.721
▁triphosgene	-11.7212
butylamino	-11.7225
▁ret	-11.7228
▁separating	-11.7232
BF	-11.7245
▁ESIMS	-11.7246
▁Li	-11.7255
lH	-11.7258
dibenzyl	-11.7261
diazo	-11.7267
butanone	-11.7285
▁Ac	-11.7292
ment	-11.7295
able	-11.7301
▁Ether	-11.7343
dq	-11.7345
piperidino	-11.7364
oxopyrrolidin	-11.7365
nitroaniline	-11.7371
▁supernatant	-11.7373
trimethoxy	-11.7376
dihydropyrido	-11.7376
ethylthio	-11.7389
benzoxazol	-11.7389
nitrobenzoic	-11.7391
ylthio	-11.74
▁cream	-11.7413
+=	-11.7416
thiazolyl	-11.7422
▁exotherm	-11.7425
▁increasing	-11.7432
▁Drying	-11.7439
▁stored	-11.7444
▁From	-11.7444
crude	-11.7449
pyrano	-11.7453
▁neck	-11.7463
▁only	-11.7468
imidazolidine	-11.7472
methylbenzoic	-11.7489
borate	-11.7505
morpholinyl	-11.7521
▁coupling	-11.7524
▁MP	-11.7526
butylphenyl	-11.7541
▁fine	-11.7547
phthalic	-11.7563
AP	-11.757
▁separator	-11.7578
Phos	-11.7578
▁Acetonitrile	-11.7595
rac	-11.7613
▁aid	-11.7619
▁clean	-11.762
developing	-11.7637
Pd	-11.7658
▁Fmoc	-11.7674
pentanoate	-11.7676
phenylpropyl	-11.7698
tion	-11.7702
Melting	-11.7707
▁quantity	-11.7739
dioxaspiro	-11.7742
orange	-11.7754
▁para	-11.7756
▁started	-11.7756
▁distillate	-11.7756
methylcarbamate	-11.776
▁Purity	-11.7761
▁did	-11.777
▁Br	-11.778
▁UPLC	-11.7796
▁CHH	-11.78
ally	-11.7814
dihydroquinolin	-11.7823
over	-11.7838
′(	-11.7854
oxime	-11.7855
dioxolane	-11.7857
isoxazolyl	-11.786
Trifluoro	-11.7874
]+).	-11.7882
methylpiperidine	-11.7886
dichlorobenzyl	-11.7892
iodobenzene	-11.7893
▁MPLC	-11.7893
▁hydrolyzed	-11.79
ethylidene	-11.7909
▁sulfur	-11.7911
▁steel	-11.7919
azo	-11.792
▁Argon	-11.7936
lu	-11.7941
▁phosphorous	-11.7947
▁sulphuric	-11.7947
oxopropan	-11.7948
▁crop	-11.795
hydrochloride	-11.7952
phthalazin	-11.798
ole	-11.7994
Column	-11.8001
▁subject	-11.8002
▁U	-11.8018
nitrile	-11.8018
▁SOCl	-11.8023
▁silicagel	-11.8037
propionitrile	-11.804
methoxyphenoxy	-11.8049
(+)	-11.8056
▁HBTU	-11.8059
all	-11.8072
▁mix	-11.8075
ylboronic	-11.808
imido	-11.8093
hr	-11.81
▁region	-11.8103
ylcarbonyl	-11.8124
sulphonyl	-11.8135
▁pyridinium	-11.8138
oyl	-11.8144
▁acrylate	-11.8147
Phe	-11.8181
trifluoroethoxy	-11.8187
▁object	-11.8193
age	-11.8195
▁brownish	-11.8198
ure	-11.8198
nitrophenol	-11.8208
▁Anhydrous	-11.8213
sh	-11.8229
▁ten	-11.8232
▁brs	-11.8255
▁inorganic	-11.8266
butanamide	-11.8271
methano	-11.8282
methylcyclohexyl	-11.8288
▁prior	-11.8288
propanenitrile	-11.8293
▁monoxide	-11.8294
methylbenzoate	-11.8297
hydroxyimino	-11.8304
▁both	-11.8312
▁quickly	-11.8314
▁turn	-11.832
mentioned	-11.8328
▁inner	-11.833
oC	-11.8337
yne	-11.8352
isobenzofuran	-11.8353
▁Pyridine	-11.8368
benzodiazepine	-11.8378
▁LDA	-11.8391
Found	-11.8393
▁absorption	-11.8397
▁Inc	-11.8398
dihydrospiro	-11.8417
ose	-11.8418
▁hydrolysis	-11.8442
phenylacetic	-11.8445
chlorophenoxy	-11.8446
▁hydro	-11.8453
colored	-11.8456
methylpyrimidin	-11.8463
▁disappeared	-11.8469
▁heterogeneous	-11.8478
▁bottomed	-11.8483
ite	-11.8486
ator	-11.849
oxoisoindolin	-11.8492
ial	-11.8502
▁operation	-11.8506
▁malonate	-11.851
ethylsulfonyl	-11.8511
tetrahydropyrido	-11.8512
dihydroquinoline	-11.8513
eluant	-11.8529
chromene	-11.853
hereinafter	-11.8549
▁way	-11.8565
title	-11.8573
chloropyridine	-11.8579
▁components	-11.8579
▁OBD	-11.8579
butyldiphenylsil	-11.8584
ative	-11.8586
diphenylmethyl	-11.8605
▁MPa	-11.8609
oil	-11.8611
ce	-11.8621
nitrobenzoate	-11.8637
▁size	-11.8655
tr	-11.8656
▁Grignard	-11.8664
phenylcarbamoyl	-11.8664
dodecyl	-11.8669
▁reduction	-11.868
-({[(	-11.868
▁{(	-11.8686
▁repeatedly	-11.8686
▁manganese	-11.8689
carbonyloxy	-11.869
▁aliquot	-11.869
nitropyridin	-11.8695
▁Dissolve	-11.8712
ISP	-11.8713
pyrazino	-11.8713
Ac	-11.8715
▁deposited	-11.8715
sulfonylamino	-11.8723
▁reddish	-11.8724
paraformaldehyde	-11.8726
COOH	-11.8729
▁affords	-11.8732
▁TBTU	-11.8754
▁coupled	-11.8758
▁Med	-11.876
▁lyophilization	-11.877
op	-11.8787
xylene	-11.8789
octa	-11.8802
▁impure	-11.8808
dioxido	-11.8809
dimethylpyridin	-11.8822
▁absorbed	-11.8851
Lys	-11.8872
OS	-11.8878
bromobenzene	-11.8887
TA	-11.8892
benzoyloxy	-11.8902
Ala	-11.8903
▁urea	-11.8906
cyclohexylmethyl	-11.8911
▁neat	-11.8929
late	-11.8944
▁dimethoxyethane	-11.8947
fluoromethyl	-11.8962
▁BBr	-11.8965
protected	-11.8965
ABq	-11.8969
=−	-11.8982
step	-11.8983
equ	-11.8987
▁Org	-11.8994
▁characterized	-11.8994
oxirane	-11.8997
▁LiCl	-11.9014
bromopyridine	-11.9018
cyclohepta	-11.9022
▁cautiously	-11.9042
▁sparged	-11.905
VI	-11.9057
isocyanato	-11.9059
carbazol	-11.9077
acid	-11.9083
isoindolin	-11.9108
comp	-11.9113
phenylene	-11.9123
▁spectra	-11.9127
▁One	-11.9134
referred	-11.9135
imide	-11.9139
▁six	-11.9147
oxycarbonyl	-11.9175
▁obsd	-11.9181
lactone	-11.9182
▁chromatograph	-11.9183
toluenesulfonate	-11.9188
▁component	-11.9199
exo	-11.9207
methylidene	-11.9209
no	-11.9223
▁initial	-11.9226
yloxymethyl	-11.9231
methylaniline	-11.9236
methylbenzamide	-11.9241
▁oxygen	-11.9245
▁returned	-11.9252
guanidino	-11.9253
isopropylidene	-11.9262
ti	-11.9264
▁dilution	-11.9266
▁phosphoric	-11.9274
▁optical	-11.9282
▁minor	-11.9294
Li	-11.9298
benzodiazepin	-11.9304
sil	-11.9308
▁azeotropic	-11.9309
▁like	-11.9314
qui	-11.9316
▁gummy	-11.9336
▁triethylsilane	-11.9344
adamantan	-11.9364
decyl	-11.9365
▁Crystallization	-11.9366
triisopropylsil	-11.9367
▁generated	-11.9368
thiomethyl	-11.9379
▁comprising	-11.9381
po	-11.9396
endo	-11.9401
▁AD	-11.9403
thiourea	-11.9407
tartaric	-11.9411
lithium	-11.9411
quinolinyl	-11.9412
chlorobenzoyl	-11.9422
▁inside	-11.9427
Dihydro	-11.9443
film	-11.9445
▁orthoformate	-11.9447
malonic	-11.9455
mixture	-11.9456
cyclopentyloxy	-11.9469
▁thereof	-11.9478
hexafluoro	-11.9487
rel	-11.9496
Merck	-11.9496
▁almost	-11.9503
▁chlorobenzene	-11.9512
ence	-11.9516
▁CF	-11.9518
oxan	-11.952
isopropylamino	-11.9524
dioxin	-11.953
oxazolidine	-11.9533
▁could	-11.9548
▁deep	-11.9548
▁batches	-11.9551
monitored	-11.9558
TOF	-11.9574
▁results	-11.9577
▁gentle	-11.9589
▁Si	-11.9591
like	-11.9594
ecrystallisation	-11.9596
Cyclopropyl	-11.9614
▁peaks	-11.9621
hydrochloric	-11.9624
▁cap	-11.9631
methylbenzo	-11.964
▁overhead	-11.9646
dimethylisoxazol	-11.9651
chloropyrimidin	-11.9654
hydr	-11.9654
▁Phenomenex	-11.9671
PrOH	-11.9673
benzoxazole	-11.9677
▁positive	-11.968
ight	-11.9682
cu	-11.9689
▁latter	-11.969
▁protection	-11.9693
▁NEt	-11.9696
▁rotamers	-11.9702
▁pot	-11.9702
brine	-11.9706
▁micro	-11.9722
▁quant	-11.9729
▁Finally	-11.9737
ino	-11.9739
▁pinacol	-11.9743
▁APCI	-11.9746
naphth	-11.9748
thiophenol	-11.9753
methylimidazo	-11.977
BA	-11.9772
thione	-11.9773
ClF	-11.9773
▁Two	-11.9783
▁detector	-11.9783
des	-11.9784
▁continuously	-11.9801
ak	-11.9812
▁Al	-11.982
fluorobenzoyl	-11.9834
salt	-11.9834
Waters	-11.9845
na	-11.9847
▁dust	-11.9853
ity	-11.9857
ell	-11.9859
▁etherate	-11.9868
▁sol	-11.9871
cyclohexyloxy	-11.9872
▁therein	-11.988
benzoimidazole	-11.9887
▁fresh	-11.9889
▁NaHSO	-11.9896
▁diethylamine	-11.9897
▁evaporate	-11.9904
▁aged	-11.9907
pyridinium	-11.9909
▁mixing	-11.9914
▁stainless	-11.9918
Pro	-11.9923
-[[[	-11.9947
ethylacetate	-11.9953
▁substituting	-11.9955
▁un	-11.9959
▁heptanes	-11.9963
▁THE	-11.9971
▁represented	-11.9978
▁achieved	-11.9978
▁MW	-11.998
▁grey	-11.9981
chloroformate	-11.9987
Glu	-11.9993
▁Hunig	-11.9997
▁refrigerator	-11.9997
▁(−)-	-12.0004
▁ODS	-12.001
▁extracting	-12.0013
▁More	-12.0029
chlorosulfonyl	-12.0048
▁Dimethyl	-12.0071
cyclopentadienyl	-12.0074
benzhydryl	-12.0074
▁detection	-12.0076
keto	-12.0077
▁therefrom	-12.008
▁Y	-12.008
dihydroimidazo	-12.0082
Isopropyl	-12.0088
▁periodinane	-12.0089
ketone	-12.0093
perfluoro	-12.0095
zinc	-12.0095
approximately	-12.0097
cl	-12.01
isocyanate	-12.0101
▁exceed	-12.0102
hydrate	-12.011
lic	-12.0127
Al	-12.0132
▁oxalic	-12.0143
▁done	-12.0146
▁Hexanes	-12.016
acryloyl	-12.0163
▁new	-12.0164
hydroxypropan	-12.0166
Oxo	-12.0172
′-((	-12.0173
mobile	-12.0201
▁Luna	-12.0205
chloroacetyl	-12.0208
▁hydrazide	-12.0212
ea	-12.0219
▁dichlorobis	-12.0233
methoxybenzene	-12.0233
▁EXAMPLE	-12.024
hydroxyethoxy	-12.0257
chromatography	-12.027
▁flame	-12.0277
ethylcarbamoyl	-12.0282
▁accord	-12.0288
▁occurred	-12.0302
ethanolamine	-12.0302
▁make	-12.0316
▁Acetone	-12.0322
anthracene	-12.0324
methylsulfinyl	-12.0328
▁sulfonic	-12.033
▁Ex	-12.0334
▁grade	-12.0336
▁Int	-12.0341
relative	-12.0342
▁minimal	-12.0343
isopropanol	-12.0343
bS	-12.0345
▁hydrobromic	-12.0351
dicarboxamide	-12.0357
benzoxazin	-12.0362
ver	-12.0367
▁DIAD	-12.0373
triethylamine	-12.0386
▁around	-12.0391
dimethylpropyl	-12.0394
▁proceed	-12.0396
▁thermocouple	-12.0417
▁eliminated	-12.0417
Leu	-12.0423
phthalimido	-12.0427
▁elute	-12.0427
▁Trituration	-12.0428
diisopropylamide	-12.0428
▁eluents	-12.0447
adamantyl	-12.0453
▁ethanolic	-12.0461
cy	-12.0474
AA	-12.0485
alpha	-12.0488
ethylsulfanyl	-12.0499
▁phosgene	-12.0516
quinolyl	-12.0533
trien	-12.0534
▁come	-12.054
Cbz	-12.0541
▁proton	-12.0547
▁melted	-12.0553
acetoxymethyl	-12.0557
iv	-12.0568
▁revealed	-12.0569
▁Diisopropyl	-12.0579
▁methylmagnesium	-12.0579
carbo	-12.0586
▁triflate	-12.0587
−)	-12.0598
triphenylmethyl	-12.0602
▁Tetrakis	-12.0611
Val	-12.0613
▁rotation	-12.0622
▁Mixture	-12.0635
washed	-12.0638
lit	-12.0649
onitrile	-12.0653
thien	-12.0658
▁began	-12.0662
dithio	-12.0669
-((((	-12.0684
dichlorobenzene	-12.0689
inc	-12.0693
▁psig	-12.0698
IN	-12.0701
▁enantiomer	-12.0703
▁Thereto	-12.0704
▁Cool	-12.0709
dimethylsilane	-12.0712
▁allow	-12.0714
ig	-12.0715
methylthiazol	-12.0719
▁Analytical	-12.0725
aluminum	-12.0732
imidazolyl	-12.0744
▁Extraction	-12.0744
homo	-12.0755
▁Bis	-12.0758
dinitro	-12.0763
chrom	-12.0763
▁have	-12.0766
crown	-12.0781
pyr	-12.0782
▁plates	-12.0791
▁bisulfite	-12.0795
▁ESMS	-12.08
▁dimer	-12.0802
▁Thionyl	-12.0806
▁Acid	-12.0807
▁closed	-12.0808
chloropropyl	-12.0816
▁KI	-12.0822
phosphono	-12.0825
decomp	-12.0836
▁tributyl	-12.0838
iodide	-12.0843
▁insolubles	-12.085
▁phosphine	-12.0851
▁KOAc	-12.0853
tro	-12.0853
decahydro	-12.0858
cyanoethyl	-12.0858
▁packed	-12.0858
′′),	-12.086
)−.	-12.0864
▁anisole	-12.0865
OEt	-12.0866
do	-12.0872
▁torr	-12.0875
▁diameter	-12.0881
imine	-12.0888
Trifluoromethyl	-12.0888
▁gently	-12.0892
▁washes	-12.0893
methylphenol	-12.0897
oxobutan	-12.0902
▁rinsing	-12.0907
propen	-12.0911
▁Detector	-12.0918
▁Solvents	-12.092
▁disulfide	-12.093
tic	-12.0939
▁Another	-12.0939
sulphonic	-12.0943
▁Pat	-12.0948
▁Soc	-12.0951
▁external	-12.0952
glycyl	-12.0956
▁bi	-12.0969
▁AlCl	-12.0978
▁Xantphos	-12.0984
hydroxyl	-12.1004
ting	-12.1005
▁Table	-12.1006
anisole	-12.1007
ru	-12.1008
▁BOP	-12.1008
▁micron	-12.1011
▁reduce	-12.1013
▁employed	-12.1017
ISCO	-12.102
▁Tetrahydrofuran	-12.1026
Nujol	-12.1038
)-(−)-	-12.1038
▁Added	-12.1049
▁type	-12.1063
acrylonitrile	-12.1073
▁resonance	-12.1076
YMC	-12.1076
styrene	-12.1092
▁org	-12.1099
trifluorophenyl	-12.1108
vi	-12.1114
▁IN	-12.112
propene	-12.1121
lutidine	-12.1123
concentrated	-12.1127
methylphenoxy	-12.1143
chromeno	-12.1148
▁linear	-12.1164
▁particles	-12.1167
Table	-12.1176
thiadiazin	-12.1191
▁Cu	-12.1193
electrospray	-12.1194
▁vac	-12.1198
▁shaking	-12.1209
Benzo	-12.1215
butanoyl	-12.1224
Tri	-12.1236
free	-12.1236
styryl	-12.1239
▁cuprous	-12.1247
carb	-12.1253
▁Chiral	-12.1274
tetrahydrobenzo	-12.1274
cyclohexylamino	-12.1277
▁III	-12.1296
-[({	-12.1299
▁phosphite	-12.13
carboxymethyl	-12.1311
leucine	-12.1319
▁forms	-12.1325
indolo	-12.1326
butenyl	-12.1337
hydroxybenzoate	-12.1343
methoxypyridine	-12.1343
ethylcarbamate	-12.1361
▁transparent	-12.1362
▁furnished	-12.1367
▁gms	-12.1376
carbomethoxy	-12.1376
dicyano	-12.1379
fluoropyridine	-12.139
volume	-12.1391
▁identical	-12.1392
To	-12.1408
ylsulfonyl	-12.1412
▁become	-12.1416
▁foamy	-12.1417
▁mode	-12.142
▁non	-12.1426
▁nmr	-12.1427
cyclohexene	-12.1433
dimethylsilyl	-12.144
adamantane	-12.1447
borane	-12.1449
▁CV	-12.1458
cyclopropylamino	-12.1461
▁overall	-12.1471
▁PPh	-12.1479
piperidone	-12.1482
beta	-12.15
▁case	-12.1503
idin	-12.1516
▁appeared	-12.152
▁weekend	-12.1532
sulfo	-12.1543
isobutylaluminum	-12.1553
Py	-12.156
ser	-12.1575
▁needle	-12.1576
▁characteristics	-12.1576
▁reactant	-12.1577
▁Formula	-12.1579
▁crystallize	-12.1586
ut	-12.159
pos	-12.1598
▁con	-12.1599
oic	-12.1607
▁measured	-12.1615
▁borate	-12.1617
isopropylphenyl	-12.1624
▁Oxalyl	-12.1628
▁TBME	-12.1633
▁judged	-12.1637
▁main	-12.164
▁CDI	-12.164
approx	-12.1644
GC	-12.1645
sec	-12.1648
▁rose	-12.1648
▁mesylate	-12.1661
aminopyridin	-12.1662
azidomethyl	-12.1665
each	-12.1667
▁Obtained	-12.1668
neopentyl	-12.1672
fluoroaniline	-12.1685
thiazin	-12.1689
tributylstannyl	-12.1694
▁HC	-12.1703
twice	-12.1708
RT	-12.1712
succinate	-12.1722
▁collect	-12.1729
thiopyran	-12.1735
▁quenching	-12.1742
chlor	-12.1747
nitrobenzoyl	-12.1759
propionylamino	-12.1768
▁preparatory	-12.1769
FA	-12.177
▁isothiocyanate	-12.1772
ase	-12.1789
propanamido	-12.179
▁test	-12.1795
isonicotinic	-12.1796
▁Combine	-12.1798
▁BOC	-12.1799
acet	-12.1804
▁double	-12.181
▁changed	-12.1828
phenylacetyl	-12.1839
aminothiazol	-12.1842
chloropyrimidine	-12.1842
▁rpm	-12.1854
ain	-12.1857
▁residues	-12.1859
▁line	-12.1866
methy	-12.1868
▁slight	-12.187
estra	-12.1875
▁suitable	-12.1883
buten	-12.1891
▁finished	-12.1915
▁those	-12.1925
propanediol	-12.1926
▁gray	-12.193
▁%:	-12.1935
IS	-12.1936
▁maleic	-12.195
pentanoyl	-12.1957
Cyclo	-12.1975
▁dispersed	-12.1977
▁waxy	-12.1982
▁DIBAL	-12.1988
▁NaNO	-12.1992
)+]	-12.2001
enol	-12.2005
▁Purify	-12.2017
▁EI	-12.2018
▁automated	-12.202
▁Nitrogen	-12.202
NEt	-12.2023
benzoxazine	-12.2024
▁Elemental	-12.2027
catalytic	-12.2028
bo	-12.2036
▁whilst	-12.2043
▁chlorine	-12.2046
fa	-12.2053
▁neutralised	-12.2056
acetal	-12.2069
der	-12.2073
ethoxyphenyl	-12.2081
ylsulfanyl	-12.2096
▁band	-12.2099
phenylmethoxy	-12.21
ni	-12.211
▁impurity	-12.2111
methoxybenzoic	-12.2115
total	-12.2118
methoxybenzoyl	-12.2133
benzyloxymethyl	-12.2135
▁White	-12.2147
▁contains	-12.2154
▁analogously	-12.2156
▁tetrabutyl	-12.2162
Diisopropylethyl	-12.2173
chlorobenzene	-12.2176
▁diacetate	-12.2188
peroxybenzoic	-12.219
Butyllithium	-12.219
▁Volatiles	-12.2198
▁BINAP	-12.2206
▁soln	-12.2218
titanium	-12.2224
methylquinolin	-12.2227
phenylethynyl	-12.223
aryl	-12.2239
biphenylyl	-12.2239
aceto	-12.2246
▁fashion	-12.2246
propynyl	-12.2251
▁desiccant	-12.2252
Bn	-12.2267
bromoacetyl	-12.2269
acetyloxy	-12.227
line	-12.227
ill	-12.2271
▁NMM	-12.2282
ED	-12.2283
API	-12.2286
dimethylaniline	-12.2289
cin	-12.2292
▁benzylamine	-12.2297
methoxybenzoate	-12.2302
chlorosilane	-12.2303
dioxopiperidin	-12.231
▁cycles	-12.231
▁developing	-12.232
′-[(	-12.2331
nitrobenzyloxy	-12.2334
▁CombiFlash	-12.2338
ization	-12.2339
▁purge	-12.2341
▁upper	-12.2342
▁substituted	-12.2346
ring	-12.2352
cyclopropa	-12.2352
phenylsulfanyl	-12.2368
▁isolate	-12.2369
▁trace	-12.2378
▁checked	-12.2379
phosphor	-12.2384
▁attached	-12.2385
▁least	-12.2395
▁Ice	-12.2402
▁ligand	-12.2409
picolinic	-12.2412
▁tr	-12.2421
ethylphenyl	-12.2426
▁ortho	-12.2426
▁CELITE	-12.2429
▁propargyl	-12.2433
CDC	-12.2438
benzylthio	-12.2439
EP	-12.2468
ue	-12.2468
py	-12.2471
▁preceding	-12.2476
▁De	-12.2483
▁pressurized	-12.2486
▁rinse	-12.2496
▁hexamethyl	-12.2501
▁tartrate	-12.2505
ge	-12.2507
PG	-12.251
manufactured	-12.2523
lin	-12.2526
res	-12.2526
▁LAH	-12.2528
▁infrared	-12.2547
▁spectral	-12.256
serine	-12.2565
bromobenzyl	-12.2565
alanyl	-12.2568
triethylammonium	-12.2573
▁decomposition	-12.2576
isothiazol	-12.2577
▁sintered	-12.2578
▁Ni	-12.2589
thiazolidin	-12.259
▁contain	-12.2593
▁shaker	-12.2595
butoxyethoxy	-12.2597
▁Ammonium	-12.2598
oxazepine	-12.2601
dodeca	-12.2605
▁diastereomeric	-12.2608
▁thiourea	-12.261
▁thrice	-12.2615
glycerol	-12.2616
▁MeI	-12.2619
▁Preparative	-12.2619
▁beaker	-12.2629
TsOH	-12.264
▁imine	-12.265
▁isohexane	-12.2652
ish	-12.2655
▁Mg	-12.2661
isopropoxyphenyl	-12.2663
Condition	-12.267
substituted	-12.268
oxycarbonylamino	-12.2687
methanopyrido	-12.2703
▁moisture	-12.2705
phenylacetate	-12.2705
trifluoroacetic	-12.2712
pyridylmethyl	-12.272
of	-12.2736
▁prisms	-12.2743
▁contaminated	-12.2754
indane	-12.2755
triene	-12.2765
ari	-12.2766
hydrazone	-12.2771
▁pet	-12.2772
Chlorophenyl	-12.2779
methylpyrimidine	-12.2787
oxido	-12.2797
▁injected	-12.2806
▁pouring	-12.2806
bu	-12.2812
Tetrahydro	-12.2826
hydroxybenzyl	-12.2826
VII	-12.2832
▁original	-12.2837
▁traces	-12.2851
hour	-12.2852
art	-12.2854
oxobutanoate	-12.2855
diacetoxy	-12.2861
Dioxane	-12.2866
carbox	-12.2866
ij	-12.2868
▁Phenyl	-12.2878
▁lowered	-12.2882
▁reported	-12.289
hepta	-12.2893
NCH	-12.2903
two	-12.2911
ret	-12.2913
oxiran	-12.2915
▁millimoles	-12.2925
isochromeno	-12.294
nd	-12.2942
benzazepin	-12.296
▁sequence	-12.2964
fluorobenzoate	-12.2968
propanone	-12.2969
valine	-12.2975
▁pattern	-12.2982
OtBu	-12.2986
pressure	-12.2987
fluorobenzoic	-12.2991
methylbutyl	-12.2992
▁Torr	-12.2992
{[	-12.2994
isobutyryl	-12.2994
▁methods	-12.2997
azabenzotriazol	-12.3001
anti	-12.3003
uracil	-12.3007
▁nM	-12.3013
▁usual	-12.303
▁developed	-12.3048
▁METHANOL	-12.3059
▁side	-12.3059
▁LiHMDS	-12.306
▁Most	-12.306
pt	-12.3075
▁Isco	-12.308
fer	-12.3082
rhodium	-12.3082
difluoroethyl	-12.3093
nonyl	-12.3101
bout	-12.3102
Sep	-12.3103
isothiocyanato	-12.3107
obs	-12.3115
▁periodate	-12.3119
idene	-12.312
▁recovery	-12.3121
CDCI	-12.3128
butyldimethyl	-12.313
amyl	-12.314
benzodioxol	-12.3152
thin	-12.3153
▁enantiomers	-12.3157
oxopentanoate	-12.3161
benzocyclohepten	-12.3161
▁WSC	-12.3164
▁passing	-12.3172
▁Fe	-12.3173
▁NaOMe	-12.3174
morph	-12.3175
▁FCC	-12.318
ClFN	-12.3182
▁freezer	-12.3192
▁let	-12.3192
▁rotovap	-12.3196
▁anh	-12.3198
formylphenyl	-12.32
ber	-12.3202
onic	-12.3205
quantitative	-12.3207
Asp	-12.3213
dibromoethane	-12.3219
Ser	-12.3228
CB	-12.3237
▁Filter	-12.3247
▁sufficiently	-12.3249
▁last	-12.3251
▁rel	-12.3252
▁Buchner	-12.3256
sulf	-12.327
ry	-12.3277
Petroleum	-12.3285
▁BH	-12.3289
fumaric	-12.3292
MW	-12.3299
▁SnCl	-12.3304
▁Heptane	-12.3307
rate	-12.3313
▁freed	-12.3324
▁glycine	-12.3347
octamethyl	-12.3354
▁HR	-12.3368
ray	-12.3373
▁forward	-12.3373
oxazolo	-12.3374
▁assigned	-12.3377
▁spectrometry	-12.3377
▁phenylboronic	-12.3379
trimethoxyphenyl	-12.3393
cyclohexylamine	-12.3394
using	-12.3396
conc	-12.3399
vacuo	-12.34
cycle	-12.3403
olate	-12.3403
▁Addition	-12.3404
picolinate	-12.3414
cd	-12.3416
▁loading	-12.3419
bipyridin	-12.3421
▁mantle	-12.3421
he	-12.3426
▁sufficient	-12.3428
AUC	-12.3437
▁Insoluble	-12.344
cr	-12.3442
▁Dioxane	-12.3454
]−.	-12.3455
AD	-12.3456
hexyloxy	-12.3456
(−)	-12.3462
▁sulfone	-12.3476
▁azeotropically	-12.3482
▁recover	-12.3483
▁magnetically	-12.3485
▁meta	-12.3486
bipyridine	-12.3486
▁NaI	-12.3497
flash	-12.3498
′=	-12.3505
▁paste	-12.3507
met	-12.3516
hydrazinyl	-12.3518
▁powdery	-12.3528
furanyl	-12.3528
▁isocratic	-12.353
oate	-12.3537
DMAP	-12.3541
▁Heat	-12.3547
▁ul	-12.3548
▁controlled	-12.355
azepan	-12.3562
Fluorophenyl	-12.3566
▁state	-12.358
ie	-12.3581
▁emulsion	-12.3582
oc	-12.3591
oxyethyl	-12.3592
▁Industries	-12.3593
▁terminated	-12.3597
▁RBF	-12.3599
Silica	-12.3599
nicotinaldehyde	-12.3605
▁properties	-12.3616
ll	-12.3621
▁Tr	-12.3627
'-[	-12.3632
pentyloxy	-12.3633
fl	-12.3633
ified	-12.3642
tetrahydrofurane	-12.3645
▁exchangeable	-12.3647
dioic	-12.3649
carboximidamide	-12.3662
val	-12.3663
tan	-12.3672
trop	-12.3676
▁SP	-12.3677
oxabicyclo	-12.3684
tetraen	-12.3684
CHCH	-12.3687
▁outline	-12.3688
Allyl	-12.3691
▁return	-12.3702
▁Hex	-12.3702
thiomorpholine	-12.3706
▁these	-12.3731
System	-12.3734
sulfate	-12.3735
DI	-12.3736
preparative	-12.3755
ran	-12.3756
▁St	-12.3763
▁trioxide	-12.378
▁RM	-12.3788
▁methacrylate	-12.38
▁ground	-12.3801
▁length	-12.3803
▁IC	-12.3804
▁exact	-12.3827
quart	-12.3834
{[(	-12.3839
▁AB	-12.3847
▁BF	-12.3847
PYR	-12.3848
▁careful	-12.3853
▁neutralization	-12.3858
▁dihydrogen	-12.3863
▁performance	-12.3866
ia	-12.3869
chrysen	-12.3874
▁Symmetry	-12.3877
trimethylphenyl	-12.3887
ee	-12.3887
▁settle	-12.3889
▁Wash	-12.3891
neg	-12.3894
fluorophenol	-12.3895
But	-12.3897
benzothiophene	-12.3898
filtered	-12.39
azulene	-12.3902
propanal	-12.3906
▁control	-12.3907
Ox	-12.3909
malononitrile	-12.3912
▁collecting	-12.3921
▁(+/−)-	-12.3922
▁EtOAC	-12.3932
▁assay	-12.3939
▁higher	-12.394
benzodioxin	-12.3943
eth	-12.3944
▁iPr	-12.3944
vapor	-12.3949
was	-12.3954
▁chloromethyl	-12.3955
tetrahydrofuro	-12.3964
triphenylphosph	-12.3965
UV	-12.3965
pyrimidineamine	-12.3966
alk	-12.3967
isopropylpropan	-12.3975
▁blanket	-12.3978
▁relative	-12.3984
▁carry	-12.3998
dihydrothieno	-12.4002
▁causing	-12.4002
▁given	-12.4007
benzenamine	-12.4016
stannane	-12.4018
ke	-12.402
dipropyl	-12.4022
ow	-12.4025
▁Tetra	-12.403
BuOK	-12.4038
valyl	-12.4047
▁third	-12.4047
▁KF	-12.4049
▁head	-12.405
phenylhydrazine	-12.4051
dichloride	-12.4053
tetraaza	-12.4059
pregna	-12.4059
▁sec	-12.4064
carbamimidoyl	-12.4065
ano	-12.4071
bd	-12.4076
triacetoxy	-12.4083
dihydrofuran	-12.4086
▁tosylate	-12.4092
Arg	-12.4096
▁neutralize	-12.4122
▁Exact	-12.4125
▁Solution	-12.413
▁protons	-12.4136
▁submitted	-12.4144
peptide	-12.416
isonicotinamide	-12.4174
▁fed	-12.4178
▁full	-12.4181
Heptane	-12.4184
oxaborol	-12.4186
led	-12.4187
▁EX	-12.4188
▁Iso	-12.4188
▁briefly	-12.4193
exchange	-12.4194
▁iced	-12.4195
imidate	-12.4205
naphthol	-12.4206
sulphoxide	-12.4209
phenylenediamine	-12.4214
▁reference	-12.4214
IPA	-12.4218
▁pentoxide	-12.4225
▁Starting	-12.4229
carbonylmethyl	-12.4236
▁cyclopropane	-12.4236
ho	-12.424
′′,	-12.4245
▁injection	-12.4252
}(	-12.4255
▁mmoL	-12.4257
▁And	-12.426
cyanamide	-12.4262
▁phthalimide	-12.4267
top	-12.4271
methylimidazole	-12.4274
thi	-12.4277
dioxoisoindolin	-12.4283
adenosine	-12.4285
methylbut	-12.4286
▁tlc	-12.4306
hydrogen	-12.4307
low	-12.4321
pet	-12.4324
butyldicarbonate	-12.4327
ammonia	-12.4331
▁chemical	-12.4338
tolu	-12.4344
three	-12.4345
oxazepin	-12.4347
picolinamide	-12.4351
qd	-12.4358
xanthene	-12.436
▁modifier	-12.4363
▁bomb	-12.4363
▁number	-12.4367
PEG	-12.4395
▁Treatment	-12.4395
ical	-12.44
cinnamic	-12.4408
described	-12.441
Ethoxy	-12.443
methylbenzoyl	-12.4431
diastereoisomers	-12.4444
ef	-12.445
hydroquinone	-12.4459
▁fluffy	-12.4461
ale	-12.4465
octadecahydro	-12.4468
eneoxyphenyl	-12.4485
▁Gilson	-12.4489
binaphthyl	-12.4513
▁petrol	-12.4517
▁phosphoryl	-12.4518
ton	-12.4522
Dibromo	-12.4536
benzenesulfonic	-12.4538
▁Mo	-12.4539
od	-12.4546
lactam	-12.4549
▁SNAP	-12.4556
Int	-12.4558
clo	-12.4558
▁Afterwards	-12.4559
▁intended	-12.4565
▁include	-12.4569
difluorophenoxy	-12.4577
pyro	-12.4588
glucopyranosyl	-12.4591
car	-12.4592
▁DI	-12.4592
oxazolyl	-12.4605
cyan	-12.4606
Cyclohexyl	-12.4611
oxyimino	-12.462
methoxyaniline	-12.4623
▁Methanesulfonyl	-12.4624
▁Extract	-12.4626
▁Form	-12.4626
oxyphenyl	-12.463
ynyloxy	-12.4648
▁Residue	-12.4652
diphenylphosphor	-12.4656
trichloromethane	-12.4657
▁connected	-12.4657
▁arom	-12.4661
iii	-12.467
bromoacetate	-12.4673
fi	-12.4676
▁Teflon	-12.4678
cyclohexan	-12.4684
▁SPE	-12.4695
chloroimidazo	-12.4697
ther	-12.4699
zirconium	-12.4707
NaO	-12.4711
▁Progress	-12.4715
▁experiment	-12.472
▁colour	-12.4723
oxopiperidine	-12.4736
▁continuous	-12.4743
Fmoc	-12.4749
glycinate	-12.475
AcOH	-12.475
acetoacetate	-12.4751
man	-12.4763
which	-12.4764
fluoroanilino	-12.4764
▁bp	-12.4768
phenylpropan	-12.477
assume	-12.4775
con	-12.4778
▁scheme	-12.4779
▁seeded	-12.4784
▁fuming	-12.4796
▁Production	-12.4801
azobis	-12.4802
formate	-12.4802
▁Wako	-12.4802
▁tetrakistri	-12.4808
quinolizine	-12.481
▁monomethyl	-12.4812
ary	-12.4814
alkylated	-12.4818
phosphinic	-12.4818
isopropenyl	-12.4822
▁PyBOP	-12.4826
▁pentachloride	-12.483
▁deprotected	-12.4831
boric	-12.4834
azepino	-12.4835
melting	-12.4837
▁succinic	-12.4853
▁necessary	-12.486
oxobutyl	-12.4861
sila	-12.4861
pr	-12.4861
benzyloxyphenyl	-12.4862
perhydro	-12.4874
▁essentially	-12.4877
hydantoin	-12.4878
methoxyethanol	-12.4887
▁RediSep	-12.4895
anilide	-12.4896
liquid	-12.4897
butylphosphino	-12.4899
mono	-12.4904
DCI	-12.4905
gen	-12.4907
▁Isopropyl	-12.4915
Phenomenex	-12.4915
▁manufactured	-12.4918
hy	-12.4937
methoxypropoxy	-12.4938
oxindole	-12.4942
heptanoic	-12.4959
▁transfer	-12.496
▁ethylenediamine	-12.4962
-({(	-12.4962
▁Trans	-12.4962
dihydropyrimidin	-12.4964
▁Brine	-12.4969
undecane	-12.4972
aluminium	-12.498
pi	-12.4981
formamido	-12.4983
est	-12.4987
dihydropyrrolo	-12.4989
hexanoyl	-12.4997
▁near	-12.4999
ethanethiol	-12.5005
rn	-12.5011
amidino	-12.5011
▁Isomer	-12.5013
gas	-12.5014
▁rapid	-12.5015
▁First	-12.5016
▁acyl	-12.5016
light	-12.5017
indenyl	-12.5021
azetidinone	-12.5026
▁HP	-12.5031
chlorobenzoic	-12.5041
trichloromethyl	-12.5049
▁immersed	-12.5051
▁NaCNBH	-12.5051
INT	-12.5055
diazomethane	-12.5055
▁entitled	-12.5059
▁dt	-12.506
arom	-12.5066
methylpropanoate	-12.5067
CPBA	-12.5069
balloon	-12.5073
phenanthren	-12.5082
VIII	-12.5084
chi	-12.5084
▁sieve	-12.5085
glycidyl	-12.5086
ard	-12.5101
phosphite	-12.5104
undecan	-12.5112
ai	-12.5114
▁preheated	-12.5125
▁Heating	-12.5139
▁crystallizes	-12.5142
▁turnings	-12.5143
propionaldehyde	-12.5147
Eluent	-12.5156
▁good	-12.5161
benzisoxazol	-12.5167
Tyr	-12.5167
▁isolation	-12.5169
▁alpha	-12.5171
CA	-12.5172
charcoal	-12.5172
▁container	-12.5175
Benzoyl	-12.5183
▁uptake	-12.5196
bp	-12.5196
▁tribasic	-12.5201
▁forming	-12.5208
cyclopropylamine	-12.521
▁entire	-12.5223
▁enough	-12.5223
let	-12.5229
▁ring	-12.5232
tetrakis	-12.5234
tent	-12.5237
acetylthio	-12.5238
pyridazinone	-12.5241
vis	-12.5241
azol	-12.525
oxazino	-12.525
iodopropane	-12.5254
trichloroethyl	-12.5262
▁cat	-12.5271
side	-12.5274
methoxyquinolin	-12.5276
▁fritted	-12.5276
quat	-12.5277
▁chloroacetyl	-12.5284
▁reagents	-12.5288
tra	-12.5288
▁MnO	-12.5294
▁Purified	-12.5298
▁nitromethane	-12.53
▁decomposed	-12.5302
▁turbid	-12.5303
hydrazono	-12.5304
▁name	-12.5308
por	-12.5309
▁Stirred	-12.5312
MeOD	-12.5313
benzenethiol	-12.5316
coumarin	-12.5316
chloroaniline	-12.533
DSC	-12.5338
mesyl	-12.5339
methyldisilazane	-12.5339
▁Merck	-12.5342
▁seed	-12.5342
▁Concentrate	-12.5343
▁scale	-12.5343
▁rubber	-12.5348
yr	-12.5349
cyclopentanone	-12.5351
tern	-12.5366
▁purging	-12.5366
▁effected	-12.5367
diisobutyl	-12.537
ification	-12.5371
▁charge	-12.5384
methoxypropyl	-12.5385
difluorobenzene	-12.5386
▁distill	-12.5387
methylquinoline	-12.5395
▁treating	-12.5398
anhydro	-12.54
▁said	-12.5407
calc	-12.5407
ci	-12.5409
NaHCO	-12.5414
▁Hydrazine	-12.5416
oxopyridin	-12.5426
ido	-12.5426
solv	-12.5426
▁deoxygenated	-12.5429
]-[	-12.5435
▁effect	-12.5436
mercaptan	-12.5438
▁gaseous	-12.5443
green	-12.5456
aminosulfonyl	-12.5462
▁glassy	-12.5462
BB	-12.5463
See	-12.5473
▁mCPBA	-12.5474
▁composition	-12.5475
crystallized	-12.5475
▁Temperature	-12.5479
phosphinyl	-12.549
diisopropylether	-12.549
▁separately	-12.5492
crystal	-12.5496
▁terminate	-12.5498
dibenz	-12.5498
nium	-12.5498
ax	-12.5498
▁elevated	-12.5511
▁trihydrate	-12.5513
′′′	-12.5516
▁unit	-12.5524
▁hydrophobic	-12.5529
bulb	-12.5539
▁dioxan	-12.5542
quinuclidin	-12.5559
bipyridinyl	-12.5562
▁purify	-12.5566
▁aryl	-12.5568
enone	-12.557
▁iPrOH	-12.5574
▁substantially	-12.5576
▁prism	-12.558
boc	-12.5594
ArC	-12.5598
androst	-12.5602
▁polyphosphoric	-12.5603
▁Observed	-12.5608
methylmorpholin	-12.5608
OTf	-12.5608
▁mi	-12.5622
indanone	-12.5629
▁thirty	-12.5631
▁soluble	-12.5634
▁block	-12.5641
nitroso	-12.5644
YL	-12.5644
ace	-12.5644
phosphoric	-12.5648
rot	-12.5654
Chloromethyl	-12.5657
supported	-12.5673
▁Rate	-12.5677
▁homogenous	-12.5677
▁Copper	-12.5682
OBzl	-12.5684
▁decantation	-12.5691
▁longer	-12.5696
cyclohexen	-12.5697
▁HF	-12.5698
▁change	-12.5711
dia	-12.5715
▁Sat	-12.5716
oxopropanoate	-12.5718
benzothiophen	-12.5724
▁diazomethane	-12.5726
retention	-12.5733
▁Ti	-12.5736
▁acetoacetate	-12.5737
pyrrolidino	-12.5738
▁hypochlorite	-12.5743
oxopyrrolidine	-12.5744
Bromomethyl	-12.5748
▁NaN	-12.5752
octadecyl	-12.5752
▁Pro	-12.5761
nine	-12.5761
▁Data	-12.5761
PP	-12.5764
▁diluting	-12.5771
terphenyl	-12.5776
Trimethylsilyl	-12.5778
▁elemental	-12.5785
▁nitrile	-12.5789
threo	-12.579
▁pellets	-12.579
hydroxybenzoic	-12.5802
Thio	-12.5804
▁PS	-12.5807
isohexane	-12.5814
▁{[	-12.5814
▁analytically	-12.5815
▁benzhydryl	-12.5816
▁seconds	-12.5823
dibenzylamino	-12.5825
iod	-12.5829
Water	-12.5833
▁propylene	-12.5833
racemate	-12.5837
▁Dilute	-12.5843
alcohol	-12.5845
iodomethyl	-12.5847
dioxino	-12.5848
▁Methylene	-12.585
propyloxy	-12.5857
MP	-12.5868
▁maximum	-12.587
rt	-12.5888
ET	-12.5889
ext	-12.5893
be	-12.5899
▁liquors	-12.5902
▁top	-12.5908
▁remainder	-12.5908
▁indicates	-12.5911
▁Time	-12.5918
▁groups	-12.5923
Ir	-12.5924
anil	-12.5928
octyloxy	-12.5939
TEA	-12.594
▁distributed	-12.5941
▁Gas	-12.5942
ki	-12.5945
STR	-12.5948
benzotrifluoride	-12.5956
ess	-12.5963
▁singlet	-12.5965
carboxyl	-12.5966
trihydroxy	-12.5971
NaOH	-12.5971
▁nearly	-12.5975
meter	-12.5995
▁centrifuged	-12.6
Prep	-12.6007
packed	-12.6008
ClNO	-12.6013
▁start	-12.6021
ect	-12.6022
▁acryloyl	-12.6027
MALDI	-12.6028
sed	-12.6029
methoxyphenol	-12.6029
Pyr	-12.6036
nCl	-12.6037
▁Ru	-12.6038
rich	-12.6048
amid	-12.6049
▁radial	-12.6057
benzoxazepin	-12.6063
▁adjusting	-12.6064
ethanesulfonyl	-12.6065
methylbutanoyl	-12.6071
butyramide	-12.6071
phosphonoacetate	-12.6072
flu	-12.6075
▁frozen	-12.6076
▁selectivity	-12.6077
▁anhy	-12.6079
ribofuranosyl	-12.6086
▁literature	-12.6086
▁Bio	-12.6091
aminocyclohexyl	-12.6096
▁melts	-12.6099
▁box	-12.6103
▁utilizing	-12.6105
pentanone	-12.6114
oro	-12.6116
▁Spec	-12.6132
quintet	-12.6134
+],	-12.6136
cro	-12.6136
Prop	-12.6137
▁Combi	-12.6143
▁disodium	-12.6145
cc	-12.6148
▁Separate	-12.6148
trioxa	-12.6148
▁they	-12.6154
benzoquinone	-12.6161
onohydrochloride	-12.6171
position	-12.6172
▁simultaneously	-12.6173
▁gr	-12.6183
▁Lawesson	-12.619
decomposition	-12.619
bromopropyl	-12.6195
TB	-12.6196
▁device	-12.6198
CONH	-12.6198
lysine	-12.6201
quint	-12.6203
▁fumarate	-12.621
methylbiphenyl	-12.6221
oxazolidinone	-12.6225
▁open	-12.6226
▁nuclear	-12.6232
IX	-12.6237
isomers	-12.624
ddt	-12.6245
hexadecyl	-12.6252
▁sulfonate	-12.6252
▁deprotection	-12.6252
▁centrifugal	-12.6257
commercially	-12.6259
▁FC	-12.6259
▁working	-12.626
oxid	-12.6262
▁iodoethane	-12.6262
carbohydrazide	-12.6272
▁isopropylamine	-12.6273
XBridge	-12.6281
ivity	-12.6286
▁Sigma	-12.629
imidazolium	-12.6294
carbethoxy	-12.6295
▁Cooled	-12.6312
ature	-12.6316
hydroxybutyl	-12.6316
oxoacetate	-12.6319
cyclopentadiene	-12.6322
dideoxy	-12.6328
)((	-12.6328
COCH	-12.6336
brom	-12.6341
▁DEAD	-12.6342
▁AIBN	-12.6346
apparent	-12.6346
▁BEH	-12.6351
▁plus	-12.6351
▁strong	-12.6361
▁Dowex	-12.6365
▁Pt	-12.6366
enantiomer	-12.637
▁SM	-12.6371
methylbutan	-12.6374
Molecular	-12.6381
▁crystallisation	-12.6386
IB	-12.6392
benzyloxyimino	-12.6402
vacuum	-12.6402
▁screw	-12.6411
Gradient	-12.6413
hexanol	-12.6419
▁melt	-12.6421
Cpd	-12.6425
▁Shimadzu	-12.6425
▁epoxide	-12.6439
dihydroxyphenyl	-12.6439
▁Petroleum	-12.644
▁olefin	-12.6446
▁lot	-12.6449
▁caesium	-12.6461
ethene	-12.6461
RP	-12.6464
isothiazole	-12.647
Carboxy	-12.6472
▁Distillation	-12.6481
fluor	-12.6485
▁Gel	-12.6486
▁probe	-12.6486
dichlorobenzoyl	-12.6489
▁provides	-12.6489
adenine	-12.6501
octadeca	-12.6503
ethylhexyl	-12.6504
Aminomethyl	-12.6506
▁Combiflash	-12.6514
▁tetrabromide	-12.6518
azide	-12.6524
cysteine	-12.6532
benzoxazepine	-12.6535
overlapping	-12.6542
▁bisulfate	-12.6542
-(+)-	-12.6542
heptanes	-12.6545
▁remains	-12.655
morpholinomethyl	-12.6551
nona	-12.6552
Ru	-12.6558
off	-12.6559
pentanol	-12.6559
fo	-12.656
bromoethoxy	-12.6562
▁vented	-12.6567
chlorocarbonyl	-12.6569
cyclopentylamino	-12.6571
ric	-12.6581
▁Chemistry	-12.6582
int	-12.6586
▁Celsius	-12.6593
bora	-12.6595
Tetramethyl	-12.6597
azocin	-12.66
benzisoxazole	-12.6603
▁divided	-12.6608
methylthiazole	-12.6609
▁Tris	-12.6609
▁Carbon	-12.6617
▁Final	-12.6617
penten	-12.6624
chloropropoxy	-12.6633
DMT	-12.6638
▁centrifugation	-12.6659
inium	-12.6664
sulph	-12.6671
tributyltin	-12.6676
piperazino	-12.668
▁values	-12.6691
amin	-12.6703
▁MsCl	-12.671
are	-12.671
▁due	-12.6712
petrol	-12.6713
▁drained	-12.6721
internal	-12.6735
▁stop	-12.6738
pheny	-12.6747
outlet	-12.6755
▁increase	-12.6792
▁opened	-12.6794
Note	-12.6795
aminophenoxy	-12.6799
▁tripotassium	-12.6799
chol	-12.6801
naphthalenyl	-12.6801
war	-12.6807
ethoxymethylene	-12.681
▁tricyclohexyl	-12.6812
izing	-12.6819
base	-12.6826
isobutoxy	-12.6827
litre	-12.6827
reaction	-12.683
allyloxycarbonyl	-12.6838
indolyl	-12.6839
BINAP	-12.6841
iPr	-12.6841
▁released	-12.6845
gluco	-12.6855
▁Tetrahedron	-12.6864
fluoride	-12.6865
fu	-12.6871
AT	-12.6878
trimethylammoniu	-12.6882
▁analyses	-12.6893
▁acidification	-12.6902
MTBE	-12.6914
▁Rochelle	-12.6924
carba	-12.6925
▁Cesium	-12.693
▁Stage	-12.693
ize	-12.6931
diazepan	-12.6934
dimethoxytrityl	-12.6936
eu	-12.6943
▁maleate	-12.6944
ay	-12.6948
diiodo	-12.6949
succinic	-12.696
▁exp	-12.6961
aminobenzoate	-12.6964
azole	-12.6966
▁Gemini	-12.697
tritylamino	-12.6982
▁hemi	-12.6984
Th	-12.6988
bound	-12.6988
dihydroisoxazol	-12.6998
Hydroxymethyl	-12.6998
ove	-12.7007
methylpyrazolo	-12.7007
▁JAB	-12.7007
ky	-12.7018
sulfon	-12.7019
methylpyrazole	-12.7023
▁Remove	-12.7025
+)=	-12.7032
▁ketal	-12.7036
imid	-12.7037
sulfonium	-12.7045
▁employing	-12.7046
dichloropyridin	-12.7049
meso	-12.7051
epichlorohydrin	-12.7057
▁Bromine	-12.7062
▁hexahydrate	-12.7063
methylthiophene	-12.7063
deca	-12.7066
yp	-12.7066
carboxamidine	-12.7068
Sn	-12.7073
▁signals	-12.7079
▁nBuLi	-12.7086
fluoropyrimidin	-12.7087
isonicotinate	-12.7096
▁basis	-12.7105
DMA	-12.7109
▁Sunfire	-12.7111
▁matters	-12.7115
piper	-12.7121
▁ensure	-12.7121
▁pivalate	-12.7127
▁pumped	-12.713
fluorenyl	-12.7135
▁partial	-12.7137
▁NaOAc	-12.7139
aminophenol	-12.714
▁jacketed	-12.7143
BrNO	-12.7149
tetrachloro	-12.715
dine	-12.7154
pyrimidinone	-12.716
THP	-12.7161
cyclopenten	-12.7163
para	-12.7163
FNO	-12.717
aminoethoxy	-12.7179
propio	-12.7189
▁FA	-12.7191
pentafluoroethyl	-12.7192
▁replacing	-12.7197
▁Lett	-12.7202
tor	-12.7205
trifluoroethanol	-12.7211
TP	-12.7213
siloxane	-12.7216
sept	-12.7216
AS	-12.7219
▁permanganate	-12.7229
oside	-12.7231
▁commercial	-12.7243
propylcyclohexyl	-12.7246
ear	-12.7248
wt	-12.725
salicylic	-12.7257
▁ArCH	-12.7258
polar	-12.7264
IP	-12.7265
Azido	-12.7273
▁conventional	-12.7273
phosphorane	-12.7273
▁fractionated	-12.7276
▁osmium	-12.7278
▁Chiralpak	-12.728
▁composed	-12.7284
▁synthetic	-12.7284
butyronitrile	-12.7289
▁Grams	-12.7289
aminobenzyl	-12.7289
imidamide	-12.7289
dimethylpyridine	-12.7297
ethylbenzene	-12.7299
isoquinolyl	-12.7301
toluoyl	-12.7317
dioate	-12.7318
ign	-12.732
dimethylamine	-12.7321
▁thereinto	-12.7322
pregn	-12.7323
▁Kugelrohr	-12.7332
xanthen	-12.7334
▁producing	-12.7339
bromophenoxy	-12.7339
▁semisolid	-12.7339
Vis	-12.7355
▁Fraction	-12.7356
▁condensation	-12.7358
trideca	-12.736
iridium	-12.736
In	-12.7362
▁diazonium	-12.7366
thiazine	-12.737
onate	-12.737
▁fully	-12.7378
dimethylxanthene	-12.7378
ori	-12.738
▁Boron	-12.7383
alaninate	-12.7383
phthal	-12.7395
oxoethoxy	-12.7398
methyleneoxy	-12.7399
▁feed	-12.7399
▁continue	-12.7399
pre	-12.7402
picoline	-12.7406
cresol	-12.741
▁tertiary	-12.7418
chloropyrazin	-12.7423
indolizin	-12.7424
azulen	-12.7424
butyn	-12.7432
polystyrene	-12.7435
▁bring	-12.7435
▁RB	-12.7445
▁aimed	-12.7449
tal	-12.7449
▁milliliter	-12.745
▁cyclic	-12.7461
methanesulphonyl	-12.7465
benzamidine	-12.7466
▁caused	-12.7469
JCF	-12.7471
triethylsilyl	-12.7472
methoxybenzo	-12.7473
hydroxypyridine	-12.7473
sulphonate	-12.7473
ron	-12.7474
thioate	-12.7477
▁isopropoxide	-12.7481
oxobutanoic	-12.7487
▁ended	-12.7487
boiling	-12.7491
pyridone	-12.7492
▁cobalt	-12.7498
cap	-12.7502
▁monomer	-12.7505
▁generation	-12.751
butylphenol	-12.7511
▁deposit	-12.7511
stirred	-12.7519
▁HCOOH	-12.7522
ynoic	-12.7524
oxazinan	-12.7531
▁coevaporated	-12.7533
Pyridin	-12.7535
Cyclopentyl	-12.7536
phosphane	-12.7543
NMe	-12.7556
methylpropanoic	-12.7557
basic	-12.7557
ST	-12.7557
phthalazine	-12.756
chloropropane	-12.7577
sulphide	-12.7583
trione	-12.7584
distilled	-12.7592
hyd	-12.7594
▁diastereoisomer	-12.7596
benzylbromide	-12.7602
FD	-12.7605
▁rendered	-12.7606
jacket	-12.7611
pteridin	-12.7611
▁valve	-12.7617
bromophenol	-12.7631
RuCl	-12.7633
Fluka	-12.7634
▁Thin	-12.7634
▁measurement	-12.764
▁checking	-12.764
COO	-12.7643
benzofuro	-12.7654
▁additionally	-12.7655
phenanthrene	-12.7656
triisopropylbi	-12.7656
lysis	-12.7658
ced	-12.7667
trioxo	-12.767
Diphenyl	-12.7671
▁Acetate	-12.7674
▁incomplete	-12.768
pyrazinyl	-12.7681
WO	-12.7684
propenoate	-12.7687
▁Dried	-12.7691
cyanopyridin	-12.7695
ethoxyvinyl	-12.7695
formamidine	-12.7703
chem	-12.7707
▁rotamer	-12.7709
▁evolved	-12.7713
Elemental	-12.7719
▁succession	-12.7719
▁refined	-12.7725
▁blown	-12.7742
half	-12.775
based	-12.7752
diazepane	-12.7752
▁Both	-12.7759
▁consecutively	-12.7759
BrF	-12.7761
dimethoxymethyl	-12.7762
▁regioisomers	-12.7765
▁physical	-12.7765
ethy	-12.7767
ff	-12.7769
silanyloxymethyl	-12.7774
vol	-12.7775
BE	-12.7776
▁substrate	-12.7782
ible	-12.7794
ock	-12.7796
TSA	-12.7796
▁Total	-12.7797
▁desiccator	-12.7799
amic	-12.7804
AG	-12.7804
propylthio	-12.7805
methylacetamide	-12.782
▁wherein	-12.7825
▁sulfuryl	-12.7826
cyclic	-12.7828
▁coloured	-12.7829
nicotinoyl	-12.785
▁mechanically	-12.7856
PT	-12.7859
▁Trimethyl	-12.7861
ou	-12.7863
potassium	-12.7865
dimethylphenoxy	-12.7877
temperature	-12.7885
dioxole	-12.7886
▁greater	-12.7886
chloroethoxy	-12.7886
vac	-12.789
▁Phosphorus	-12.7892
▁regio	-12.7896
▁covered	-12.7898
▁dimethylacetal	-12.7899
▁hydrogensulfate	-12.7901
▁delta	-12.7902
MASS	-12.7904
▁EIMS	-12.7907
Varian	-12.7909
▁Magnesium	-12.7909
diamide	-12.7913
heated	-12.7916
▁Filtered	-12.7916
Ex	-12.7922
Anal	-12.7922
rin	-12.7932
▁similarly	-12.7933
PF	-12.7936
▁refilled	-12.794
▁methylate	-12.7942
▁deg	-12.7948
heptanoate	-12.7956
▁every	-12.7962
xy	-12.7964
iodopyridine	-12.7965
nitrobenzamide	-12.7965
epi	-12.797
phenylacetamido	-12.7982
ethoxyimino	-12.7986
sealable	-12.7986
▁particle	-12.7987
major	-12.7992
▁subtitle	-12.7993
▁cation	-12.7998
Formyl	-12.8002
ATR	-12.8007
DMSOd	-12.8007
▁possible	-12.8009
dichloropyridine	-12.8009
butadiene	-12.8015
septet	-12.8015
picolinonitrile	-12.802
▁combiflash	-12.802
methylisoxazol	-12.8023
▁rotavap	-12.8028
tartrate	-12.803
▁Optical	-12.8035
our	-12.8037
▁pipette	-12.8038
recip	-12.8039
▁Solids	-12.8049
Propyl	-12.8052
characterization	-12.8056
▁DAST	-12.8058
benzeneboronic	-12.8061
carbostyril	-12.8062
▁multiplet	-12.8068
hexahydropyrrolo	-12.8079
▁byproduct	-12.8081
▁proceeded	-12.8087
TE	-12.8092
Pet	-12.8096
▁Vol	-12.8102
▁finely	-12.8105
dihydropyridazin	-12.8106
acetanilide	-12.8133
aminopiperidine	-12.8135
anthr	-12.8141
osin	-12.8142
oxazoline	-12.8143
triazaspiro	-12.8145
▁herein	-12.8145
hen	-12.8146
produced	-12.815
hydroperoxide	-12.8151
coloured	-12.8157
▁perform	-12.8162
pyridyloxy	-12.8162
▁mill	-12.8164
cyclohepten	-12.8167
▁thiocyanate	-12.8168
pentacosa	-12.8175
':	-12.8179
▁ruthenium	-12.8186
▁anion	-12.8192
Teledyne	-12.8198
▁stirbar	-12.8199
ethoxyethanol	-12.8203
▁Synthetic	-12.8204
▁spray	-12.8204
log	-12.8205
oxepin	-12.8212
borohydride	-12.8218
phenanthroline	-12.8222
hydroxypiperidin	-12.8226
cat	-12.8227
▁pivaloyl	-12.8241
calculated	-12.8253
chemical	-12.8256
ochloridate	-12.8271
dioxopyrrolidin	-12.8273
dipiperidine	-12.8276
▁settling	-12.8295
triol	-12.8295
▁Formic	-12.8296
iti	-12.8296
lan	-12.8297
pentanamide	-12.8299
gram	-12.8305
shaped	-12.8307
▁invention	-12.8307
′);	-12.8307
cinnamate	-12.8313
▁polarity	-12.8313
amidine	-12.8318
inate	-12.8319
▁bulk	-12.8319
series	-12.8319
High	-12.832
chlorophenol	-12.8331
gold	-12.8337
▁HOAt	-12.8337
▁golden	-12.8337
tetralone	-12.8343
methylsulphonyl	-12.8348
▁Precipitated	-12.8357
oxaspiro	-12.8358
ual	-12.8368
erythro	-12.8369
▁KOtBu	-12.837
methylbutanoic	-12.8372
oxoquinoline	-12.8375
TBS	-12.8375
▁resolution	-12.8375
cel	-12.8382
methyluridine	-12.8387
dimethylethoxy	-12.8388
chloroquinolin	-12.8389
difluorobenzoyl	-12.8393
propylcarbamate	-12.8397
thiepin	-12.8398
glutamic	-12.8398
▁Ammonia	-12.8398
▁cyanuric	-12.8398
▁Ra	-12.84
phosphoramidite	-12.8404
▁hydrolysed	-12.8404
methoxyquinoline	-12.8407
triethoxysilane	-12.841
boro	-12.8417
BN	-12.8422
corresponding	-12.8422
estr	-12.8429
diethoxyphosphor	-12.8431
Benz	-12.8439
apci	-12.8441
▁Se	-12.8446
prep	-12.8448
diazatetracyclo	-12.8454
Methoxycarbonyl	-12.8455
+];	-12.846
mass	-12.8463
ylmethylene	-12.8466
sulfide	-12.8467
iodosuccinimide	-12.8477
chlorobenzo	-12.8481
PS	-12.8482
SunFire	-12.8484
har	-12.8485
▁Crystals	-12.849
available	-12.8495
oxetane	-12.8502
▁Resulting	-12.8503
enamide	-12.8503
thyl	-12.8506
methan	-12.8513
octanoate	-12.8515
▁DM	-12.852
▁nD	-12.8527
Dioxo	-12.8546
▁isoamyl	-12.8547
trifluoropropan	-12.8549
dibenzofuran	-12.8552
tolylphosphine	-12.8555
▁gravity	-12.8564
Flash	-12.8568
glucopyranoside	-12.857
coated	-12.8572
isobutyronitrile	-12.8588
aster	-12.8597
▁known	-12.8611
▁plastic	-12.8614
oxiranyl	-12.8622
dicarbonate	-12.8624
ers	-12.8625
▁mercury	-12.8633
▁resuspended	-12.8639
azine	-12.864
ture	-12.8643
multiple	-12.8645
▁ozone	-12.8645
▁confirming	-12.8646
anol	-12.8662
after	-12.8665
che	-12.8666
aze	-12.867
▁fluid	-12.867
▁lamp	-12.867
oxooxazolidin	-12.8677
▁including	-12.8683
▁diglyme	-12.8684
▁quantitatively	-12.8687
complex	-12.8688
ceph	-12.8689
cyanobenzyl	-12.8694
dodecane	-12.8695
oy	-12.8711
▁Approximately	-12.8714
benzylcarbamoyl	-12.8715
▁aliquots	-12.8718
▁precipitating	-12.8721
pure	-12.8727
▁FTIR	-12.8727
▁dripped	-12.8727
▁glove	-12.8727
▁Iodomethane	-12.8727
nitroimidazole	-12.873
▁tetraethyl	-12.8731
tationary	-12.8733
▁Isolute	-12.8734
Diamino	-12.8735
▁polymerization	-12.874
sulphonamide	-12.874
hydroxyquinoline	-12.8742
▁reactants	-12.8744
peroxy	-12.8746
▁extractions	-12.8749
annulen	-12.8752
▁capacity	-12.8752
poly	-12.8752
▁optically	-12.8754
ime	-12.8759
▁Ba	-12.8761
morpholinophenyl	-12.8767
IM	-12.8774
▁DEA	-12.878
Ni	-12.8784
ben	-12.8796
▁bubbler	-12.881
▁Xbridge	-12.8816
▁PtO	-12.8816
Butoxy	-12.8819
Oct	-12.8819
dithiol	-12.8823
DME	-12.8825
anhydride	-12.8827
▁subsided	-12.8828
▁degree	-12.8829
ArH	-12.8829
ylidenemethyl	-12.8831
ule	-12.8831
Colorless	-12.8848
Neat	-12.8848
found	-12.8851
phenylpiperidine	-12.887
methyleneamino	-12.8881
dihydropyrazolo	-12.8886
anthraquinone	-12.8886
bromoimidazo	-12.89
osyl	-12.8902
NHCH	-12.8905
purified	-12.8906
ionic	-12.8908
disiloxane	-12.8915
▁crops	-12.8915
though	-12.8918
ang	-12.892
tre	-12.8928
cyclopropoxy	-12.8934
ylethynyl	-12.8939
▁metered	-12.895
ple	-12.8951
▁isomeric	-12.8954
methylisoxazole	-12.8956
▁twenty	-12.8957
ler	-12.8958
diazatricyclo	-12.8958
Agilent	-12.8976
▁disp	-12.8979
▁enantiomeric	-12.8985
evaporation	-12.8988
▁boil	-12.8989
ame	-12.8993
ection	-12.8996
(((	-12.8998
carboethoxy	-12.9
CAN	-12.9003
Iso	-12.9007
▁TiCl	-12.9011
methylindole	-12.9017
▁dye	-12.9023
Amberlite	-12.9028
Methoxyphenyl	-12.9029
aminium	-12.9032
eo	-12.9032
▁CuSO	-12.9034
▁Cooling	-12.9036
ick	-12.9037
ised	-12.904
▁Whatman	-12.9041
▁Organics	-12.9055
phenethylamine	-12.9057
part	-12.9061
camphor	-12.9065
▁Company	-12.9067
▁LiBH	-12.9067
propargyl	-12.908
▁Nickel	-12.9086
▁Base	-12.9089
pivaloyl	-12.9091
butanamido	-12.9093
▁combi	-12.91
bromothiophene	-12.9101
Sigma	-12.9108
orthoformate	-12.9108
▁Redi	-12.9119
▁collection	-12.912
▁formalin	-12.912
-[[[(	-12.9125
surface	-12.9126
tyrosine	-12.9126
pen	-12.9133
cyanophenoxy	-12.9139
cycl	-12.9141
▁Pre	-12.9144
glutaric	-12.9146
DP	-12.9151
Methanesulfonyl	-12.9151
▁dil	-12.9158
Acetone	-12.9161
heptafluoro	-12.9162
Morpholin	-12.9165
▁Appropriate	-12.9166
▁resolved	-12.9166
methyldisilazide	-12.9172
−):	-12.9172
▁diethylene	-12.9173
pin	-12.9177
MgCl	-12.9182
cyclobut	-12.9186
phenylalanyl	-12.9186
corresponds	-12.9188
butyraldehyde	-12.919
▁greenish	-12.9192
▁Peak	-12.9203
oxazolylmethoxy	-12.9208
aminoethanol	-12.9209
▁millimole	-12.9211
hygroscopic	-12.9212
▁precursor	-12.9218
▁Work	-12.9224
phosphinate	-12.9225
que	-12.9228
Acetoxy	-12.9236
dienyl	-12.9237
mole	-12.9248
▁scintillation	-12.9265
sulfonimide	-12.9265
ack	-12.9268
isothiocyanate	-12.9278
▁accomplished	-12.9278
her	-12.928
dichlorophenoxy	-12.9282
lac	-12.9284
Formula	-12.9286
TBA	-12.929
▁eggplant	-12.9292
▁En	-12.9292
condition	-12.9294
▁milky	-12.9298
octanoic	-12.9299
docosa	-12.9299
▁fractional	-12.93
▁uniform	-12.9305
▁tetroxide	-12.9305
toluenesulphonic	-12.9309
trifluor	-12.9311
iminoacetamido	-12.9311
azanediyl	-12.9312
phenacyl	-12.9325
calcd	-12.9326
ile	-12.9331
▁wave	-12.9332
diethoxymethyl	-12.9334
xi	-12.9339
eno	-12.9341
diphenylsilyloxy	-12.9343
▁eV	-12.9348
Te	-12.9353
difluorobenzo	-12.9354
inch	-12.9356
resorcinol	-12.9359
azodicarbonyl	-12.9365
erythromycin	-12.9372
dibromopyridine	-12.9374
▁Material	-12.9379
aziridine	-12.938
▁Aq	-12.9381
▁soda	-12.9383
Electrospray	-12.9392
ethoxyethyl	-12.9394
ger	-12.9401
EDC	-12.9402
▁wavelength	-12.9406
▁Filtrate	-12.9413
methoxybenzyloxy	-12.9416
pentene	-12.9416
morpholinoethyl	-12.9419
disulfanyl	-12.9427
activated	-12.9435
Reference	-12.9444
▁took	-12.9447
xanth	-12.9465
▁post	-12.9471
dram	-12.9471
oo	-12.9472
boronate	-12.9473
Methanol	-12.9479
▁does	-12.948
benzylcarbamate	-12.9486
decanoic	-12.949
▁intervals	-12.9491
bromoaniline	-12.9494
JHH	-12.9495
ink	-12.9497
▁Alternatively	-12.9501
▁triflic	-12.9501
thr	-12.9501
propylidene	-12.9504
OSu	-12.9505
▁CuCl	-12.951
itol	-12.9518
ave	-12.952
Enantiomer	-12.9521
silicon	-12.9522
ka	-12.9525
cyclopropanamine	-12.9544
chlorosulfonic	-12.9547
phenothiazine	-12.9557
difluoroacetate	-12.9564
stereo	-12.9565
BT	-12.9573
maleimide	-12.9576
fold	-12.9578
isoquinolinyl	-12.9587
▁stock	-12.959
▁Per	-12.9592
diphenylamine	-12.9594
▁membrane	-12.9597
mann	-12.9608
opropylmagnesium	-12.961
diallyl	-12.9622
MeO	-12.9625
Diethyl	-12.963
dicyclohexylurea	-12.9649
oxoazetidine	-12.965
Analogix	-12.9652
dehydro	-12.9654
azepane	-12.9656
▁either	-12.9659
▁Triethyl	-12.9664
▁NCS	-12.9669
▁Isolera	-12.9673
carbamoyloxy	-12.9683
▁pipe	-12.9693
▁respect	-12.9694
ruthenium	-12.9694
lated	-12.9697
▁proposed	-12.9701
▁degassing	-12.9701
isobutyrate	-12.9705
INTERMEDIATE	-12.9714
▁roto	-12.9718
{(	-12.9738
mesityl	-12.9742
cod	-12.9742
trimethoxysilane	-12.9743
fluorobenzamide	-12.9745
NaCl	-12.9748
phy	-12.9777
diastereomer	-12.9791
average	-12.9791
Thr	-12.9796
dioxine	-12.9798
leucyl	-12.9798
▁split	-12.9798
▁XPhos	-12.9799
elut	-12.9803
▁DE	-12.9806
trifluoropropyl	-12.9808
▁pulverized	-12.9812
▁spatula	-12.9812
▁Evaporate	-12.982
▁GP	-12.9821
methylpent	-12.9831
▁xylenes	-12.9832
tosyloxy	-12.9842
XI	-12.985
▁processed	-12.986
MNa	-12.9862
methylquinazolin	-12.9865
uridine	-12.9865
xanthine	-12.9869
▁supra	-12.9876
dmso	-12.9876
▁alkali	-12.9877
methoxybenzamide	-12.988
tetradecyl	-12.9883
▁undissolved	-12.9883
Chiralcel	-12.9884
Dimethylethyl	-12.9889
▁rest	-12.9892
cyanopyridine	-12.9895
▁diester	-12.9897
▁Yellow	-12.9897
heptyloxy	-12.9901
ough	-12.9905
under	-12.9906
▁hydroiodide	-12.9912
▁cotton	-12.9919
benzenesulphonyl	-12.9924
Piperidin	-12.9925
▁Each	-12.9947
hose	-12.9955
Tf	-12.9964
▁viscosity	-12.9976
sep	-12.9979
▁Title	-12.9983
naphthoic	-12.9987
propion	-12.9994
▁extra	-13
▁Some	-13.0005
BP	-13.0007
nate	-13.0015
▁oxidation	-13.0019
Dichlorophenyl	-13.0019
rCl	-13.0022
PCC	-13.0024
▁week	-13.0026
▁Over	-13.0027
Bi	-13.003
au	-13.0035
bromopropane	-13.0044
aking	-13.0047
electro	-13.0047
▁agitator	-13.0047
methylthieno	-13.0058
ride	-13.0071
▁EDCl	-13.0071
ness	-13.0074
cholest	-13.0075
cyclooctadiene	-13.0076
succin	-13.0077
▁dehydration	-13.0083
▁If	-13.0096
rop	-13.0105
▁recooled	-13.0111
violet	-13.0127
▁Layer	-13.0127
Cu	-13.0135
▁GCMS	-13.0136
sulfone	-13.0142
fluorobiphenyl	-13.015
▁HNO	-13.0154
HATU	-13.016
▁chlorite	-13.0163
ethano	-13.0165
′-{[	-13.0168
▁Erlenmeyer	-13.0171
▁stood	-13.0171
Trp	-13.0172
dimethoxyethyl	-13.018
carboxyphenyl	-13.0182
amycin	-13.0185
▁Borane	-13.02
Bromophenyl	-13.02
pivaloyloxy	-13.0202
drying	-13.0209
▁initiated	-13.0215
▁thioacetate	-13.0217
Dihydroxy	-13.022
▁cyanogen	-13.0237
▁examples	-13.0239
Elut	-13.0248
dimethylbenzene	-13.0258
aceton	-13.026
idone	-13.0267
OP	-13.0267
METHYL	-13.0273
hydroxypropoxy	-13.0274
tertiary	-13.0277
▁conduct	-13.0287
▁discharged	-13.0288
methylpentan	-13.0289
[[(	-13.0293
glyoxal	-13.0294
phospho	-13.0295
▁Jones	-13.0295
chloropyrazine	-13.0295
▁Cy	-13.0301
▁DETL	-13.0303
treated	-13.0304
▁spin	-13.0316
▁partition	-13.0316
enyloxy	-13.0316
PD	-13.0318
Bzl	-13.0321
▁now	-13.0322
fluoran	-13.0332
ili	-13.0334
kg	-13.0335
▁vmax	-13.0339
ix	-13.0343
▁Iron	-13.0348
bar	-13.0355
▁Pharm	-13.0362
oxyl	-13.0377
ble	-13.0377
▁caustic	-13.0384
inter	-13.0389
crystallization	-13.0394
′-{	-13.0402
nicotin	-13.0409
propylcarbamoyl	-13.0412
▁dl	-13.0413
▁sonication	-13.0414
propyn	-13.0417
▁cause	-13.0417
ux	-13.0423
▁litres	-13.0424
treatment	-13.0429
decanoate	-13.043
sel	-13.0433
ynoate	-13.0436
butylate	-13.0441
▁lead	-13.0449
cycloheptyl	-13.0449
▁solidifies	-13.0452
cyclopentanol	-13.0455
chlorobenzoate	-13.0458
▁Florisil	-13.0459
formula	-13.0465
▁HCL	-13.0466
▁dimethylamide	-13.0468
flo	-13.0469
▁close	-13.047
trifluoroborate	-13.0472
methylpyrazin	-13.0483
isocyano	-13.0485
ortho	-13.0486
products	-13.0488
lined	-13.049
indolizine	-13.0493
pur	-13.0502
▁trimethylamine	-13.0505
diacetyl	-13.0509
▁DD	-13.0518
AL	-13.052
phosphoro	-13.0525
▁DPPA	-13.0527
acridine	-13.0529
▁generate	-13.0537
aminosulfur	-13.0541
iodobenzoate	-13.0541
▁purifying	-13.0543
propylene	-13.0543
nitrogen	-13.0544
cyclohexa	-13.0545
carbothioamide	-13.0557
azidoethyl	-13.0563
)-(-)-	-13.0566
AV	-13.0567
▁sit	-13.0574
excess	-13.0574
▁recorded	-13.058
ory	-13.0589
nig	-13.06
Celite	-13.0607
▁protocol	-13.061
chloromethane	-13.0615
azetidinyl	-13.0616
▁ferric	-13.0618
ydro	-13.0618
own	-13.0621
-[{	-13.0624
▁Subsequent	-13.064
▁foil	-13.0649
out	-13.066
ful	-13.0663
▁NaHC	-13.0668
cyclopentan	-13.0672
pentyn	-13.0673
▁throughout	-13.0674
dibenzoyl	-13.0685
▁STEP	-13.0687
▁foaming	-13.0688
CIR	-13.0699
ically	-13.07
▁Oxone	-13.0703
aminothiazole	-13.0712
benzohydrazide	-13.0712
▁rotavapor	-13.0715
propiophenone	-13.0718
PdCl	-13.0722
▁seven	-13.0727
▁TR	-13.0739
▁mild	-13.0741
▁CsF	-13.0746
chromane	-13.0754
Pak	-13.0758
iodopyridin	-13.0763
methylbutanoate	-13.0766
nickel	-13.0772
thymidine	-13.0779
▁Furthermore	-13.0779
decanoyl	-13.078
quant	-13.078
sulfonylchloride	-13.0783
▁barium	-13.0785
dimethylsulfide	-13.0793
SiMe	-13.0794
ribo	-13.0797
sulfur	-13.0802
▁azeotrope	-13.0806
▁KMnO	-13.081
path	-13.0819
▁sublimation	-13.0826
Sil	-13.0838
benzodioxole	-13.0838
diylbis	-13.0854
▁heavy	-13.0857
▁nucleoside	-13.0857
diazepino	-13.086
sulfinic	-13.0865
preparation	-13.0872
▁CuBr	-13.0881
methylpiperazino	-13.0882
char	-13.0893
▁tetrahydrate	-13.0898
interm	-13.0905
▁cyanate	-13.0912
fluoropiperidin	-13.0913
▁CeliteTM	-13.0918
▁Reflux	-13.092
sulphate	-13.0923
▁substances	-13.0931
tetraisopropyl	-13.0933
octanoyl	-13.0936
▁solubilized	-13.0943
trityloxy	-13.0944
til	-13.0945
isation	-13.0946
trade	-13.095
hexafluoropropan	-13.0954
tetr	-13.0958
▁highly	-13.0959
Kieselgel	-13.0959
valeric	-13.0959
salicylate	-13.0959
glucose	-13.0966
thiochroman	-13.0968
ark	-13.0969
phospha	-13.0977
▁instrument	-13.0983
▁needed	-13.0983
carbamyl	-13.0986
ascorb	-13.0991
hydroxyphenoxy	-13.0991
butynyloxy	-13.0992
anomer	-13.0994
indacen	-13.1004
▁chlorochromate	-13.1007
TO	-13.1012
+/−	-13.1014
▁naturally	-13.1015
iden	-13.1018
napth	-13.1028
Isobutyl	-13.1028
▁cupric	-13.103
▁protective	-13.103
TBDMS	-13.1032
DIPEA	-13.1032
▁NaOtBu	-13.1033
▁reextracted	-13.1035
▁ultrasonic	-13.1038
analysis	-13.1044
▁Da	-13.1048
▁deliver	-13.1053
▁Charge	-13.1054
▁reducing	-13.1054
vent	-13.1059
Biphenyl	-13.1064
oxoimidazolidin	-13.1066
pival	-13.107
▁methacrylic	-13.1078
benzylamide	-13.108
▁Separately	-13.1087
pine	-13.109
modified	-13.1094
Description	-13.1102
benzen	-13.1107
cyclobutoxy	-13.1118
DCC	-13.1119
▁dr	-13.1119
hexahydrofuro	-13.1131
chloroquinoline	-13.1141
oxospiro	-13.1144
undeca	-13.1149
biotage	-13.115
▁dichlormethane	-13.115
′′]	-13.1163
tained	-13.1172
fluorobenzo	-13.1173
hexadecan	-13.1182
cyclopentene	-13.1184
▁characteristic	-13.1196
▁PTLC	-13.1197
uan	-13.1198
ute	-13.12
▁cut	-13.1202
▁Three	-13.1207
nitr	-13.1215
prolyl	-13.1215
dioxolo	-13.1216
▁partitioning	-13.1224
suspended	-13.123
valerate	-13.1231
phosph	-13.1234
▁effervescence	-13.1247
▁Chemicals	-13.1251
▁Benzene	-13.1256
▁strongly	-13.1256
oxoazetidin	-13.1263
▁faint	-13.1264
ner	-13.1265
phasic	-13.128
▁Vacuum	-13.128
▁MDAP	-13.1288
uff	-13.129
carboxyethyl	-13.129
▁acidify	-13.1292
▁PTFE	-13.1296
ies	-13.13
dimethoxybenzene	-13.1303
dioxy	-13.1304
dimethoxypropane	-13.1305
▁excessive	-13.1307
less	-13.1309
▁induce	-13.1312
undecyl	-13.1314
El	-13.1324
▁copious	-13.1329
▁introduction	-13.1329
IT	-13.1337
)+]:	-13.1351
thioureido	-13.1352
Tetra	-13.1353
isothiourea	-13.1355
▁NaHMDS	-13.1358
pyrrolyl	-13.1366
▁ID	-13.1377
▁DIPE	-13.1377
ome	-13.138
oline	-13.138
carboline	-13.1381
diisopropylamino	-13.1383
▁Precipitate	-13.1384
▁pentafluorophen	-13.1387
emed	-13.139
▁CEM	-13.1394
Chem	-13.1404
thienylmethyl	-13.1411
propionyloxy	-13.1413
cyclohexanamine	-13.1418
dibenzyloxy	-13.1418
CHIRALPAK	-13.1428
▁loss	-13.1428
acetimidate	-13.1428
directed	-13.1428
azin	-13.1429
▁taking	-13.143
dihydroxypropyl	-13.1435
ann	-13.1443
phosphon	-13.1444
▁completing	-13.1444
bromoethanol	-13.1455
dodecano	-13.1455
▁analysed	-13.1461
▁exclusion	-13.1461
Aza	-13.1465
quinolinone	-13.1471
sulfinate	-13.1474
HMDS	-13.1479
trichlorophenyl	-13.148
ept	-13.1486
Calculated	-13.1486
oxopiperidin	-13.1486
▁generally	-13.1493
▁MeMgBr	-13.1494
isobutyric	-13.1495
difluoroaniline	-13.15
minor	-13.1503
▁respective	-13.151
▁stannous	-13.1511
▁cell	-13.1515
▁seal	-13.1518
▁Acquity	-13.1519
▁wax	-13.152
amphorsulfonic	-13.1521
content	-13.1521
sorb	-13.1525
▁Hydroxylamine	-13.1527
▁Separation	-13.1527
▁proportion	-13.1536
moles	-13.1537
phthalonitrile	-13.1538
PI	-13.1546
▁thiosulphate	-13.1561
dodec	-13.1578
▁Chromatographic	-13.1578
fluoropyrrolidin	-13.1581
▁decompose	-13.1584
oxoprop	-13.1585
sulphanyl	-13.1586
▁consisted	-13.1586
Trichloro	-13.1589
pack	-13.1592
▁support	-13.1594
sulfane	-13.1595
▁confirm	-13.1601
silyloxy	-13.161
morphinan	-13.1611
formic	-13.1612
methanesulfinyl	-13.1617
androsta	-13.1619
▁morning	-13.162
acryl	-13.1622
anging	-13.1636
▁Corporation	-13.1636
guanine	-13.1645
ulated	-13.1651
glycolic	-13.1662
▁Sub	-13.1662
▁Mono	-13.1665
▁combine	-13.1669
butyrolactone	-13.1679
phenylisocyanate	-13.168
dithia	-13.1681
ABX	-13.1686
ket	-13.1688
azabenzotriazole	-13.1692
Analysis	-13.1693
methylpentanoate	-13.1696
▁will	-13.1705
butylcarbamoyl	-13.171
▁seen	-13.1713
salicylaldehyde	-13.1713
Car	-13.172
aspartic	-13.1721
▁xantphos	-13.1721
tetraoxa	-13.1723
trihydrochloride	-13.173
▁secondary	-13.173
spec	-13.173
succinimidyl	-13.1741
▁mostly	-13.1742
purchased	-13.1747
dibromopropane	-13.1749
quinolone	-13.1751
tetralin	-13.1762
fur	-13.1774
Gemini	-13.1775
Acet	-13.1775
flowing	-13.1778
▁successive	-13.178
benzylpiperidin	-13.1788
chloropurine	-13.1797
valeryl	-13.1798
▁hydrogenator	-13.1799
nitroquinoline	-13.1801
tur	-13.1803
dimethylphenol	-13.1805
▁adapter	-13.1807
isocyanide	-13.1825
▁ethylmagnesium	-13.183
▁noted	-13.1832
ost	-13.1835
isochroman	-13.1837
butyltin	-13.184
thiadiazolidin	-13.1842
enal	-13.1844
chloroethane	-13.1872
▁Catalyst	-13.1876
phenylethanone	-13.1882
Benzenesulfonyl	-13.1883
butylsulfinyl	-13.1884
▁equimolar	-13.1884
▁hand	-13.1885
methyloxazol	-13.1887
isoxazolo	-13.1896
▁oxone	-13.1896
aromatic	-13.1898
DBU	-13.1904
solve	-13.1909
▁signal	-13.1909
HOBt	-13.1914
carbapen	-13.1921
ral	-13.1922
Trt	-13.1924
▁CuCN	-13.1931
fil	-13.1939
stilbene	-13.1945
development	-13.1945
▁destroyed	-13.1946
ero	-13.1948
isatin	-13.1952
Trimethyl	-13.196
phosphonomethyl	-13.1962
▁disc	-13.1974
bromobenzoate	-13.1974
▁SB	-13.1975
particle	-13.1979
sulfoxonium	-13.198
vap	-13.198
isobutyramide	-13.1981
peak	-13.1982
ilic	-13.1985
▁buffered	-13.1987
bridge	-13.1988
TEMPO	-13.1989
▁sucked	-13.1989
▁Diluted	-13.1995
phenoxycarbonyl	-13.1999
Ethoxycarbonyl	-13.2002
WX	-13.2003
quinazolinone	-13.201
ithout	-13.2011
oxolan	-13.2014
▁decahydrate	-13.2015
Scheme	-13.2017
quinone	-13.2021
BOP	-13.2025
typically	-13.2032
cycloheptene	-13.2035
phthalate	-13.2036
lactate	-13.2039
▁ascorbate	-13.2041
ali	-13.2047
▁power	-13.205
Dicyclohexyl	-13.2065
Cyclohexane	-13.2068
▁chlorocarbonate	-13.2071
molar	-13.2072
halide	-13.2078
▁methylhydrazine	-13.2078
▁wa	-13.2079
GA	-13.2083
azaindole	-13.2084
▁finishing	-13.2085
SPC	-13.2087
anisidine	-13.2094
porphyrin	-13.2094
nic	-13.2099
thioamide	-13.21
▁flush	-13.2101
▁mercuric	-13.2112
▁Use	-13.2116
single	-13.212
Xterra	-13.2121
made	-13.2122
▁paraffin	-13.2138
fluoroquinolin	-13.2139
tetraene	-13.2139
Carbo	-13.2141
oxazolidinyl	-13.2143
gauge	-13.2147
wet	-13.215
esidual	-13.2155
butyne	-13.2156
rimethylaluminum	-13.2169
▁perchlorate	-13.2174
octene	-13.2177
imate	-13.2181
▁moderate	-13.2183
undecene	-13.2183
isopentyl	-13.2187
quinolinamine	-13.2192
▁NaCN	-13.2197
Pent	-13.2198
cinnamyl	-13.2198
▁Completion	-13.2201
methoxypropan	-13.2202
▁PhCH	-13.2203
▁microns	-13.2203
mmole	-13.2208
▁just	-13.221
EXAMPLE	-13.2216
dimethy	-13.2217
▁weighing	-13.2219
Select	-13.2224
cyclobutanol	-13.2224
▁level	-13.2228
ling	-13.2232
performance	-13.2245
FIG	-13.2246
▁Piperidine	-13.2246
hepten	-13.2253
▁Pour	-13.2255
▁Wavelength	-13.2264
▁raising	-13.2264
pho	-13.2264
triiodo	-13.2267
oxalyl	-13.2267
NMP	-13.2268
tetrahydrothieno	-13.227
ref	-13.2277
▁majority	-13.2282
triazatricyclo	-13.2283
formylamino	-13.2297
▁index	-13.2301
XIV	-13.2304
XII	-13.2305
AcO	-13.2308
▁Conc	-13.231
active	-13.2312
chromatographed	-13.2322
Carbonyldi	-13.2326
norbornene	-13.2327
quinuclidine	-13.2333
time	-13.2335
▁OCB	-13.2337
▁Parts	-13.2339
BrFN	-13.234
hydrous	-13.2342
▁decolorizing	-13.2345
port	-13.2347
▁precooled	-13.2347
BrO	-13.2348
conditions	-13.2349
carbazate	-13.2354
▁source	-13.2354
thiocarbamoyl	-13.2357
silanyl	-13.236
▁KCN	-13.236
▁achieve	-13.2363
thiomorpholin	-13.2368
BD	-13.2371
▁str	-13.2371
uo	-13.2375
benzylsulfanyl	-13.2379
divinyl	-13.238
▁recrystallizing	-13.2381
▁turns	-13.2382
▁PCl	-13.2387
Tol	-13.2387
pentanamido	-13.239
sulfenyl	-13.2391
argon	-13.2391
long	-13.2392
neutral	-13.2398
sulfamide	-13.2411
oranylidene	-13.2423
orbax	-13.2427
▁ordinar	-13.2427
type	-13.2429
reverse	-13.2429
imidazolin	-13.2433
bromopropoxy	-13.2434
carbinol	-13.2436
▁USA	-13.2437
▁Methanesulfonic	-13.2442
▁tar	-13.2448
▁Ret	-13.2454
▁separates	-13.2455
synthesized	-13.2459
benzothiazepin	-13.2462
sym	-13.2471
Bridge	-13.2472
azatetracyclo	-13.2472
mesitylene	-13.2473
phe	-13.2476
DIEA	-13.2479
inic	-13.248
▁spirit	-13.2482
hydroxybenzoyl	-13.2486
Isomer	-13.2488
▁(+)-(	-13.2489
glyme	-13.249
▁metallic	-13.25
pregnan	-13.2503
preferably	-13.2509
toluidine	-13.2509
dibromobutane	-13.2514
dispiro	-13.2517
▁Louis	-13.2518
▁granular	-13.2518
▁attain	-13.2528
pentylcyclohexyl	-13.2534
▁significant	-13.2537
CHOH	-13.2542
oh	-13.2544
ong	-13.2548
normal	-13.2548
way	-13.2549
isophthalic	-13.255
butyrylamino	-13.2552
oxocyclohexyl	-13.2554
cyclobutan	-13.2555
mandeli	-13.2561
glyoxylate	-13.2565
▁selenium	-13.2565
▁cerium	-13.2565
Infrared	-13.2574
BuONa	-13.2574
▁Chromatograph	-13.2581
yloxytris	-13.2582
anal	-13.2582
Acros	-13.2593
glyoxylic	-13.2602
▁coarse	-13.2602
▁thiomethoxide	-13.2602
▁super	-13.2602
pyri	-13.2611
acetamidine	-13.2611
Hept	-13.2619
methionine	-13.262
pseudo	-13.262
▁Amberlyst	-13.262
▁EDAC	-13.262
naphthoquinone	-13.2621
decyloxy	-13.2627
▁perchlori	-13.2636
deutero	-13.2638
▁fifteen	-13.2639
▁Dur	-13.2648
▁Initiator	-13.2667
▁lyophil	-13.2672
methylpropanoyl	-13.2679
disulfide	-13.268
ethyleneglycol	-13.2688
esterification	-13.2691
hexene	-13.2692
dioxaborinan	-13.2695
hexanamide	-13.2697
butanal	-13.27
Grubbs	-13.2705
▁citrate	-13.2705
phosphoramide	-13.2716
dimethanol	-13.2723
▁bubble	-13.2724
EX	-13.2732
eferential	-13.2733
any	-13.2736
imidazolidinone	-13.2739
allo	-13.2744
iodoaniline	-13.275
anthranilic	-13.2752
omycin	-13.2752
rous	-13.2753
LRMS	-13.2759
PPTS	-13.2761
glycol	-13.2765
Chiralpak	-13.2768
▁Ester	-13.278
lite	-13.2785
▁Morpholine	-13.279
butynyl	-13.2791
+]+=	-13.2799
equilibrated	-13.2821
pentaen	-13.2821
cyclopropan	-13.2843
XX	-13.2844
cyclohexylidene	-13.2845
configuration	-13.2846
▁Platform	-13.2846
methylcarbapen	-13.2849
cinnoline	-13.2849
▁dithionite	-13.2856
▁evacuation	-13.2866
▁SEM	-13.2866
Volume	-13.2875
▁TMSCl	-13.2877
acetylated	-13.288
Benzyloxycarbon	-13.2883
recrystallized	-13.2891
ration	-13.2892
dimethylpropane	-13.2896
esi	-13.2899
diethylether	-13.2899
epimer	-13.2904
PHENOMENEX	-13.2904
▁structural	-13.2913
sulfamic	-13.2913
▁Gold	-13.2914
cyclobutanone	-13.2919
▁KHCO	-13.2924
▁methyltriphenyl	-13.2926
methylenebis	-13.293
ifying	-13.2933
enenitrile	-13.2949
phthalide	-13.2952
evant	-13.2957
▁NaIO	-13.2958
▁Extracted	-13.2963
cyclohexenyl	-13.2971
cinnamoyl	-13.2971
MeTHF	-13.2974
▁Scientific	-13.2981
▁laboratory	-13.2981
identified	-13.2982
hexamethyl	-13.2986
PB	-13.2991
BrClN	-13.2994
▁Syn	-13.3
Personal	-13.3
▁returning	-13.3002
diethylphosphono	-13.3004
▁subtitled	-13.3006
cytidine	-13.3009
terephthalic	-13.3011
propanediamine	-13.3013
decomposed	-13.3014
cytosine	-13.3019
uro	-13.3022
camptothecin	-13.3039
▁pentahydrate	-13.3039
trimethylstannyl	-13.3039
▁dibutyltin	-13.304
nitrotoluene	-13.3042
▁methylester	-13.3042
Nitrophenyl	-13.3042
leading	-13.3043
COMPOUND	-13.3049
Cys	-13.3055
UPLC	-13.3056
cinnolin	-13.3065
starting	-13.3077
glutamate	-13.3078
▁Distilled	-13.3078
▁mainly	-13.3099
alanin	-13.3103
diborane	-13.3103
borono	-13.3109
butyr	-13.3111
▁Standard	-13.3127
▁flushing	-13.3127
cit	-13.3136
butanediol	-13.3138
▁US	-13.314
▁agitating	-13.3146
conazole	-13.3148
graph	-13.3156
▁gradual	-13.3156
▁aside	-13.3158
▁decreased	-13.3168
deoxo	-13.3183
pyrimidinedione	-13.3187
Bromosuccinimide	-13.3192
eva	-13.3194
▁constituents	-13.3196
try	-13.3203
penicillanate	-13.321
pentadeca	-13.3227
epoxypropyl	-13.3229
yi	-13.3243
quaternary	-13.3245
dicarbonitrile	-13.3246
ye	-13.3257
Bond	-13.326
▁ramp	-13.3265
▁HMPA	-13.3265
dioxidothio	-13.327
boron	-13.3271
chiral	-13.3278
tributylstannan	-13.328
Isco	-13.3288
diisopropoxy	-13.33
ier	-13.3301
▁PSI	-13.3307
protect	-13.3307
▁LHMDS	-13.3307
ionized	-13.332
Pur	-13.3321
▁Proton	-13.3325
▁amination	-13.3325
nmr	-13.3331
▁primary	-13.3335
▁stripping	-13.3335
phan	-13.3341
androstan	-13.3343
▁auto	-13.3345
Degussa	-13.3355
tryptophan	-13.3365
▁couple	-13.3368
naphthoate	-13.3369
butanenitrile	-13.3369
▁indicating	-13.3375
Alfa	-13.3377
formed	-13.3381
imidazoline	-13.3385
phenoxybenzyl	-13.3392
XV	-13.3394
ient	-13.3399
flow	-13.3408
▁RF	-13.3414
sultone	-13.3415
▁kieselguhr	-13.3415
▁metabisulfite	-13.3415
matic	-13.3419
cyclohexanedione	-13.342
▁press	-13.3423
ected	-13.3423
▁Imidazole	-13.3425
pentenyl	-13.3427
esired	-13.3431
▁decolorized	-13.3435
determined	-13.3439
seleno	-13.344
ich	-13.3449
methylanilino	-13.3454
▁decanting	-13.3466
vinyloxy	-13.3473
enecarboxylate	-13.3475
▁chloroacetate	-13.3483
▁Sephadex	-13.3486
ei	-13.3495
▁titration	-13.3496
▁oxidized	-13.3496
▁house	-13.3496
androstane	-13.35
until	-13.3504
▁discontinued	-13.3506
▁running	-13.3506
hexadecahydro	-13.3507
▁SPD	-13.3508
uch	-13.3509
pip	-13.3515
▁Industry	-13.3516
benzothiazepine	-13.3532
▁application	-13.3537
▁Un	-13.3543
▁holding	-13.3562
oxalate	-13.3564
▁solubility	-13.3567
▁Isopropanol	-13.3579
▁clarified	-13.3588
▁exch	-13.3588
bromothiazole	-13.3592
▁stereochemistry	-13.3598
▁incorporated	-13.3598
▁anhydrate	-13.36
rain	-13.36
picolyl	-13.3608
▁Cold	-13.3612
▁comprised	-13.3619
▁shift	-13.3619
▁moiety	-13.3629
▁controller	-13.3629
Redisep	-13.3641
▁Milwaukee	-13.365
▁therefore	-13.365
itric	-13.3657
purged	-13.3658
▁protecting	-13.366
propyne	-13.367
oxi	-13.3671
▁PL	-13.3677
metric	-13.3679
▁stopper	-13.368
Hydrochloride	-13.3681
▁Present	-13.3681
▁thiophosgene	-13.3681
carbobenzyloxy	-13.3686
SMe	-13.3687
vir	-13.3688
addition	-13.3691
BBN	-13.3695
Hydr	-13.3695
crotonate	-13.3703
▁occurs	-13.3733
▁alkyne	-13.3733
tetrazolo	-13.3739
XXX	-13.3739
elu	-13.3741
ending	-13.3743
▁termination	-13.3743
▁reaching	-13.3748
▁reprecipitated	-13.3753
sulfanylidene	-13.3754
epoxypropane	-13.3757
exothermic	-13.3759
▁milligrams	-13.3764
furanone	-13.3775
▁Five	-13.3779
▁rises	-13.378
pentadien	-13.3787
▁stepwise	-13.379
▁dibromide	-13.3791
▁Detection	-13.3806
▁broken	-13.3806
ethylammonium	-13.3811
ethylsulfinamido	-13.3816
nucle	-13.3816
triaconta	-13.3817
▁methyllithium	-13.3828
pentanenitrile	-13.3828
pyrene	-13.383
statin	-13.3834
▁Iodine	-13.3837
▁Isolated	-13.3837
piperid	-13.384
Cond	-13.3843
tetrahydroborate	-13.3844
triggered	-13.3848
anisoyl	-13.3848
han	-13.3856
▁OTHERLANGUAGE	-13.3858
▁digested	-13.3858
▁repurified	-13.3859
catechol	-13.3861
dimethoxybenzoyl	-13.3863
▁estimated	-13.3869
Pos	-13.387
flask	-13.3871
▁NIS	-13.3871
hiosemicarbazide	-13.3873
tyr	-13.3882
Diastereomer	-13.389
▁glovebox	-13.389
tinib	-13.389
formylphenoxy	-13.39
▁receiver	-13.3901
Tert	-13.3905
tellur	-13.3911
▁Collected	-13.3912
hexaene	-13.3919
OCF	-13.3926
▁syrupy	-13.3927
isopr	-13.3944
▁spectroscopic	-13.3945
propenone	-13.3951
dihydrotetrazol	-13.3956
propylammonium	-13.3971
Solvent	-13.3973
▁modification	-13.3975
▁cone	-13.3977
Imidazol	-13.3984
reflux	-13.3985
dimethylbutanoyl	-13.4007
Toluene	-13.4009
OsO	-13.402
▁supply	-13.4028
▁GLC	-13.4033
dimethylcyclohex	-13.4038
sulphur	-13.4044
▁crystallise	-13.4044
acetylacetonate	-13.405
terephthalate	-13.4051
dihydrofuro	-13.4054
▁height	-13.4061
▁alkene	-13.4061
hexamethylene	-13.4062
diethylaniline	-13.4068
oxopentyl	-13.4071
▁tightly	-13.4071
▁production	-13.4076
demineralized	-13.4082
▁Racemic	-13.4082
▁crashed	-13.4082
nitroquinolin	-13.4083
Acetylamino	-13.409
tosylate	-13.409
thiazepin	-13.4093
methanaminium	-13.4093
phenylglycine	-13.4095
phosphin	-13.4095
iodoimidazo	-13.4104
▁DABCO	-13.4104
▁vaccum	-13.4104
▁CaCl	-13.4104
acetohydrazide	-13.4104
▁we	-13.4112
▁destroy	-13.4114
propanamine	-13.4117
▁JHF	-13.4117
oto	-13.413
oxepine	-13.413
MgBr	-13.4141
polymer	-13.4146
ketal	-13.4147
catalyst	-13.4158
thioacetic	-13.4164
histidine	-13.4169
▁Ten	-13.4171
DMPU	-13.4172
eta	-13.4182
''-	-13.4185
EDCI	-13.4201
cyclopentenone	-13.4211
buta	-13.4213
▁sinter	-13.422
Ethynyl	-13.4223
TFE	-13.4225
lactic	-13.4226
ker	-13.4234
triplet	-13.4234
Calcd	-13.4237
azatricyclo	-13.4245
chlorid	-13.4254
▁receiv	-13.4256
▁Four	-13.4258
glycin	-13.4265
sulphon	-13.4268
▁KHMDS	-13.4269
pyruvate	-13.4278
acetylchloride	-13.4282
▁common	-13.4289
isophthalate	-13.429
dihydropyrano	-13.429
Nitrobenzyl	-13.4293
pyrimidone	-13.4306
acridin	-13.4308
▁oligomer	-13.4311
▁copolymer	-13.4311
imi	-13.4319
▁steady	-13.4322
glu	-13.4323
propenyloxy	-13.4324
trifl	-13.4327
-(−)-	-13.4338
octahydropyrrolo	-13.4343
▁radiation	-13.4344
▁avoid	-13.4344
naphthaldehyde	-13.4345
▁Sulfur	-13.4348
▁Aluminum	-13.4355
▁Since	-13.4355
xylo	-13.4362
▁temper	-13.4364
▁dichromate	-13.4367
▁identity	-13.4367
soluble	-13.4371
dihydropyrimido	-13.4374
octadec	-13.4387
benzodiazol	-13.4397
carbobenzoxy	-13.44
▁Wis	-13.4402
Indol	-13.4406
olide	-13.441
oxopentan	-13.4414
fill	-13.4421
difluoroacetic	-13.4422
graphy	-13.4425
ach	-13.4426
tricyclohexyl	-13.4427
▁embodiment	-13.4433
▁transformation	-13.4434
colorless	-13.4441
▁XantPhos	-13.4445
▁Volatile	-13.4462
▁Start	-13.4466
▁aforementioned	-13.4467
▁Also	-13.4467
▁should	-13.4471
acrylamido	-13.4478
heptanoyl	-13.4479
▁Reverse	-13.4489
lane	-13.449
▁degas	-13.4492
tetramethylene	-13.4499
▁blowing	-13.4501
difluorobenzoic	-13.4509
Fuji	-13.4512
nujol	-13.4512
dimethylbutan	-13.4513
positive	-13.4514
dodecan	-13.4516
Dec	-13.4516
▁deaerated	-13.4523
nin	-13.4523
mix	-13.4531
Gln	-13.4535
XIII	-13.454
benzooxazol	-13.4541
present	-13.4543
furfuryl	-13.4548
▁much	-13.456
dienoate	-13.4564
ami	-13.4571
oxopentanoic	-13.4573
thiazepine	-13.4574
aspartyl	-13.458
butylmethylether	-13.458
▁sulfolane	-13.4591
thaw	-13.4591
tech	-13.4598
▁illustrate	-13.4602
phthaloyl	-13.4602
weak	-13.4603
chlorin	-13.4605
hydrin	-13.4607
butylester	-13.4613
enic	-13.4614
▁Point	-13.4614
▁SI	-13.4622
▁combination	-13.4625
dibromobenzene	-13.4634
▁cleavage	-13.4636
▁cannulated	-13.4637
dienoic	-13.4643
▁OJ	-13.4651
piperidinium	-13.4654
glycid	-13.4657
cyclopentylamine	-13.4658
isoindolinone	-13.4659
diphenylsilane	-13.4672
DELT	-13.4682
benzhydryloxy	-13.4693
▁separable	-13.4694
cycloocta	-13.4702
Phenoxy	-13.4705
pivalamide	-13.4706
Elementar	-13.4728
Fu	-13.473
Mobile	-13.4746
tetracarboxylic	-13.4746
▁hundred	-13.4751
hetero	-13.4763
▁aging	-13.4763
hydroxyazetidine	-13.4766
acylated	-13.4767
▁find	-13.4768
nonafluoro	-13.4769
ogen	-13.477
INO	-13.4772
▁reductive	-13.4774
▁Analogously	-13.4774
benzothien	-13.4789
▁liberated	-13.4792
trimethoxybenzyl	-13.4795
butylidene	-13.4798
black	-13.4808
PHOS	-13.4809
▁showing	-13.4809
▁neutrality	-13.481
▁Ethylene	-13.482
acrolein	-13.482
▁inhibitor	-13.4823
glucitol	-13.4832
FP	-13.4832
pyrrolizin	-13.4844
▁Again	-13.4844
Toluenesulfonic	-13.4845
ratio	-13.4846
bipiperidin	-13.4848
ethanediyl	-13.4849
oxybispropane	-13.4855
racemic	-13.4857
APCl	-13.486
bromopropionate	-13.4861
difluorophenol	-13.4863
▁analog	-13.4866
octanol	-13.4867
▁pieces	-13.4867
high	-13.487
▁immediate	-13.4878
biphen	-13.4884
dehyde	-13.4887
▁Similarly	-13.4891
▁filtercake	-13.4891
amidate	-13.4898
▁hplc	-13.4902
▁authentic	-13.4914
ELSD	-13.4914
ug	-13.492
onium	-13.4923
hydrox	-13.4932
benzoylchloride	-13.4934
▁solved	-13.494
lower	-13.4945
dihydrodibenzo	-13.4945
▁rota	-13.4947
▁Sample	-13.4949
Strem	-13.4949
CHLOROFORM	-13.4958
▁Commercially	-13.4961
ipped	-13.4961
▁tank	-13.4965
Benzotriazol	-13.4966
eration	-13.4976
pher	-13.4976
butenoate	-13.4977
seco	-13.4978
gassed	-13.4985
▁situ	-13.4985
Difluorophenyl	-13.4995
methylpyridinium	-13.4995
▁increment	-13.4996
tetradeca	-13.5001
▁raise	-13.5004
Diaion	-13.5008
thiolate	-13.5013
propynyloxy	-13.5017
acetonide	-13.502
cyanobiphenyl	-13.5022
color	-13.5032
▁pour	-13.504
dihydroisoxazole	-13.5041
▁prevent	-13.5044
mult	-13.5051
▁decreasing	-13.5055
▁persisted	-13.5055
▁quantities	-13.5055
EV	-13.5055
uench	-13.5066
alin	-13.5067
▁ceases	-13.5067
copper	-13.5072
▁TBSCl	-13.508
Wako	-13.5085
▁eliminate	-13.5088
benzothiazine	-13.5097
▁NaOEt	-13.5099
hexenyl	-13.5101
isothiazolidin	-13.5106
silan	-13.5127
Azetidin	-13.5127
▁Hyflo	-13.5127
▁dryer	-13.5128
isonicotinoyl	-13.5129
icosa	-13.513
Burgess	-13.5139
solute	-13.5147
isothiazolo	-13.5147
▁permitted	-13.5151
acetylpiperazin	-13.5157
Diazabicyclo	-13.5159
▁saturation	-13.5163
▁MCPBA	-13.5163
formylbenzoate	-13.5169
dichlorosilane	-13.5173
hexaen	-13.5183
▁centrifuge	-13.5184
guanosine	-13.5187
brominated	-13.5187
tetradecan	-13.5197
dimethoxyaniline	-13.5197
▁alkalized	-13.5199
platinum	-13.52
octenyl	-13.5231
▁stain	-13.5237
▁triacetate	-13.5238
note	-13.524
Butyldimethylsil	-13.5244
Journal	-13.5247
analytical	-13.5252
▁Tin	-13.5253
carrier	-13.5259
▁teflon	-13.5272
oximino	-13.5281
KOH	-13.5283
Nuclear	-13.5284
▁drawn	-13.5284
▁earlier	-13.5284
▁hydrosulfite	-13.5284
phenylsulphonyl	-13.5292
▁Poly	-13.5295
▁silicate	-13.5301
▁facilitate	-13.5308
cymene	-13.5308
▁cyclized	-13.5308
▁lyophilised	-13.5308
registered	-13.5332
▁soon	-13.5333
meta	-13.5334
▁Sulfuri	-13.534
loaded	-13.5344
▁Salt	-13.5345
pentanal	-13.5359
circumflex	-13.5369
Benzhydryl	-13.5369
uoro	-13.5375
Form	-13.5378
▁fractionally	-13.5385
▁hyflo	-13.5387
quinol	-13.5391
collidine	-13.5394
▁mPEG	-13.5394
cyclosporin	-13.5406
deuterated	-13.5406
prolinamide	-13.5406
trademark	-13.5406
▁Workup	-13.5406
▁reache	-13.5407
propylphosphonic	-13.5408
CDCL	-13.5412
▁extractive	-13.5413
▁methylated	-13.5414
hafnium	-13.5418
▁recrystalized	-13.5418
developer	-13.542
ject	-13.5426
▁Activated	-13.5431
▁establish	-13.5431
▁DIC	-13.5436
octadecyloxy	-13.5439
area	-13.5439
▁take	-13.5439
▁contact	-13.5443
conjugate	-13.5455
▁efficient	-13.5455
cyanide	-13.5461
tautomer	-13.5468
▁NiCl	-13.5468
PCy	-13.5468
arr	-13.548
concentration	-13.5489
pyrimidyl	-13.5489
▁FeCl	-13.549
oxathiazepin	-13.5492
▁stiffing	-13.5493
heptadec	-13.5493
▁stoppered	-13.5494
ono	-13.5498
not	-13.5498
pyrimid	-13.5522
▁interest	-13.5523
chner	-13.5524
▁Bull	-13.553
Kromasil	-13.5542
Kanto	-13.5542
cake	-13.5542
galacto	-13.5542
nicotinamido	-13.5542
▁apply	-13.5543
▁show	-13.555
cephalosporani	-13.5555
▁replacement	-13.5555
glass	-13.5556
▁orthoacetate	-13.5559
▁diminished	-13.5567
pyridinio	-13.5576
▁pellet	-13.5578
▁came	-13.5581
▁PAL	-13.5583
▁technique	-13.5592
▁exhibited	-13.5593
Gilson	-13.5596
thal	-13.5597
DCE	-13.5611
formamidothiazol	-13.5615
Glacial	-13.563
▁PhMe	-13.5633
acidic	-13.564
triethylsilyloxy	-13.5642
Fisher	-13.5643
▁occasional	-13.5645
thioacetamide	-13.5647
▁Light	-13.5654
cellulose	-13.5655
▁Titanium	-13.5655
glucopyranose	-13.5657
▁thionylchloride	-13.5663
bromobutyrate	-13.5664
▁wall	-13.5665
ura	-13.5668
walled	-13.5673
Piperazin	-13.568
▁opaque	-13.5681
isochromen	-13.5682
▁grad	-13.5682
phospholan	-13.5683
corr	-13.5687
▁Shield	-13.5693
▁hemihydrate	-13.5719
COOCH	-13.5725
▁Collect	-13.573
proton	-13.5732
dichlor	-13.574
▁triturating	-13.5744
equalizing	-13.5746
▁takes	-13.5746
well	-13.5758
enamido	-13.5759
▁diffraction	-13.5769
▁disclosed	-13.5769
dinitrophenyl	-13.5786
▁combining	-13.5795
hexen	-13.5798
▁Synergi	-13.5808
organic	-13.5813
round	-13.5813
Daicel	-13.5821
▁parallel	-13.5821
▁vaccuo	-13.5821
trichlorosilane	-13.5825
▁monochloride	-13.5825
HOBT	-13.5828
Pyrrolidin	-13.5833
FLASH	-13.5833
Blocks	-13.5833
vanillin	-13.5833
arginine	-13.5834
fluro	-13.5835
▁photo	-13.5837
powder	-13.5841
distillation	-13.5841
hydrofuran	-13.5841
▁sublimed	-13.5846
Free	-13.5846
benzodioxine	-13.5847
diphenylmethane	-13.5855
tolylsulfonyl	-13.586
tered	-13.5861
▁ppt	-13.5864
semicarbazide	-13.5867
caution	-13.5872
Polymer	-13.5873
DIP	-13.5874
theoretical	-13.5883
▁chromatogram	-13.5886
buty	-13.5887
OBn	-13.5893
action	-13.5896
▁Temp	-13.5898
iodophenol	-13.59
biotin	-13.5911
room	-13.5913
▁Crystallisation	-13.5924
synthesis	-13.5936
▁additive	-13.5937
▁RuPhos	-13.5937
serin	-13.5941
benzisothiazol	-13.5947
▁refrigerated	-13.595
AX	-13.595
SiCH	-13.5953
anthracen	-13.596
▁behind	-13.5963
▁exposed	-13.5963
cinnam	-13.5968
▁sand	-13.5973
dimethoxysilane	-13.5975
Carbamoyl	-13.5976
crystallizations	-13.5976
▁retained	-13.5977
▁consists	-13.5978
EG	-13.5984
overlapped	-13.5989
▁weakly	-13.5989
tube	-13.5997
▁Soxhlet	-13.6002
perfluorophenyl	-13.6009
salicyl	-13.6014
trideuterio	-13.6016
gluta	-13.6025
amate	-13.603
▁Synthesize	-13.6041
▁appearance	-13.6041
▁Freshly	-13.6041
wetted	-13.6052
▁Chloride	-13.6054
▁effluent	-13.6054
▁exhaustively	-13.6054
diazocine	-13.6054
halogen	-13.6054
▁appears	-13.6055
ipe	-13.6064
methanobenzo	-13.6064
glutamine	-13.6067
▁Agitation	-13.6067
nitrite	-13.6074
methacrylate	-13.608
thiocarbonyldi	-13.6081
acac	-13.6081
Luna	-13.6092
▁microliters	-13.6094
sphere	-13.6096
▁initiate	-13.6106
▁Invention	-13.612
still	-13.6121
DPP	-13.6126
phor	-13.6137
very	-13.6139
▁tBuOH	-13.6141
▁different	-13.6144
▁replace	-13.6146
Mercapto	-13.6147
sextet	-13.6147
▁patent	-13.6147
▁paragraph	-13.6147
TT	-13.617
▁PBr	-13.6173
▁bromoacetic	-13.6173
eck	-13.6198
Structure	-13.62
▁incubated	-13.62
▁Hexa	-13.6201
sulfuric	-13.6209
benzylalcohol	-13.6209
butyramido	-13.6213
other	-13.6218
▁freebase	-13.6221
hysical	-13.6225
iodomethane	-13.6225
▁against	-13.6228
tryptamine	-13.624
thioanisole	-13.6243
▁foregoing	-13.6253
pentanedioate	-13.6254
▁ionization	-13.6254
▁Deprotection	-13.6267
▁afterwards	-13.628
Chrom	-13.628
ethanesulfonic	-13.6287
pentanedione	-13.6289
bismuth	-13.6293
▁Aesar	-13.6293
▁agreement	-13.6294
amidoxime	-13.6295
▁Hydrogenation	-13.6296
uction	-13.6298
▁([{	-13.6301
phenoxyacetamido	-13.631
▁isobutylene	-13.6315
omer	-13.6319
▁thorough	-13.632
▁corrected	-13.6321
deacetyl	-13.6325
rf	-13.6333
▁determine	-13.6334
▁withdrawn	-13.6334
Max	-13.6344
▁occur	-13.6347
barbituric	-13.6347
▁cyclization	-13.6347
Micromass	-13.6347
octen	-13.6352
glycolate	-13.6366
dihydronaphtho	-13.6377
epoxide	-13.6379
▁GF	-13.6385
phosphanyl	-13.6385
▁ninhydrin	-13.6388
▁pentasulfide	-13.6388
▁hood	-13.6388
acryloyloxy	-13.6396
carbamothioyl	-13.6402
▁Working	-13.6403
pentenoate	-13.6404
▁inseparable	-13.6415
▁stereoisomers	-13.6415
cho	-13.6417
pale	-13.6426
▁Treat	-13.643
glycinamide	-13.643
▁partly	-13.6436
first	-13.6438
▁Vigreux	-13.6443
▁titrated	-13.6443
Adamantan	-13.6443
urate	-13.645
XVII	-13.6453
lev	-13.6454
▁sparging	-13.6456
trimethylsiloxy	-13.6457
▁drive	-13.6464
▁hypo	-13.6471
propargylamine	-13.6475
unsaturated	-13.6478
resin	-13.6479
pyruvic	-13.6484
PHENYL	-13.6484
ethylester	-13.6484
▁here	-13.6484
▁enzyme	-13.6511
▁Letters	-13.6525
▁Obs	-13.6538
epithiopropyl	-13.6538
▁beads	-13.6539
▁Washing	-13.6541
▁help	-13.6552
propanedioate	-13.6556
▁whereafter	-13.6566
thiocyanato	-13.658
sulfamate	-13.658
▁Allow	-13.6583
molecular	-13.6585
azoniabicyclo	-13.6594
▁calcined	-13.6594
▁mark	-13.6604
triethoxysilyl	-13.6608
▁storage	-13.6608
▁undesired	-13.6622
▁spontaneously	-13.6622
▁MeNH	-13.6624
isobutyraldehyde	-13.6627
ama	-13.6628
▁evidence	-13.6636
hydroxylammonium	-13.665
▁GPC	-13.6665
octahydrobenzo	-13.6667
▁monitor	-13.669
▁release	-13.6692
ethen	-13.67
hexahydropyrido	-13.6704
▁property	-13.6705
JCP	-13.6709
butenoic	-13.6712
diaminopropane	-13.6728
▁Dimroth	-13.6733
thioxanthone	-13.6733
suming	-13.6733
Ti	-13.6745
▁Through	-13.6747
▁Technologies	-13.6747
mag	-13.6749
Cyclopropane	-13.6749
thiazoline	-13.675
used	-13.6751
epicatechin	-13.6761
▁Immediately	-13.6762
▁Process	-13.6762
▁Ultra	-13.6776
▁proceeding	-13.6779
Indole	-13.678
Pack	-13.6798
OCOCH	-13.6799
ribofuranose	-13.6804
▁Weight	-13.6804
benzoxepin	-13.681
pump	-13.681
VP	-13.6812
fluorophenethoxy	-13.6818
▁sparge	-13.6819
deoxyuridine	-13.6842
▁shake	-13.6844
pentalene	-13.6849
dithiane	-13.685
▁sixteen	-13.6861
▁dianhydride	-13.6863
equivalent	-13.6871
▁tip	-13.6876
pyrrolidinium	-13.6882
Hypersil	-13.6889
Pentane	-13.6889
dioxabicyclo	-13.6901
stabilized	-13.6904
▁confirmation	-13.6904
DPPF	-13.6905
capped	-13.6917
ligroin	-13.6918
▁begins	-13.6918
VA	-13.6921
▁transformed	-13.6933
extract	-13.6936
XIX	-13.6937
Specific	-13.6939
▁kettle	-13.6946
▁heptahydrate	-13.6947
Combi	-13.6948
prosta	-13.6948
pyrone	-13.6956
aminocrotonate	-13.6959
▁SONICATE	-13.6961
penam	-13.6962
▁exceeding	-13.6965
ACE	-13.6965
▁selected	-13.6965
XVI	-13.6973
cyclohept	-13.6978
Pyrazol	-13.6982
Fluor	-13.6982
▁Pyrrolidine	-13.699
sulphinyl	-13.7004
▁verified	-13.7004
fraction	-13.7008
ometric	-13.7025
fumarate	-13.7025
▁cleaved	-13.7033
siloxy	-13.7038
phthalocyanine	-13.7048
▁cyanohydrin	-13.7048
▁inches	-13.7048
▁homogen	-13.7062
▁suspending	-13.7062
▁NMO	-13.7065
tography	-13.7073
halo	-13.7078
thiazolium	-13.7086
glycero	-13.7087
Methylmorpholine	-13.709
▁faster	-13.7106
▁Super	-13.7109
▁reconcentrated	-13.7109
benzoxa	-13.7117
norbornan	-13.712
▁advance	-13.712
TES	-13.7121
▁ultra	-13.7125
limit	-13.7136
tripyrrolidino	-13.714
▁Methylmagnesium	-13.7147
boran	-13.715
malonyl	-13.7165
thioxanthen	-13.7172
oid	-13.7195
▁septa	-13.7196
▁dihydrobromide	-13.7196
▁)}[	-13.7199
added	-13.72
▁Number	-13.7208
▁dipeptide	-13.7212
Mitsubishi	-13.7223
▁route	-13.7223
PrMgCl	-13.7223
▁thermal	-13.7224
crystalline	-13.7228
Calc	-13.7233
indazoline	-13.7236
dodecyloxy	-13.7237
Skellysolve	-13.7238
anisaldehyde	-13.7238
matrix	-13.7238
picolinaldehyde	-13.7238
XVIII	-13.7245
Alk	-13.725
▁adsorption	-13.7253
hexahydroazepino	-13.7254
dithian	-13.7254
Analytical	-13.726
trifluro	-13.7261
four	-13.7264
quinolizin	-13.7264
▁DMP	-13.7266
aliphatic	-13.7267
homopiperazine	-13.7273
▁diacid	-13.7274
▁Triphosgene	-13.7282
▁current	-13.7282
▁polypropylene	-13.7297
coming	-13.7298
iPrOH	-13.7299
filter	-13.7307
▁Claisen	-13.7312
▁vacuuo	-13.7312
rapped	-13.7317
Trans	-13.7318
Instrument	-13.7327
perfluoropropan	-13.7328
pentadecyl	-13.7329
▁enamine	-13.7335
arabino	-13.7342
▁transition	-13.7342
▁Meanwhile	-13.7357
heptadecan	-13.7359
urr	-13.736
▁assayed	-13.736
benzodiazole	-13.7361
▁utilized	-13.7372
gallon	-13.7372
▁preferred	-13.7379
alaninamide	-13.7388
system	-13.7388
▁seeding	-13.7389
Pyridine	-13.7397
ferrocen	-13.7399
adipic	-13.7402
▁HOAT	-13.7402
After	-13.7405
▁Mix	-13.742
yer	-13.7424
read	-13.7429
▁intensive	-13.7432
succinamide	-13.7434
▁firstly	-13.745
▁reside	-13.7458
cyst	-13.7461
Fischer	-13.7462
mutilin	-13.7462
▁azeotroping	-13.7462
uenched	-13.7463
controlling	-13.7463
hydroxami	-13.7466
▁TsCl	-13.7478
▁pear	-13.7481
▁Chim	-13.7481
oxepino	-13.7485
▁dihydropyran	-13.7487
▁design	-13.7492
Synthesis	-13.7502
▁supercritical	-13.7509
kin	-13.751
pinacol	-13.7515
oiling	-13.7522
▁Result	-13.7522
TETRAHYDRO	-13.7523
molybdate	-13.7523
methanobenzofuro	-13.7539
adduct	-13.7551
galactopyranosid	-13.7553
▁would	-13.7553
▁Spectra	-13.7554
tetradecanoyl	-13.7555
▁Washed	-13.7556
ammonio	-13.7568
arabinofuranosyl	-13.7568
urethane	-13.7572
flavone	-13.7572
combined	-13.7573
ArOCH	-13.7578
alkoxy	-13.7579
▁suggest	-13.7584
Pbf	-13.7585
benzothiepine	-13.7599
spherical	-13.7599
▁Silysia	-13.7599
benzal	-13.7603
enetetramine	-13.7605
▁preparing	-13.763
nonadeca	-13.7639
sulfoxide	-13.7645
▁Appl	-13.7645
alumina	-13.7649
Ile	-13.7649
atmosphere	-13.7649
chro	-13.765
more	-13.7656
pentalen	-13.7658
▁treat	-13.7665
▁esterified	-13.7665
Vinyl	-13.7667
▁soft	-13.767
Butanol	-13.7676
▁Auto	-13.7676
euterium	-13.7691
▁sweep	-13.7691
external	-13.7699
acenaphthylen	-13.7702
anth	-13.7706
sorbitol	-13.7707
TU	-13.7723
Dibenzyl	-13.773
ition	-13.7743
trihydro	-13.7746
uck	-13.7748
value	-13.7749
octacos	-13.7749
dilute	-13.7749
yst	-13.775
lambda	-13.7753
▁cylinder	-13.7753
▁swirled	-13.7753
Azabenzotriazol	-13.776
ridine	-13.7761
fixed	-13.7769
valinamide	-13.7769
▁HPFC	-13.7769
Sunfire	-13.7782
EtOAC	-13.7782
parent	-13.7784
saccharide	-13.7785
pyranosyl	-13.7792
formaldehyde	-13.7798
▁reveal	-13.7799
SIL	-13.7802
hydroxide	-13.7804
Asn	-13.7811
Protocol	-13.7816
▁saponified	-13.7816
▁elimination	-13.7816
methacryloyl	-13.7819
oxaborole	-13.7842
fourth	-13.7848
educt	-13.7858
sulfonimidoyl	-13.7863
▁Experiment	-13.7863
▁blend	-13.7863
tetradecahydro	-13.7866
cobalt	-13.7866
isopropylsilanyl	-13.7875
tetraazacyclodo	-13.7878
cinnamaldehyde	-13.7879
Allyloxy	-13.7886
perylene	-13.7896
aldoxime	-13.7902
▁check	-13.7909
gamma	-13.791
butylstannyl	-13.7912
indacene	-13.7916
Purity	-13.7917
▁tributylamine	-13.7921
degassed	-13.7922
BHT	-13.7922
furaldehyde	-13.7941
▁Precipitation	-13.7942
▁pentaerythritol	-13.7942
▁chromotography	-13.7958
benzimidamide	-13.7961
toluenesulphonyl	-13.7973
switched	-13.7974
▁stable	-13.7974
jet	-13.7976
phenanthridine	-13.7976
conditioned	-13.7978
Trifluoromethoxy	-13.7987
▁visual	-13.799
glutamyl	-13.799
▁Recrystallize	-13.7993
ergo	-13.8002
Chromatorex	-13.8006
▁cross	-13.8006
pri	-13.8006
▁break	-13.8006
azi	-13.8017
▁Resin	-13.8022
overlap	-13.8025
▁correct	-13.803
eicos	-13.8036
BrettPhos	-13.8038
Carbonate	-13.8039
▁tap	-13.805
CHLORO	-13.8054
stearoyl	-13.8054
weight	-13.8054
▁chilling	-13.8054
▁synthesizer	-13.8054
▁pivali	-13.8056
yro	-13.8058
oxiranylmethoxy	-13.8077
▁even	-13.8079
▁Hydrolysis	-13.8086
desoxy	-13.8086
▁periodically	-13.8087
suspension	-13.8088
▁cautious	-13.8101
abbreviation	-13.8102
linker	-13.8102
chlo	-13.8106
caproic	-13.8118
maleate	-13.8123
picolinamido	-13.8134
tetrahy	-13.8136
▁convert	-13.814
mixed	-13.8141
baccatin	-13.815
▁Warm	-13.815
arious	-13.8151
mineral	-13.8157
PY	-13.8159
chrysene	-13.8163
▁determination	-13.8167
▁Calif	-13.8168
ethanoate	-13.8176
deuterio	-13.8181
▁Application	-13.8183
▁Mhz	-13.8183
isooctane	-13.8196
▁attempt	-13.8199
azacyclododec	-13.82
▁disappear	-13.8214
sarcosine	-13.8215
▁filtr	-13.8221
benzopyrano	-13.8225
uni	-13.8226
Flu	-13.8232
naphthonitrile	-13.8233
▁organo	-13.8244
▁hazy	-13.8248
Lancaster	-13.8248
XXI	-13.8258
select	-13.8261
Argonaut	-13.8264
▁however	-13.8264
▁zero	-13.8265
▁remain	-13.8269
adjusted	-13.828
valinate	-13.8281
phenoxide	-13.8282
▁partioned	-13.8297
▁scrubber	-13.8297
▁changing	-13.8297
▁pair	-13.8297
succinamic	-13.8297
▁MDC	-13.8302
filling	-13.8312
▁Microwave	-13.8314
cyclohexadiene	-13.8314
palmit	-13.8314
cyclobutene	-13.8334
▁adsorb	-13.8346
▁Injection	-13.8347
▁Powdered	-13.8347
▁Similar	-13.8363
molybdenum	-13.8363
▁Phosphorous	-13.8363
▁commenced	-13.8363
▁Afterward	-13.8369
diketo	-13.838
▁Twenty	-13.838
propionamido	-13.838
▁silicone	-13.838
dodecahydro	-13.838
propargyloxy	-13.8387
Naphthalen	-13.8389
tetradecane	-13.8396
▁extensively	-13.8396
lization	-13.8398
dithiocarbamate	-13.8404
microcrystalline	-13.8414
▁neutralizing	-13.8414
▁diiodomethane	-13.8414
phenylsulfonium	-13.8415
five	-13.8429
thietan	-13.843
oxatricyclo	-13.8432
benzy	-13.8436
CHIRAL	-13.8446
▁readily	-13.8446
▁beginning	-13.8446
Isopropoxy	-13.8448
critical	-13.8449
▁metaperiodate	-13.8463
▁sulphite	-13.8463
precipitation	-13.8466
selectivity	-13.8475
▁comparison	-13.848
▁MeLi	-13.8481
▁resinous	-13.8484
alum	-13.8491
▁multi	-13.8491
cholan	-13.8492
freshly	-13.8493
opti	-13.8494
▁hydrogensulfite	-13.8498
▁oxalylchloride	-13.8503
yanuric	-13.8513
Chloroperbenzoic	-13.8513
▁rotatory	-13.8513
Fluoren	-13.8521
ada	-13.8524
Hexahydro	-13.8528
carbonothioyl	-13.8547
OXA	-13.8547
lysyl	-13.8559
portion	-13.8567
▁Schiff	-13.8581
methanimine	-13.8581
ulate	-13.8592
Butyloxycarbonyl	-13.8596
▁TMSOTf	-13.8598
delta	-13.8601
overnight	-13.8602
benzothiazin	-13.8604
isoxazoline	-13.8611
▁anhydrified	-13.8614
ophenone	-13.863
reparatory	-13.863
▁Triethylsilane	-13.8632
▁Formation	-13.8633
stein	-13.8637
morpholinothieno	-13.8645
▁condensate	-13.8648
▁purif	-13.8652
benzisothiazole	-13.8653
adsorbed	-13.8656
penem	-13.8659
rbamimidothioate	-13.8665
direct	-13.8679
▁mortar	-13.8683
▁COMU	-13.87
▁reslurried	-13.87
ropanocyclopenta	-13.8709
▁saponification	-13.8717
diimide	-13.8725
toluen	-13.8727
Acetonitrile	-13.873
foam	-13.873
triflate	-13.873
Acryloyl	-13.8734
▁individual	-13.8734
▁Manganese	-13.8734
tetraazatricyclo	-13.8735
▁precatalyst	-13.8751
▁adjustment	-13.8752
Wakogel	-13.877
chalcone	-13.8786
▁difficult	-13.8786
iphenylsulfonium	-13.8787
cyclododec	-13.8789
▁thermo	-13.8793
▁However	-13.8803
▁Uniplate	-13.8803
▁dripping	-13.8803
▁terms	-13.8803
carboxyaldehyde	-13.8806
Sulfo	-13.8806
taxol	-13.882
▁rotor	-13.8825
percent	-13.8837
malonamide	-13.8837
yophilization	-13.8854
thiopyrano	-13.8867
Cha	-13.8868
▁absorb	-13.8871
palmitoyl	-13.8872
▁saturate	-13.8881
▁condensor	-13.889
Pearlman	-13.889
▁Corp	-13.889
▁equipment	-13.8907
threonine	-13.8907
oxamate	-13.8916
▁machine	-13.8925
cumene	-13.8925
benzodioxepin	-13.8925
▁diisocyanate	-13.8931
isato	-13.8937
TMP	-13.894
▁twelve	-13.8942
Retention	-13.8953
ethoxide	-13.8956
Toluenesulfonyl	-13.8957
llowed	-13.8967
idenedioxy	-13.8976
▁purpose	-13.8977
veratr	-13.8977
Deoxy	-13.898
propenamide	-13.8984
▁arbitrarily	-13.8995
caprolactam	-13.9012
saccharin	-13.9012
▁absorbance	-13.9012
HAHB	-13.9016
IDE	-13.9023
oxazepan	-13.9027
fluorescein	-13.903
chemistry	-13.903
▁improve	-13.903
▁Formaldehyde	-13.903
▁azobisisobutyro	-13.9052
octadien	-13.9053
icosahydro	-13.9066
flouro	-13.9066
Karl	-13.9066
palla	-13.9075
▁interval	-13.9092
▁stifling	-13.9101
TIPS	-13.9101
carbony	-13.9106
hor	-13.9117
▁FDMS	-13.912
phenanthro	-13.912
▁Xphos	-13.9121
▁dipotassium	-13.9122
reagent	-13.9123
▁detect	-13.9135
XXVI	-13.9135
Pyridyl	-13.9137
ham	-13.9149
▁chromato	-13.915
ephedrine	-13.9155
▁Kasei	-13.9155
prost	-13.9162
▁Sum	-13.9164
▁hydrocarbon	-13.917
propanethiol	-13.9172
▁conical	-13.9173
deaza	-13.9173
irr	-13.918
hexadeca	-13.9181
iodinane	-13.919
Emrys	-13.919
▁Slowly	-13.919
▁charging	-13.919
glyceri	-13.9191
▁vinylmagnesium	-13.9194
nonadec	-13.9196
▁bleach	-13.9208
▁species	-13.9209
▁care	-13.9209
▁XRPD	-13.9227
chromic	-13.9231
ook	-13.9242
trihydrofluoride	-13.9245
DMTr	-13.9245
▁Milli	-13.9248
▁Perkin	-13.9263
▁detectable	-13.9263
phtal	-13.9271
▁Heterocycl	-13.9279
solubiliz	-13.9281
Silicycle	-13.9281
TBDPS	-13.9281
Micro	-13.9285
ethanethioate	-13.9294
▁simple	-13.9299
Film	-13.9299
▁prepacked	-13.93
oleate	-13.9312
pressurized	-13.9316
Pyrrolo	-13.9317
▁ultraviolet	-13.9317
▁thioglycolate	-13.9317
Propanol	-13.9317
diffuse	-13.9335
▁continuing	-13.9335
▁thru	-13.9336
Chiral	-13.9336
block	-13.9349
ethanesulfonate	-13.935
▁detail	-13.9354
▁passage	-13.9354
▁Partition	-13.9354
oxazepane	-13.9357
▁Platinum	-13.9372
▁indicator	-13.9372
▁desiccat	-13.939
▁chased	-13.939
▁Pyridinium	-13.939
naphthamide	-13.9397
▁synthesize	-13.94
ability	-13.9408
Grace	-13.9409
▁fume	-13.9409
▁chromat	-13.9414
TBME	-13.9415
xide	-13.9418
repeat	-13.9427
chlorinated	-13.9427
proof	-13.9427
▁Wang	-13.9429
▁mean	-13.9439
▁wool	-13.9445
▁batchwise	-13.945
aluminate	-13.9453
where	-13.9455
benzhydrylidene	-13.9464
mesylate	-13.9477
ities	-13.9482
valeronitrile	-13.9482
BSA	-13.9486
azeotrop	-13.95
nipecotate	-13.9501
quinolinolato	-13.9501
terminal	-13.9501
▁Brown	-13.9501
▁eventually	-13.9519
▁perruthenate	-13.9519
▁BiotageTM	-13.9523
benzoxepine	-13.9524
elected	-13.9524
▁approximate	-13.9537
▁beforehand	-13.9538
▁monosodium	-13.9543
▁chlorophosphate	-13.9544
Diisopropylamine	-13.9554
anthranilate	-13.9557
▁That	-13.9557
geranyl	-13.9557
picolin	-13.957
▁fit	-13.9589
▁canula	-13.959
▁fatty	-13.9594
▁Off	-13.9596
ju	-13.9599
field	-13.9601
didehydro	-13.9607
flav	-13.9608
cylo	-13.9611
▁supplemented	-13.9613
hang	-13.9616
disuccinimidyl	-13.9625
▁Silver	-13.9631
DOWEX	-13.965
▁accompanied	-13.965
enetriamine	-13.9663
PREPARATI	-13.9669
▁Optimizer	-13.9669
▁Phenol	-13.967
range	-13.967
▁creamy	-13.9674
▁begun	-13.9688
▁persulfate	-13.9689
glutarate	-13.9707
▁buff	-13.9707
indo	-13.9709
Tetrahedron	-13.9715
carbolin	-13.9719
acetonitril	-13.9722
thiopseudourea	-13.9726
▁OXONE	-13.9726
▁catalytically	-13.9728
iodonium	-13.973
SFC	-13.9737
iatomaceous	-13.974
cyclooctyl	-13.9752
▁ivory	-13.9764
trihydroborate	-13.9764
dithiolan	-13.9777
phenanthridin	-13.978
abbreviated	-13.9783
▁unpurified	-13.9783
ulation	-13.9787
▁Second	-13.9802
functional	-13.9806
picolinoyl	-13.9821
evaporator	-13.9838
▁dense	-13.9843
▁liner	-13.9849
diazene	-13.9859
▁Acidification	-13.986
▁dimethylsulfate	-13.9864
▁florisil	-13.9879
▁Typical	-13.9879
▁Ozone	-13.9879
methacryloyloxy	-13.9895
eluate	-13.9899
flushed	-13.9899
▁EtMgBr	-13.99
▁Pale	-13.9914
LSIMS	-13.9917
carboaldehyde	-13.9918
CombiFlash	-13.992
▁demonstrat	-13.9936
argin	-13.9944
grading	-13.9952
▁Publication	-13.9956
Acetamido	-13.9956
▁redistilled	-13.9958
density	-13.9975
▁cabinet	-13.9975
lauryl	-13.9976
▁MICRO	-13.9995
thymine	-13.9995
▁damp	-13.9995
▁reflectance	-14.0014
▁Half	-14.0014
oxalami	-14.0021
galactopyranosyl	-14.0053
▁gelatinous	-14.0053
XXIII	-14.0053
Triazol	-14.0053
TRI	-14.006
benzofur	-14.0067
▁methanethiolate	-14.0073
TPP	-14.0086
monohydrate	-14.0087
Caution	-14.0093
▁pasty	-14.0112
▁tungstate	-14.0112
▁tacky	-14.0132
FIA	-14.0132
ilution	-14.0133
amylene	-14.0133
▁Repeat	-14.0152
▁intense	-14.0152
▁spun	-14.0152
▁fluorine	-14.0152
formation	-14.0172
▁molten	-14.0172
▁lyoph	-14.0181
Millipore	-14.0191
▁deionised	-14.0211
▁kugelrohr	-14.0211
▁refractive	-14.0211
▁represents	-14.0211
▁Place	-14.0211
▁resumed	-14.0231
EtoAc	-14.0231
▁because	-14.0231
decanedioic	-14.0232
stat	-14.0239
Genevac	-14.0251
▁dicalite	-14.0251
absolute	-14.0257
purification	-14.0258
middle	-14.0271
▁repeating	-14.0271
▁pigment	-14.0291
▁Heated	-14.0296
methyi	-14.0296
hydrazo	-14.0301
▁fridge	-14.0311
▁exception	-14.0314
▁claim	-14.0331
Reprosil	-14.0331
dicarboximide	-14.0331
▁alkalified	-14.0331
▁depicted	-14.0331
▁roughly	-14.0331
grade	-14.0332
▁media	-14.0339
hexopyranos	-14.0351
third	-14.0365
▁macro	-14.037
tyrosyl	-14.0372
capillary	-14.0372
▁schlenk	-14.0372
crotonic	-14.0392
▁rotomers	-14.0392
usually	-14.0404
DIAD	-14.0409
benzil	-14.0412
ketoester	-14.0415
▁stretch	-14.0433
choro	-14.0434
mounted	-14.0447
RediSep	-14.0452
histidyl	-14.0453
nitrate	-14.0465
▁alkalinized	-14.0473
terior	-14.0473
▁isolating	-14.0473
XXII	-14.0481
▁fiber	-14.0494
OAC	-14.0528
Chromolith	-14.0535
▁chamber	-14.0535
▁drier	-14.0535
sulfite	-14.0559
imidodicarbonate	-14.0574
predominantly	-14.0576
ChiralPak	-14.0578
ethylendioxy	-14.0581
methanesulfinate	-14.0584
absorbed	-14.0584
Trityl	-14.0593
trimethylsily	-14.0593
oxepan	-14.0597
▁International	-14.0597
▁reheated	-14.0599
phthalimid	-14.0607
isocyanurate	-14.0617
▁particular	-14.0617
▁corresponded	-14.0618
▁admixture	-14.0619
▁delivered	-14.062
▁Complete	-14.0638
stark	-14.0659
▁reconstituted	-14.0659
uti	-14.0671
reference	-14.0673
Inertsil	-14.068
▁condensing	-14.068
▁Psi	-14.068
trioxane	-14.068
▁watts	-14.0701
ioxoimidazolidin	-14.0735
▁homogeneity	-14.0742
▁published	-14.0742
▁metabisulphite	-14.0764
▁space	-14.0764
porosity	-14.0785
▁displacement	-14.0785
▁swirling	-14.0785
HBTU	-14.0785
Grad	-14.0788
hexanamido	-14.0807
▁hydrofluori	-14.0811
hemi	-14.0814
thiolan	-14.0815
▁strip	-14.0827
final	-14.0859
lauroyl	-14.0869
▁chips	-14.0869
▁regioisomeric	-14.0869
▁topped	-14.0869
cube	-14.0871
▁CrO	-14.0872
benziodoxol	-14.089
▁compared	-14.089
▁Chlorine	-14.089
▁methoxylamine	-14.0891
▁scratching	-14.0912
▁observ	-14.0932
Meldrum	-14.0933
sugar	-14.0933
▁analogue	-14.0933
▁namely	-14.0936
last	-14.0945
jk	-14.095
oxazonine	-14.0955
diasteromer	-14.0955
rimethylboroxine	-14.0955
enantiomerically	-14.096
filtration	-14.0968
DAST	-14.0968
XXXV	-14.097
imethylhydantoin	-14.0973
thianthren	-14.0976
▁turbidity	-14.0976
▁bromopyruvate	-14.0977
ethanoic	-14.0981
glutarimide	-14.0998
▁fall	-14.101
washing	-14.1014
oxazaborolidine	-14.1019
▁Triturate	-14.1019
▁BnBr	-14.1019
selena	-14.1029
Theoretical	-14.1041
riphenylphospine	-14.1041
▁Tlc	-14.1041
sulfonato	-14.1048
furfural	-14.1055
TBTU	-14.106
SCX	-14.1061
▁Several	-14.1062
▁integration	-14.1062
▁Degassed	-14.1062
▁basify	-14.1062
▁solidify	-14.108
reacted	-14.1084
Oakwood	-14.1084
▁AgNO	-14.1084
oleoyl	-14.1087
FID	-14.109
isopropoxide	-14.1098
etraisopropoxide	-14.1119
starch	-14.1128
▁Thirty	-14.1128
nonanoi	-14.1131
MPLC	-14.1131
Crown	-14.1149
penicillin	-14.1149
trimethyloxonium	-14.1149
▁clay	-14.1149
mouth	-14.1149
▁Here	-14.115
stearyl	-14.115
▁epimeric	-14.115
orpholinopropoxy	-14.1159
Cellulose	-14.1171
▁culture	-14.1171
▁stayed	-14.1172
carbothioic	-14.1193
▁Suspend	-14.1193
▁sponge	-14.1193
▁straw	-14.1193
▁vortex	-14.1215
nipecotic	-14.1215
▁Catalog	-14.1215
▁Alcohol	-14.1215
phosphorochlorid	-14.1219
purple	-14.1224
This	-14.1225
glucamine	-14.1237
leucinamide	-14.1237
oxathiolane	-14.1237
▁trimethylborate	-14.1239
were	-14.124
▁Selectfluor	-14.1246
▁LTD	-14.1259
▁Triton	-14.126
glacial	-14.1272
▁Aniline	-14.1281
▁proper	-14.1283
loading	-14.1295
ozo	-14.1303
lyophilizer	-14.1304
Furan	-14.1304
▁Collection	-14.1304
ribose	-14.1304
driven	-14.1314
▁premixed	-14.1326
glutar	-14.1338
▁TBDMSCl	-14.1349
▁Acta	-14.1358
fluorenylmethoxy	-14.1362
▁Therefore	-14.137
▁distribution	-14.137
▁radical	-14.137
▁paddle	-14.137
Type	-14.1393
linked	-14.1393
▁moved	-14.1393
▁TBAI	-14.1393
crystallised	-14.1415
salicylidene	-14.1415
capryl	-14.1415
rhodanine	-14.1438
conformer	-14.1438
Cube	-14.1438
AIBN	-14.1439
tRet	-14.1444
resistant	-14.146
sucrose	-14.146
▁Referr	-14.146
▁melamine	-14.146
akis	-14.1463
Nickel	-14.1463
rotamers	-14.1463
backfill	-14.1476
methacryloxy	-14.1505
▁Absolute	-14.1505
acetato	-14.1506
▁Reduction	-14.1528
▁sludge	-14.1528
discard	-14.1529
icinal	-14.1551
▁Distill	-14.1573
Trade	-14.1574
▁eighteen	-14.1574
▁Para	-14.1598
ipso	-14.1608
Combiflash	-14.1609
maleimido	-14.1619
▁evident	-14.1619
decomposes	-14.162
▁Coupling	-14.1642
▁counter	-14.1642
▁recharged	-14.1642
piperonyl	-14.1643
tetrafluoroboric	-14.1643
process	-14.1656
Liter	-14.1663
Propargyl	-14.1665
▁pulled	-14.1665
▁must	-14.1665
▁operat	-14.1666
titan	-14.1678
▁Unreacted	-14.1688
▁darkened	-14.1688
▁azodi	-14.1699
▁decrease	-14.173
fragment	-14.1734
▁gathered	-14.1734
▁granulated	-14.1734
▁monobasic	-14.1735
▁conclusion	-14.1758
▁lyophilisation	-14.1758
selective	-14.1758
cetyl	-14.1771
Alternative	-14.1781
▁manual	-14.1781
phosphorylazide	-14.1784
mediate	-14.1795
▁hydrolyze	-14.18
Thiazol	-14.1804
Org	-14.1808
micro	-14.1821
glucopyranos	-14.1838
▁consist	-14.1846
Butyldiphenylsil	-14.1848
stearic	-14.1851
▁elevating	-14.1851
glyoxime	-14.1851
Lev	-14.1866
▁fluorescent	-14.1875
▁heterogenous	-14.1875
ctivation	-14.1875
▁dosed	-14.1875
rite	-14.1897
naphtalen	-14.1898
▁characterised	-14.1898
▁customary	-14.1898
isoquino	-14.1904
▁TOTU	-14.1922
rapamycin	-14.1945
▁virtual	-14.1945
▁whitish	-14.1945
oxybisethane	-14.1945
▁exclude	-14.1947
Maybridge	-14.1969
▁bleed	-14.1969
▁pinkish	-14.197
olefin	-14.197
second	-14.1984
▁SUS	-14.2017
▁grayish	-14.2017
succinimido	-14.2031
▁bicyclic	-14.2041
▁nylon	-14.2041
Preparative	-14.2061
tetracosa	-14.2065
▁Elute	-14.2069
▁CHEMICAL	-14.2088
▁Initially	-14.2088
SPIRO	-14.2112
Thiophene	-14.2112
semicarbazone	-14.2132
▁satisfactory	-14.2136
▁infra	-14.2137
deoxycytidine	-14.2137
▁consecutive	-14.216
▁promote	-14.2161
▁visualization	-14.2161
sulfamyl	-14.2161
hexachloroethane	-14.2171
triethylammonio	-14.2185
▁bisulphite	-14.2185
Delta	-14.2185
functionalized	-14.2185
CARB	-14.2185
undecanoic	-14.2186
dropwise	-14.219
▁distil	-14.22
cysteamine	-14.2209
prolinol	-14.2209
▁dessicator	-14.2209
▁lipase	-14.2209
▁Benzaldehyde	-14.2209
Prepared	-14.2216
circulating	-14.2233
electric	-14.2233
tricosa	-14.2234
Kinetex	-14.2258
bromination	-14.2258
homoerythromycin	-14.2258
oxathiin	-14.2262
nitril	-14.2273
tocopherol	-14.2282
epresentative	-14.2282
▁antimony	-14.2307
▁diketene	-14.2307
▁exposure	-14.2307
agnetic	-14.2319
METHOD	-14.2331
▁Deionized	-14.2331
▁hydrosulfide	-14.2332
trimethoxybenzo	-14.2334
issolving	-14.2351
Pivaloyl	-14.2356
selenophene	-14.2356
▁dilaurate	-14.2356
▁ytterbium	-14.2356
cepham	-14.2356
nonafluorobutane	-14.2356
▁simultaneous	-14.238
Matrix	-14.2381
▁Commun	-14.2381
▁SepaFlash	-14.2381
▁fused	-14.2381
▁Triflic	-14.2405
onochlorobenzene	-14.2413
diastereoisomer	-14.2417
slurry	-14.2427
▁decolouris	-14.243
technical	-14.243
oxadiazin	-14.2431
▁appear	-14.2452
▁probucol	-14.2455
▁Continue	-14.248
BIOTAGE	-14.2505
▁thermowell	-14.2505
microwave	-14.2506
chilled	-14.2507
▁odor	-14.2507
▁desire	-14.2528
concentra	-14.2531
▁Nova	-14.2544
diphosphetane	-14.2555
butyrophenone	-14.2555
sulphamoyl	-14.258
binap	-14.2598
phenothiazin	-14.2602
▁Vigorous	-14.2606
▁placing	-14.2606
Reaction	-14.2615
Product	-14.2621
boroxin	-14.2631
isophthalamide	-14.2631
malonamic	-14.2631
▁defined	-14.2631
valeraldehyde	-14.2656
scavenger	-14.2682
▁company	-14.2682
subjected	-14.2697
controlled	-14.2697
▁Glauber	-14.2707
▁manipulation	-14.2707
effective	-14.2713
▁seperated	-14.2733
▁ultrasound	-14.2733
▁unchanged	-14.2733
stearate	-14.2733
Xylene	-14.2734
▁Crystalline	-14.2759
▁environment	-14.2759
chloranil	-14.2763
▁follow	-14.2782
ension	-14.2787
naphthal	-14.2794
optical	-14.2808
▁exhibit	-14.2809
▁Kogyo	-14.281
▁evacuating	-14.281
▁listed	-14.281
▁Mega	-14.281
▁static	-14.282
previously	-14.2835
coupled	-14.2835
▁headspace	-14.2836
NAPHTHALENE	-14.2862
▁center	-14.2862
▁Complex	-14.2888
▁Dowtherm	-14.2914
beige	-14.2918
▁Adjust	-14.294
▁connect	-14.2966
guanidinium	-14.2966
presumed	-14.2966
▁COMBIFLASH	-14.2966
▁dumped	-14.2966
acetimidamide	-14.2966
benzenedimethan	-14.2983
FMOC	-14.2992
biguanide	-14.2992
prolinate	-14.2992
▁proved	-14.2992
XLI	-14.301
triethylsilanyl	-14.3014
uantitative	-14.3017
▁Wittig	-14.3019
▁Monitor	-14.3019
unresolved	-14.3045
▁AXIA	-14.3045
trioxolane	-14.3045
amount	-14.3059
Precursor	-14.3071
vanadium	-14.3071
▁Rotavapor	-14.3071
▁deminerali	-14.3072
▁regular	-14.3098
Acidic	-14.312
while	-14.3145
erythritol	-14.3151
▁tungsten	-14.3151
sulfonanilide	-14.3151
cycloundecaphane	-14.3151
▁Overall	-14.3152
generated	-14.3159
adipate	-14.3178
leucinate	-14.3178
naltrexone	-14.3178
separated	-14.3202
▁extreme	-14.3205
IntelFlas	-14.3205
▁saved	-14.3205
glyox	-14.3205
Petrol	-14.3232
pristin	-14.3232
Basic	-14.3232
▁rotating	-14.3232
▁Spectrometry	-14.3259
▁already	-14.3259
mandelate	-14.3259
▁oxidant	-14.3259
malto	-14.3273
ornithine	-14.3286
▁Reactor	-14.3286
▁granules	-14.3286
▁discharge	-14.3313
▁orbital	-14.3313
oxazocine	-14.3313
methylsilanolate	-14.3313
▁egg	-14.3313
choride	-14.3313
▁terephthal	-14.3322
rystal	-14.3328
chromatotron	-14.334
▁easily	-14.334
▁triethyloxonium	-14.334
having	-14.3347
avermectin	-14.3394
▁Content	-14.3395
aspartate	-14.3395
Selectride	-14.3395
gassing	-14.3396
Peak	-14.3405
penicillani	-14.3407
fluorinated	-14.3422
sensitive	-14.3422
methanimidate	-14.3422
spectrum	-14.3435
choloro	-14.3449
▁steroid	-14.3449
▁rotoevaporation	-14.3449
▁describe	-14.345
according	-14.3465
▁shield	-14.3467
Ratio	-14.3477
Amount	-14.3477
tartarate	-14.3477
▁examined	-14.3477
derivative	-14.349
▁Followed	-14.3505
▁Ligand	-14.3505
▁atomosphere	-14.3505
▁pounds	-14.3505
Paraformaldehyde	-14.3505
▁Agela	-14.3505
▁Generation	-14.3532
▁IBX	-14.3532
▁triturate	-14.3533
lysin	-14.3545
Boston	-14.356
▁Fieser	-14.356
▁considerabl	-14.356
CYCLOBUTYL	-14.356
head	-14.3565
Comparative	-14.3588
▁initiation	-14.3588
pyrindin	-14.3588
▁amalgam	-14.3616
▁diatomite	-14.3616
▁stiffed	-14.3616
▁zeolite	-14.3616
plant	-14.3616
aziridin	-14.3641
▁sediment	-14.3644
▁hexamethylditin	-14.3644
▁inserted	-14.3644
goes	-14.3645
obtainable	-14.3648
emaining	-14.3671
▁flaky	-14.3672
▁ferrous	-14.3672
fonyl	-14.3694
vitamin	-14.37
▁HORI	-14.37
blue	-14.3705
▁millimols	-14.3728
minoacetaldehyde	-14.3731
benzylidenaceton	-14.3751
▁alternately	-14.3757
exotherm	-14.376
stirring	-14.3764
benzoquinon	-14.3782
tungst	-14.3785
HYDROXY	-14.3785
catalyzed	-14.3785
▁Phosgene	-14.3785
▁flocculent	-14.3785
mannitol	-14.3785
Vydac	-14.3814
▁solubilised	-14.3814
benzhydrol	-14.3842
Porter	-14.3842
sisomicin	-14.3842
▁Science	-14.3842
▁unstable	-14.3842
furazan	-14.3844
Yamazen	-14.3871
▁lactol	-14.3871
Indazol	-14.3879
Novozym	-14.39
betulin	-14.39
▁Lindlar	-14.39
reactor	-14.3918
boxylic	-14.3925
▁rotovapped	-14.3928
▁recrystallize	-14.393
pectroscopically	-14.3954
irregular	-14.3957
▁XDB	-14.3957
▁geometric	-14.3957
Analyse	-14.3957
fructo	-14.3986
▁somewhat	-14.3986
EPINE	-14.3986
naphthacene	-14.4015
▁faded	-14.4015
▁joined	-14.4015
▁Gram	-14.4017
dppp	-14.4044
▁Aluminium	-14.4044
PyBroP	-14.4074
▁Expected	-14.4074
▁thermostat	-14.4074
▁hypophosphite	-14.4074
▁balance	-14.4103
▁display	-14.4103
▁everything	-14.4103
▁brief	-14.4132
▁ascertain	-14.4132
▁never	-14.4133
together	-14.4137
▁render	-14.4161
asparagine	-14.4192
