<unk>	0
<s>	0
</s>	0
,	-2.78694
.	-3.39226
▁the	-3.51624
▁of	-3.75677
▁and	-4.05155
▁(	-4.12986
-	-4.13227
▁a	-4.2113
)	-4.24859
▁to	-4.33814
▁in	-4.44855
H	-4.6512
▁or	-4.71896
▁is	-4.82706
),	-4.88707
▁The	-4.97732
▁was	-4.97973
▁	-5.09969
▁with	-5.11434
▁for	-5.1548
▁1	-5.177
▁as	-5.19619
▁by	-5.31129
▁be	-5.37196
s	-5.4448
2	-5.50383
▁at	-5.52949
▁are	-5.55901
▁an	-5.59855
▁C	-5.6054
/	-5.66909
:	-5.69995
▁from	-5.75407
▁acid	-5.7789
;	-5.79456
▁2	-5.84523
▁In	-5.8939
C	-5.89687
▁that	-5.91305
1	-5.95684
m	-5.97424
▁may	-6.05049
3	-6.05659
▁R	-6.0618
▁can	-6.07126
).	-6.10132
▁compound	-6.11482
▁J	-6.12434
▁which	-6.12561
(	-6.12631
▁were	-6.14891
▁g	-6.17063
▁invention	-6.17393
▁group	-6.18573
▁such	-6.18828
d	-6.21702
▁A	-6.2257
▁one	-6.27372
yl	-6.28798
▁3	-6.30912
▁mixture	-6.31099
g	-6.32209
▁reaction	-6.33421
▁Hz	-6.36181
▁used	-6.36591
▁solution	-6.3804
▁mg	-6.39692
▁mmol	-6.41184
4	-6.42462
▁mL	-6.45467
▁about	-6.50255
e	-6.50423
]	-6.52132
N	-6.52714
▁added	-6.54141
S	-6.54323
▁Example	-6.57752
▁example	-6.58429
▁on	-6.59652
▁present	-6.6026
▁N	-6.61484
R	-6.62024
▁cells	-6.65639
O	-6.6641
▁H	-6.66682
-2-	-6.6784
▁using	-6.7128
▁more	-6.71422
▁sequence	-6.72195
▁described	-6.72717
methyl	-6.72754
▁m	-6.73502
M	-6.76405
▁amino	-6.77567
▁compounds	-6.78116
▁5	-6.79288
▁4	-6.81599
▁not	-6.84045
▁temperature	-6.84332
▁ml	-6.84937
6	-6.85104
”	-6.85346
5	-6.85471
▁“	-6.8662
▁embodiments	-6.87195
▁include	-6.87835
a	-6.88763
▁cell	-6.89267
▁water	-6.90435
▁then	-6.90477
▁herein	-6.92407
▁antibody	-6.9611
▁(1	-6.96111
▁protein	-6.96252
▁least	-6.97732
▁other	-6.98233
▁10	-6.99562
▁also	-6.99992
▁under	-7.00116
▁formula	-7.02684
▁this	-7.02891
▁ID	-7.03568
▁embodiment	-7.06067
or	-7.06079
-4-	-7.06266
▁—	-7.06455
▁alkyl	-7.08303
▁wherein	-7.08821
▁substituted	-7.11952
▁stirred	-7.1239
-1	-7.12401
-3-	-7.12804
-1-	-7.12839
▁NO	-7.12846
▁into	-7.13041
A	-7.13459
▁above	-7.13862
▁preferably	-7.14938
CH	-7.16458
▁6	-7.17271
▁product	-7.17587
▁al	-7.18087
▁et	-7.18111
)-	-7.18249
▁each	-7.18867
▁obtained	-7.18935
);	-7.20941
▁method	-7.22454
▁having	-7.23697
▁any	-7.25056
phenyl	-7.26334
▁sodium	-7.27301
▁thereof	-7.28456
+	-7.28686
▁prepared	-7.2904
▁solid	-7.29614
7	-7.30002
▁μ	-7.32459
▁some	-7.33036
▁hours	-7.33146
b	-7.33227
▁organic	-7.3329
▁B	-7.33303
amino	-7.33637
▁selected	-7.33961
▁(2	-7.35535
t	-7.35665
▁ethyl	-7.35767
8	-7.35859
▁than	-7.37467
▁it	-7.37492
▁form	-7.37714
▁have	-7.38816
▁dried	-7.40058
▁solvent	-7.41142
▁SEQ	-7.41151
▁washed	-7.412
▁binding	-7.41821
▁containing	-7.42448
▁s	-7.42452
▁acetate	-7.4349
▁e	-7.43613
L	-7.43752
▁residue	-7.43939
▁has	-7.44043
▁NMR	-7.44293
▁over	-7.45174
▁but	-7.45354
▁concentrated	-7.45974
▁two	-7.46093
▁groups	-7.46313
▁δ	-7.465
▁comprising	-7.47106
▁For	-7.47211
▁DNA	-7.47393
▁according	-7.47406
▁2-	-7.47455
▁hydrogen	-7.48639
▁I	-7.49387
▁following	-7.49592
▁further	-7.50079
▁room	-7.50252
▁M	-7.50471
▁human	-7.50676
▁carbon	-7.5148
▁[	-7.51653
▁known	-7.52015
▁-	-7.52793
▁purified	-7.53601
I	-7.54275
▁d	-7.54319
▁expression	-7.55248
▁20	-7.5534
▁methods	-7.56493
9	-7.56605
▁activity	-7.56906
▁aqueous	-7.57023
▁another	-7.57107
▁antibodies	-7.57338
▁polypeptide	-7.5875
▁To	-7.59235
▁amount	-7.59711
▁same	-7.60083
▁acids	-7.60375
▁After	-7.60895
0	-7.61811
▁sequences	-7.61876
1-	-7.62685
▁non	-7.63269
▁chloride	-7.6412
▁gene	-7.64352
ethyl	-7.64962
B	-7.65076
c	-7.66085
▁T	-7.66091
▁pressure	-7.66126
▁MHz	-7.66224
▁This	-7.66429
▁nucleic	-7.66496
▁composition	-7.66579
▁30	-7.66692
▁art	-7.66738
▁h	-7.6739
▁anti	-7.68054
▁use	-7.68126
▁chain	-7.68668
▁chromatography	-7.68685
▁between	-7.68768
'	-7.68963
▁column	-7.69144
▁min	-7.69259
▁addition	-7.69363
▁will	-7.69421
-5-	-7.69466
z	-7.69782
▁give	-7.69826
▁salt	-7.69854
D	-7.70149
▁agent	-7.71572
▁atoms	-7.72102
▁well	-7.73205
▁S	-7.73272
▁methyl	-7.73406
▁process	-7.74243
▁yield	-7.74671
▁minutes	-7.74716
▁those	-7.74813
▁L	-7.74837
▁100	-7.75599
▁preferred	-7.76961
▁layer	-7.7713
▁including	-7.77186
▁treatment	-7.77436
▁peptide	-7.77594
▁been	-7.77922
▁filtered	-7.7823
▁these	-7.78465
▁As	-7.79017
▁shown	-7.7902
▁title	-7.79161
▁optionally	-7.79281
▁reduced	-7.79462
▁X	-7.79468
butyl	-7.79528
▁weight	-7.79571
▁agents	-7.80607
▁15	-7.80867
▁suitable	-7.81052
▁like	-7.82191
▁PAC	-7.82297
▁resulting	-7.83101
▁D	-7.83778
▁(3	-7.84113
l	-7.84807
▁4-	-7.85205
▁active	-7.85406
p	-7.85506
):	-7.85581
▁PA	-7.8577
▁conditions	-7.85925
▁No	-7.86353
▁after	-7.86568
▁comprises	-7.86635
▁gel	-7.8682
▁CH	-7.87139
▁50	-7.87279
▁8	-7.88067
▁material	-7.88744
▁catalyst	-7.89948
▁when	-7.91074
▁Compound	-7.91835
▁term	-7.91895
▁Formula	-7.92012
▁p	-7.92173
▁E	-7.92359
3,	-7.92822
▁step	-7.93174
▁dissolved	-7.93464
▁limited	-7.93663
▁n	-7.94193
▁ring	-7.94397
▁region	-7.94533
▁proteins	-7.94856
chloro	-7.95146
▁oil	-7.95163
▁through	-7.95247
▁specific	-7.95469
▁ether	-7.95576
▁cancer	-7.95703
▁Examples	-7.96062
▁first	-7.96424
▁certain	-7.96738
3)	-7.97027
▁disease	-7.97044
▁ester	-7.97276
▁time	-7.97346
▁3-	-7.97688
▁molecule	-7.97762
i	-7.98334
▁EXAMPLE	-7.99252
▁out	-7.99394
▁administration	-7.99416
▁all	-7.99517
hydroxy	-7.99547
▁MS	-7.99849
▁particular	-7.9988
▁phase	-8.00491
▁pH	-8.00521
▁extracted	-8.00614
alkyl	-8.00704
▁7	-8.00936
▁presence	-8.01771
▁concentration	-8.02067
▁light	-8.02105
▁U	-8.02445
F	-8.02663
▁"	-8.02957
"	-8.03233
▁mM	-8.03547
▁silica	-8.03709
-2	-8.03788
—	-8.04027
▁compositions	-8.04068
E	-8.04897
▁antigen	-8.05122
▁different	-8.06266
▁its	-8.06287
▁where	-8.06416
▁Step	-8.06685
▁provided	-8.06921
2,	-8.07124
▁desired	-8.07135
n	-8.07179
10	-8.08057
▁treated	-8.0859
▁atom	-8.08659
▁It	-8.08692
▁acceptable	-8.08779
▁said	-8.08796
▁CD	-8.08842
▁high	-8.08978
▁administered	-8.09641
▁liquid	-8.10523
▁combined	-8.1057
▁9	-8.10662
▁O	-8.1076
▁system	-8.1123
▁defined	-8.11349
one	-8.11646
▁domain	-8.11657
▁removed	-8.12041
dd	-8.12638
▁aryl	-8.13347
▁target	-8.13795
▁within	-8.14235
▁refers	-8.14403
▁P	-8.14744
▁receptor	-8.14808
▁F	-8.15122
P	-8.15262
▁consisting	-8.15435
▁nitrogen	-8.15647
▁second	-8.15764
▁less	-8.16439
▁followed	-8.16519
▁independently	-8.16672
▁below	-8.17847
▁both	-8.19622
▁found	-8.19675
▁number	-8.20214
▁single	-8.2063
▁their	-8.20684
pharmaceutically	-8.20729
methoxy	-8.20963
▁G	-8.21006
▁procedure	-8.21152
▁methanol	-8.21251
▁includes	-8.21503
▁5-	-8.2196
▁metal	-8.22046
▁Table	-8.22394
▁cooled	-8.2243
▁general	-8.22521
▁pharmaceutical	-8.22823
▁salts	-8.22936
▁per	-8.22951
dimethyl	-8.23209
▁control	-8.23243
▁Preparation	-8.23256
▁subject	-8.23439
▁t	-8.24082
▁examples	-8.24321
fluoro	-8.24627
▁three	-8.24857
▁combination	-8.2503
▁molecules	-8.25297
▁provides	-8.26114
▁heated	-8.26157
▁saturated	-8.26298
▁base	-8.2657
▁lower	-8.26988
▁crude	-8.27623
oxo	-8.27781
SEQ	-8.27859
▁results	-8.28555
▁=	-8.28637
dihydro	-8.29007
▁fragment	-8.29262
▁sample	-8.2945
▁range	-8.29994
-6-	-8.30193
▁being	-8.30213
▁structure	-8.30373
▁sulfate	-8.30452
▁comprise	-8.30671
▁12	-8.30801
▁without	-8.31066
▁means	-8.31748
▁performed	-8.31907
▁carried	-8.32078
▁vector	-8.32204
▁##	-8.32444
▁determined	-8.32685
MS	-8.33026
▁encoding	-8.33112
▁reference	-8.33353
▁useful	-8.33451
▁--	-8.33804
6)	-8.3431
▁either	-8.3582
▁medium	-8.36156
▁produced	-8.36634
▁evaporated	-8.3665
▁isolated	-8.37103
▁provide	-8.37926
▁manner	-8.38
▁assay	-8.38132
)-2-	-8.38354
▁effective	-8.38608
▁various	-8.38628
▁similar	-8.38722
[	-8.38805
▁buffer	-8.38895
▁unsubstituted	-8.38913
▁analysis	-8.38983
▁RNA	-8.39584
▁16	-8.39685
▁1-	-8.40069
▁These	-8.40388
pyridin	-8.40518
▁preparation	-8.40604
▁IL	-8.40692
▁no	-8.41476
▁white	-8.41674
▁phenyl	-8.41886
STR	-8.42037
▁corresponding	-8.4214
▁residues	-8.42531
▁25	-8.4281
▁diluted	-8.43237
ml	-8.4336
▁contain	-8.43511
Cl	-8.43915
▁mol	-8.44099
T	-8.44283
▁host	-8.44477
▁aspect	-8.44906
4,	-8.45006
▁disclosed	-8.45202
▁therapeutic	-8.45305
1,	-8.45515
▁0	-8.45597
SO	-8.45671
▁Y	-8.46581
▁(400	-8.46698
▁nucleotide	-8.47126
▁test	-8.47261
carboxylic	-8.47645
▁An	-8.47731
▁K	-8.47784
▁obtain	-8.47809
]-	-8.48018
▁site	-8.48037
▁type	-8.48219
▁tumor	-8.4843
▁stirring	-8.48996
▁(10	-8.49164
NMR	-8.49807
▁surface	-8.4989
▁ethanol	-8.50111
▁fragments	-8.50207
▁24	-8.50287
▁only	-8.50332
▁appropriate	-8.50488
G	-8.51123
▁represented	-8.5132
▁ppm	-8.51535
▁particularly	-8.51567
▁anhydrous	-8.51668
▁DMSO	-8.52184
▁separated	-8.52683
▁Such	-8.52831
v	-8.52855
▁tert	-8.53461
▁additional	-8.53467
▁portion	-8.53563
▁synthesis	-8.53797
▁0°	-8.54003
▁modified	-8.54034
▁Synthesis	-8.54121
▁(5	-8.55006
▁tissue	-8.55048
trifluoromethyl	-8.5518
▁etc	-8.55263
tert	-8.55305
▁vacuo	-8.55349
▁growth	-8.5545
▁up	-8.55481
▁0.5	-8.55651
▁recombinant	-8.55803
12	-8.55832
▁Pat	-8.55878
α	-8.55956
▁brine	-8.56734
ing	-8.57158
▁forms	-8.57239
▁i	-8.57305
▁overnight	-8.57307
▁hour	-8.57435
▁production	-8.57466
▁dichloromethane	-8.57736
▁mice	-8.5797
▁halogen	-8.58163
▁polypeptides	-8.58311
▁if	-8.58339
▁represents	-8.58406
▁ratio	-8.58527
▁HPLC	-8.58585
▁starting	-8.58746
▁formed	-8.58928
▁via	-8.59
▁13	-8.59094
▁18	-8.59278
propyl	-8.59419
▁%	-8.59468
▁dose	-8.59552
▁V	-8.59599
tetrahydro	-8.59642
bromo	-8.59918
▁complex	-8.59946
▁II	-8.59982
▁yellow	-8.60201
▁effect	-8.60338
▁EtOAc	-8.60397
▁potassium	-8.60482
▁times	-8.60682
▁carbonate	-8.60871
carbonyl	-8.61168
▁fusion	-8.61352
▁aromatic	-8.61601
NH	-8.61861
▁40	-8.61903
11	-8.62134
▁employed	-8.62248
}	-8.62393
▁afford	-8.62457
▁gas	-8.62538
▁based	-8.62582
▁THF	-8.6265
▁alcohol	-8.62797
▁Thus	-8.63711
▁moiety	-8.63812
▁NUM	-8.63973
▁rate	-8.64071
▁generally	-8.64342
▁days	-8.64389
▁derivatives	-8.64391
▁so	-8.64964
2-	-8.65085
▁derived	-8.65089
▁incorporated	-8.65298
carboxylate	-8.65301
▁molecular	-8.65322
▁set	-8.65387
▁purification	-8.65441
▁heavy	-8.65448
br	-8.65543
▁made	-8.65586
▁peptides	-8.65678
kg	-8.65866
▁most	-8.6592
CDCl	-8.65937
▁materials	-8.66245
alpha	-8.66832
▁10%	-8.66899
▁position	-8.67263
▁patient	-8.67469
▁claim	-8.67984
▁CDCl	-8.68043
II	-8.6821
▁heteroaryl	-8.68653
▁suspension	-8.68983
▁Z	-8.69132
amine	-8.69134
▁they	-8.69193
▁vacuum	-8.6924
▁alkoxy	-8.69463
oxy	-8.6955
▁oligonucleotide	-8.69687
▁hydroxide	-8.6976
▁mixed	-8.70314
▁0.1	-8.70406
▁total	-8.7045
▁measured	-8.70512
▁off	-8.70552
▁dosage	-8.70706
▁standard	-8.70931
▁techniques	-8.71098
▁When	-8.71128
▁compared	-8.71294
▁virus	-8.71666
▁200	-8.71712
▁derivative	-8.71981
20	-8.72187
X	-8.72201
▁reactor	-8.72368
▁culture	-8.72534
▁variable	-8.72559
▁promoter	-8.72837
▁expressed	-8.72933
▁substituents	-8.73337
50	-8.7373
▁response	-8.73917
▁respectively	-8.73972
▁products	-8.74145
▁disclosure	-8.74227
▁di	-8.74522
▁low	-8.7458
▁enzyme	-8.74603
K	-8.7464
▁levels	-8.74675
▁hydrochloride	-8.74734
▁60	-8.7504
▁blood	-8.75195
▁cycloalkyl	-8.75302
▁PCR	-8.75659
ESI	-8.75708
)-3-	-8.75835
▁collected	-8.75884
▁level	-8.75986
▁drug	-8.76047
▁magnesium	-8.76097
2)	-8.7615
▁chemical	-8.76188
▁available	-8.76293
▁free	-8.76766
▁regions	-8.7685
▁against	-8.76872
▁case	-8.76899
in	-8.77208
▁carrier	-8.77422
pyridine	-8.77441
1-6	-8.77453
V	-8.7801
▁there	-8.78211
-(	-8.78299
=	-8.78353
▁associated	-8.78367
▁specifically	-8.78545
▁genes	-8.786
▁nm	-8.78974
)-1	-8.79183
▁(4	-8.79258
▁thus	-8.79304
▁order	-8.79325
▁skilled	-8.79482
▁while	-8.79503
▁volume	-8.79508
▁together	-8.79649
OH	-8.79875
▁(100	-8.80065
▁6-	-8.80093
▁Na	-8.80121
CD	-8.80212
▁produce	-8.80399
▁part	-8.80882
▁toluene	-8.81383
▁allowed	-8.8178
CO	-8.82086
▁(20	-8.82532
▁functional	-8.82545
▁HCl	-8.82591
J	-8.82837
▁contains	-8.8291
▁bond	-8.82967
▁amine	-8.82991
▁14	-8.83027
▁mass	-8.83734
▁(50	-8.83967
NR	-8.84145
▁WO	-8.84187
▁during	-8.8453
▁greater	-8.84718
▁mm	-8.84861
ly	-8.84936
▁polynucleotide	-8.8523
▁data	-8.85364
▁ligand	-8.85418
▁11	-8.86035
▁treating	-8.86097
▁filtration	-8.86184
▁identified	-8.86291
▁typically	-8.86333
▁point	-8.86529
________________	-8.86616
▁oxygen	-8.86705
▁ice	-8.86765
see	-8.86911
▁dropwise	-8.86945
18	-8.87595
ed	-8.8766
beta	-8.87867
▁_______________	-8.87927
▁IgG	-8.88146
▁affinity	-8.88407
di	-8.88543
▁result	-8.88987
▁cm	-8.891
▁line	-8.89156
▁higher	-8.89321
-3	-8.89374
▁diseases	-8.89441
▁incubated	-8.89622
▁synthesized	-8.89768
▁given	-8.8991
▁plant	-8.90002
▁application	-8.90177
▁function	-8.90304
▁length	-8.90315
▁signal	-8.90471
▁cDNA	-8.90695
▁substrate	-8.91326
▁stream	-8.91381
▁animal	-8.91444
▁phosphate	-8.91625
▁small	-8.92006
▁value	-8.92285
▁formation	-8.92301
▁increase	-8.92365
▁samples	-8.92688
▁dry	-8.92963
▁acetic	-8.93128
▁Fc	-8.93134
▁vectors	-8.93146
▁condition	-8.93159
▁W	-8.93277
3-	-8.9333
▁biological	-8.9335
h	-8.93371
)-4-	-8.93575
▁hydroxy	-8.93618
▁filtrate	-8.93727
▁1.5	-8.94005
▁conventional	-8.94157
▁polymer	-8.9435
▁tetrahydrofuran	-8.94393
▁observed	-8.94576
▁inhibitors	-8.94747
▁serum	-8.94748
▁attached	-8.94803
13	-8.94879
▁increased	-8.95017
▁percent	-8.95029
-7-	-8.95111
▁indicated	-8.9513
▁substantially	-8.95166
▁poly	-8.95227
▁DMF	-8.95475
▁bind	-8.95494
▁unit	-8.95536
containing	-8.95689
▁DCM	-8.95729
▁capable	-8.95788
▁flow	-8.95839
▁injection	-8.95995
bis	-8.96148
▁solvents	-8.96155
▁hydrocarbon	-8.96423
▁immune	-8.96714
▁relates	-8.96772
▁intermediate	-8.96829
▁substituent	-8.96924
▁membrane	-8.97012
pyrimidin	-8.97086
benzyl	-8.97524
ol	-8.97716
▁before	-8.97786
14	-8.97951
▁inhibitor	-8.98063
▁LC	-8.98067
▁mouse	-8.98177
▁properties	-8.98211
▁components	-8.9861
▁ammonium	-8.98616
▁day	-8.98669
f	-8.98906
▁synthetic	-8.98993
▁c	-8.99192
▁500	-8.99396
▁assays	-8.99582
o	-8.99609
▁acetonitrile	-9.00174
▁upon	-9.00328
▁eq	-9.00623
▁powder	-9.00653
binding	-9.00802
▁(300	-9.00844
▁glycol	-9.01318
▁5%	-9.01595
Hz	-9.01619
Y	-9.0169
DMSO	-9.02209
Z	-9.0259
▁disorder	-9.02801
▁alkenyl	-9.03049
▁side	-9.03205
carboxamide	-9.03421
▁linked	-9.0351
▁oxide	-9.03575
▁end	-9.03611
▁species	-9.03734
▁α	-9.03736
▁had	-9.03785
▁flask	-9.03846
q	-9.04236
-4	-9.04353
▁relative	-9.0456
▁prior	-9.05019
▁possible	-9.05045
▁Alternatively	-9.05171
▁component	-9.05478
▁size	-9.05591
▁NH	-9.05602
▁wt	-9.05834
▁However	-9.05877
▁vivo	-9.05991
▁PAL	-9.06232
▁resin	-9.06342
▁reflux	-9.06417
▁reacted	-9.0644
▁monoclonal	-9.06635
▁introduced	-9.06833
▁variety	-9.06839
▁period	-9.06881
▁directly	-9.06966
▁should	-9.07014
▁LCMS	-9.07017
▁CDR	-9.07056
▁approximately	-9.07225
▁taken	-9.07397
▁individual	-9.0743
▁layers	-9.07513
▁co	-9.07659
▁final	-9.07764
r	-9.0785
_______	-9.07954
▁b	-9.08067
▁Q	-9.08293
mL	-9.08534
▁four	-9.08626
)-1-	-9.08756
▁sites	-9.08799
▁procedures	-9.09159
▁methylene	-9.09349
▁factor	-9.09371
▁nucleotides	-9.09393
▁ability	-9.09469
▁1.0	-9.09634
▁would	-9.09673
▁formulation	-9.09874
6,	-9.09899
16	-9.10001
▁animals	-9.10071
▁plasmid	-9.10151
▁disorders	-9.1024
substituted	-9.10602
▁hydrochloric	-9.10627
▁MeOH	-9.10743
▁body	-9.10819
▁intended	-9.11011
▁RT	-9.11257
▁branched	-9.11263
▁Preferably	-9.11425
▁mRNA	-9.11669
▁mole	-9.11751
▁solutions	-9.11814
▁identity	-9.12152
▁variant	-9.12298
▁until	-9.12366
▁300	-9.1259
▁mixtures	-9.12743
▁plate	-9.12841
▁Chem	-9.13099
-5	-9.1321
▁Compounds	-9.13261
▁parts	-9.13351
x	-9.13503
▁(1)	-9.13564
▁effects	-9.14004
▁atmosphere	-9.14033
▁normal	-9.14092
▁constant	-9.14266
▁otherwise	-9.14392
▁17	-9.14516
▁tested	-9.148
▁bound	-9.1508
▁calcium	-9.15106
)-5-	-9.15216
▁19	-9.15238
▁identical	-9.15388
▁steps	-9.15435
▁esters	-9.15458
▁concentrations	-9.15728
ethoxy	-9.16009
▁calculated	-9.16015
▁PRO	-9.16115
▁required	-9.16252
6-	-9.16375
▁inhibition	-9.16426
15	-9.1656
▁content	-9.16786
min	-9.16889
▁Other	-9.16974
▁domains	-9.17247
▁radical	-9.17276
▁One	-9.17597
specific	-9.17678
▁Cl	-9.17869
▁several	-9.18133
▁double	-9.18215
▁terms	-9.18445
▁shows	-9.18683
▁values	-9.19004
▁referred	-9.19232
▁therapy	-9.19827
w	-9.19874
▁does	-9.20074
▁complete	-9.20178
40	-9.20202
▁Suitable	-9.20387
▁binds	-9.2064
delta	-9.20743
▁150	-9.21009
▁primary	-9.21093
▁nM	-9.2114
▁linker	-9.21653
▁cooling	-9.21899
▁subjected	-9.21942
▁diethyl	-9.21951
▁variants	-9.22473
▁multiple	-9.22535
17	-9.22782
terminal	-9.22805
hexane	-9.22923
-6	-9.2311
▁III	-9.23192
▁accordance	-9.23261
▁vitro	-9.2327
▁ion	-9.23394
▁reagent	-9.23479
▁benzyl	-9.23561
▁scope	-9.2359
▁pure	-9.23601
▁heterocyclic	-9.23637
▁understood	-9.23716
▁except	-9.23809
▁forth	-9.23868
▁reduction	-9.23924
▁reactions	-9.24162
▁included	-9.24195
▁could	-9.24263
▁systems	-9.24277
▁dd	-9.24294
▁flash	-9.2456
▁400	-9.24569
▁mono	-9.24579
▁applied	-9.24617
▁hydroxyl	-9.24819
▁coding	-9.24936
▁formulations	-9.25143
▁placed	-9.25252
ic	-9.25266
5,	-9.25346
▁chloroform	-9.25349
▁oral	-9.25558
1-4	-9.25573
▁Further	-9.25614
19	-9.259
▁release	-9.25992
▁(6	-9.26308
▁purity	-9.2647
en	-9.26699
▁previously	-9.26827
▁interest	-9.26832
▁50%	-9.2696
▁Cell	-9.27248
▁Methods	-9.27249
▁follows	-9.27385
pyrazol	-9.27695
▁hexane	-9.27753
▁patients	-9.27856
▁ingredient	-9.27922
▁skill	-9.28096
▁probe	-9.28335
▁Then	-9.28399
TM	-9.28535
▁37°	-9.28563
▁detection	-9.28746
piperidin	-9.28755
▁separation	-9.2882
▁viral	-9.29037
▁plates	-9.2904
4)	-9.29186
▁showed	-9.29213
▁analyzed	-9.29241
▁precipitate	-9.29492
▁All	-9.29574
▁determine	-9.29702
▁2.5	-9.298
▁pyridine	-9.30071
▁conversion	-9.30167
▁triethylamine	-9.30492
▁80	-9.31025
▁administering	-9.31057
▁detected	-9.3111
▁Intermediate	-9.31266
▁producing	-9.31325
▁amounts	-9.3134
′	-9.31451
▁generated	-9.31561
fluorophenyl	-9.3166
▁distillation	-9.31794
for	-9.32176
▁positive	-9.32196
▁media	-9.32223
▁reacting	-9.32263
▁converted	-9.32267
▁35	-9.32332
▁even	-9.32533
▁contained	-9.32548
▁thereby	-9.32609
25	-9.32763
▁By	-9.33082
▁immunoglobulin	-9.33129
▁CO	-9.33288
▁long	-9.33327
III	-9.33362
▁distilled	-9.33474
▁Ar	-9.33637
[2,3-	-9.33658
(1	-9.33664
▁According	-9.33746
▁infection	-9.33859
▁pre	-9.34076
▁thereto	-9.34106
▁gradient	-9.34111
y	-9.3424
▁way	-9.34705
▁plants	-9.34831
▁(30	-9.34982
▁activation	-9.35119
▁halo	-9.35157
cyclopropyl	-9.35222
pyrimidine	-9.35327
▁lines	-9.35375
▁necessary	-9.35452
▁fused	-9.3556
▁tri	-9.35639
▁usually	-9.35649
▁bath	-9.35824
▁equivalent	-9.35829
▁charged	-9.35938
▁r	-9.36276
benzo	-9.36341
acetyl	-9.36355
▁large	-9.36472
▁related	-9.365
type	-9.36673
methanol	-9.36758
▁carboxylic	-9.36791
▁acetone	-9.36856
▁inert	-9.36865
▁90	-9.37203
▁natural	-9.37327
▁primer	-9.37332
▁novel	-9.37401
▁inhibit	-9.37479
▁epitope	-9.37521
▁crystals	-9.37526
membered	-9.37617
▁replaced	-9.3762
▁support	-9.3777
▁processes	-9.37787
▁device	-9.37913
▁fatty	-9.38079
▁ethylene	-9.38247
▁transcription	-9.38288
▁If	-9.38301
▁substance	-9.38318
▁need	-9.38471
▁spectrum	-9.38472
▁(500	-9.38647
▁48	-9.38679
▁benzene	-9.38729
▁hr	-9.38745
▁crystalline	-9.38799
▁100%	-9.38846
well	-9.39182
▁full	-9.39226
▁positions	-9.39257
▁linear	-9.39545
▁cyclic	-9.39571
▁re	-9.39633
▁primers	-9.39656
▁particles	-9.39693
▁modifications	-9.39891
▁soluble	-9.39944
▁45	-9.40004
▁alkynyl	-9.40164
-1,3-	-9.40418
▁sufficient	-9.40472
▁alkali	-9.4063
▁coli	-9.40739
▁remove	-9.40764
OR	-9.40826
nitro	-9.41057
21	-9.41072
Q	-9.41118
▁excess	-9.41146
▁characterized	-9.41201
▁bromide	-9.41241
such	-9.41386
30	-9.41436
sulfonyl	-9.41438
7,	-9.41573
▁receptors	-9.41584
-8-	-9.41688
based	-9.41717
imethylformamide	-9.41879
▁due	-9.41916
▁conducted	-9.4211
▁dimethyl	-9.42264
▁expressing	-9.42293
▁heat	-9.42294
3):	-9.42321
▁delivery	-9.42339
pyrrolo	-9.42421
water	-9.42782
▁7-	-9.42806
▁VH	-9.42895
ene	-9.43061
4-	-9.43305
▁PBS	-9.43457
▁fraction	-9.43594
▁cases	-9.43683
▁chains	-9.44056
▁labeled	-9.4411
▁significant	-9.44359
▁cleavage	-9.44425
▁gave	-9.4461
▁0.2	-9.44626
dimethylamino	-9.44655
▁fractions	-9.44698
▁substitution	-9.4482
▁feed	-9.44842
▁lithium	-9.4494
▁construct	-9.45213
CF	-9.45322
▁Scheme	-9.45334
▁especially	-9.45367
ES	-9.45526
▁ambient	-9.45715
▁equiv	-9.45783
▁250	-9.45819
▁adding	-9.45859
▁kinase	-9.46022
▁state	-9.46073
▁TFA	-9.46169
▁aliphatic	-9.46202
▁mammalian	-9.46293
▁activated	-9.46443
▁hybridization	-9.46501
▁reagents	-9.46597
▁reducing	-9.46658
▁protecting	-9.46749
▁poured	-9.46822
▁Found	-9.46972
▁still	-9.47029
CN	-9.47541
▁alone	-9.47651
▁mentioned	-9.47749
▁stability	-9.47767
▁21	-9.47907
phenoxy	-9.48489
▁therefore	-9.48497
mu	-9.48539
▁library	-9.48606
24	-9.49069
▁Inc	-9.49071
acetic	-9.49209
▁sterile	-9.49337
▁factors	-9.4936
▁combinations	-9.49472
▁Method	-9.4951
fold	-9.49521
▁cyano	-9.49611
▁filter	-9.4964
▁encoded	-9.49812
▁alpha	-9.49867
▁At	-9.49999
▁tube	-9.50116
▁heating	-9.50171
▁many	-9.50179
▁chimeric	-9.50318
▁readily	-9.50334
▁twice	-9.50402
▁(200	-9.50407
▁tissues	-9.50567
▁naturally	-9.5057
▁amide	-9.50659
▁do	-9.50912
▁x	-9.51026
▁adjusted	-9.5107
human	-9.51096
▁resistance	-9.51127
▁bases	-9.51133
▁molar	-9.51308
▁reverse	-9.51649
Compound	-9.51669
amide	-9.51785
▁maintained	-9.5192
▁depending	-9.51976
▁70	-9.51993
▁units	-9.52052
▁°	-9.52108
▁heterocyclyl	-9.52245
▁50°	-9.52257
▁USA	-9.52292
piperidine	-9.52333
▁eluting	-9.52372
]+	-9.52377
▁preparing	-9.52448
▁stable	-9.52573
▁crystal	-9.52768
Chloro	-9.5284
▁extract	-9.53403
▁colorless	-9.5347
▁OF	-9.53576
▁—(	-9.53591
▁bicarbonate	-9.53643
▁bis	-9.537
W	-9.53805
▁Rf	-9.53898
▁onto	-9.53923
▁quenched	-9.54024
cyano	-9.54052
▁polynucleotides	-9.54245
▁(2)	-9.54327
▁source	-9.54439
▁Another	-9.54617
dichloro	-9.54641
▁Yield	-9.54718
▁Using	-9.54772
▁very	-9.54822
▁types	-9.55073
▁plasma	-9.55148
▁carriers	-9.5521
▁cellulose	-9.55219
▁membered	-9.55236
▁coupling	-9.55306
like	-9.55329
▁weeks	-9.55501
▁Cells	-9.55604
)—	-9.55747
▁structural	-9.55752
▁film	-9.55762
(2	-9.55895
▁antisense	-9.55898
chlorophenyl	-9.5591
▁sulfur	-9.56107
▁moieties	-9.56236
▁NaCl	-9.56293
▁secondary	-9.56374
mol	-9.56488
▁kit	-9.5654
▁five	-9.56591
▁isopropyl	-9.56599
▁Also	-9.56606
▁structures	-9.56714
▁anhydride	-9.5676
▁substitutions	-9.56777
U	-9.56785
benzene	-9.56822
▁elements	-9.56984
▁100°	-9.57067
▁22	-9.57254
▁Biol	-9.57296
▁nitro	-9.57339
▁palladium	-9.57376
▁trans	-9.57402
▁mutant	-9.57791
▁Sci	-9.57953
▁new	-9.58113
▁inorganic	-9.58136
▁absence	-9.58159
▁formulated	-9.582
▁cellular	-9.58255
−	-9.58279
IV	-9.58297
▁model	-9.58337
▁aspects	-9.58365
▁See	-9.58547
8,	-9.58616
▁strain	-9.58887
▁place	-9.58896
▁enzymes	-9.58898
▁exemplary	-9.58994
▁post	-9.59002
▁25°	-9.59076
▁Following	-9.59082
▁extracts	-9.5926
▁Analysis	-9.59336
▁amplification	-9.59364
▁glucose	-9.59392
▁cross	-9.59584
▁IV	-9.59638
]+.	-9.59645
▁extraction	-9.59784
cell	-9.59821
28	-9.59967
▁2.0	-9.60024
Na	-9.60054
▁commercially	-9.60099
aryl	-9.60108
▁dryness	-9.60188
▁basic	-9.60631
▁separate	-9.6076
thio	-9.60783
isopropyl	-9.61057
▁bacterial	-9.61123
▁Accordingly	-9.6115
▁1%	-9.61168
al	-9.61352
ylmethyl	-9.61686
▁resultant	-9.61749
▁native	-9.6194
▁complementary	-9.62002
▁screening	-9.6222
▁portions	-9.62427
cyclohexyl	-9.6246
▁because	-9.62596
ppm	-9.62675
methoxyphenyl	-9.62746
▁yet	-9.62761
▁vessel	-9.62938
tri	-9.62996
▁Patent	-9.63046
▁complexes	-9.63158
▁therapeutically	-9.63275
▁Reference	-9.63302
difluoro	-9.63322
the	-9.63333
times	-9.63357
▁slowly	-9.63403
OD	-9.63481
▁potential	-9.63563
▁unsaturated	-9.63672
▁selection	-9.63763
▁occurring	-9.63821
▁instance	-9.63857
▁polymers	-9.63989
▁NaHCO	-9.64074
▁washing	-9.64091
[1,2-	-9.64105
▁Pd	-9.64116
+)	-9.64185
▁80°	-9.64203
▁TLC	-9.64338
▁Co	-9.64365
▁polyethylene	-9.64384
▁conjugate	-9.64501
▁(15	-9.64551
%	-9.64617
▁0.1%	-9.64635
▁show	-9.64662
2—	-9.64723
▁isomers	-9.64805
▁wild	-9.64963
▁lung	-9.65098
▁catalysts	-9.65102
▁60°	-9.65159
▁1,4-	-9.65218
▁marker	-9.65224
▁fluid	-9.65359
▁oxidation	-9.65565
▁yeast	-9.65715
including	-9.65733
biphenyl	-9.6575
▁changes	-9.65848
▁Each	-9.65973
▁IR	-9.6608
▁Furthermore	-9.66126
▁achieved	-9.66175
▁directed	-9.66292
▁removal	-9.6637
▁whether	-9.66398
▁tumors	-9.66493
▁forming	-9.66541
▁study	-9.66581
▁once	-9.66684
9,	-9.66748
▁VL	-9.66777
▁tablets	-9.66823
th	-9.66825
▁represent	-9.66837
]-2-	-9.66997
▁eluted	-9.67069
▁alkylene	-9.67093
imidazol	-9.67155
dione	-9.67165
acetamide	-9.67272
▁class	-9.67373
yloxy	-9.67397
▁transformed	-9.67632
▁carcinoma	-9.67753
▁temperatures	-9.67844
▁v	-9.6788
▁recovered	-9.6792
▁75	-9.68009
imidazo	-9.68045
-(2-	-9.68125
▁equal	-9.68129
▁however	-9.68212
▁skin	-9.68228
▁direct	-9.68241
butoxycarbonyl	-9.6828
▁instead	-9.68308
▁glass	-9.68454
▁incubation	-9.68472
▁next	-9.68602
▁20%	-9.68689
▁catalytic	-9.68755
▁experiments	-9.68796
▁:	-9.68975
}-	-9.69042
▁acyl	-9.69126
▁hydride	-9.69153
▁element	-9.69262
er	-9.69438
▁reduce	-9.69475
▁Preferred	-9.6956
▁mutations	-9.69637
▁5′	-9.69656
▁highly	-9.6979
benzyloxy	-9.69802
▁analogous	-9.69852
▁straight	-9.69922
▁reported	-9.7022
▁reactive	-9.7034
▁lipid	-9.70352
▁proliferation	-9.70374
▁aluminum	-9.70383
▁br	-9.70401
▁studies	-9.70421
▁saline	-9.70544
▁transferred	-9.70579
▁average	-9.70671
▁half	-9.70769
pyrrolidin	-9.70918
chain	-9.70935
▁90%	-9.71022
▁equivalents	-9.71213
▁alternatively	-9.71224
▁restriction	-9.71284
indol	-9.71306
▁Acid	-9.71706
▁development	-9.71712
▁express	-9.71898
▁28	-9.72204
▁mutation	-9.72265
▁Fab	-9.72465
ation	-9.72506
▁transfer	-9.72517
▁ingredients	-9.72544
▁respect	-9.72615
▁inflammatory	-9.72661
▁modification	-9.72749
▁genetic	-9.7282
▁doses	-9.72896
▁repeated	-9.72912
▁MgSO	-9.72918
▁precursor	-9.72919
▁dioxane	-9.72957
22	-9.72966
▁zone	-9.73003
▁protected	-9.73008
▁suspended	-9.73062
▁Nos	-9.73101
▁induced	-9.73112
▁prevent	-9.7315
▁improved	-9.73197
▁THE	-9.73256
▁ng	-9.73377
▁strand	-9.735
23	-9.73572
▁Protein	-9.73601
▁probes	-9.74034
▁refer	-9.74187
▁hydrocarbons	-9.74279
▁argon	-9.74324
ii	-9.74328
▁polymerase	-9.7437
▁utilized	-9.74423
▁bone	-9.74488
▁change	-9.74589
▁More	-9.74604
▁insulin	-9.74604
▁specificity	-9.74625
▁Mass	-9.74876
▁rt	-9.74888
▁fluorescence	-9.74963
▁air	-9.75004
pyridyl	-9.75215
▁inhibiting	-9.75247
▁area	-9.75316
▁electron	-9.7543
▁significantly	-9.75431
▁purposes	-9.75466
▁alkaline	-9.75481
▁drying	-9.75559
▁beta	-9.75594
▁NaOH	-9.75725
▁interaction	-9.75842
alkoxy	-9.75848
▁characteristics	-9.75935
▁ELISA	-9.76094
▁completion	-9.76127
▁+	-9.76182
▁mean	-9.76189
▁95%	-9.76204
▁conjugated	-9.76315
▁fluorescent	-9.76344
▁supernatant	-9.76385
▁liver	-9.76386
▁family	-9.76404
▁chlorine	-9.76453
▁iodide	-9.76535
▁absorption	-9.76554
▁7,	-9.7681
▁expected	-9.76844
▁negative	-9.7697
thiazol	-9.77119
▁carboxy	-9.77131
▁antigens	-9.77321
▁drugs	-9.77456
▁Acad	-9.77658
▁brain	-9.77736
▁ammonia	-9.77795
▁Human	-9.77889
▁sugar	-9.77949
▁preferable	-9.77975
as	-9.77976
▁particle	-9.78096
sulfonamide	-9.78133
▁treat	-9.78135
indole	-9.78313
▁designed	-9.78322
▁six	-9.78375
▁humanized	-9.78375
▁substances	-9.78433
-1,2-	-9.78455
▁Therefore	-9.78515
▁3′	-9.78841
▁propylene	-9.78858
▁q	-9.78938
▁clones	-9.79006
▁essentially	-9.7909
▁indicates	-9.79251
[3,4-	-9.79273
▁symptoms	-9.79295
▁HIV	-9.79442
Example	-9.79562
6):	-9.79674
▁stage	-9.79738
-7	-9.79758
▁23	-9.79786
▁26	-9.79799
▁peak	-9.7981
▁illustrated	-9.79811
▁0.01	-9.79815
▁integer	-9.79861
▁bacteria	-9.79944
▁preparations	-9.79944
an	-9.80017
_	-9.80145
▁bonds	-9.80152
▁1,2-	-9.80193
▁subsequent	-9.80239
limiting	-9.80268
▁Proc	-9.8028
▁(25	-9.80318
▁OH	-9.80536
Amino	-9.80663
▁1.2	-9.80667
▁presented	-9.80727
pyrazolo	-9.8075
▁important	-9.80774
heterocycloalkyl	-9.80921
▁kg	-9.80945
-1,4-	-9.80965
▁considered	-9.81148
▁exchange	-9.81176
)+.	-9.81184
▁determining	-9.81218
▁route	-9.81301
▁mammal	-9.81345
▁grams	-9.81441
=8	-9.81457
▁mixing	-9.81468
▁pain	-9.81566
▁120	-9.81616
▁mp	-9.81924
▁starch	-9.82048
▁isomer	-9.8206
▁population	-9.82104
▁allow	-9.82113
▁TBL	-9.82275
▁genomic	-9.8239
▁comparison	-9.82477
▁contacting	-9.82847
tetramethyl	-9.8289
▁targeting	-9.82901
▁Exemplary	-9.82911
▁de	-9.83078
▁syndrome	-9.83122
▁ordinary	-9.83125
▁32	-9.83168
▁halide	-9.83191
▁applications	-9.83197
▁description	-9.83209
▁partially	-9.83287
and	-9.8333
terminus	-9.83355
▁carboxyl	-9.83412
▁prepare	-9.83483
▁decrease	-9.8355
piperazin	-9.83609
▁generate	-9.83639
▁evaporation	-9.83644
▁ESI	-9.83664
▁cultured	-9.83722
▁(0.5	-9.83946
carbamate	-9.84056
▁vary	-9.84232
▁promoters	-9.84266
▁radicals	-9.84377
▁IC	-9.84382
▁confirmed	-9.84416
▁brown	-9.84558
▁refluxed	-9.84714
▁degree	-9.8473
▁genome	-9.84756
▁identify	-9.84891
▁desirable	-9.84906
▁chronic	-9.85106
▁fluorine	-9.85141
▁Form	-9.85157
▁protease	-9.85262
▁ligands	-9.85293
▁loss	-9.85302
▁preparative	-9.8537
▁subsequently	-9.85583
▁third	-9.85615
▁coating	-9.85627
▁clone	-9.85675
acetate	-9.85836
27	-9.85902
▁Ser	-9.85922
▁injected	-9.85943
IL	-9.85973
▁specification	-9.85976
▁acidic	-9.86089
▁action	-9.86107
-2,3-	-9.86516
-(4-	-9.86516
benzamide	-9.86549
▁27	-9.86604
▁see	-9.86726
)-6-	-9.86771
▁matrix	-9.86832
▁clear	-9.86879
NO	-9.86893
▁1000	-9.86904
▁(40	-9.86945
▁contact	-9.86967
▁transfected	-9.87022
▁Calif	-9.87091
26	-9.87128
______________	-9.87171
▁clinical	-9.875
▁occur	-9.87535
▁albumin	-9.87554
es	-9.87609
▁rings	-9.87647
▁among	-9.87652
▁2-(	-9.87697
▁listed	-9.87721
▁codon	-9.87762
OC	-9.87903
▁analogs	-9.88002
▁density	-9.8814
▁hydrolysis	-9.88198
▁Tris	-9.88222
▁initial	-9.88512
▁involved	-9.88548
▁chloro	-9.88555
-9-	-9.88788
▁claims	-9.88874
▁TNF	-9.89221
▁rat	-9.89256
▁increasing	-9.89296
▁melting	-9.89296
▁transgenic	-9.89467
▁nature	-9.8947
▁selective	-9.89519
▁alternative	-9.89631
ate	-9.89643
▁Natl	-9.8967
▁remaining	-9.89689
Methyl	-9.8983
cycloalkyl	-9.89877
▁l	-9.89893
▁Antibodies	-9.89946
▁haloalkyl	-9.90056
to	-9.90141
on	-9.90189
▁PEG	-9.9022
▁unless	-9.90316
▁SO	-9.90319
▁immuno	-9.90594
▁phage	-9.90655
mediated	-9.90655
k	-9.90745
methylphenyl	-9.90803
carbamoyl	-9.90863
▁internal	-9.90865
trans	-9.90919
▁monomer	-9.90937
▁1,3-	-9.90938
▁specified	-9.90955
▁again	-9.91037
▁alcohols	-9.91181
▁parent	-9.9129
▁coated	-9.91483
▁Br	-9.9152
▁pattern	-9.91676
▁capsules	-9.91749
▁precipitated	-9.91766
▁zinc	-9.91775
▁Molecular	-9.91779
▁4°	-9.91907
▁Chemical	-9.91917
▁antagonist	-9.92021
MH	-9.92033
▁vaccine	-9.92082
▁Res	-9.92102
▁General	-9.92171
▁libraries	-9.9247
▁often	-9.92655
▁SDS	-9.92713
HCl	-9.92787
pyran	-9.92816
▁preventing	-9.92846
▁common	-9.92899
▁bottom	-9.92944
▁vehicle	-9.92957
OCH	-9.93015
benzoic	-9.93108
▁ketone	-9.93136
▁dye	-9.93468
▁Purification	-9.93516
▁chosen	-9.93651
▁excipients	-9.93676
▁terminal	-9.93797
▁evaluated	-9.93844
▁whole	-9.93976
▁signaling	-9.93998
▁context	-9.94099
▁polymerization	-9.9412
▁CF	-9.94129
▁36	-9.94193
length	-9.94266
▁demonstrated	-9.94333
▁8-	-9.94426
▁0.3	-9.94457
▁PD	-9.94572
▁controlled	-9.94585
=7.2	-9.94601
▁inserted	-9.94607
▁Nature	-9.94692
▁constructs	-9.94785
▁regulatory	-9.94811
▁copper	-9.94831
▁detectable	-9.9487
piperazine	-9.9488
▁40°	-9.94992
▁round	-9.95065
▁Reaction	-9.95244
▁(1.0	-9.95254
pyrazole	-9.95293
)(	-9.95533
▁short	-9.95548
▁tetra	-9.95702
▁detail	-9.95711
▁coupled	-9.95782
▁suspensions	-9.95806
▁apparent	-9.95816
▁FIG	-9.95854
▁engineered	-9.95885
▁31	-9.95958
▁Science	-9.95975
▁noted	-9.96037
▁every	-9.96156
▁UV	-9.96183
▁1:1	-9.96334
▁experiment	-9.96347
60	-9.96408
▁efficiency	-9.96556
▁extracellular	-9.96598
▁cloned	-9.96634
pyrrolidine	-9.96659
lower	-9.96728
▁phenol	-9.96739
▁INVENTION	-9.96789
▁purpose	-9.96847
▁left	-9.97086
▁0.05	-9.97106
▁pathway	-9.97133
dimethoxy	-9.97239
▁since	-9.97324
▁down	-9.97446
▁inhibitory	-9.97935
▁propyl	-9.97979
▁amines	-9.98104
▁(8	-9.98256
▁hydrogenation	-9.98333
=8.4	-9.98376
▁(9	-9.98406
▁partial	-9.98445
ED	-9.98458
▁rats	-9.98471
▁designated	-9.98586
▁grown	-9.98606
▁cold	-9.98647
▁moles	-9.98759
▁There	-9.98777
▁w	-9.98784
▁phases	-9.98864
▁(3)	-9.98912
▁Expression	-9.98957
▁homology	-9.98981
▁sub	-9.99072
▁relatively	-9.99142
3;	-9.99208
▁On	-9.99343
2;	-9.99457
▁80%	-9.99715
▁providing	-9.99833
▁pale	-9.99915
▁antagonists	-9.99917
▁trifluoroacetic	-9.99919
▁series	-10
▁cysteine	-10.0001
5-	-10.0004
▁limitation	-10.0017
▁entirety	-10.0019
▁energy	-10.0038
▁chiral	-10.0044
▁Press	-10.0045
Me	-10.0046
▁physical	-10.0049
29	-10.0056
▁stem	-10.006
▁homologous	-10.0076
▁continued	-10.0085
▁heteroatoms	-10.0089
▁intravenous	-10.0101
▁caused	-10.0101
▁amplified	-10.0106
▁Non	-10.0107
▁patent	-10.011
▁commonly	-10.0111
▁leukemia	-10.0134
▁carbonyl	-10.0142
▁processing	-10.0157
▁breast	-10.0165
▁37	-10.017
free	-10.0173
▁contemplated	-10.0176
▁29	-10.0177
cm	-10.0192
(3	-10.0207
▁calcd	-10.021
wherein	-10.0235
▁Mol	-10.024
▁NR	-10.0241
▁exhibit	-10.0243
▁125	-10.0248
▁substituting	-10.0248
▁encodes	-10.0256
hydroxymethyl	-10.0262
pH	-10.0263
▁cis	-10.0264
about	-10.0309
100	-10.0321
▁wells	-10.034
▁DESCRIPTION	-10.0343
▁72	-10.0345
▁optical	-10.0368
)+	-10.0386
▁able	-10.0393
MeOH	-10.0396
▁Rt	-10.0401
▁cycle	-10.0402
▁butyl	-10.0426
▁New	-10.0428
▁technique	-10.0431
=8.0	-10.0436
▁course	-10.0439
▁sulfuric	-10.0439
▁located	-10.0453
▁accomplished	-10.0463
▁boiling	-10.0478
▁slurry	-10.048
▁Et	-10.0489
▁solids	-10.0493
▁stored	-10.0497
▁IFN	-10.0498
▁solubility	-10.0499
▁detecting	-10.0507
▁methoxy	-10.0511
▁96	-10.0513
▁diluent	-10.0518
▁diameter	-10.0527
▁must	-10.0529
▁color	-10.0534
▁efficacy	-10.0535
▁making	-10.0563
triazol	-10.0567
▁daily	-10.057
▁While	-10.057
▁20°	-10.0575
▁discussed	-10.0578
▁major	-10.0584
▁charge	-10.0593
2),	-10.0601
]-3-	-10.0605
▁Moreover	-10.0616
dioxo	-10.062
▁make	-10.0627
▁Although	-10.0635
[1,5-	-10.0642
▁vinyl	-10.0654
[3,2-	-10.0664
▁fully	-10.0677
▁8,	-10.0682
▁parenteral	-10.0686
▁bonded	-10.0688
▁Gene	-10.0691
▁replication	-10.07
▁cause	-10.0704
▁30%	-10.0708
▁monitored	-10.0716
▁heterologous	-10.0735
-9	-10.0747
▁continuous	-10.0755
▁intermediates	-10.0781
▁un	-10.0784
▁34	-10.0786
▁eluent	-10.079
▁label	-10.0791
▁activities	-10.0791
▁selectivity	-10.0798
▁7.	-10.0801
▁bromine	-10.0802
bs	-10.0803
▁member	-10.0817
▁o	-10.0818
-1,2,4-	-10.0826
▁framework	-10.0826
38	-10.0827
▁1.1	-10.0831
▁apparatus	-10.0834
▁pair	-10.0841
oxa	-10.0845
dependent	-10.0847
▁template	-10.0858
▁did	-10.0864
at	-10.0865
▁strong	-10.0868
▁Pharmaceutical	-10.0869
▁centrifugation	-10.0871
▁Any	-10.0872
stranded	-10.0887
▁gelatin	-10.0888
▁transport	-10.0898
▁display	-10.0899
▁strains	-10.091
▁cloning	-10.0917
▁Methyl	-10.0927
▁acute	-10.0931
▁we	-10.0935
benzoyl	-10.0936
▁achieve	-10.095
able	-10.0967
▁agonist	-10.0971
▁parameters	-10.0971
▁consists	-10.0996
▁Group	-10.0999
▁99%	-10.1007
position	-10.1018
-4-(	-10.1026
▁aralkyl	-10.1027
methylene	-10.1033
▁developed	-10.1048
′-	-10.1049
iodo	-10.1053
▁Ethyl	-10.1064
▁members	-10.1065
▁55	-10.1068
▁sec	-10.1069
Fc	-10.1075
35	-10.1081
▁NOs	-10.1081
▁33	-10.1088
▁warm	-10.1089
▁magnetic	-10.1105
▁maximum	-10.1113
+).	-10.1126
▁enhanced	-10.1126
▁react	-10.1129
pentyl	-10.1133
aR	-10.1143
▁intracellular	-10.1146
▁aldehyde	-10.1147
▁partitioned	-10.1149
▁dilution	-10.116
diamine	-10.1162
▁endogenous	-10.1171
▁diagnostic	-10.119
▁cyclohexyl	-10.1191
▁object	-10.1193
▁now	-10.1201
-(3-	-10.1204
linked	-10.1221
trifluoro	-10.1228
▁murine	-10.1229
▁hydrophobic	-10.1247
▁occurs	-10.1248
▁Production	-10.125
▁block	-10.1254
▁crystallization	-10.1254
▁foregoing	-10.1255
▁instances	-10.1262
▁protocol	-10.1265
▁Typically	-10.127
▁humans	-10.1273
▁Water	-10.1286
alkenyl	-10.1291
▁effector	-10.1295
▁hexanes	-10.13
▁although	-10.1301
▁hrs	-10.1306
▁(150	-10.1315
▁recrystallized	-10.1315
=5	-10.132
quinolin	-10.133
▁Additionally	-10.1333
▁oils	-10.1341
Butyl	-10.1346
▁fixed	-10.136
▁entire	-10.1364
▁targeted	-10.1367
-3-(	-10.1371
▁induce	-10.1373
ylamino	-10.1374
quinoline	-10.1376
-10	-10.1379
-2,4-	-10.1379
[4,5-	-10.1381
▁supra	-10.1386
▁information	-10.1389
EtOAc	-10.1392
induced	-10.1401
▁(“	-10.1418
Br	-10.142
▁tertiary	-10.1421
▁seen	-10.1423
silica	-10.1423
3),	-10.1432
▁translation	-10.1435
31	-10.1438
μ	-10.145
▁3.5	-10.1453
▁epitopes	-10.1454
▁3.0	-10.1469
▁functions	-10.1473
▁measuring	-10.1476
▁percentage	-10.1477
▁mode	-10.1495
▁olefin	-10.1497
vinyl	-10.1498
▁enzymatic	-10.1519
▁Assay	-10.1528
▁siRNA	-10.1531
cyclohexane	-10.1541
▁glycerol	-10.1544
▁respective	-10.1544
▁wash	-10.1553
▁red	-10.1559
▁4-(	-10.1559
▁monocyclic	-10.1573
▁transfection	-10.1574
-2-(	-10.1579
▁Generally	-10.1582
mentioned	-10.1589
▁complement	-10.1601
▁dioxide	-10.1603
▁allows	-10.1606
4),	-10.1608
=4	-10.1612
▁transformation	-10.1615
butoxy	-10.1615
▁measurement	-10.1616
1-3	-10.1617
▁beads	-10.1623
▁4.	-10.1628
▁section	-10.1648
▁5.0	-10.165
-17	-10.1657
▁adjacent	-10.1659
▁configuration	-10.1669
▁electrode	-10.169
ethanol	-10.1698
▁wide	-10.1698
▁equipped	-10.17
▁viruses	-10.1707
▁completely	-10.1708
▁features	-10.1721
▁decreased	-10.1727
▁limit	-10.1729
▁prevention	-10.174
▁indicate	-10.1743
=7	-10.175
▁contrast	-10.1751
▁elution	-10.176
▁organism	-10.176
▁disulfide	-10.1765
▁US	-10.1765
▁chemically	-10.1765
▁mediated	-10.1765
)-2-(	-10.1766
ray	-10.177
▁iso	-10.1771
▁70°	-10.1774
▁basis	-10.1774
▁HLA	-10.1788
▁pro	-10.179
▁approach	-10.1793
▁enhance	-10.1811
▁30°	-10.1812
▁afforded	-10.1813
▁fluoro	-10.1815
▁assessed	-10.1821
▁multi	-10.1824
▁storage	-10.1831
▁easily	-10.184
▁EP	-10.184
pyrido	-10.1858
▁formulae	-10.1859
ally	-10.1861
—,	-10.1869
▁0.4	-10.1887
▁blocking	-10.1888
▁responses	-10.1892
=8.8	-10.1893
▁segment	-10.1894
▁2,6-	-10.1895
▁minute	-10.1906
▁run	-10.1912
▁sequencing	-10.1913
▁kidney	-10.1917
▁analog	-10.193
▁meant	-10.193
▁aforementioned	-10.1934
Bromo	-10.1944
▁yields	-10.1945
▁Anti	-10.1947
▁warmed	-10.1947
▁altered	-10.1951
▁polar	-10.1956
▁markers	-10.1976
▁90%,	-10.1976
▁sucrose	-10.1979
▁Immunol	-10.1982
▁0.25	-10.1986
▁sealed	-10.1999
▁therein	-10.2013
▁Cancer	-10.2014
▁toxin	-10.2016
▁Specific	-10.2016
▁inflammation	-10.2017
related	-10.202
us	-10.2023
▁Procedure	-10.2028
ab	-10.2031
▁age	-10.2042
▁encode	-10.2045
PD	-10.2054
▁muscle	-10.2068
▁good	-10.2071
HPLC	-10.2075
dioxane	-10.2075
=7.5	-10.2077
▁immobilized	-10.2091
▁Additional	-10.2094
CR	-10.2097
▁prostate	-10.2113
′,	-10.2124
▁donor	-10.2147
▁tag	-10.2154
nitrophenyl	-10.217
▁(1.5	-10.2175
▁phosphorus	-10.2175
propan	-10.2179
▁theory	-10.2181
(4-	-10.2186
▁arthritis	-10.2189
▁variations	-10.2196
▁pp	-10.2204
▁plurality	-10.2214
Method	-10.2215
hydroxyphenyl	-10.2215
▁extent	-10.2216
carbon	-10.2233
(2-	-10.2236
trimethyl	-10.2253
▁lysine	-10.2253
▁CDRs	-10.2261
▁95	-10.2261
▁bar	-10.2266
▁5′-	-10.2271
▁passed	-10.2274
▁solvate	-10.228
▁immediately	-10.2284
▁retention	-10.2292
▁vial	-10.2292
▁heart	-10.2295
dihydroxy	-10.2303
▁Similarly	-10.2307
▁exposure	-10.2311
▁(4)	-10.2323
▁mature	-10.2331
▁cultures	-10.2334
▁With	-10.2338
▁role	-10.2338
▁bovine	-10.2339
▁isolation	-10.2342
-3,4-	-10.2343
▁tyrosine	-10.2345
▁acetyl	-10.2347
▁along	-10.2355
derived	-10.2364
▁2,4-	-10.2367
▁chromatographed	-10.2377
▁residual	-10.2385
naphthyl	-10.2393
▁2%	-10.2402
hydroxyethyl	-10.2405
▁ranging	-10.2408
▁earth	-10.2417
methylamino	-10.2421
▁Publication	-10.2423
▁diabetes	-10.2439
▁involves	-10.245
▁powders	-10.2451
▁experimental	-10.2464
▁scheme	-10.2464
▁Ra	-10.2484
▁7.5	-10.2484
▁Med	-10.2487
33	-10.2493
▁38	-10.25
▁physiological	-10.2503
▁Nucleic	-10.2504
▁bispecific	-10.2508
▁seconds	-10.2512
▁emission	-10.2515
▁week	-10.2519
▁stearate	-10.2522
▁iron	-10.2531
▁stir	-10.2533
▁centrifuged	-10.2542
▁fed	-10.2544
▁Laboratory	-10.2547
▁container	-10.2562
=7.6	-10.2569
▁acidified	-10.2583
▁detect	-10.2586
up	-10.259
▁prodrug	-10.2597
▁ranges	-10.2603
▁Embodiment	-10.2616
▁Some	-10.2617
▁(60	-10.2621
phenylphosphine	-10.2621
described	-10.2625
▁toxicity	-10.2635
▁subcutaneous	-10.264
▁heterocycle	-10.2641
▁risk	-10.2644
ase	-10.2647
]-4-	-10.2654
▁operation	-10.267
▁Application	-10.2679
▁lactose	-10.2688
associated	-10.2691
▁degradation	-10.2693
-8	-10.2702
▁cytotoxic	-10.2705
▁secretion	-10.2716
▁staining	-10.2722
▁reporter	-10.2725
phosphate	-10.2725
▁uses	-10.2736
▁divided	-10.2738
▁cyclopropyl	-10.274
▁fluoride	-10.2743
▁lymphoma	-10.2744
MgSO	-10.2749
▁constructed	-10.2751
day	-10.2758
▁quantity	-10.2761
imidazole	-10.2764
▁transition	-10.277
▁cancers	-10.2771
▁65	-10.2773
10,	-10.2788
▁bicyclic	-10.2798
▁From	-10.28
▁rpm	-10.2808
▁radiation	-10.2811
▁conjugates	-10.2815
Table	-10.2815
▁Anal	-10.2815
▁program	-10.2822
▁thin	-10.2827
carboxy	-10.2839
▁recognized	-10.2853
▁mineral	-10.288
▁kDa	-10.2893
1;	-10.2901
▁improve	-10.2901
▁f	-10.2902
▁removing	-10.2904
▁software	-10.2926
▁attachment	-10.2927
▁cation	-10.2928
▁infected	-10.2934
▁trifluoromethyl	-10.2943
carbonitrile	-10.2945
▁micro	-10.295
VI	-10.2955
▁dispersion	-10.2962
▁electrophoresis	-10.2963
▁open	-10.2975
▁stated	-10.2992
▁table	-10.3
▁recovery	-10.3001
▁VEGF	-10.3001
2(	-10.301
▁normally	-10.3017
▁claimed	-10.3019
▁dependent	-10.3023
▁−78°	-10.3027
thiophene	-10.3033
naphthalene	-10.3034
▁difference	-10.3034
▁current	-10.3037
▁later	-10.3037
▁Ab	-10.3038
▁2,3-	-10.3039
▁linkage	-10.3046
▁loaded	-10.3054
▁exposed	-10.3057
▁vapor	-10.3058
phase	-10.3063
▁distribution	-10.3071
▁subjects	-10.3075
▁encompasses	-10.3089
▁manufacture	-10.309
▁carrying	-10.309
RS	-10.309
▁membranes	-10.3092
CSF	-10.3093
57	-10.3094
▁increases	-10.3094
▁facilitate	-10.3095
▁70%	-10.3098
▁1.6	-10.3117
▁exemplified	-10.3123
▁eukaryotic	-10.3129
▁core	-10.313
▁foam	-10.3133
7-	-10.3133
▁bed	-10.3134
▁80%,	-10.3136
▁bp	-10.3139
▁urea	-10.3141
propoxy	-10.3153
▁oily	-10.3163
▁generation	-10.3164
▁EDTA	-10.3166
yield	-10.3167
▁Results	-10.3168
▁sense	-10.3168
▁44	-10.3172
▁agonists	-10.3178
▁itself	-10.3183
▁42	-10.3185
▁CAR	-10.3187
▁We	-10.319
2/	-10.319
▁hole	-10.319
▁ethers	-10.3198
▁longer	-10.3206
▁intensity	-10.3208
▁orally	-10.3218
▁adjuvant	-10.3224
▁mutagenesis	-10.3225
▁silicon	-10.3241
▁selectively	-10.3264
▁60%	-10.3265
▁condensation	-10.3273
▁elevated	-10.3283
▁3-(	-10.3292
enyl	-10.3301
▁hormone	-10.3303
▁metals	-10.3312
▁seed	-10.3313
▁0.6	-10.3318
▁CHO	-10.3319
▁autoimmune	-10.3324
▁peroxide	-10.3324
▁contents	-10.3325
▁typical	-10.3334
▁(0.1	-10.3338
▁candidate	-10.3355
▁0.8	-10.3361
Gly	-10.3365
▁They	-10.3371
▁90°	-10.3375
▁topical	-10.3377
▁Calcd	-10.3386
▁resulted	-10.3391
=2	-10.3395
▁strength	-10.3395
▁EtOH	-10.3409
▁0,	-10.3412
▁kept	-10.3419
▁Antibody	-10.3428
▁glycine	-10.343
▁1.3	-10.3435
Arg	-10.3435
▁interactions	-10.3436
2-6	-10.3437
▁commercial	-10.3438
▁plasmids	-10.3441
dbd	-10.3446
▁600	-10.3448
▁pairs	-10.3456
▁signals	-10.3469
]-1	-10.3474
)-7-	-10.3483
▁hydrate	-10.3485
▁survival	-10.3494
▁(7	-10.3499
▁deletion	-10.35
▁VIII	-10.35
▁110	-10.3505
▁controls	-10.3508
▁whereas	-10.3513
▁devices	-10.3513
▁mechanism	-10.3516
▁composed	-10.352
▁Bio	-10.3521
▁York	-10.3524
▁racemic	-10.3531
32	-10.3532
methylsulfonyl	-10.3538
▁recognition	-10.3542
▁inventors	-10.3545
▁covalently	-10.3551
▁zeolite	-10.3551
▁alignment	-10.3557
▁Where	-10.3561
▁meaning	-10.3565
-15	-10.357
▁precipitation	-10.3572
▁mAb	-10.3584
▁120°	-10.3584
▁thiol	-10.3588
▁monomers	-10.3591
▁literature	-10.3591
▁95%,	-10.3597
▁anion	-10.3597
▁optically	-10.3606
▁Two	-10.3606
▁back	-10.3609
▁imaging	-10.3611
[4,3-	-10.3617
▁hetero	-10.3617
protein	-10.3632
▁4.5	-10.3636
▁serine	-10.3641
▁introducing	-10.3644
propanol	-10.3645
▁6.	-10.3646
▁Of	-10.3649
Fluoro	-10.3655
▁hybridoma	-10.3657
▁connected	-10.368
▁performance	-10.3682
▁simultaneously	-10.3687
trimethylsilyl	-10.3688
ated	-10.3693
▁Since	-10.3694
▁peaks	-10.3695
▁cool	-10.3698
▁association	-10.3718
▁Organic	-10.3724
▁months	-10.3734
PO	-10.3736
▁neutral	-10.3743
white	-10.3752
▁affect	-10.3753
:1	-10.3755
▁testing	-10.3757
▁screened	-10.3758
▁biologically	-10.3759
▁origin	-10.376
▁exist	-10.3761
▁thermal	-10.3762
▁iodine	-10.3769
▁cleaved	-10.3769
▁aq	-10.378
methoxycarbonyl	-10.3787
▁amorphous	-10.3789
▁hybrid	-10.3791
▁cytokine	-10.3797
▁alkylation	-10.3799
Ra	-10.3814
)-3-(	-10.3815
▁PCT	-10.3816
▁1:	-10.3818
▁overall	-10.3821
▁2:	-10.3822
45	-10.3826
▁VI	-10.3831
▁EXAMPLES	-10.3833
hexanes	-10.3837
hexahydro	-10.385
11,	-10.3852
▁8.	-10.3855
▁suitably	-10.3856
▁done	-10.3861
▁excipient	-10.3869
▁describes	-10.3871
▁diisopropyl	-10.3872
▁peripheral	-10.3879
▁whose	-10.3882
PCR	-10.389
oxide	-10.3892
=7.0	-10.3893
▁technology	-10.3893
▁47	-10.3894
▁depicted	-10.3896
hexyl	-10.3911
▁4.0	-10.3918
▁ions	-10.3934
▁DETAIL	-10.3935
▁39	-10.3941
▁46	-10.396
▁whereby	-10.3962
life	-10.3968
▁fold	-10.3974
▁ATCC	-10.3975
▁lead	-10.3985
▁identification	-10.401
PE	-10.4013
▁person	-10.4023
▁deposited	-10.4027
34	-10.4028
▁insoluble	-10.4034
▁mmole	-10.404
▁numbers	-10.4042
▁1.8	-10.4048
▁examined	-10.4051
▁supplemented	-10.4053
▁1,1-	-10.4056
Pro	-10.4064
▁protective	-10.4067
▁1.4	-10.4074
▁occurrence	-10.4078
▁larger	-10.408
Ala	-10.408
benzaldehyde	-10.4081
▁digested	-10.409
▁40%	-10.4098
▁phosphoric	-10.41
▁immunogenic	-10.4107
iii	-10.4115
▁injury	-10.4116
▁characteristic	-10.4141
▁linking	-10.4148
▁harvested	-10.4148
▁96-	-10.4149
▁citrate	-10.4162
▁believed	-10.4164
▁recognize	-10.4164
▁85	-10.4168
▁likely	-10.4181
▁isobutyl	-10.4182
▁protection	-10.4195
▁degrees	-10.4199
▁41	-10.4211
▁obtaining	-10.4211
ethylamine	-10.4213
▁Test	-10.4227
▁scale	-10.4244
DNA	-10.4253
▁requires	-10.4279
▁channel	-10.4283
▁sources	-10.4283
▁43	-10.4285
▁depend	-10.429
▁isopropanol	-10.429
▁Ca	-10.4294
▁comprised	-10.4301
53	-10.4315
▁lyophilized	-10.4315
=6.8	-10.4323
=6	-10.4325
▁emulsion	-10.4328
▁citric	-10.4335
δ	-10.4338
▁appreciated	-10.4339
-11	-10.4343
▁instructions	-10.4354
▁oxo	-10.4376
▁naphthyl	-10.4383
propionic	-10.4388
alkylene	-10.4389
▁inhibits	-10.4391
cis	-10.4394
▁Comparative	-10.4394
▁capacity	-10.4395
70	-10.4397
▁corn	-10.4411
▁death	-10.4418
benzoate	-10.442
Phe	-10.4428
▁systemic	-10.4431
▁induction	-10.4434
▁delivered	-10.4437
▁scFv	-10.4438
urea	-10.4446
▁broad	-10.4451
▁practice	-10.4452
▁act	-10.4453
▁measure	-10.4454
▁MHC	-10.4459
trifluoromethoxy	-10.4464
2+	-10.4471
▁introduction	-10.4471
▁(2.0	-10.4476
3)2	-10.4487
▁Pro	-10.449
aromatic	-10.4498
▁severity	-10.4502
▁medical	-10.4503
azabicyclo	-10.4509
][1,4]	-10.4509
▁heteroatom	-10.4509
difluorophenyl	-10.4511
cyclopentyl	-10.452
▁para	-10.4523
▁polymeric	-10.4527
▁microwave	-10.4533
ecrystallization	-10.454
heteroaryl	-10.4544
aS	-10.4549
▁liposomes	-10.4557
▁covalent	-10.4561
▁resuspended	-10.4574
▁9,	-10.4574
▁infusion	-10.4578
▁surfactant	-10.4581
▁computer	-10.4589
▁allowing	-10.4597
▁Me	-10.46
acetamido	-10.4603
▁substrates	-10.4606
j	-10.4606
benzonitrile	-10.4607
▁Binding	-10.4608
▁demonstrate	-10.4615
▁0.5%	-10.4618
▁much	-10.4618
▁profile	-10.4626
-5-(	-10.4627
▁limiting	-10.4627
known	-10.4627
▁diluents	-10.4638
▁sequentially	-10.4644
▁(2.5	-10.4648
▁Sodium	-10.4665
▁dark	-10.4672
▁glycosylation	-10.4672
▁advantageous	-10.468
benzofuran	-10.4685
▁self	-10.4699
▁25%	-10.4709
▁injectable	-10.4715
▁OCH	-10.4717
▁silver	-10.4721
−1	-10.4735
Lys	-10.4741
▁1.7	-10.4742
▁thio	-10.4742
▁CR	-10.4743
Leu	-10.4759
▁insect	-10.4763
▁TABLE	-10.4764
80	-10.4768
▁raw	-10.4769
▁(250	-10.4777
-12	-10.478
▁assayed	-10.4782
▁gum	-10.4786
=7.8	-10.4799
▁1.00	-10.4809
▁manufactured	-10.481
▁150°	-10.4814
anti	-10.4815
▁targets	-10.4818
▁initiation	-10.4822
▁2′-	-10.4823
▁carbons	-10.4824
▁indicating	-10.4824
▁collagen	-10.4824
▁curve	-10.4826
_______________	-10.4829
▁enantiomers	-10.4843
pyridinyl	-10.4848
emitting	-10.4848
ity	-10.4849
spiro	-10.4849
▁environment	-10.4858
labeled	-10.4858
▁Di	-10.4859
▁2.4	-10.4861
is	-10.4864
▁granules	-10.4864
co	-10.4864
▁9.	-10.4865
▁platinum	-10.4868
▁spectra	-10.4869
=9	-10.487
▁loop	-10.487
▁49	-10.4873
▁sulphate	-10.4881
▁predicted	-10.4885
▁insertion	-10.4887
▁alkoxycarbonyl	-10.4888
=8.5	-10.489
▁central	-10.4894
▁pyridyl	-10.4895
▁AAV	-10.4895
compound	-10.4897
▁HRMS	-10.4907
▁manufacturer	-10.4907
▁segments	-10.4912
▁formic	-10.4912
▁corresponds	-10.4916
▁colon	-10.4922
▁chamber	-10.4922
▁top	-10.4924
de	-10.4925
▁emulsions	-10.4933
▁absolute	-10.4933
▁apoptosis	-10.4933
naphthalen	-10.4947
▁tetrahydro	-10.4951
▁orange	-10.4951
prop	-10.4953
▁consist	-10.4953
phenol	-10.4957
▁VII	-10.4964
▁throughout	-10.497
peptide	-10.4973
▁phosphorylation	-10.4977
▁11.	-10.4978
▁differentiation	-10.4989
▁alumina	-10.4989
▁polyclonal	-10.499
▁Unless	-10.5007
▁impurities	-10.5008
▁organ	-10.501
▁nuclear	-10.5012
▁Vol	-10.5018
▁allyl	-10.502
▁models	-10.5025
▁backbone	-10.5029
▁CN	-10.5034
—(	-10.5036
▁neutralized	-10.5038
▁2,2-	-10.5041
Hydroxy	-10.5042
▁vascular	-10.5044
▁leaving	-10.5045
▁volumes	-10.5054
▁thickness	-10.5055
▁reading	-10.5057
aza	-10.5062
37	-10.5069
▁published	-10.5075
▁TGF	-10.5076
heptane	-10.5082
propane	-10.5091
▁unique	-10.5091
▁petroleum	-10.5094
▁contiguous	-10.5096
▁infections	-10.5101
dichlorophenyl	-10.5107
▁variation	-10.5107
▁spray	-10.5112
KBr	-10.5117
▁monovalent	-10.5117
▁9-	-10.5122
▁design	-10.5128
▁halogenated	-10.5135
▁Specifically	-10.5135
▁dosing	-10.5141
▁nickel	-10.5145
▁called	-10.5146
▁2-(4-	-10.5148
▁bromo	-10.515
▁Boc	-10.5152
mg	-10.5159
▁points	-10.5169
▁hand	-10.5172
▁utilizing	-10.5174
▁hot	-10.5175
▁tablet	-10.5188
▁field	-10.5189
▁transmembrane	-10.5189
▁tubes	-10.5191
dt	-10.5194
▁effected	-10.5202
▁screen	-10.5205
▁latter	-10.5206
▁representative	-10.5207
▁viscosity	-10.5214
▁frequency	-10.5216
furan	-10.522
▁52	-10.5221
▁Sequence	-10.5226
▁51	-10.5227
▁additives	-10.5231
▁uptake	-10.5243
▁resistant	-10.5264
but	-10.5265
▁excellent	-10.5286
▁filed	-10.5287
cyclopropane	-10.5288
▁subunit	-10.5289
▁vol	-10.5291
▁3,4-	-10.5294
▁determination	-10.5296
▁lymphocytes	-10.5298
▁56	-10.5298
▁surfactants	-10.5303
SR	-10.5304
ating	-10.5321
▁Ltd	-10.5323
▁divalent	-10.5323
▁secreted	-10.5324
▁antigenic	-10.5325
▁chemistry	-10.5326
▁previous	-10.5328
▁ES	-10.5328
▁established	-10.5333
▁index	-10.5364
47	-10.5366
▁xylene	-10.5367
aminomethyl	-10.5367
36	-10.537
=8.1	-10.5371
'-	-10.5372
▁cyclohexane	-10.5374
=7.3	-10.5378
▁few	-10.5386
▁HA	-10.5388
▁gives	-10.5389
▁main	-10.5392
▁differences	-10.5393
▁cyclopentyl	-10.5395
▁99	-10.5407
▁upper	-10.5423
▁others	-10.5423
▁consensus	-10.5425
▁maintain	-10.5426
▁downstream	-10.5426
▁arginine	-10.5435
▁(5)	-10.5436
▁54	-10.544
▁hydrogenated	-10.5445
▁BSA	-10.5446
▁denotes	-10.545
▁ten	-10.5452
▁293	-10.5458
▁dissolving	-10.546
▁Among	-10.5465
▁FR	-10.547
▁references	-10.5474
▁cytokines	-10.5475
▁Si	-10.5488
▁inhibited	-10.5496
▁cycles	-10.55
diphenyl	-10.5502
▁employing	-10.5508
ization	-10.5509
▁2000	-10.5511
▁wavelength	-10.5517
▁fresh	-10.5517
▁property	-10.5523
▁funnel	-10.5525
=3	-10.5531
▁blot	-10.5538
▁Type	-10.5539
▁5.5	-10.5546
-18	-10.5551
▁frame	-10.5558
4;	-10.5567
▁drop	-10.5572
▁8.0	-10.5574
▁Treatment	-10.5575
▁diffraction	-10.5576
▁original	-10.5578
▁(80	-10.558
▁start	-10.5583
▁(0.2	-10.5583
▁resins	-10.5586
▁105	-10.5601
▁better	-10.5602
▁7.0	-10.5603
▁Various	-10.5606
▁condensed	-10.5619
▁compatible	-10.562
Ar	-10.5626
▁stimulation	-10.5627
▁intact	-10.5632
▁Wiley	-10.5637
iv	-10.5639
imino	-10.5639
non	-10.5646
▁Fmoc	-10.5648
▁Representative	-10.5649
halo	-10.5654
carbonylamino	-10.5661
▁consistent	-10.5662
▁endothelial	-10.5664
▁efficient	-10.5666
▁mutants	-10.5667
▁intramuscular	-10.5668
▁damage	-10.5673
▁hyper	-10.5675
Ph	-10.5687
▁renal	-10.5693
pyrazin	-10.5694
▁Lys	-10.5694
▁myeloma	-10.5694
methane	-10.5694
inflammatory	-10.5697
]-5-	-10.57
▁isolate	-10.5701
▁OD	-10.5701
PAGE	-10.5704
▁160	-10.5707
▁separately	-10.5712
▁insert	-10.5714
)-(	-10.5735
▁Factor	-10.5743
▁critical	-10.5745
▁buffers	-10.5758
8-	-10.5768
▁condenser	-10.5777
▁ionic	-10.5777
▁2.2	-10.5778
▁crystallized	-10.5786
▁6.0	-10.5803
max	-10.581
▁plus	-10.5826
▁conserved	-10.5831
▁Spring	-10.5838
6;	-10.5844
▁spp	-10.5846
▁digestion	-10.5854
=7.1	-10.5855
▁needed	-10.586
)2,	-10.5863
▁reactants	-10.5865
▁recombination	-10.587
toxic	-10.5873
▁processed	-10.5878
▁Harbor	-10.5883
mer	-10.5886
▁Part	-10.5888
▁metabolic	-10.5894
▁GC	-10.5906
▁Prepared	-10.5906
▁semi	-10.5906
▁imidazole	-10.5907
diyl	-10.5908
Ser	-10.5909
▁matter	-10.5909
▁Acids	-10.5911
▁rotary	-10.5912
▁Next	-10.5912
▁alkylamino	-10.5913
▁pore	-10.5913
▁illustrative	-10.5914
▁140	-10.5915
butanol	-10.5915
]-1-	-10.592
▁maintaining	-10.592
▁70%,	-10.5922
▁early	-10.5922
▁Column	-10.5926
▁64	-10.5928
-(1-	-10.5931
▁heptane	-10.5931
▁chromosome	-10.5934
▁Rb	-10.5941
▁essential	-10.5941
▁Re	-10.5942
▁(12	-10.5945
▁ed	-10.5946
44	-10.5946
▁ligated	-10.5946
▁identifying	-10.595
▁Under	-10.5951
▁EC	-10.5955
▁blue	-10.5959
▁International	-10.5961
▁nitrate	-10.5963
▁cholesterol	-10.5971
Sigma	-10.5972
▁transcript	-10.5973
▁rather	-10.5973
▁contacted	-10.5974
▁locus	-10.598
▁operably	-10.5984
▁dosages	-10.5987
Si	-10.5992
▁cationic	-10.6006
▁130	-10.6016
▁Soc	-10.6017
▁hereby	-10.6024
▁eye	-10.6029
▁Both	-10.603
ium	-10.6032
▁detailed	-10.6033
ATCC	-10.6039
▁illustrate	-10.6042
▁interferon	-10.6052
▁Upon	-10.6056
▁agarose	-10.6056
treated	-10.6064
▁serve	-10.6077
deoxy	-10.6081
▁gamma	-10.6083
×	-10.6083
which	-10.6098
triazolo	-10.6102
Invitrogen	-10.6115
▁medicament	-10.6116
▁quantitative	-10.6127
▁pulmonary	-10.6132
▁Western	-10.6133
▁%,	-10.6134
brs	-10.6138
▁around	-10.6142
▁progression	-10.6144
▁olefins	-10.6146
▁58	-10.6148
▁1-(	-10.6153
▁gels	-10.6157
▁piperidine	-10.616
▁influenza	-10.6161
isoquinolin	-10.6161
▁stand	-10.6164
▁continuously	-10.6165
▁cycloalkenyl	-10.6165
▁sensitivity	-10.6173
▁isocyanate	-10.6175
▁57	-10.6183
NHC	-10.619
▁food	-10.6192
▁0.15	-10.6193
thiazole	-10.6195
▁85%,	-10.6196
▁revealed	-10.6202
▁potent	-10.6205
▁motif	-10.6208
▁alkylthio	-10.6212
▁2.1	-10.6224
▁deletions	-10.6236
▁become	-10.624
▁Data	-10.624
▁recorded	-10.6252
-4,5-	-10.6261
▁HCV	-10.6263
preferably	-10.6264
▁rabbit	-10.6288
▁who	-10.6288
-1)	-10.6292
indazol	-10.6292
▁triturated	-10.6295
▁azide	-10.6296
▁Peptide	-10.6299
▁Once	-10.6299
DCM	-10.6299
meth	-10.6301
▁generating	-10.6305
▁180	-10.6307
▁rapid	-10.6312
soluble	-10.6312
Boc	-10.6328
▁dihydrochloride	-10.6336
oxadiazol	-10.6345
methylthio	-10.6345
PEG	-10.6345
▁genetically	-10.6351
▁Biochem	-10.6352
▁11,	-10.6356
▁1-(4-	-10.6357
▁conjunction	-10.6364
▁advantage	-10.6369
▁TCR	-10.637
▁CHCl	-10.6375
acetone	-10.6378
▁concentrate	-10.6379
▁reactant	-10.6383
ddd	-10.6385
▁Briefly	-10.6386
ion	-10.6388
▁appended	-10.6396
isoquinoline	-10.6397
-20	-10.6409
1-10	-10.6412
+):	-10.6414
▁10°	-10.6416
▁tests	-10.6435
▁minimum	-10.6437
▁fetal	-10.6441
8)	-10.6442
▁resonance	-10.6442
90	-10.6447
See	-10.6452
alkynyl	-10.6456
)-4-(	-10.6467
200	-10.6474
▁hydrophilic	-10.6474
▁Al	-10.6479
▁possess	-10.6483
▁Subsequently	-10.6485
▁suspending	-10.649
▁fact	-10.6497
▁conveniently	-10.65
▁(75	-10.6508
▁mammals	-10.6509
▁sulfoxide	-10.6517
ethoxycarbonyl	-10.6518
▁copolymer	-10.6519
▁stock	-10.652
▁supplied	-10.6521
▁sulfonic	-10.6521
▁definition	-10.6527
-1,3,2-	-10.6533
▁linkages	-10.6541
pyrrole	-10.6547
▁work	-10.6549
Step	-10.655
tetra	-10.6551
▁Ed	-10.6552
°	-10.6554
In	-10.6558
▁relevant	-10.6565
=8.7	-10.6565
▁band	-10.6567
▁steam	-10.6569
▁sulfonyl	-10.6577
▁green	-10.6583
▁successively	-10.6584
▁incorporation	-10.659
▁released	-10.6608
▁routes	-10.6611
▁15%	-10.6623
▁batch	-10.6624
thieno	-10.6626
▁completed	-10.663
thiophen	-10.663
▁ends	-10.6637
▁near	-10.6643
▁showing	-10.6646
▁dyes	-10.6651
▁polyvinyl	-10.6656
▁rates	-10.6658
▁Cold	-10.6659
▁male	-10.6668
▁illustrates	-10.667
▁advantageously	-10.6676
▁0.7	-10.668
▁effluent	-10.6682
▁melanoma	-10.6691
▁67	-10.6691
▁changed	-10.6697
-2(1	-10.6697
▁5°	-10.6697
formyl	-10.6702
▁involve	-10.6704
▁independent	-10.6708
Rb	-10.6709
4+	-10.6711
=8.3	-10.6715
▁Research	-10.6717
0.2	-10.6724
▁additionally	-10.6727
▁10-	-10.673
▁take	-10.6736
▁ratios	-10.6741
▁enantiomer	-10.6742
▁individually	-10.6744
oxycarbonyl	-10.6746
positive	-10.675
-13	-10.6755
also	-10.6755
▁exhibits	-10.6756
▁exhibited	-10.6764
▁absorbance	-10.6767
▁create	-10.6767
▁distinct	-10.6767
▁cited	-10.677
14,	-10.6775
▁organisms	-10.6775
▁alanine	-10.6776
▁mobile	-10.6777
▁tris	-10.6779
▁AD	-10.6781
▁106	-10.6783
cells	-10.6784
▁tR	-10.6789
▁stirrer	-10.6789
▁require	-10.679
▁terminus	-10.6798
▁transcriptional	-10.6803
morpholino	-10.6808
acetonitrile	-10.6812
7;	-10.6818
methoxybenzyl	-10.682
▁Mo	-10.6823
▁Celite	-10.6826
aniline	-10.6833
▁pharmacological	-10.6835
▁#	-10.6839
▁mutated	-10.6839
▁might	-10.6843
▁Drug	-10.6844
▁Ala	-10.6848
▁2-(2-	-10.6848
▁Activity	-10.6849
41	-10.685
▁emitting	-10.6854
▁prodrugs	-10.6854
▁Chemistry	-10.6856
▁improvement	-10.6857
▁Gly	-10.6862
gamma	-10.6868
▁situ	-10.6868
▁2.3	-10.6875
▁regard	-10.6876
▁1-(2-	-10.688
ized	-10.6885
▁3,5-	-10.6885
▁7.4	-10.6886
▁conservative	-10.6891
▁separating	-10.6897
39	-10.6901
▁inter	-10.6903
=6.6	-10.6903
▁last	-10.6908
▁stress	-10.6909
carbodiimide	-10.6909
▁histidine	-10.6917
pyrazine	-10.692
▁space	-10.6921
-3,5-	-10.6922
▁kb	-10.6928
▁pancreatic	-10.6936
▁substantial	-10.6936
ine	-10.6938
▁quaternary	-10.6939
▁1-4	-10.6942
▁yielding	-10.6944
▁1-3	-10.6944
▁instant	-10.695
▁53	-10.6953
▁voltage	-10.6958
-[	-10.6968
▁ethoxy	-10.6969
▁prophylactic	-10.6972
▁replacement	-10.6977
▁stained	-10.6978
▁developing	-10.698
▁produces	-10.6982
▁gram	-10.6982
▁sustained	-10.6989
▁Am	-10.6991
palladium	-10.6994
8;	-10.6995
▁unreacted	-10.701
▁potency	-10.7015
▁dimer	-10.7017
▁Those	-10.702
▁extension	-10.7024
▁describe	-10.7025
diethyl	-10.7029
▁pump	-10.7033
▁slow	-10.7035
▁cut	-10.705
▁Cloning	-10.7052
=8.6	-10.7054
▁replacing	-10.7057
ethylene	-10.7059
▁6.5	-10.7066
▁biotin	-10.7068
▁predetermined	-10.7068
bicyclo	-10.7072
▁homogeneous	-10.709
▁reached	-10.7092
▁oxidized	-10.7094
▁k	-10.7111
▁immunized	-10.7112
▁individuals	-10.7119
▁Li	-10.7125
1°	-10.7125
▁IX	-10.7136
RA	-10.7138
morpholin	-10.7144
▁activating	-10.7145
▁preservatives	-10.7149
▁head	-10.7149
▁turn	-10.715
▁deuterium	-10.7153
▁59	-10.7154
ether	-10.7159
5;	-10.7161
▁already	-10.7169
▁smaller	-10.7182
His	-10.7185
▁inventive	-10.7187
▁OR	-10.7189
=8.2	-10.7203
▁correspond	-10.7204
+1).	-10.7207
▁database	-10.7208
thienyl	-10.721
▁bi	-10.721
chemotherapeutic	-10.7217
▁physiologically	-10.7218
▁little	-10.7219
▁score	-10.7219
▁nucleoside	-10.7221
▁linkers	-10.7224
▁degassed	-10.7229
▁diastereomers	-10.7231
COOH	-10.7232
re	-10.7237
▁slightly	-10.7247
▁pellet	-10.7253
▁oligomer	-10.7254
▁location	-10.726
tetrahydrofuran	-10.726
tolyl	-10.7264
▁ligation	-10.7281
▁atmospheric	-10.7284
methanone	-10.7305
12,	-10.7317
▁oven	-10.7325
▁labeling	-10.7333
▁eight	-10.7335
▁purchased	-10.7337
▁initially	-10.7341
st	-10.7348
▁simple	-10.735
quinazolin	-10.7352
▁aryloxy	-10.7353
▁7.2	-10.7357
▁heteroalkyl	-10.7357
▁encompassed	-10.7362
▁capture	-10.7362
▁Arg	-10.7363
▁array	-10.7364
▁extended	-10.7368
LC	-10.7368
▁acceptor	-10.7369
The	-10.7377
▁involving	-10.7377
▁upstream	-10.7388
IR	-10.739
▁68	-10.739
▁PI	-10.7392
iso	-10.7394
▁filled	-10.7398
▁kits	-10.74
▁rapidly	-10.7408
▁luciferase	-10.7409
▁inlet	-10.7411
Al	-10.7411
diol	-10.7426
▁inducing	-10.7429
▁Pa	-10.7433
▁wet	-10.7434
▁joined	-10.7435
”)	-10.7439
▁blocked	-10.7443
▁transduction	-10.7453
▁binder	-10.7465
▁Biology	-10.747
▁diagnosis	-10.747
▁loading	-10.7472
-1,2,3,4-	-10.7472
▁Plant	-10.7473
▁His	-10.7475
▁discloses	-10.7484
step	-10.7487
▁autoclave	-10.7487
▁yielded	-10.749
▁treatments	-10.7492
▁cassette	-10.7494
▁stop	-10.7495
▁Invention	-10.7497
um	-10.7505
▁Most	-10.7509
▁borohydride	-10.7515
▁66	-10.7517
=7.4	-10.7518
EI	-10.7522
▁modulate	-10.7525
▁regimen	-10.753
▁0.9	-10.7531
▁measurements	-10.7533
=1	-10.7536
▁stereoisomers	-10.7537
un	-10.7537
",	-10.7537
▁outlined	-10.7545
▁98%	-10.7551
dioxaborolan	-10.7552
▁adjuvants	-10.7552
▁syringe	-10.7554
▁tract	-10.7556
▁12,	-10.7557
tetrazol	-10.757
▁14,	-10.7574
▁sufficiently	-10.758
BP	-10.7588
from	-10.7589
2°	-10.7593
▁intra	-10.7594
▁titanium	-10.7594
▁purged	-10.7596
▁immunization	-10.7597
▁solvates	-10.7604
boronic	-10.7612
▁rectal	-10.7616
▁carry	-10.7618
▁oligo	-10.7619
18,	-10.7624
▁carbohydrate	-10.7628
▁methionine	-10.763
▁enriched	-10.7633
▁(4-	-10.7635
Glu	-10.7639
▁effectively	-10.7641
▁labels	-10.7641
▁Because	-10.7642
-100	-10.7647
-2,5-	-10.7651
▁cytotoxicity	-10.7653
▁name	-10.7665
▁3%	-10.7666
=6.0	-10.7666
▁94	-10.7669
nu	-10.7678
▁toxic	-10.7681
▁FGF	-10.7682
VII	-10.7684
▁phosphatase	-10.7685
▁spacer	-10.7691
▁lipids	-10.7694
▁evaporator	-10.7697
▁view	-10.7698
Dimethyl	-10.7705
)-1-(	-10.7706
▁cyclo	-10.7707
▁65°	-10.771
▁varying	-10.7712
▁sensitive	-10.7713
▁drops	-10.7719
▁enhancer	-10.7726
▁ovarian	-10.7729
′′	-10.7732
piperazinyl	-10.7733
▁Tables	-10.7734
▁lysis	-10.7734
▁agar	-10.7735
▁Phase	-10.7736
▁220	-10.7738
piperidinyl	-10.7748
▁adhesion	-10.7753
▁Leu	-10.7756
▁seven	-10.7756
▁advantages	-10.7758
9;	-10.7762
trifluoroacetate	-10.7764
▁hinge	-10.777
▁3:	-10.7783
▁HER	-10.7786
▁absent	-10.7791
▁Glu	-10.7796
nd	-10.78
▁brs	-10.7805
▁buffered	-10.781
▁Ig	-10.7817
ca	-10.7819
▁fermentation	-10.7824
▁received	-10.7825
u	-10.7829
=6.9	-10.7829
▁sp	-10.783
▁deposition	-10.7831
▁duration	-10.7831
▁proportion	-10.7833
hr	-10.7833
▁62	-10.7835
▁random	-10.7838
▁2,5-	-10.7838
=6.4	-10.784
▁arylalkyl	-10.7846
▁HEK	-10.7852
▁methane	-10.7852
mmol	-10.7863
Ia	-10.7865
▁97%,	-10.7867
▁converting	-10.7873
▁across	-10.7877
=2.0	-10.7881
▁sat	-10.7881
▁cesium	-10.7887
▁DIPEA	-10.7889
▁tail	-10.7893
▁meanings	-10.7897
▁fibrosis	-10.7899
▁copolymers	-10.7903
▁interact	-10.7903
▁dilute	-10.7908
▁Amino	-10.7911
▁cake	-10.7912
▁EGFR	-10.7914
PBS	-10.7915
carbamic	-10.7918
▁pM	-10.792
▁Ni	-10.7928
▁benefit	-10.793
(=	-10.7933
▁1.25	-10.7944
▁optimal	-10.7946
▁optional	-10.7948
▁analytical	-10.7953
▁Compositions	-10.7955
▁Particularly	-10.7965
▁amides	-10.7969
▁local	-10.797
VL	-10.7971
-2,6-	-10.7972
▁therapies	-10.7973
▁celite	-10.7975
79	-10.7977
▁columns	-10.7979
▁causes	-10.798
▁mix	-10.7983
▁Mice	-10.7983
=7.9	-10.7986
▁background	-10.7989
▁98%,	-10.7989
▁combining	-10.7993
▁codons	-10.7997
▁transgene	-10.7998
cyclopenta	-10.8002
▁That	-10.8006
▁mechanical	-10.8007
▁hydrazine	-10.8018
▁Rev	-10.8019
▁110°	-10.8019
▁conjugation	-10.8022
▁antibiotic	-10.8026
▁clearly	-10.8031
▁Flow	-10.8039
-6-(	-10.8039
▁Calculated	-10.8039
▁frozen	-10.8055
▁minor	-10.8056
▁reactivity	-10.8056
▁98	-10.8064
▁comparing	-10.8067
)-1,3-	-10.8068
ul	-10.8084
▁pad	-10.8085
▁protocols	-10.809
▁Samples	-10.8092
▁image	-10.8094
▁4-(4-	-10.8094
▁years	-10.8107
▁deprotection	-10.8111
mouse	-10.8115
▁sorbitol	-10.8119
▁NK	-10.8125
▁RP	-10.8127
▁similarity	-10.8136
▁BLAST	-10.8136
▁Alzheimer	-10.8137
▁similarly	-10.8138
▁rheumatoid	-10.8149
▁psi	-10.8153
▁inhalation	-10.8157
▁capsule	-10.8159
▁zero	-10.816
▁Thereafter	-10.8164
▁Tween	-10.8165
▁ATP	-10.817
▁promote	-10.8172
forming	-10.8173
1-8	-10.8176
-1-(	-10.8177
▁hepatitis	-10.8182
▁77	-10.8182
ar	-10.8188
▁asthma	-10.8189
▁quantities	-10.819
▁connection	-10.819
end	-10.8195
SPC	-10.8197
octane	-10.8199
▁vehicles	-10.8206
▁(1.2	-10.8208
Di	-10.8209
▁adsorption	-10.8213
▁analyses	-10.8219
▁Proteins	-10.8223
▁During	-10.8225
▁5'	-10.8227
Val	-10.8232
▁Manual	-10.824
▁appropriately	-10.8242
Ethyl	-10.8244
=9.0	-10.8248
▁12.	-10.8249
prepared	-10.825
▁adult	-10.8259
▁boron	-10.8263
no	-10.8264
antibody	-10.827
▁cobalt	-10.8286
▁0.001	-10.8286
phenylamino	-10.8293
▁minimal	-10.8299
▁paper	-10.8305
▁mesh	-10.8307
▁Process	-10.8309
▁2.7	-10.8311
▁63	-10.8311
▁[(	-10.8314
▁carbamate	-10.8315
-2-(2-	-10.8317
▁evaluation	-10.832
▁complementarity	-10.8324
▁200°	-10.8341
120	-10.8349
sulfonic	-10.8361
▁alter	-10.8364
▁wetting	-10.8365
▁silyl	-10.8365
▁75%	-10.8372
75	-10.8378
man	-10.8378
▁leader	-10.8381
▁formulas	-10.8382
▁affected	-10.8385
-2-(4-	-10.8386
▁feedstock	-10.8391
▁bio	-10.8392
pyrrol	-10.8395
acetoxy	-10.841
▁8.5	-10.8415
▁y	-10.8417
▁infectious	-10.8418
▁800	-10.8424
▁vaccines	-10.8425
▁exogenous	-10.8425
)-5-(	-10.8431
▁panel	-10.8436
toluene	-10.8438
2)2	-10.8439
=2.4	-10.844
carbonate	-10.8442
ester	-10.8443
▁rinsed	-10.8447
▁10.0	-10.8449
▁epithelial	-10.8458
▁350	-10.8458
▁soybean	-10.8458
▁controlling	-10.846
▁69	-10.8466
poly	-10.8471
▁benzoyl	-10.8472
▁epoxy	-10.8474
▁resolution	-10.8474
▁spectrometry	-10.8479
)—,	-10.849
▁brought	-10.8491
▁86	-10.85
SiO	-10.8506
▁61	-10.851
▁marrow	-10.851
▁(70	-10.8511
▁nitric	-10.8512
▁life	-10.8523
▁104	-10.8528
methanesulfonate	-10.8529
▁external	-10.8535
▁acrylic	-10.8536
▁failure	-10.8546
Intermediate	-10.8549
▁88	-10.855
▁Melting	-10.8551
by	-10.8559
▁colonies	-10.8568
▁Finally	-10.8568
▁pooled	-10.8569
▁1.9	-10.857
▁sugars	-10.8576
▁precursors	-10.8576
▁85%	-10.8577
3°	-10.8583
▁convenient	-10.8585
▁additive	-10.8586
▁highest	-10.8588
▁benzo	-10.8592
pro	-10.8593
▁chromatographic	-10.8593
▁dispersed	-10.8605
▁91	-10.8608
▁right	-10.862
▁84	-10.8621
▁leucine	-10.863
▁subcutaneously	-10.8634
AA	-10.8641
▁PE	-10.8646
▁transdermal	-10.8659
▁sections	-10.866
▁angiogenesis	-10.8661
▁60%,	-10.8662
▁regulation	-10.8663
▁4-(2-	-10.8681
▁plastic	-10.8683
▁asymmetric	-10.869
ve	-10.869
-3-(3-	-10.8697
4°	-10.8701
▁beneficial	-10.8703
▁89	-10.8705
▁metabolism	-10.8708
▁gp	-10.8713
▁selectable	-10.8719
▁here	-10.8722
▁78	-10.8723
▁NOS	-10.873
ethanone	-10.8732
▁malignant	-10.8732
▁soft	-10.8736
▁0.05%	-10.8736
▁.+-.	-10.8737
ide	-10.875
▁causing	-10.8751
▁MgCl	-10.8752
▁sulfide	-10.8754
▁quality	-10.8757
▁ex	-10.8763
%,	-10.8767
Methoxy	-10.8769
▁onset	-10.8776
▁microorganisms	-10.878
▁1-2	-10.8786
▁assigned	-10.8786
dec	-10.8786
▁raised	-10.8787
▁(3.0	-10.8794
pyridazin	-10.8803
▁2.6	-10.8804
▁Solvent	-10.8804
▁formaldehyde	-10.8808
46	-10.8808
(3-	-10.881
▁adenovirus	-10.8819
▁lack	-10.8828
▁Based	-10.8829
▁plated	-10.883
▁operating	-10.8832
▁assess	-10.8842
▁bearing	-10.8848
▁108	-10.8848
▁Certain	-10.8849
▁hydrocarbyl	-10.8858
42	-10.8859
▁inside	-10.8868
Ig	-10.8877
▁leads	-10.8878
▁antibiotics	-10.8882
▁Typical	-10.8886
active	-10.8887
▁stranded	-10.8888
transferase	-10.8889
▁triple	-10.8897
optionally	-10.8899
▁electro	-10.8903
▁fashion	-10.8904
▁mannitol	-10.891
▁San	-10.8915
55	-10.8915
▁Fv	-10.8925
▁oxides	-10.8925
▁giving	-10.8926
▁intraperitoneal	-10.893
▁injections	-10.8931
▁107	-10.8941
▁dissociation	-10.8942
line	-10.8944
▁monohydrate	-10.8945
▁(600	-10.8947
▁450	-10.8951
▁prokaryotic	-10.8958
▁Many	-10.8966
▁construed	-10.8971
▁phenotype	-10.8975
▁isolating	-10.8978
▁supported	-10.8982
▁Asp	-10.8989
▁varied	-10.8991
▁nervous	-10.8993
▁dihydro	-10.8995
3-6	-10.8999
▁sclerosis	-10.9003
▁First	-10.9005
▁mmoles	-10.9007
▁Use	-10.9009
▁spleen	-10.9011
▁decomposition	-10.9017
▁termination	-10.9022
with	-10.9024
octyl	-10.903
id	-10.9035
▁allergic	-10.9035
▁2.8	-10.9035
▁difficult	-10.9045
▁synthase	-10.9049
▁cardiac	-10.9051
▁vegetable	-10.9052
RNA	-10.9054
49	-10.906
▁glycols	-10.9061
dichloromethane	-10.9068
-3′	-10.9069
▁preceding	-10.9074
▁Sons	-10.9076
allyl	-10.9088
▁exon	-10.9092
▁construction	-10.9096
dried	-10.9097
▁untreated	-10.9105
▁SP	-10.9106
▁assembly	-10.9114
▁De	-10.9116
oxazol	-10.9124
▁-(	-10.9126
▁fiber	-10.913
▁estimated	-10.9136
▁oligomers	-10.9139
expressing	-10.9146
▁halides	-10.9155
amido	-10.9157
▁Optionally	-10.9161
▁analogues	-10.9162
modified	-10.9168
▁photo	-10.9168
triazole	-10.9174
propanoic	-10.9176
aminocarbonyl	-10.9177
0.1	-10.9179
treatment	-10.9181
ylidene	-10.9182
hereinafter	-10.9186
▁76	-10.9187
▁Technologies	-10.9188
▁EQU	-10.9194
aqueous	-10.9196
▁recycled	-10.9198
▁hybridize	-10.92
▁Buffer	-10.9204
▁Val	-10.9205
▁50%,	-10.921
▁dispersing	-10.9215
▁black	-10.9218
▁cannot	-10.9226
▁Culture	-10.9228
ex	-10.9231
▁differ	-10.9235
-1,2,3-	-10.9237
▁oxidizing	-10.9238
▁calc	-10.9238
▁(0.3	-10.924
▁radioactive	-10.9241
▁96%,	-10.9242
▁leading	-10.9243
▁92	-10.9245
▁depends	-10.9245
▁gaseous	-10.925
▁talc	-10.9258
▁bladder	-10.9269
▁Cys	-10.9271
3);	-10.9275
▁Ph	-10.9275
-(5-	-10.9276
▁algorithm	-10.9277
▁inclusion	-10.9279
▁our	-10.9284
▁event	-10.9288
▁97	-10.9288
ir	-10.929
▁performing	-10.9293
▁functionality	-10.9295
▁irradiation	-10.9297
▁Recombinant	-10.9298
▁79	-10.9311
ethylamino	-10.932
▁Cu	-10.9322
▁seeded	-10.9324
▁HF	-10.9325
-4-(4-	-10.9327
▁modulating	-10.9329
▁Administration	-10.9331
▁female	-10.9336
▁classes	-10.9337
mercapto	-10.9338
of	-10.9343
▁IgE	-10.9344
▁John	-10.9349
▁routine	-10.9352
cancer	-10.9355
▁appears	-10.9362
▁Sigma	-10.9364
EP	-10.9365
VH	-10.9368
56	-10.9372
Asp	-10.9373
▁integrated	-10.9375
▁liter	-10.938
▁isomerization	-10.9383
▁vessels	-10.9391
[2,1-	-10.9397
▁3.2	-10.9399
=10	-10.9402
▁hereinafter	-10.9403
chloroform	-10.9405
)-8-	-10.9408
▁analogy	-10.9409
▁binders	-10.9413
▁Blood	-10.9415
THF	-10.942
VIII	-10.9422
▁RPMI	-10.9425
▁versus	-10.9426
IC	-10.9436
▁platelet	-10.9441
▁applicable	-10.9443
▁freeze	-10.9443
▁artisan	-10.9446
▁65%	-10.9446
▁encompass	-10.9447
▁carbocyclic	-10.9451
▁MeCN	-10.9452
▁monitoring	-10.9455
▁allele	-10.9456
Aldrich	-10.9463
▁held	-10.9464
▁surfaces	-10.9467
▁109	-10.9468
HT	-10.9473
▁foreign	-10.9473
▁reduces	-10.9475
▁Poly	-10.9482
▁(5.0	-10.9487
▁maleic	-10.949
▁intravenously	-10.9492
▁pathways	-10.9493
▁partner	-10.9494
bi	-10.9497
gastrointestinal	-10.9501
▁isotonic	-10.9512
▁neutralizing	-10.9513
▁deleted	-10.9518
▁Experimental	-10.9523
300	-10.9524
3.1	-10.9525
▁1-(3-	-10.9526
▁supernatants	-10.9528
▁enhancing	-10.9532
phosphine	-10.9532
48	-10.9534
600	-10.9535
EC	-10.9536
▁7.3	-10.9542
▁nasal	-10.9545
-1,6-	-10.9546
▁3'	-10.955
▁Ex	-10.955
▁82	-10.9557
▁spirit	-10.9557
3).	-10.956
▁3-(4-	-10.956
▁efficiently	-10.9562
▁92%	-10.957
▁CA	-10.9571
all	-10.9576
▁4:	-10.959
ethynyl	-10.9595
▁repeat	-10.9597
▁Calc	-10.9601
IX	-10.9606
-10-	-10.9607
▁ca	-10.961
ethane	-10.9616
▁cyclobutyl	-10.9622
▁tin	-10.9625
▁High	-10.9626
▁trifluoro	-10.9629
thia	-10.9637
▁choice	-10.964
▁titled	-10.9642
▁publications	-10.9662
where	-10.9665
▁conformation	-10.9668
▁tolerance	-10.967
▁strands	-10.9672
silyl	-10.9676
▁se	-10.9676
▁ensure	-10.9684
▁6.8	-10.9691
propenyl	-10.9702
▁AB	-10.9703
▁collection	-10.9704
▁artificial	-10.9706
▁aggregation	-10.9706
▁7.6	-10.9708
▁170	-10.9712
benzimidazol	-10.9726
AB	-10.9731
▁organs	-10.9737
CDR	-10.9737
▁ul	-10.975
▁monoxide	-10.9757
▁counter	-10.9765
▁diphenyl	-10.9767
▁surgery	-10.9772
▁stringency	-10.9783
▁polycyclic	-10.9783
▁81	-10.9788
▁undesirable	-10.9791
▁Inhibition	-10.9794
▁respiratory	-10.9795
-23	-10.9796
ox	-10.9812
▁87	-10.9813
cyclobutyl	-10.9822
▁spectroscopy	-10.9823
▁adapted	-10.9824
▁abnormal	-10.9826
▁numerous	-10.9831
▁culturing	-10.9834
▁activator	-10.9844
▁sulfonate	-10.9847
tumor	-10.9848
▁Accession	-10.985
diazabicyclo	-10.9852
▁retain	-10.9858
▁EL	-10.9859
▁thionyl	-10.9864
▁porous	-10.987
▁Kit	-10.9876
▁utility	-10.9877
▁stereoisomer	-10.9884
oct	-10.9888
▁fat	-10.9892
acyl	-10.9896
tetrahydropyran	-10.9897
▁stopped	-10.9902
▁develop	-10.9903
▁aerosol	-10.9904
product	-10.9904
PA	-10.9907
▁acrylate	-10.9913
▁evaluate	-10.9915
▁103	-10.9919
▁definitions	-10.9921
▁events	-10.9924
▁center	-10.9932
▁ortho	-10.9937
▁benzoic	-10.9939
▁healthy	-10.9944
bromophenyl	-10.9951
▁stabilizers	-10.9951
▁becomes	-10.9958
▁HEPES	-10.996
▁seeds	-10.996
▁4%	-10.9961
▁RA	-10.9964
▁0.02	-10.9965
ant	-10.9973
▁(6)	-10.9973
▁find	-10.9975
acid	-10.9976
1.0	-10.9982
▁7.40	-10.9984
▁rise	-10.9991
▁usual	-10.9996
▁subunits	-11.0004
▁7.35	-11.0005
2—,	-11.0011
▁111	-11.0012
-21	-11.0016
yn	-11.0017
▁direction	-11.0024
▁17,	-11.0025
Ac	-11.0028
▁health	-11.0028
▁oxime	-11.0032
▁stages	-11.0033
▁sets	-11.0033
▁fourth	-11.0036
▁93	-11.0037
▁mechanisms	-11.0039
01	-11.004
▁primarily	-11.0044
▁best	-11.0049
▁FBS	-11.0057
RT	-11.0062
▁0.75	-11.0062
propanoate	-11.0065
-25	-11.0066
▁formamide	-11.0067
alanine	-11.0068
-6,7-	-11.0069
▁coatings	-11.007
▁55°	-11.0073
▁therefrom	-11.0079
▁selecting	-11.0083
▁(35	-11.0083
▁Ia	-11.0085
▁stringent	-11.0087
▁OC	-11.009
▁HVR	-11.0091
▁3′-	-11.0095
manufactured	-11.0096
-2,2-	-11.0098
isomer	-11.0104
▁wound	-11.0106
▁hydroxyalkyl	-11.0106
▁93%	-11.0113
▁wall	-11.0116
▁75%,	-11.0122
▁formate	-11.0124
)-3,4-	-11.0126
rich	-11.0127
▁stimulated	-11.0127
▁TEA	-11.0129
td	-11.013
▁glutamine	-11.0134
▁shaken	-11.0136
▁flavoring	-11.0142
▁naphthalene	-11.0143
▁Fe	-11.0144
IgG	-11.0145
▁memory	-11.0151
▁finally	-11.0152
CI	-11.0152
▁microorganism	-11.0157
293	-11.016
▁7.8	-11.0162
▁101	-11.0163
benzenesulfonyl	-11.0163
▁recipient	-11.0164
▁aid	-11.0166
8+	-11.0167
Tyr	-11.0167
▁carbamoyl	-11.0169
▁(—	-11.0173
▁St	-11.0175
▁avoid	-11.0176
▁45°	-11.0176
▁activate	-11.018
▁suffering	-11.0181
▁applying	-11.0185
▁milk	-11.0185
▁diabetic	-11.0199
▁intervals	-11.02
10)	-11.0202
▁close	-11.0205
azetidin	-11.021
▁peroxidase	-11.021
▁Monoclonal	-11.0213
isobutyl	-11.0215
▁proliferative	-11.0218
▁gastric	-11.0225
▁Phe	-11.0229
▁TLR	-11.0234
encoding	-11.0234
▁neurons	-11.0235
▁Corporation	-11.0239
3/	-11.0239
▁fine	-11.0243
▁Thr	-11.0244
▁interchangeably	-11.0244
▁13.	-11.0251
▁glycoprotein	-11.0261
▁widely	-11.0264
▁240	-11.0282
▁Systems	-11.0296
▁tetrakis	-11.0296
▁equilibrium	-11.0298
▁cytometry	-11.0299
▁outside	-11.0299
carbaldehyde	-11.0307
per	-11.0309
)-2,3-	-11.0309
OS	-11.0317
43	-11.032
▁pyrimidine	-11.0324
▁14.	-11.0327
▁35%	-11.0337
▁responsible	-11.0338
▁format	-11.0344
▁psig	-11.035
▁indirectly	-11.0351
diamino	-11.0353
BB	-11.0359
▁tank	-11.0359
▁baseline	-11.0365
▁115	-11.0369
▁3.3	-11.037
▁fungal	-11.0371
▁1×	-11.0379
▁liposome	-11.0384
▁optimized	-11.0384
▁IgM	-11.0385
▁280	-11.0389
▁ways	-11.039
▁American	-11.0391
▁shape	-11.0394
acrylate	-11.0395
▁Detection	-11.0398
▁71	-11.0399
▁confirm	-11.0399
Dichloro	-11.04
▁DMEM	-11.04
▁System	-11.04
protected	-11.0401
▁duplex	-11.0402
▁patents	-11.0402
▁fuel	-11.0407
▁gradually	-11.0407
▁differential	-11.041
form	-11.0416
▁HATU	-11.0416
▁stably	-11.042
dimethoxyphenyl	-11.0422
▁code	-11.0423
▁hereinbefore	-11.0424
thiadiazol	-11.0429
methylpropyl	-11.0429
▁SiO	-11.0435
▁bonding	-11.0437
▁analogously	-11.044
▁thienyl	-11.0444
59	-11.0445
▁accumulation	-11.0447
▁shaking	-11.0452
▁Therapeutic	-11.0458
▁suction	-11.046
51	-11.046
▁alkylating	-11.0465
▁95°	-11.0468
▁cartridge	-11.0478
▁prep	-11.048
▁Groups	-11.0483
▁influence	-11.0494
▁3.6	-11.0495
dose	-11.0498
5)	-11.0499
▁Figure	-11.0507
▁3.1	-11.0508
▁2×	-11.0511
▁discovered	-11.0512
▁7.45	-11.0513
65	-11.0515
ous	-11.0519
▁select	-11.052
products	-11.0521
▁paraffin	-11.0521
▁dissolution	-11.0525
▁phrase	-11.0525
▁remains	-11.0529
▁succinic	-11.0531
▁74	-11.0533
▁modifying	-11.0534
-3-(4-	-11.0535
▁73	-11.0537
▁0.10	-11.0539
▁nanoparticles	-11.0542
▁modulators	-11.0544
▁laboratory	-11.0544
▁hydro	-11.0545
butyldimethylsil	-11.0545
▁viability	-11.0546
▁ArH	-11.0549
▁Lewis	-11.0556
▁perform	-11.0561
▁electroporation	-11.0569
9-	-11.0576
▁kPa	-11.0578
▁5'-	-11.0579
▁thereafter	-11.0581
butoxide	-11.0584
▁dichloride	-11.0586
▁Tyr	-11.0587
▁Spectrum	-11.0587
▁grade	-11.0595
▁AA	-11.0602
▁PC	-11.0605
diisopropyl	-11.0612
▁4.8	-11.0616
et	-11.0618
▁organics	-11.062
▁CTLA	-11.0622
ac	-11.0625
▁interfere	-11.0632
54	-11.0632
▁NP	-11.0632
▁hydrolyzed	-11.0632
▁speed	-11.0635
▁hexyl	-11.064
▁regeneration	-11.064
52	-11.0645
▁problems	-11.0645
▁anionic	-11.0647
Met	-11.0654
purin	-11.0656
▁(7)	-11.0661
▁IgA	-11.0667
pyrimidinyl	-11.067
▁summarized	-11.0672
▁(120	-11.0676
▁FACS	-11.0676
dimethylphenyl	-11.068
▁(2-	-11.0681
-3-(2-	-11.0686
▁IGF	-11.0686
▁comparable	-11.0687
13,	-11.069
bound	-11.0692
▁modulation	-11.0693
▁adverse	-11.0695
▁8.4	-11.0697
▁9.0	-11.0705
methoxyethyl	-11.0707
▁700	-11.0714
▁SV	-11.0716
▁proper	-11.0718
haloalkyl	-11.072
▁cyanide	-11.0722
▁University	-11.0724
▁numbering	-11.073
▁dialkyl	-11.0734
▁orientation	-11.0734
▁glutamic	-11.0735
OAc	-11.0738
▁sieve	-11.0745
▁Cy	-11.0747
IA	-11.0749
▁83	-11.0751
▁NaH	-11.0762
▁analyte	-11.0773
▁Tumor	-11.0774
▁nitrile	-11.0774
▁131	-11.0775
▁industrial	-11.0778
▁polyoxyethylene	-11.0779
▁7.25	-11.0782
6-10	-11.0784
▁(1.1	-11.0784
im	-11.0786
▁version	-11.0789
▁liquor	-11.079
▁stimulating	-11.0794
syn	-11.0794
%.	-11.0797
▁5-(	-11.0802
▁synthesizing	-11.0803
▁add	-11.0805
ring	-11.0807
▁quantified	-11.081
▁parenterally	-11.0816
▁copies	-11.082
400	-11.0822
▁0.22	-11.0831
▁chloroformate	-11.0832
▁2,2,2-	-11.0832
▁(1992)	-11.0835
▁nor	-11.0836
▁sequenced	-11.0838
▁towards	-11.0843
ia	-11.0845
▁Mobile	-11.0847
▁suggest	-11.0849
▁separator	-11.085
▁Protocols	-11.0851
▁Solid	-11.0852
▁12.5	-11.0861
▁soil	-11.0876
ammonium	-11.0876
▁lactic	-11.088
▁-78°	-11.0883
▁remainder	-11.0884
500	-11.0889
▁immunological	-11.0899
▁GFP	-11.09
7)	-11.0901
▁how	-11.0909
▁areas	-11.091
▁Cat	-11.0912
▁Th	-11.0915
off	-11.0921
▁7.38	-11.0924
▁bowel	-11.0925
▁13,	-11.0928
▁shock	-11.0929
▁7.15	-11.0936
coated	-11.0939
▁trypsin	-11.0945
▁proton	-11.0945
imethylsulfoxide	-11.0946
▁Synthetic	-11.0947
▁packed	-11.0947
▁dilutions	-11.0953
▁details	-11.0963
Thr	-11.097
▁employ	-11.0973
▁175	-11.0979
▁Nat	-11.0982
▁feature	-11.0982
▁Clin	-11.0989
▁goat	-11.0989
▁Sambrook	-11.0993
▁immunoglobulins	-11.0994
▁imidazolyl	-11.0997
eluent	-11.0997
PPh	-11.1004
▁threonine	-11.1004
▁created	-11.1005
▁hydroxypropyl	-11.1008
3-10	-11.1012
▁hard	-11.1015
▁(1993)	-11.1016
▁almost	-11.1025
negative	-11.1025
ive	-11.1033
▁necessarily	-11.104
▁Germany	-11.1042
▁read	-11.1045
▁severe	-11.1046
▁parallel	-11.1049
10-	-11.105
%)	-11.105
▁illustration	-11.1051
▁retained	-11.1052
▁demonstrates	-11.1062
▁cytoplasmic	-11.1062
▁emulsifying	-11.1065
=5.6	-11.1069
▁cardiovascular	-11.1073
drug	-11.1075
indazole	-11.1078
▁inoculated	-11.1081
▁sera	-11.1083
▁gap	-11.1084
▁obesity	-11.109
▁Total	-11.1093
▁hair	-11.1095
hydroxypropyl	-11.1096
▁sarcoma	-11.1096
▁210	-11.1097
▁Org	-11.1098
le	-11.1102
▁7.30	-11.1111
glycine	-11.1111
methanesulfonyl	-11.1115
▁inducible	-11.1115
▁viscous	-11.1116
bromomethyl	-11.1118
▁4.2	-11.1118
▁Current	-11.1123
▁(1989)	-11.1123
▁inner	-11.1128
▁7.20	-11.1131
4.0	-11.1132
▁inclusive	-11.1134
▁7.50	-11.1137
▁gm	-11.1139
propionate	-11.1142
▁Asn	-11.1145
-1(2	-11.1148
▁ORF	-11.1149
▁patterns	-11.1149
▁113	-11.115
▁(90	-11.1159
▁19,	-11.116
▁Several	-11.1162
fluorobenzyl	-11.1164
sulfamoyl	-11.1187
▁strongly	-11.1194
▁chromium	-11.1195
▁correct	-11.1196
▁migration	-11.1198
▁Sciences	-11.12
ID	-11.1201
US	-11.1204
▁fluids	-11.1204
▁GM	-11.1206
▁Assays	-11.1208
▁piperazine	-11.1208
heterocyclyl	-11.1218
-22	-11.122
naturally	-11.1226
▁phosphine	-11.1229
SP	-11.1234
▁detector	-11.1235
▁morpholine	-11.1236
▁adduct	-11.1236
▁equation	-11.1238
▁meta	-11.124
▁power	-11.1241
▁though	-11.1242
aminoethyl	-11.1246
▁appear	-11.1247
▁problem	-11.1248
▁Int	-11.1251
101	-11.1255
▁0.45	-11.126
▁truncated	-11.1264
▁psoriasis	-11.1265
▁immunogenicity	-11.1268
▁macrophages	-11.1271
▁Exp	-11.1275
▁composite	-11.1275
▁colony	-11.128
▁lysate	-11.1282
▁suppositories	-11.1283
▁cat	-11.1285
Bu	-11.1288
▁Kabat	-11.1291
▁epoxide	-11.1295
▁pharmacokinetic	-11.1296
▁aniline	-11.1308
▁Control	-11.1308
=6.5	-11.1309
[3.2.1]	-11.1314
ra	-11.1321
▁mother	-11.1321
izing	-11.1331
▁ketones	-11.1333
ur	-11.1336
▁Product	-11.1337
▁Journal	-11.1337
▁presently	-11.1341
▁germline	-11.1353
toluenesulfonic	-11.1358
▁kinases	-11.1368
▁Structure	-11.1368
▁old	-11.1371
▁7.42	-11.1371
▁nucleus	-11.1374
1.1	-11.1383
method	-11.1384
-[1,2,4]	-11.1387
▁hypertension	-11.1393
▁enable	-11.1393
12-	-11.1393
▁7.1	-11.1398
NHR	-11.1405
▁populations	-11.1406
▁enhancers	-11.1415
▁modulator	-11.1415
▁chemotherapy	-11.1418
CT	-11.142
▁benzoate	-11.1422
▁automated	-11.1423
▁objective	-11.1425
▁outlet	-11.1428
▁instrument	-11.1431
bottom	-11.1433
▁3.8	-11.1433
▁1,000	-11.1435
pyrrolidinyl	-11.1435
▁4.6	-11.1435
▁undergo	-11.1436
time	-11.1437
▁analogue	-11.1449
phenylethyl	-11.145
▁recited	-11.1454
▁evidence	-11.1459
▁Escherichia	-11.1468
▁2-(3-	-11.1468
▁biotinylated	-11.147
▁biphenyl	-11.1472
benzimidazole	-11.1472
▁254	-11.1476
▁NS	-11.1483
▁proline	-11.1497
▁introduce	-11.1501
▁stimulate	-11.1505
▁112	-11.1506
▁16,	-11.1507
▁chromosomal	-11.1517
▁cerebral	-11.152
SSC	-11.1522
▁takes	-11.1527
▁(0.4	-11.1527
=7.7	-11.1529
chloromethyl	-11.1531
▁iodo	-11.1531
conjugated	-11.1531
▁vitamin	-11.1532
▁decreasing	-11.1534
▁antibacterial	-11.1538
▁consecutive	-11.1538
acceptable	-11.1538
▁blocks	-11.154
▁proviso	-11.154
1.2	-11.154
BL	-11.1541
CHCl	-11.1543
▁streptavidin	-11.1545
▁syrup	-11.1545
▁lymph	-11.1547
▁tetrachloride	-11.1549
▁Hg	-11.155
▁lacking	-11.1551
▁immunogen	-11.1555
▁carboxylate	-11.1556
▁filters	-11.1558
▁18,	-11.1562
▁hematopoietic	-11.1562
isoxazol	-11.1562
if	-11.1572
▁put	-11.1572
butene	-11.1573
▁7.34	-11.1574
▁frequently	-11.1575
▁studied	-11.1575
▁0.20	-11.1576
▁barrier	-11.1583
▁manganese	-11.1587
liquid	-11.1589
il	-11.1591
▁detergent	-11.1594
▁gases	-11.1596
▁pyrimidinyl	-11.1596
95	-11.1603
▁strategy	-11.161
▁3.4	-11.1611
▁7.43	-11.1611
▁trimethylsilyl	-11.1614
▁165	-11.1615
▁steel	-11.1617
▁cost	-11.1621
▁2:1	-11.1623
▁5.2	-11.1623
▁7.48	-11.1624
butenyl	-11.1626
▁ug	-11.1629
▁integration	-11.163
▁Waters	-11.163
▁CLMS	-11.1634
▁vs	-11.1636
triazine	-11.1637
62	-11.1638
Bio	-11.1642
▁approaches	-11.1647
▁7.55	-11.1651
▁(1990)	-11.166
▁cations	-11.166
02	-11.166
▁DETD	-11.1661
quinazoline	-11.1661
minute	-11.1661
▁%)	-11.1664
▁Formulations	-11.1665
▁thiazolyl	-11.1668
▁dialkylamino	-11.1669
▁manufacturing	-11.1669
1.5	-11.1672
▁shift	-11.1674
78	-11.1674
0-	-11.1674
▁EST	-11.1675
▁7.32	-11.1681
▁suggests	-11.1682
▁vigorously	-11.1683
Et	-11.1684
=1.8	-11.1684
▁Fractions	-11.1687
▁Three	-11.1692
▁124	-11.1695
▁Edition	-11.1695
)-2-(4-	-11.1695
▁microtiter	-11.1697
solid	-11.17
▁isotype	-11.1701
=1.5	-11.1701
5°	-11.1702
butane	-11.1706
▁elimination	-11.1707
)-2,2-	-11.1708
carboxamido	-11.1711
-11-	-11.1713
▁biomass	-11.1716
▁fibers	-11.1716
dimensional	-11.1717
▁7.60	-11.1718
azido	-11.1721
phenylalanine	-11.1723
▁STM	-11.1725
▁Disease	-11.1728
▁7.31	-11.173
▁equipment	-11.1737
▁channels	-11.174
▁10,000	-11.174
]-6-	-11.1744
▁growing	-11.1744
▁admixture	-11.1746
▁counted	-11.1746
BD	-11.1749
▁broth	-11.1751
▁hydrobromic	-11.1752
linking	-11.1753
-5,6-	-11.1756
▁lubricants	-11.1762
▁Lett	-11.1763
▁bulk	-11.1771
▁stomach	-11.1772
▁departing	-11.1773
58	-11.1774
▁colourless	-11.1776
▁effectiveness	-11.1776
▁remain	-11.1776
▁7.37	-11.1777
▁17.	-11.1783
▁parental	-11.1784
▁metastasis	-11.1786
▁pool	-11.1787
▁Tri	-11.1789
▁BMP	-11.1793
▁21,	-11.1794
▁displayed	-11.1798
▁search	-11.1799
▁55%	-11.1802
▁working	-11.1805
▁Biosystems	-11.1809
=4.8	-11.1813
▁expresses	-11.1816
▁dendritic	-11.1817
▁boronic	-11.182
▁just	-11.1825
▁potentially	-11.1825
▁DE	-11.1828
%).	-11.1828
▁Company	-11.1833
▁existing	-11.1834
▁permit	-11.1836
▁retroviral	-11.1837
▁Solution	-11.1838
methylcellulose	-11.1841
thiazolyl	-11.1842
▁improving	-11.1845
▁102	-11.1855
▁kind	-11.1858
▁neutralization	-11.1867
▁(1994)	-11.1868
▁deliver	-11.1868
▁indole	-11.1871
occurring	-11.1878
87	-11.1879
▁modify	-11.1881
85	-11.1884
▁WT	-11.1885
▁spiro	-11.1885
▁restricted	-11.1887
octahydro	-11.1887
▁pellets	-11.1888
▁(1991)	-11.189
=6.3	-11.1893
dioxide	-11.1894
EA	-11.1898
▁CCR	-11.1898
▁Day	-11.19
2.2	-11.1905
▁states	-11.1906
▁preferentially	-11.1907
▁tartaric	-11.1912
▁7.33	-11.1917
▁styrene	-11.1921
gel	-11.1922
▁makes	-11.1922
▁superior	-11.1924
PS	-11.1924
Bis	-11.1933
petroleum	-11.1933
▁Catalyst	-11.1935
▁assembled	-11.1939
3-7	-11.1939
methylpyridin	-11.194
▁phenoxy	-11.195
▁(0.25	-11.1954
▁ruthenium	-11.1955
▁biochemical	-11.196
▁thrombin	-11.196
▁European	-11.1962
▁rhodium	-11.1966
▁intestinal	-11.1967
▁esterification	-11.1967
▁oxidative	-11.1968
▁Laboratories	-11.1972
▁proposed	-11.1974
▁subjecting	-11.1978
Benzyl	-11.1984
▁3-(2-	-11.1988
▁RNAi	-11.1995
2.1	-11.1995
▁moisture	-11.2
-2′-	-11.2003
ton	-11.2004
▁Biotechnology	-11.2004
▁ischemia	-11.2008
▁GLP	-11.2009
][1,3]	-11.2014
′)	-11.2017
ability	-11.2018
morpholine	-11.202
▁aprotic	-11.202
▁outer	-11.2027
▁methacrylate	-11.2033
▁stabilizing	-11.2035
▁titer	-11.2041
▁phospho	-11.2047
▁7.18	-11.2047
▁exact	-11.205
▁Liquid	-11.2052
▁convert	-11.2059
▁Chromatography	-11.206
61	-11.206
ha	-11.206
▁programs	-11.2064
directed	-11.2067
[4.5]	-11.2068
1/2	-11.207
trifluoroethyl	-11.2071
▁accession	-11.2071
alkylamino	-11.208
▁bands	-11.2088
not	-11.2093
▁get	-11.2096
▁containers	-11.2097
▁play	-11.2097
ness	-11.21
▁cluster	-11.2102
▁criteria	-11.2104
▁pills	-11.2104
▁0.12	-11.2108
99	-11.211
▁gold	-11.2111
▁unmodified	-11.212
▁Bacillus	-11.2125
▁packaging	-11.2128
▁dehydrogenation	-11.2131
▁cathode	-11.2132
▁asparagine	-11.2132
▁7.21	-11.2137
▁pentyl	-11.2139
pyrrolidone	-11.2141
▁alterations	-11.2143
▁trimethyl	-11.2147
▁copy	-11.2153
▁−20°	-11.2155
YL	-11.2156
▁mercapto	-11.2168
triazin	-11.2168
functional	-11.2172
MB	-11.2186
▁metastatic	-11.2187
▁antioxidants	-11.2187
▁reader	-11.2188
▁sometimes	-11.2192
▁chelating	-11.2197
▁spinal	-11.2197
▁follow	-11.22
▁NF	-11.22
▁anode	-11.2203
▁inactive	-11.2206
▁methoxide	-11.2206
▁symptom	-11.2207
▁(18	-11.2212
▁Rc	-11.2215
104	-11.2216
vi	-11.2216
▁incorporating	-11.2217
▁aliquot	-11.2217
▁fluorinated	-11.2221
▁7.36	-11.223
▁protect	-11.2233
▁7.65	-11.2234
▁list	-11.2238
▁8.8	-11.224
▁7.39	-11.2243
▁initiated	-11.2246
▁dehydrogenase	-11.2248
▁circulating	-11.225
silane	-11.2251
▁maintenance	-11.2258
▁ascorbic	-11.226
activated	-11.2265
▁7.41	-11.2265
▁Peptides	-11.2265
▁7.16	-11.2266
▁La	-11.2273
▁monomeric	-11.2278
▁8.3	-11.2279
butylammonium	-11.228
▁114	-11.228
▁tryptophan	-11.2281
▁(1988)	-11.2284
▁Materials	-11.2284
▁eds	-11.2285
dibromo	-11.2293
phenylene	-11.2298
▁haloalkoxy	-11.2298
▁Mg	-11.2299
gene	-11.23
▁Japanese	-11.2304
▁relationship	-11.2304
▁Zn	-11.2305
▁decreases	-11.2308
▁Receptor	-11.2309
▁leaf	-11.2311
▁7.44	-11.2312
20,	-11.2316
characterization	-11.2316
▁recycle	-11.2319
▁pyrazolyl	-11.2319
▁fungi	-11.2323
)-3-(4-	-11.2328
target	-11.2328
▁7.22	-11.233
8.0	-11.2333
▁scaffold	-11.2337
▁actual	-11.2337
propionyl	-11.2344
▁transcribed	-11.2348
-1,1-	-11.2351
▁thoroughly	-11.2354
▁occurred	-11.2355
▁7.19	-11.236
▁polystyrene	-11.2362
phenylmethyl	-11.2365
▁agitation	-11.2366
▁Ring	-11.2372
oxoethyl	-11.2373
▁amyloid	-11.2379
▁130°	-11.2383
cephem	-11.2383
▁22,	-11.2384
▁rubber	-11.2389
▁polypropylene	-11.2396
▁atomic	-11.2398
CL	-11.2402
▁appreciate	-11.2402
}-2-	-11.2404
=16	-11.2404
▁explained	-11.2409
▁7.23	-11.2411
▁hexafluoro	-11.2412
▁2.00	-11.2415
▁3.80	-11.2416
▁135	-11.2418
▁challenge	-11.2419
▁4.1	-11.2422
ter	-11.2423
▁(16	-11.2426
▁polyol	-11.2426
1-5	-11.2428
▁utilize	-11.243
▁overhead	-11.2431
▁0.18	-11.2433
▁susceptible	-11.2438
ylmethoxy	-11.2438
▁nerve	-11.2445
CHO	-11.2448
expression	-11.2449
▁7.52	-11.2449
▁COS	-11.2451
solvent	-11.2455
▁HPV	-11.2457
▁ER	-11.246
▁induces	-11.2461
benz	-11.2461
▁7.51	-11.2463
▁multiplet	-11.2468
▁themselves	-11.247
▁Isolation	-11.2472
broad	-11.2473
▁230	-11.2474
▁far	-11.2474
tag	-11.2476
▁liquids	-11.2476
▁7.28	-11.2478
▁suggested	-11.2481
▁oxy	-11.2486
DE	-11.2487
▁0.03	-11.2489
▁engineering	-11.2491
▁(0.15	-11.2492
=2.1	-11.2492
▁LB	-11.2494
▁key	-11.2502
▁4.4	-11.2506
cyclo	-11.2507
sodium	-11.2509
▁physician	-11.2509
▁poor	-11.2513
▁Oligonucleotide	-11.2516
▁microbial	-11.2518
▁laser	-11.2518
68	-11.2518
▁z	-11.2519
2.0	-11.2519
▁progress	-11.2524
▁7.29	-11.2526
▁cap	-11.2527
▁0.35	-11.2529
Re	-11.2531
cyanophenyl	-11.2533
▁Into	-11.2534
▁6.6	-11.2536
130	-11.2538
▁antiviral	-11.2543
▁7.75	-11.2543
▁rejection	-11.2545
eg	-11.2545
▁safety	-11.2556
▁lymphocyte	-11.2558
hept	-11.2563
▁dissolve	-11.2565
▁mild	-11.2568
FIG	-11.257
▁sorbitan	-11.257
1.3	-11.2578
tris	-11.2585
coding	-11.2591
▁theoretical	-11.2597
▁lesions	-11.2598
▁fitted	-11.2599
▁carefully	-11.2602
resistant	-11.2606
▁hexa	-11.2607
▁ACN	-11.2608
▁2.9	-11.2616
▁interleukin	-11.2616
▁neck	-11.2618
▁1.05	-11.262
ite	-11.262
benzotriazole	-11.2631
▁TR	-11.2634
▁functionally	-11.2636
▁(125	-11.2642
73	-11.2643
▁Xaa	-11.2644
▁Similar	-11.2644
Cys	-11.2645
aminophenyl	-11.2647
▁proteolytic	-11.2654
▁graft	-11.2655
xylene	-11.2656
▁7.26	-11.2658
[2.2.1]	-11.2658
▁1.45	-11.2658
Pharmaceutically	-11.2662
▁vein	-11.2667
▁(45	-11.2667
▁reactors	-11.2668
▁variables	-11.267
▁7.56	-11.2671
▁Depending	-11.2676
▁(8)	-11.2677
▁bring	-11.2677
Ib	-11.2678
▁0%	-11.268
:1)	-11.2681
▁1.20	-11.2684
=8.9	-11.269
GE	-11.2692
succinimide	-11.2692
natural	-11.2694
SC	-11.2695
tic	-11.2697
FAB	-11.2699
▁weak	-11.2699
▁nano	-11.2699
▁7.10	-11.2702
▁aligned	-11.2702
▁neuronal	-11.2704
▁valve	-11.2704
▁Corp	-11.2706
=5.5	-11.2707
▁145	-11.2707
▁5.1	-11.2709
▁KD	-11.2712
▁116	-11.2714
▁1.50	-11.2715
▁research	-11.2721
exchange	-11.2723
▁Ti	-11.2728
▁Micro	-11.2729
▁weighed	-11.2732
group	-11.2732
▁144	-11.2733
▁prophylaxis	-11.2748
son	-11.2749
ureido	-11.2752
▁7.53	-11.2752
▁antimicrobial	-11.2752
0;	-11.2758
AT	-11.2758
iphenylphosphino	-11.2758
▁named	-11.2759
)-3	-11.2761
PG	-11.2764
each	-11.2766
▁Met	-11.2767
▁remained	-11.2767
▁passing	-11.2772
▁supports	-11.2778
sensitive	-11.278
▁7.70	-11.2784
▁ampicillin	-11.2784
▁3.7	-11.2786
oil	-11.2787
▁eliminate	-11.2788
▁flanking	-11.2788
FN	-11.2788
▁MMP	-11.2789
▁CTL	-11.2794
▁7.80	-11.2794
▁diamine	-11.2795
▁(1997)	-11.2798
▁scanning	-11.28
▁entry	-11.2804
▁lysates	-11.2806
▁prevented	-11.2808
▁oligosaccharide	-11.2809
▁contemplates	-11.2811
▁leaves	-11.2812
▁Within	-11.2813
▁progeny	-11.2813
▁aspartic	-11.2816
)-2,4-	-11.2818
phosphorothioate	-11.282
▁OX	-11.282
APCI	-11.2823
▁7.17	-11.2824
▁dextran	-11.2824
▁7.49	-11.2826
▁curves	-11.2828
protecting	-11.283
▁Virus	-11.2832
▁shall	-11.2834
▁(11	-11.284
▁competitive	-11.2841
▁crosslinking	-11.2846
▁7.46	-11.2847
▁pyrrolidine	-11.2847
▁Ester	-11.2849
hex	-11.2852
▁7.05	-11.2858
▁insertions	-11.2863
▁pathological	-11.2863
methoxymethyl	-11.2864
▁chip	-11.2865
0.5	-11.2867
▁deionized	-11.2868
▁circulation	-11.2868
▁KOH	-11.2872
▁consumption	-11.2875
▁MPa	-11.288
▁'	-11.2882
Cyano	-11.2884
rd	-11.2885
▁investigated	-11.289
00	-11.2892
▁phenylalanine	-11.2893
▁atherosclerosis	-11.2907
▁currently	-11.2909
▁killing	-11.2911
▁motifs	-11.2916
▁piperidinyl	-11.2916
cooling	-11.292
DELTA	-11.292
▁termed	-11.2922
▁reversed	-11.2923
▁0.88	-11.2927
▁charcoal	-11.2927
▁(1999)	-11.293
▁cream	-11.293
mono	-11.293
▁oxalate	-11.2932
▁8.6	-11.2935
▁volatiles	-11.2938
▁resist	-11.294
▁8.2	-11.2943
▁nuclease	-11.2946
▁valine	-11.2947
=5.2	-11.2948
▁(1:1)	-11.2948
▁Formulae	-11.295
▁140°	-11.2951
▁Growth	-11.2954
▁3.75	-11.2957
DR	-11.2957
:1,	-11.2958
reactive	-11.2958
▁3.85	-11.2962
▁closed	-11.2962
▁carboxymethyl	-11.2964
▁Gln	-11.2968
▁7.62	-11.2971
▁DIEA	-11.2972
▁158	-11.2973
ne	-11.2975
▁receiving	-11.2975
▁stroke	-11.298
▁7.58	-11.2981
▁([	-11.2981
ent	-11.2983
▁away	-11.2986
▁Immuno	-11.2986
▁propionic	-11.2989
▁penicillin	-11.2992
▁positioned	-11.2993
▁interface	-11.2996
▁Model	-11.2997
▁7.47	-11.2997
▁bridge	-11.2997
▁EcoRI	-11.3
▁localization	-11.3004
▁118	-11.3004
▁dysfunction	-11.3007
methylethyl	-11.301
16,	-11.3013
19,	-11.3013
▁dextrose	-11.3014
▁real	-11.3024
-60	-11.303
PP	-11.3031
TNF	-11.3032
▁methanesulfonic	-11.3033
▁supply	-11.3034
▁8.1	-11.3035
▁fewer	-11.3035
▁exclusion	-11.3037
▁5:	-11.3042
▁stabilized	-11.3045
▁pentane	-11.3049
▁6.9	-11.305
release	-11.3051
▁unknown	-11.3052
-4-(2-	-11.3054
▁pyridinyl	-11.3054
▁colorectal	-11.3055
▁168	-11.3058
▁Ac	-11.3059
MHz	-11.306
▁suggesting	-11.3065
▁0.14	-11.307
▁formyl	-11.3071
▁transplantation	-11.3071
▁thick	-11.3072
▁wax	-11.3074
▁impact	-11.3075
▁0.24	-11.3076
▁purifying	-11.3076
▁(1987)	-11.3079
▁microscope	-11.3082
▁Embodiments	-11.3082
▁123	-11.3085
▁3.95	-11.3086
-50	-11.3087
-14	-11.3089
▁acetal	-11.309
CONH	-11.3091
▁alteration	-11.3092
▁GST	-11.3095
▁forward	-11.3095
▁tetrahydropyran	-11.3097
▁isomeric	-11.3097
▁urine	-11.3099
▁pigment	-11.3103
▁melt	-11.3105
▁35°	-11.3106
▁splice	-11.3107
▁4.3	-11.3107
(0)	-11.311
2.5	-11.3111
▁images	-11.3114
▁conc	-11.3114
antigen	-11.3115
proliferative	-11.3115
▁5.6	-11.312
▁Da	-11.3121
▁(%)	-11.3123
▁toxins	-11.3125
▁incubating	-11.3126
▁BoNT	-11.3127
chloride	-11.3133
▁137	-11.3137
=5.0	-11.3137
em	-11.3137
▁glacial	-11.3137
▁tend	-11.3141
▁23,	-11.3143
64	-11.3143
▁pyrrolidinyl	-11.3144
OCF	-11.3144
▁shorter	-11.3146
▁Starting	-11.3147
▁schemes	-11.3148
▁--(	-11.3148
nitrobenzyl	-11.3149
66	-11.3154
▁ethane	-11.3157
RI	-11.3159
▁126	-11.3159
▁hereinabove	-11.316
▁synthesize	-11.3162
▁0.16	-11.3165
▁distillate	-11.3165
▁vials	-11.3165
sulfanyl	-11.3167
▁190	-11.3167
▁blotting	-11.3168
▁acts	-11.317
▁pyrazinyl	-11.3175
▁PG	-11.318
dicarboxylic	-11.3182
▁cleavable	-11.3184
GFP	-11.3187
keto	-11.3187
▁exhibiting	-11.3187
CA	-11.3187
▁3.9	-11.3195
▁enough	-11.3195
▁lactate	-11.3196
-1,5-	-11.3196
▁distance	-11.3197
▁suppression	-11.3197
▁taste	-11.3198
▁Ki	-11.3199
AL	-11.32
▁diet	-11.3205
HNMR	-11.3207
▁eluant	-11.3208
▁Likewise	-11.3212
▁reductase	-11.3222
▁humidity	-11.3222
▁7.63	-11.3223
15,	-11.3224
▁XI	-11.3228
▁EA	-11.3229
▁Per	-11.3229
▁regulated	-11.3231
piperidyl	-11.3235
▁article	-11.3244
▁discarded	-11.3249
▁grow	-11.325
3)2,	-11.3253
▁PS	-11.3256
▁monkey	-11.3256
▁cDNAs	-11.3256
yrimidinediamine	-11.3258
▁750	-11.3259
▁7.59	-11.3259
▁7.64	-11.326
69	-11.3267
▁exists	-11.3268
▁degeneration	-11.3274
▁7.27	-11.3278
▁mainly	-11.328
▁hosts	-11.3284
▁147	-11.3284
Preparation	-11.3288
▁0.17	-11.3289
▁hydroxylamine	-11.329
▁intron	-11.329
▁simply	-11.3292
▁phosphorylated	-11.3292
▁lauryl	-11.3295
▁146	-11.3296
▁7.61	-11.3297
▁mins	-11.3297
proline	-11.3301
▁polyester	-11.3309
▁FGFR	-11.3314
▁embryonic	-11.3316
it	-11.332
▁needle	-11.3324
layer	-11.3326
pyridazine	-11.3327
▁dogs	-11.3331
▁equilibrated	-11.3332
▁transporter	-11.3335
na	-11.3336
-1-(2-	-11.3341
▁7.68	-11.3341
▁exchanger	-11.3346
Ca	-11.3357
▁promoting	-11.336
▁7.24	-11.3361
difluoromethyl	-11.3365
▁rice	-11.3367
▁films	-11.3369
butyric	-11.3375
PC	-11.3378
▁75°	-11.3385
+1)	-11.3386
ST	-11.3387
-4,6-	-11.3387
▁became	-11.3392
▁stoichiometric	-11.3392
necked	-11.3395
▁TMS	-11.3395
▁Single	-11.3397
▁pyrrolyl	-11.3397
▁taking	-11.3401
▁rest	-11.3403
▁nucleosides	-11.3404
▁Pt	-11.3405
▁namely	-11.3406
▁publication	-11.3407
▁121	-11.3409
▁(14	-11.341
▁Aldrich	-11.3411
▁myocardial	-11.3415
▁VP	-11.3416
AP	-11.3421
lo	-11.3422
=2.5	-11.3424
▁capsid	-11.3424
)-1-(4-	-11.3425
▁adjust	-11.3425
▁(10%	-11.3427
ta	-11.3428
▁proteases	-11.343
▁elicit	-11.3431
heptyl	-11.3432
▁134	-11.3432
▁carbocyclyl	-11.3433
▁1.35	-11.3433
▁Sp	-11.3434
▁Diego	-11.3434
▁5.4	-11.3439
▁7.73	-11.344
▁deficiency	-11.3442
3+	-11.3443
▁cc	-11.3443
▁hybridized	-11.3445
▁40,	-11.3445
TFA	-11.3448
▁propane	-11.3448
▁alkane	-11.3452
▁spectrometer	-11.3455
CoA	-11.3455
XI	-11.3456
63	-11.3458
▁dehydration	-11.346
▁sensor	-11.346
traperitoneally	-11.3462
▁adsorbed	-11.3462
▁thyroid	-11.3466
▁fumaric	-11.3469
▁diastereomeric	-11.3469
67	-11.3475
▁136	-11.3476
▁delay	-11.348
▁arm	-11.3486
▁moderate	-11.3493
▁toward	-11.3493
▁alkanoyl	-11.3498
▁Biological	-11.35
▁heterogeneous	-11.3505
3.0	-11.3506
)-6-(	-11.3506
▁Formulas	-11.3508
▁uL	-11.3509
▁liters	-11.3509
▁transcripts	-11.351
105	-11.3512
▁0.85	-11.3513
▁1-6	-11.3514
▁radio	-11.3515
▁GenBank	-11.3516
▁sum	-11.3518
mM	-11.3519
oxazole	-11.352
▁velocity	-11.3521
▁CNS	-11.3522
gen	-11.3523
nitrobenzene	-11.3527
▁CL	-11.3527
▁7.57	-11.3534
)-4	-11.3538
▁2'-	-11.3538
▁260	-11.3539
▁extremely	-11.3539
▁(1.6	-11.3539
▁(1.3	-11.3541
acrylic	-11.3543
▁3.00	-11.3544
▁singlet	-11.3548
[2.2.2]	-11.3549
Formula	-11.3552
▁(4.0	-11.3556
▁(1995)	-11.3556
▁Methanol	-11.3562
▁40%,	-11.3564
▁Md	-11.3565
▁SH	-11.3576
▁122	-11.3577
ch	-11.358
▁ligase	-11.3581
▁7.85	-11.3584
▁138	-11.3586
▁delayed	-11.359
▁HSV	-11.3591
▁LPS	-11.3593
▁0.90	-11.3594
▁enables	-11.3597
▁Animals	-11.3597
bR	-11.3597
=5.4	-11.3598
▁RSV	-11.3607
▁900	-11.3608
-5-(2-	-11.3609
▁acyloxy	-11.3609
▁Parkinson	-11.361
▁alleles	-11.3611
#	-11.3611
-1,3,4-	-11.3614
naphthyridin	-11.3614
▁triethyl	-11.3614
▁earlier	-11.3615
▁transient	-11.3616
▁166	-11.3622
dichloroethane	-11.3623
▁hydrates	-11.3625
ynyl	-11.3628
receptor	-11.363
▁homo	-11.3631
▁7.78	-11.3631
▁[3	-11.3632
4).	-11.3632
▁7.54	-11.3636
=2.3	-11.3637
▁amplify	-11.3639
▁dual	-11.3643
▁derivatized	-11.3646
▁diol	-11.3647
AR	-11.365
▁Scientific	-11.3653
▁eluate	-11.3654
▁EGF	-11.3654
ORa	-11.3655
▁lysed	-11.3656
▁lupus	-11.3656
▁alkylsulfonyl	-11.366
=6.7	-11.366
▁nine	-11.3667
▁0.28	-11.3668
▁129	-11.3669
▁0.95	-11.3669
▁7.00	-11.367
▁methotrexate	-11.3671
▁pathogen	-11.3674
▁possibility	-11.3674
▁7.07	-11.3675
▁visible	-11.3675
▁succinate	-11.3681
▁living	-11.3687
azaspiro	-11.3688
methylpiperazin	-11.3688
▁too	-11.3689
▁128	-11.369
▁ground	-11.369
▁(0.6	-11.3697
less	-11.3699
▁volatile	-11.3704
4.2	-11.3705
)-2-(2-	-11.3708
▁ultraviolet	-11.3711
▁7.14	-11.3713
▁{	-11.3714
▁proceed	-11.3719
▁270	-11.372
▁varies	-11.3721
▁Bi	-11.3722
▁117	-11.3723
▁comparative	-11.3726
▁cyclization	-11.373
▁basal	-11.373
▁aldehydes	-11.3731
▁SC	-11.3732
out	-11.3733
▁heparin	-11.3734
▁incubator	-11.374
propynyl	-11.3743
▁inactivated	-11.3744
▁MW	-11.3744
▁repeating	-11.3745
▁6.2	-11.3747
▁j	-11.3748
▁coloring	-11.3749
▁3.78	-11.3755
sulfonamido	-11.3755
▁AP	-11.3757
▁7.12	-11.3759
▁26,	-11.3761
▁0.50	-11.3762
▁fluorescein	-11.3763
▁glutamate	-11.3764
tin	-11.3766
▁1.30	-11.3767
pentane	-11.3768
▁hybridomas	-11.3768
▁7.13	-11.3768
▁(1996)	-11.377
▁subset	-11.3771
-1-(4-	-11.3771
furo	-11.3774
04	-11.3774
▁72°	-11.3776
▁bivalent	-11.3776
▁feeding	-11.3777
▁regression	-11.3778
▁6.3	-11.378
▁16.	-11.3782
▁0.23	-11.3782
▁(0.05	-11.3784
2);	-11.3786
▁polyacrylamide	-11.379
▁kinds	-11.3791
term	-11.3792
▁depression	-11.3793
▁profiles	-11.3794
▁coat	-11.3798
▁tobacco	-11.3798
▁RNAs	-11.38
diethylamino	-11.38
▁-20°	-11.38
▁oligomeric	-11.3801
-2,3,4,5-	-11.3801
▁methodology	-11.3802
▁30%,	-11.3802
▁capillary	-11.3802
▁5-10	-11.3805
▁0.13	-11.3808
▁Sequences	-11.3814
▁Elemental	-11.3814
▁agitated	-11.3816
▁artery	-11.3816
halogen	-11.3818
▁transformants	-11.3819
▁0.01%	-11.3819
▁pigs	-11.3825
dimethylethyl	-11.3827
sec	-11.3827
ro	-11.3829
▁Standard	-11.383
▁Japan	-11.3831
▁7.74	-11.3833
▁Without	-11.3836
▁spin	-11.3843
▁7.72	-11.3843
▁reach	-11.3847
▁adsorbent	-11.3848
▁isotopes	-11.3858
▁161	-11.3861
▁excitation	-11.3866
▁packaged	-11.3868
▁keto	-11.387
▁operated	-11.3875
▁Collection	-11.3876
2##	-11.388
3-8	-11.3881
▁bead	-11.3882
▁XRPD	-11.3885
▁hydrobromide	-11.3887
SS	-11.3897
▁20%,	-11.3898
▁observation	-11.3901
▁MH	-11.3902
▁relation	-11.3903
▁2.25	-11.3908
98	-11.3911
▁Pre	-11.3913
▁SR	-11.3913
▁fumarate	-11.3916
▁mAbs	-11.3917
phosphonate	-11.3917
▁overlapping	-11.392
▁hold	-11.392
▁0.2%	-11.3923
▁eliminated	-11.3924
hydrazine	-11.3925
▁85°	-11.3928
▁97%	-11.3932
7.2	-11.3933
▁classified	-11.3934
▁7.71	-11.3939
▁replace	-11.3939
▁0.30	-11.3941
▁waste	-11.3941
▁twenty	-11.3942
▁(5-	-11.3946
▁3.90	-11.3948
=2.2	-11.395
▁KCl	-11.3952
▁glutathione	-11.3953
▁transparent	-11.3955
96	-11.3956
▁7.9	-11.3956
pent	-11.3957
▁aureus	-11.3958
▁154	-11.396
▁dementia	-11.396
▁0.26	-11.3971
▁enantiomeric	-11.3973
5%	-11.3979
Rd	-11.3982
▁pass	-11.3983
0.3	-11.3983
▁transcriptase	-11.3988
▁7.66	-11.3989
▁additions	-11.399
-31	-11.3992
▁Number	-11.3993
71	-11.3993
▁serves	-11.3993
▁7.67	-11.3994
▁doublet	-11.3995
▁affording	-11.3998
Phenyl	-11.4001
▁4.00	-11.4004
▁initiator	-11.4005
150	-11.4005
wise	-11.401
▁sheep	-11.401
▁immunoassay	-11.401
▁imino	-11.4011
▁Techniques	-11.4011
▁6.4	-11.4012
▁operations	-11.4013
]+;	-11.4015
▁translational	-11.4017
▁conformational	-11.4017
▁deposit	-11.4018
▁million	-11.4019
est	-11.402
▁rabbits	-11.4021
▁Still	-11.4023
TA	-11.4027
(1-	-11.4028
age	-11.4028
=1.2	-11.4029
▁ocular	-11.4034
▁sequential	-11.4034
▁aliquots	-11.4038
▁clearance	-11.4041
▁aluminium	-11.4045
▁(3.5	-11.4047
▁stearic	-11.4048
hydrogen	-11.4049
▁representing	-11.4052
▁chemicals	-11.4053
▁155	-11.4061
▁helix	-11.4063
)-4,5-	-11.4063
▁Rh	-11.4067
▁6:	-11.4069
▁Mouse	-11.4072
▁3.70	-11.4073
▁deprotected	-11.4074
▁7.7	-11.4075
▁filtering	-11.408
3##	-11.4081
▁Note	-11.4084
=1.6	-11.4086
▁Plasmid	-11.4088
▁oxalic	-11.4089
▁recovering	-11.4089
▁heteroaromatic	-11.4091
▁endonuclease	-11.4092
▁27,	-11.4093
ylamine	-11.4094
450	-11.4096
EQU	-11.4097
thiol	-11.4099
▁late	-11.4099
▁labelled	-11.4101
RP	-11.4103
▁oxazolyl	-11.4104
▁furan	-11.4105
▁250°	-11.4109
▁Formulation	-11.4112
DMF	-11.4112
▁hypervariable	-11.4114
▁indolyl	-11.4114
▁output	-11.4128
▁DC	-11.4128
▁coronary	-11.4129
▁putative	-11.413
GS	-11.413
ph	-11.4131
▁cognitive	-11.4136
▁ADCC	-11.4136
▁indicative	-11.4136
▁3,3-	-11.4139
diaza	-11.4139
▁7.77	-11.414
▁resolved	-11.4141
(5	-11.4143
▁evolution	-11.4148
▁balance	-11.4148
2-4	-11.4153
▁5.3	-11.4154
▁7.76	-11.4154
▁7.03	-11.4155
ER	-11.4156
▁4.7	-11.4158
2).	-11.4165
▁integrin	-11.417
▁0.19	-11.417
▁words	-11.4172
-16	-11.4175
▁ZSM	-11.4176
▁fibroblasts	-11.4177
▁1.15	-11.4179
▁(24	-11.4186
▁streams	-11.419
▁149	-11.4192
▁28,	-11.4194
▁infrared	-11.4197
′)2	-11.4198
▁225	-11.4199
=9.2	-11.42
▁terminated	-11.4208
microcrystalline	-11.4209
▁nanoparticle	-11.4209
▁Mar	-11.4212
PR	-11.4212
(6	-11.4215
▁viable	-11.4215
)+:	-11.4219
▁colitis	-11.4222
▁equimolar	-11.4224
▁refluxing	-11.4225
▁hu	-11.4225
▁Pseudomonas	-11.4234
▁PREPARATION	-11.4237
producing	-11.4237
▁cord	-11.4238
▁maleate	-11.4238
▁9.5	-11.4239
base	-11.4239
▁myeloid	-11.424
▁exception	-11.4241
▁delta	-11.4244
▁newly	-11.4244
sulfonate	-11.4248
▁repair	-11.4251
▁closely	-11.4254
▁pressures	-11.4255
▁threshold	-11.4255
▁acylation	-11.4257
▁8.00	-11.4258
▁optimum	-11.4264
▁pancreas	-11.4266
▁majority	-11.4269
-40	-11.4271
VEGF	-11.4273
▁NaBH	-11.4274
88	-11.4277
▁164	-11.4278
▁proportions	-11.4278
▁7.82	-11.4281
=5.7	-11.4282
▁148	-11.4284
▁bacterium	-11.4284
▁immunity	-11.4287
NHCH	-11.4287
▁Ile	-11.4292
▁log	-11.4293
lysine	-11.4295
▁weights	-11.4304
▁alkylated	-11.4305
▁syrups	-11.4305
▁monocytes	-11.4305
▁rich	-11.4306
▁7.11	-11.4308
▁DMAP	-11.431
▁Wis	-11.431
▁Said	-11.4313
▁excessive	-11.4315
▁ovary	-11.4315
pre	-11.4316
ClN	-11.4316
▁hormones	-11.4323
▁15°	-11.4328
▁requirements	-11.4332
galactosidase	-11.4337
▁databases	-11.4339
▁Triton	-11.434
▁necrosis	-11.4342
▁cavity	-11.4342
▁tags	-11.4344
▁Aqueous	-11.4345
met	-11.4348
4.5	-11.4353
▁ED	-11.4354
=6.2	-11.4356
▁Polypeptides	-11.4356
FR	-11.4356
▁technical	-11.4357
viral	-11.4358
oma	-11.4359
▁Cas	-11.4362
-[2-	-11.4362
▁glucagon	-11.4365
▁baculovirus	-11.4368
▁1-5	-11.4368
▁1.10	-11.4368
tt	-11.437
▁0.11	-11.4371
▁helper	-11.4372
-38	-11.4373
ates	-11.4374
▁calcined	-11.4375
▁Biosciences	-11.4377
▁buffering	-11.4379
▁3.82	-11.4384
▁Effect	-11.4385
110	-11.4385
▁rodent	-11.4391
▁6.95	-11.4392
▁bottle	-11.4393
▁7.08	-11.4394
▁3.84	-11.4394
▁pages	-11.4394
▁0.27	-11.4394
6°	-11.4396
)-2	-11.4396
▁180°	-11.4397
OP	-11.4398
1/	-11.4401
▁Academic	-11.4401
▁kappa	-11.4411
phenethyl	-11.4413
▁trace	-11.4415
▁2.50	-11.4415
wt	-11.442
▁SUMMARY	-11.442
▁diagnosed	-11.442
▁functionalized	-11.4421
▁polyadenylation	-11.4421
▁molybdenum	-11.4424
▁root	-11.4425
cold	-11.4425
▁cAMP	-11.4431
▁microscopy	-11.4433
▁acacia	-11.4434
▁1.40	-11.4445
▁7.95	-11.4449
▁minimize	-11.445
▁CCL	-11.4454
▁package	-11.446
▁splicing	-11.4461
▁adjusting	-11.4462
▁beginning	-11.4462
▁DTT	-11.4463
▁CaCl	-11.4463
▁sweetening	-11.4465
▁3000	-11.4468
▁1.38	-11.4469
▁Modified	-11.4471
domain	-11.4471
phosphonium	-11.4474
▁bile	-11.4474
▁1.26	-11.4477
▁7.79	-11.4479
▁7.88	-11.448
PI	-11.4481
▁133	-11.4481
▁recover	-11.4485
▁dispersions	-11.4486
▁119	-11.4489
NA	-11.4494
▁6.96	-11.45
acetylamino	-11.4502
▁contribute	-11.4506
▁recording	-11.4506
called	-11.4507
▁(9)	-11.4508
▁ointments	-11.4511
▁anemia	-11.4511
TLC	-11.4515
▁1.65	-11.4517
▁29,	-11.4518
▁3.65	-11.4521
▁appearance	-11.4521
76	-11.4523
▁HBV	-11.4525
▁6.7	-11.4526
▁powdered	-11.4529
▁sex	-11.4537
▁Here	-11.454
(4	-11.4544
▁stainless	-11.4549
▁washes	-11.455
nucleic	-11.4557
▁153	-11.4558
▁Louis	-11.4559
-[(	-11.456
▁fusions	-11.4562
05	-11.4563
aldehyde	-11.4568
▁maize	-11.4571
▁started	-11.4572
▁Tetrahedron	-11.4573
▁methanesulfonyl	-11.4574
1).	-11.4574
▁merely	-11.458
▁BamHI	-11.4581
▁SNP	-11.4582
polar	-11.4583
▁teachings	-11.4585
▁Appl	-11.4587
▁Green	-11.4587
▁cytosine	-11.459
▁regulating	-11.4592
▁thought	-11.4592
-(6-	-11.4592
▁tumour	-11.4593
▁Publishing	-11.4594
▁Trans	-11.4595
▁1.44	-11.4596
▁smooth	-11.4598
▁retinal	-11.4603
/10	-11.4604
▁PDE	-11.4605
▁4.05	-11.4606
vinylpyrrolidone	-11.4608
▁constitutive	-11.4608
▁dodecyl	-11.4608
1-2	-11.4609
▁preservative	-11.4609
▁expansion	-11.461
▁94%,	-11.4614
▁0.33	-11.4614
▁7.69	-11.4615
6.1	-11.4617
▁3.86	-11.4623
▁National	-11.4625
▁normalized	-11.4625
▁tricyclic	-11.4626
furyl	-11.4627
eurodegenerative	-11.464
▁arranged	-11.464
▁intestine	-11.4643
▁interval	-11.4643
▁undesired	-11.4643
cyclic	-11.4643
▁morpholinyl	-11.4644
▁4-(3-	-11.4647
ers	-11.4647
▁electric	-11.4649
▁1.28	-11.4651
▁centers	-11.466
▁And	-11.4663
IN	-11.4664
▁uniform	-11.4668
small	-11.4668
▁returned	-11.4675
▁7.02	-11.4675
Pr	-11.4676
▁7.04	-11.468
4##	-11.4681
▁transporting	-11.4688
▁finely	-11.4691
epsilon	-11.4691
▁sieves	-11.4695
▁intranasal	-11.4696
▁0.04	-11.4696
▁phosphonate	-11.4697
▁compressed	-11.47
▁DR	-11.4704
=5.1	-11.4705
▁polymorphic	-11.4706
▁7.83	-11.4707
▁serial	-11.4708
COO	-11.4711
▁3.60	-11.4713
azetidine	-11.4713
▁Evaluation	-11.4713
▁polymerizable	-11.4714
▁acquired	-11.4716
▁piperazinyl	-11.4716
Li	-11.4717
▁borate	-11.4719
▁spectral	-11.4722
▁electronic	-11.4725
▁fall	-11.4726
▁recombinantly	-11.4729
▁analysed	-11.4733
AG	-11.4735
OX	-11.4735
▁isoleucine	-11.4741
acrylamide	-11.4743
propylene	-11.4743
")	-11.4744
▁(13	-11.4745
▁6.90	-11.4745
Benzyloxy	-11.4746
▁aberrant	-11.4747
74	-11.4751
inden	-11.4752
▁2.20	-11.4754
▁altering	-11.4756
▁silane	-11.4757
oxazin	-11.4757
▁tan	-11.476
▁hence	-11.4763
84	-11.4768
▁nitrite	-11.4768
▁covered	-11.4769
▁7.92	-11.4772
83	-11.4773
▁300°	-11.4775
▁167	-11.4776
RB	-11.4777
▁Ib	-11.4778
▁discovery	-11.478
▁Fig	-11.4781
▁7.90	-11.4781
▁care	-11.4782
▁Construction	-11.4782
▁127	-11.4784
▁sulfone	-11.4785
▁(1.4	-11.4787
▁glycosylated	-11.4791
▁139	-11.4795
▁thiophene	-11.4797
▁box	-11.4798
▁infarction	-11.48
▁2.30	-11.4805
▁IA	-11.4807
▁dsRNA	-11.4808
▁99%,	-11.4811
▁parameter	-11.4812
▁bioavailability	-11.4818
▁hamster	-11.4819
▁4.9	-11.4819
▁3.88	-11.482
▁3.81	-11.4825
▁stabilizer	-11.4826
▁Genes	-11.4829
-5-(4-	-11.4831
▁XII	-11.4832
ies	-11.4833
03	-11.4833
▁module	-11.4833
▁conventionally	-11.4836
methanamine	-11.4838
quinoxaline	-11.4839
▁143	-11.484
▁maximal	-11.4843
109	-11.4844
▁Analytical	-11.4846
▁expanded	-11.4849
▁cerevisiae	-11.485
▁admixed	-11.485
▁Va	-11.4869
=5.8	-11.487
aq	-11.487
▁(10.0	-11.4871
▁dicyclohexyl	-11.4872
▁regulate	-11.4873
▁Northern	-11.4873
▁LRMS	-11.4876
▁numerical	-11.4879
▁consumed	-11.4882
hour	-11.4884
▁AR	-11.4886
21,	-11.4888
data	-11.4889
▁cotton	-11.4889
▁8.05	-11.4889
▁creams	-11.489
▁auxiliary	-11.4894
▁statistically	-11.4897
][1,2,4]	-11.4902
▁(2000)	-11.4916
isolated	-11.4918
▁adenosine	-11.4918
125	-11.4919
3.2	-11.4923
▁thymidine	-11.4928
▁ease	-11.4929
▁fillers	-11.493
▁standing	-11.4933
▁Biotech	-11.4934
Dihydro	-11.4935
▁7.09	-11.4935
os	-11.4937
el	-11.4938
▁CMV	-11.494
diisopropylethyl	-11.4943
▁1.32	-11.495
▁0.32	-11.4952
▁RNase	-11.4953
▁polymorph	-11.4955
▁173	-11.4955
▁HP	-11.4955
light	-11.4956
▁2.35	-11.4958
▁lubricant	-11.4963
▁what	-11.497
▁7.06	-11.4972
▁pig	-11.4974
▁confer	-11.4974
▁lactone	-11.4975
▁91%,	-11.4975
▁Concentration	-11.4975
▁1.33	-11.4982
▁flavor	-11.4984
▁healing	-11.4991
ment	-11.4991
▁(2002)	-11.4992
▁1.48	-11.4994
▁163	-11.4994
▁0.92	-11.4995
▁account	-11.4997
▁dialysis	-11.4999
▁162	-11.4999
1.8	-11.5
▁affecting	-11.5001
▁simultaneous	-11.5003
▁3.87	-11.5007
▁curing	-11.5009
▁machine	-11.5009
▁tautomers	-11.501
▁steroid	-11.5012
▁inactivation	-11.5015
ie	-11.5016
▁localized	-11.5016
▁tautomer	-11.5017
▁0.06	-11.5017
PT	-11.5018
▁ii	-11.5018
▁3.83	-11.5019
137	-11.5026
▁super	-11.5029
▁SA	-11.5034
▁competition	-11.5034
}-3-	-11.5035
▁guanidine	-11.5036
▁microns	-11.5037
▁Ba	-11.5037
▁3.76	-11.5039
▁reductive	-11.504
▁mitochondrial	-11.5041
▁practical	-11.5042
▁(3-	-11.5045
▁7.81	-11.5049
▁appeared	-11.5052
▁320	-11.5055
▁elsewhere	-11.5056
7.5	-11.5056
methylpiperidin	-11.5058
▁4,5-	-11.5059
▁proceeds	-11.506
▁positively	-11.5062
▁methylation	-11.5063
▁electrolyte	-11.5063
▁translated	-11.5064
▁7.87	-11.5068
▁Dosage	-11.5068
▁affords	-11.5069
azepin	-11.5071
▁coagulation	-11.5072
▁heteroarylalkyl	-11.5072
▁7.86	-11.5073
++	-11.5073
▁great	-11.5074
6.2	-11.5076
▁TA	-11.5076
▁Clone	-11.5077
▁DSC	-11.5077
ner	-11.5082
Ile	-11.5083
▁prolonged	-11.509
OMe	-11.509
▁ethylenediamine	-11.509
▁carbohydrates	-11.5092
▁0.89	-11.5094
▁sulfo	-11.5096
▁tragacanth	-11.5097
▁AIDS	-11.5097
▁scintillation	-11.5098
▁Retention	-11.5098
▁1.46	-11.5099
isopropoxy	-11.51
-4'-	-11.5102
▁bicyclo	-11.5103
▁10.5	-11.5105
▁Gradient	-11.5107
[5,4-	-11.5109
red	-11.511
▁topically	-11.5114
▁adenocarcinoma	-11.5114
▁6.98	-11.5116
Acetyl	-11.5117
sulfinyl	-11.5121
▁discrete	-11.5121
▁paragraph	-11.5123
▁kD	-11.5126
107	-11.5126
▁environmental	-11.5127
▁ribozyme	-11.5128
▁6.92	-11.5132
▁PCSK	-11.5133
la	-11.5134
▁significance	-11.5136
isoindol	-11.5138
▁10:1	-11.5138
▁evident	-11.5139
▁thermometer	-11.5142
▁1.24	-11.5143
▁methylcellulose	-11.5144
tau	-11.5146
▁miR	-11.5148
▁HeLa	-11.5151
▁5.8	-11.5152
▁7.84	-11.5154
▁23°	-11.5155
▁Tm	-11.5155
▁Ligand	-11.5156
▁diastereomer	-11.5157
IT	-11.5162
neck	-11.5165
▁lignin	-11.5167
▁heterocyclo	-11.5171
▁hybridizes	-11.5172
▁withdrawn	-11.5172
▁ST	-11.5172
▁crop	-11.5174
-(1	-11.5175
precipitation	-11.5176
▁1.27	-11.5176
▁potato	-11.5176
▁Ausubel	-11.5182
77	-11.5182
-5,6,7,8-	-11.5185
140	-11.5186
▁retains	-11.5194
▁loci	-11.5197
▁easy	-11.5198
▁3-(3-	-11.5199
▁Medium	-11.52
▁3:1	-11.5201
▁isothiocyanate	-11.5202
▁height	-11.5203
▁condensing	-11.5203
▁combinatorial	-11.5204
▁CT	-11.5204
IFN	-11.5205
▁−	-11.5206
▁behavior	-11.5211
▁(0.8	-11.5212
▁Salt	-11.5216
▁routinely	-11.5217
▁hemoglobin	-11.5217
▁Class	-11.5218
▁input	-11.522
▁gland	-11.5221
part	-11.5222
▁White	-11.5225
▁195	-11.5227
▁periods	-11.5231
▁3.93	-11.5232
1.7	-11.5234
▁1.75	-11.5234
▁unwanted	-11.5235
▁5-6	-11.5236
GC	-11.5236
▁mesylate	-11.524
▁propionate	-11.5241
▁dermatitis	-11.5243
▁142	-11.5247
sp	-11.5249
▁3.79	-11.5249
▁semiconductor	-11.525
▁genus	-11.5254
▁pyrazole	-11.5255
MT	-11.5259
▁regenerated	-11.5262
Ab	-11.5263
chlorobenzyl	-11.5266
▁80,	-11.5269
▁successfully	-11.5273
nucleotide	-11.5273
mp	-11.5278
▁3.92	-11.528
40,	-11.528
-35	-11.5288
▁3.96	-11.529
}-1	-11.5293
▁MP	-11.5295
▁differs	-11.5295
▁zeolites	-11.5301
▁monitor	-11.5301
ligand	-11.5304
103	-11.5306
▁1.37	-11.5307
dppf	-11.5308
▁experimentation	-11.5311
▁3.72	-11.5317
▁passage	-11.5318
▁isoforms	-11.5319
▁auto	-11.5321
ap	-11.5321
▁irradiated	-11.5323
▁3.73	-11.5326
▁cracking	-11.5326
3.3	-11.5328
▁Serum	-11.5329
▁consisted	-11.533
▁sheet	-11.5331
AS	-11.5333
72	-11.5334
9)	-11.5335
-4-(3-	-11.5335
▁8.03	-11.5337
▁Determination	-11.5337
diene	-11.5338
▁(+)	-11.5338
NRc	-11.5338
▁edition	-11.5339
▁apply	-11.5343
▁8.7	-11.5345
▁Therapy	-11.5348
▁1500	-11.5353
▁dichloro	-11.5355
▁18.	-11.536
▁entity	-11.536
▁Screening	-11.536
▁oxalyl	-11.5361
effective	-11.5363
total	-11.5365
are	-11.5369
▁5.7	-11.5371
aminopropyl	-11.5373
▁nt	-11.5378
▁Grignard	-11.5386
▁envelope	-11.539
▁160°	-11.5392
▁biology	-11.5392
▁cured	-11.5392
Cyclopropyl	-11.5394
Ag	-11.5396
▁status	-11.5397
-2)	-11.5401
▁2.60	-11.5401
ose	-11.5403
▁purify	-11.5407
ary	-11.5408
▁8.10	-11.5409
benzodiazepine	-11.5411
▁recognizes	-11.5415
▁1.23	-11.5416
PEA	-11.5416
▁HC	-11.5416
▁amido	-11.5417
▁structurally	-11.5419
3)4	-11.542
▁nucleophilic	-11.5421
▁3.89	-11.5422
▁tartrate	-11.5424
▁sterilized	-11.5426
▁sizes	-11.5428
▁recently	-11.5429
▁ischemic	-11.5433
▁articles	-11.5438
▁alicyclic	-11.5438
▁possibly	-11.5444
▁metallic	-11.5447
▁0.94	-11.5447
▁freshly	-11.5449
▁1,2,4-	-11.545
▁EPO	-11.5453
▁Purified	-11.5454
▁Remington	-11.5455
▁3.77	-11.5456
▁0.87	-11.5457
▁conditioned	-11.546
PRO	-11.5461
▁3.94	-11.5462
carbazole	-11.5463
▁indication	-11.5465
▁cover	-11.5469
▁weekly	-11.547
▁Even	-11.5475
−1.	-11.5476
▁0.21	-11.5476
▁lambda	-11.5476
▁Design	-11.5476
▁8.02	-11.5477
▁Tissue	-11.5477
▁Trp	-11.5479
▁PBMC	-11.548
▁330	-11.5481
▁pertains	-11.5484
▁azido	-11.5493
▁dimethylamino	-11.5496
▁permits	-11.5498
▁1.42	-11.5499
Difluoro	-11.5499
17,	-11.5503
enoic	-11.5503
▁Biochemistry	-11.5503
▁quinoline	-11.5504
+1	-11.5505
▁cervical	-11.5505
▁Plates	-11.5508
dicarboxylate	-11.5509
benzenesulfonate	-11.5509
▁impurity	-11.5514
▁silicone	-11.5514
▁vaginal	-11.5515
sis	-11.5516
▁HB	-11.552
▁4,4'-	-11.552
▁catalyzed	-11.5521
▁PNA	-11.5527
▁date	-11.5538
▁Illustrative	-11.5547
RTM	-11.5551
▁AG	-11.5552
▁enhancement	-11.5552
▁1.36	-11.5557
CONR	-11.5557
(2)	-11.5561
▁3.20	-11.5562
cyclopentane	-11.5565
▁141	-11.5566
20)	-11.5569
86	-11.557
▁Life	-11.5573
▁3.74	-11.5574
▁micron	-11.5575
▁Prep	-11.5579
-33	-11.5581
▁0.38	-11.5581
▁Evaporation	-11.5583
▁flexible	-11.5585
▁incorporate	-11.5585
▁access	-11.5586
-2-(3-	-11.5587
▁perfluoro	-11.5588
▁understanding	-11.5588
thiomethyl	-11.559
▁review	-11.5592
ix	-11.5597
▁132	-11.5598
▁surrounding	-11.5598
▁GP	-11.5599
8%	-11.56
▁axis	-11.5601
▁0.55	-11.5602
pentafluoro	-11.5602
▁donors	-11.5603
▁indirect	-11.5605
▁2.40	-11.5605
-2(	-11.5606
▁7:	-11.5608
NP	-11.561
▁Fusion	-11.561
5##	-11.5611
▁7.93	-11.5611
1%	-11.5613
▁157	-11.5614
▁man	-11.5617
▁mapping	-11.5617
▁transforming	-11.5617
250	-11.5617
▁absorbed	-11.5618
▁uracil	-11.5619
▁night	-11.5619
3(	-11.5621
▁0.86	-11.5622
▁0.08	-11.5624
sulfonyloxy	-11.5624
cyclopentadienyl	-11.5631
▁7.89	-11.5632
▁transplant	-11.5634
▁u	-11.5634
▁octyl	-11.5635
comprising	-11.5638
=6.1	-11.564
▁Immunology	-11.5642
▁fast	-11.5642
PL	-11.5647
▁1.47	-11.5649
▁Technology	-11.565
▁negatively	-11.5654
VP	-11.5654
▁Removal	-11.5655
purine	-11.5655
dioxol	-11.5656
propanamide	-11.5657
mann	-11.5657
▁load	-11.5658
▁wheat	-11.5658
▁precise	-11.566
lic	-11.566
Characterization	-11.5661
▁furyl	-11.5663
▁valuable	-11.5667
te	-11.5672
▁usage	-11.5672
▁6.85	-11.5672
▁distributed	-11.5673
▁imine	-11.5676
=5.9	-11.5677
▁(0.12	-11.5679
▁3.71	-11.568
▁0.98	-11.5681
▁silencing	-11.5683
Gibco	-11.5686
▁radioactivity	-11.569
{	-11.569
▁trap	-11.5693
▁rotation	-11.5694
▁carbonates	-11.5696
▁FAB	-11.5699
▁(1985)	-11.5701
benzothiazol	-11.5704
▁7.98	-11.5704
▁fractionation	-11.5705
▁denatured	-11.5705
▁polyols	-11.5705
▁Mn	-11.5706
▁IP	-11.5707
▁matrices	-11.5708
diazepin	-11.571
▁gently	-11.5711
▁oxidase	-11.5711
▁NMP	-11.5712
▁LiOH	-11.5712
aa	-11.5713
▁purine	-11.5716
▁geometric	-11.5716
▁calf	-11.5719
▁vigorous	-11.572
▁6.91	-11.5722
▁1.22	-11.5723
▁1.34	-11.5725
▁2.10	-11.5731
▁EDC	-11.5731
over	-11.5735
ino	-11.5742
▁0.36	-11.5744
▁repeats	-11.5746
▁mediate	-11.5747
▁1.43	-11.5751
DL	-11.5753
▁rare	-11.5756
▁6.88	-11.5757
▁phosphorous	-11.5758
▁7.91	-11.5759
tr	-11.5761
▁always	-11.5766
▁360	-11.5769
▁0.34	-11.5769
▁vaccination	-11.5772
butyllithium	-11.5775
▁Gen	-11.5778
▁endo	-11.5784
▁Vectors	-11.5793
▁standards	-11.5793
▁entitled	-11.5804
▁barium	-11.5805
Trp	-11.5806
ato	-11.5807
▁germ	-11.5807
▁6.99	-11.5808
▁suppository	-11.581
▁special	-11.5811
▁polysaccharide	-11.5811
▁hybridizing	-11.5812
▁NHC	-11.5812
▁1.18	-11.5812
▁displacement	-11.5816
▁triplet	-11.582
▁177	-11.5822
▁2.75	-11.5825
magnesium	-11.5825
▁1.39	-11.5827
▁Time	-11.5829
io	-11.583
-32	-11.5836
indolyl	-11.5836
▁acting	-11.5837
▁stereochemistry	-11.5838
▁signs	-11.584
▁predominantly	-11.5843
▁3.91	-11.5847
▁circumstances	-11.5854
▁215	-11.5856
▁homologs	-11.5858
▁(60%	-11.5859
▁bacteriophage	-11.5861
▁EU	-11.5862
▁0.29	-11.5866
▁2-3	-11.5866
▁biodegradable	-11.5867
▁centrifuge	-11.5867
▁PK	-11.5867
▁(11)	-11.5867
▁allelic	-11.5867
▁split	-11.5873
ell	-11.5875
6.5	-11.5876
▁(17	-11.5881
specifically	-11.5882
translational	-11.5882
▁drawn	-11.5885
81	-11.5885
▁prevents	-11.5887
▁guide	-11.5889
▁squamous	-11.5891
▁reacts	-11.5891
7°	-11.5893
▁Antigen	-11.5896
pa	-11.5898
▁skeleton	-11.59
EX	-11.5902
▁isoxazolyl	-11.5902
▁Ag	-11.5903
hydroxyl	-11.5906
▁(1998)	-11.5907
▁doxorubicin	-11.5907
▁immunotherapy	-11.5907
▁4.20	-11.5907
▁Useful	-11.5907
methylmorpholine	-11.591
▁issued	-11.5911
obtained	-11.5914
▁GPCR	-11.5915
▁elixirs	-11.5916
lin	-11.5916
▁340	-11.5917
▁greatly	-11.5918
▁2.28	-11.592
▁extra	-11.5921
thiazolo	-11.5923
▁month	-11.5924
×3).	-11.5925
▁arrangement	-11.5926
▁Ru	-11.5929
▁indicator	-11.593
▁Description	-11.5932
▁pyridazinyl	-11.5933
▁MC	-11.5936
▁(1.00	-11.5941
SF	-11.5942
▁205	-11.5942
=2.7	-11.5948
scFv	-11.5951
▁lecithin	-11.5952
▁colloidal	-11.5955
▁bubbled	-11.5955
▁diffusion	-11.5956
1##	-11.5956
▁chemokine	-11.5957
side	-11.5959
ted	-11.5962
▁4:1	-11.5964
▁spread	-11.5964
▁6.1	-11.5971
▁4.25	-11.5971
▁174	-11.5975
2.8	-11.5976
′′,	-11.5979
▁phosphatidyl	-11.5981
▁Smith	-11.5982
▁235	-11.5982
▁6.97	-11.5984
▁embryos	-11.5984
▁7.96	-11.5985
molecular	-11.5986
▁administer	-11.5987
[3.1.0]	-11.5988
▁lowering	-11.5991
heterocyclic	-11.5993
Gln	-11.5993
alk	-11.5996
▁approximate	-11.6
arginine	-11.6
=12	-11.6002
▁Biotechnol	-11.6003
▁172	-11.6006
▁3.25	-11.6007
▁35,	-11.601
▁neurological	-11.6011
▁0.93	-11.6011
▁Flash	-11.6014
▁alkoxyalkyl	-11.6017
▁adenine	-11.6017
▁importance	-11.6017
con	-11.6018
TC	-11.6019
▁surgical	-11.6019
▁help	-11.6021
▁Pharm	-11.6025
▁genotype	-11.6026
▁discussion	-11.6027
7.0	-11.6028
▁Pharmacol	-11.6028
▁3.30	-11.6029
IP	-11.6029
▁0.40	-11.603
NT	-11.6032
▁dimers	-11.6033
▁extensive	-11.6033
XII	-11.6035
▁lymphocytic	-11.6036
Co	-11.6038
▁modifier	-11.6043
ry	-11.6046
▁oleate	-11.6046
▁Second	-11.6047
▁6.93	-11.605
▁therapeutics	-11.605
piperidino	-11.6053
▁0.96	-11.6053
▁multispecific	-11.6054
▁(0.10	-11.6056
▁(1.8	-11.6058
)-1,2-	-11.6059
▁consideration	-11.606
=1.7	-11.6064
▁6-(	-11.6065
1-7	-11.6065
▁olefinic	-11.6068
▁precipitates	-11.6071
▁accordingly	-11.6078
▁169	-11.6081
▁alternate	-11.6085
▁JP	-11.6086
▁plug	-11.6086
heptan	-11.6087
▁bridged	-11.6088
IIa	-11.6088
▁herpes	-11.6089
▁1-10	-11.6093
Promega	-11.6095
▁receive	-11.6097
9.2	-11.6097
op	-11.6098
carbonyloxy	-11.6098
▁nearly	-11.61
Rf	-11.6104
▁excluded	-11.6105
▁assessment	-11.6106
▁Wnt	-11.6107
GP	-11.611
▁1.17	-11.6111
▁antitumor	-11.6111
=1.9	-11.6114
▁live	-11.6115
▁subcloned	-11.6115
▁trials	-11.6119
▁PF	-11.6122
▁silicate	-11.6123
▁6.75	-11.6123
▁mononuclear	-11.6124
rs	-11.6124
▁chlorinated	-11.6125
▁dicarboxylic	-11.6128
octan	-11.6129
▁6.80	-11.613
▁referring	-11.6133
▁2.33	-11.6134
▁2.65	-11.6134
▁1992,	-11.6135
▁2.15	-11.6135
▁tetracycline	-11.6136
▁0.005	-11.6136
▁phenolic	-11.6137
trichloro	-11.6139
▁ribosome	-11.6142
)-1-(2-	-11.6143
)-3-(2-	-11.6144
LV	-11.6145
▁7.01	-11.615
ial	-11.6153
▁obtainable	-11.6156
▁paste	-11.6162
▁5000	-11.6167
▁96%	-11.6167
▁Curr	-11.6168
▁8.08	-11.6168
▁8.01	-11.6169
▁circular	-11.617
▁Southern	-11.6171
▁penetration	-11.6172
Molecular	-11.6178
Yield	-11.6178
-200	-11.6179
▁plaque	-11.618
▁8.25	-11.618
-[2-(	-11.618
000	-11.6185
▁JAK	-11.6192
▁Applied	-11.6194
▁GDF	-11.6199
test	-11.6199
▁8.12	-11.62
▁Invitrogen	-11.6202
▁1.14	-11.6202
▁2.32	-11.6205
▁electrons	-11.6209
▁Conditions	-11.6209
▁led	-11.6211
700	-11.6212
▁siRNAs	-11.6213
▁alkene	-11.6215
▁measures	-11.6224
▁Crohn	-11.6225
▁electrical	-11.6228
▁decanted	-11.6229
180	-11.6233
▁annealing	-11.6234
▁Composition	-11.6234
▁skeletal	-11.6235
▁kill	-11.6235
=4.5	-11.6238
▁6.89	-11.6238
-28	-11.6239
▁3.97	-11.624
▁Light	-11.624
▁diastereoisomer	-11.6243
ised	-11.6246
▁Virol	-11.6256
Chlorophenyl	-11.6256
▁strategies	-11.6259
▁HDAC	-11.6259
]-2,4-	-11.6261
ice	-11.6263
tagged	-11.6265
▁Genet	-11.6265
-3'	-11.6266
▁Identification	-11.6266
▁suppress	-11.6268
▁entirely	-11.6268
▁loops	-11.6269
dibenzo	-11.627
▁sprayed	-11.627
▁regarding	-11.627
▁metabolite	-11.6271
▁Sample	-11.6271
▁159	-11.6271
▁12.0	-11.6272
▁define	-11.6273
liter	-11.6274
-2'-	-11.6274
▁symbols	-11.6276
▁recommended	-11.6282
▁5-(4-	-11.629
GA	-11.629
▁19.	-11.6291
▁1.41	-11.6291
▁immunoassays	-11.6292
▁Add	-11.6294
▁transduced	-11.6301
▁phthalate	-11.6302
▁Ann	-11.6306
▁-10°	-11.6306
▁7.94	-11.6307
▁SK	-11.6307
Scheme	-11.6312
ure	-11.6314
▁cyclohexanone	-11.6314
-29	-11.6314
▁PO	-11.6318
▁8.04	-11.6318
6##	-11.6319
▁transferase	-11.6321
▁405	-11.6322
▁heterodimer	-11.6324
▁worked	-11.6326
▁pyrrole	-11.6327
7.1	-11.6334
▁BP	-11.6336
▁surprisingly	-11.6337
triphenyl	-11.6339
▁alkylcarbonyl	-11.634
▁3.68	-11.634
approximately	-11.6343
propene	-11.6351
▁fibroblast	-11.6352
▁constitute	-11.6354
▁esterified	-11.6355
▁2.05	-11.6355
expressed	-11.6357
▁force	-11.6364
108	-11.637
▁0.97	-11.6372
▁isoform	-11.6373
▁favorable	-11.6373
▁Reactions	-11.6374
▁Agents	-11.6374
NS	-11.6375
▁oligomerization	-11.6376
▁enhances	-11.6381
▁AcOH	-11.6381
▁Institute	-11.6381
low	-11.639
diazaspiro	-11.639
▁olive	-11.6391
pi	-11.6392
▁3.98	-11.6393
▁marked	-11.6393
▁PDGF	-11.6394
▁maturation	-11.6397
▁secretory	-11.6397
▁bodies	-11.6399
▁Blue	-11.6399
▁flame	-11.64
▁requiring	-11.6402
▁error	-11.6402
▁7.99	-11.6402
▁slight	-11.6403
12)	-11.6404
▁550	-11.6406
)+;	-11.6408
▁8.06	-11.641
▁saccharide	-11.6411
97	-11.6411
epoxy	-11.6412
▁zirconium	-11.6413
▁presentation	-11.6413
linker	-11.6415
▁1.12	-11.6415
column	-11.6418
▁chlorobenzene	-11.6421
▁8.15	-11.6423
▁Biophys	-11.6427
osis	-11.6427
▁guinea	-11.6428
▁blended	-11.6429
▁Healthcare	-11.6432
)+,	-11.6434
▁2-(5-	-11.6435
ens	-11.6436
▁stripped	-11.6436
▁2,4,6-	-11.6438
▁keeping	-11.6442
▁glycerin	-11.6442
▁mortality	-11.6442
▁implanted	-11.6449
▁(4.5	-11.6449
▁visual	-11.6449
2%	-11.645
▁morpholino	-11.6452
=5.3	-11.6452
▁DNAs	-11.6453
▁acetylene	-11.6455
▁deficient	-11.6455
AD	-11.6457
-24	-11.646
=0	-11.6463
Rh	-11.6464
▁PR	-11.6469
hydride	-11.6473
▁3.50	-11.6474
▁reconstituted	-11.6474
▁organometallic	-11.6479
▁1995,	-11.6481
▁UPLC	-11.6481
▁3.67	-11.6481
▁6.87	-11.6485
▁opening	-11.6485
▁buccal	-11.6486
▁immediate	-11.6487
▁0.99	-11.6487
CAR	-11.6492
▁4.15	-11.6493
▁GH	-11.6494
−1,	-11.6495
▁1,5-	-11.6497
▁87%	-11.6498
▁net	-11.6498
▁injecting	-11.6501
▁(2.2	-11.6501
ting	-11.6505
propylamino	-11.6506
▁0.65	-11.6506
acetophenone	-11.6507
eq	-11.6509
▁principle	-11.6509
PK	-11.6509
▁overlap	-11.6509
decane	-11.6511
TF	-11.6512
▁NGF	-11.6514
▁CRL	-11.6515
+2	-11.6516
▁alkylaryl	-11.6522
▁transform	-11.6525
▁Stage	-11.6525
▁limitations	-11.6527
▁4.10	-11.6528
▁RB	-11.6528
▁What	-11.6532
SV	-11.6533
▁page	-11.6536
▁3.15	-11.6538
▁angle	-11.6539
▁share	-11.654
▁hepatic	-11.6544
phenylboronic	-11.6544
cyclohex	-11.6545
▁12-	-11.6545
▁statistical	-11.6546
▁organo	-11.6546
▁dialyzed	-11.6547
▁penta	-11.6548
▁bifunctional	-11.6549
▁titers	-11.6549
ionic	-11.6552
▁Merck	-11.6552
▁terminator	-11.6554
▁lipophilic	-11.6555
▁belonging	-11.6555
triaza	-11.6556
▁176	-11.6558
▁FcRn	-11.656
▁1.16	-11.6567
▁radiolabeled	-11.6569
▁regimens	-11.657
alumina	-11.6571
▁Delivery	-11.6572
0.05	-11.6572
-[4-(	-11.6574
▁permeability	-11.6575
▁Prior	-11.6577
▁changing	-11.6579
▁flat	-11.6582
▁pathology	-11.6584
pentanoic	-11.6585
▁6.94	-11.6585
▁degenerate	-11.6585
▁preference	-11.6585
-1-(3-	-11.6586
▁United	-11.6586
▁Probes	-11.6589
chloroethyl	-11.6592
▁limits	-11.6595
▁isotope	-11.6596
▁Genetics	-11.6596
▁ink	-11.6597
▁responsive	-11.6599
▁2.36	-11.6601
naphthyridine	-11.6602
▁Clinical	-11.6603
-[(1	-11.6604
▁HSA	-11.6604
▁151	-11.6605
ley	-11.6605
▁fluorophore	-11.6605
▁tau	-11.6606
DM	-11.6607
▁bolus	-11.6617
/6	-11.662
▁dosed	-11.6622
AM	-11.6623
▁complexed	-11.6626
▁1991,	-11.6627
▁physically	-11.6627
▁MTBE	-11.6628
ak	-11.6631
800	-11.6633
▁156	-11.6637
▁1989,	-11.6637
▁correlation	-11.6638
ier	-11.6638
▁lowered	-11.6641
▁2.95	-11.6641
-30	-11.6644
▁findings	-11.6644
▁interfering	-11.6645
▁1.29	-11.6647
▁fractional	-11.6656
▁8.07	-11.6656
▁1.31	-11.6657
▁miRNA	-11.6661
▁implicated	-11.6663
▁0.31	-11.6669
▁31,	-11.6672
metal	-11.6678
▁hypo	-11.6682
▁pathogens	-11.6682
▁pathogenic	-11.6684
▁visualized	-11.6684
▁neuro	-11.6686
▁94°	-11.6687
▁Target	-11.6689
▁Referring	-11.669
0.4	-11.6691
▁410	-11.6693
▁2.38	-11.6694
TT	-11.6697
▁unbound	-11.6697
stage	-11.6697
-80	-11.6698
▁captured	-11.6698
▁178	-11.67
▁FIGS	-11.67
SA	-11.6701
▁tRNA	-11.6701
oxazolidin	-11.6703
▁Salts	-11.6704
▁LD	-11.6705
▁NY	-11.6707
▁5.9	-11.6709
▁methylamine	-11.6712
▁motor	-11.6713
▁sacrificed	-11.6714
▁suspected	-11.6718
▁interacting	-11.6718
)-2-((	-11.6723
▁thiazole	-11.6725
549	-11.673
▁(2001)	-11.6734
▁CDK	-11.6734
EL	-11.6736
▁cartilage	-11.6737
▁21.	-11.6737
butan	-11.6738
▁biosynthesis	-11.6739
▁Taq	-11.6739
▁building	-11.674
▁6.86	-11.6742
▁dish	-11.6742
▁knowledge	-11.6746
▁describing	-11.6747
0°	-11.6748
▁pI	-11.6748
▁HindIII	-11.6749
▁milligrams	-11.6755
BA	-11.6755
▁Gram	-11.6755
▁slides	-11.6756
HER	-11.6756
▁Hence	-11.6756
▁Hybridization	-11.6757
▁Vivo	-11.676
▁mobility	-11.6762
▁disposed	-11.6762
▁2.12	-11.6763
▁CV	-11.6773
▁(1984)	-11.6774
CP	-11.6775
)-4-(4-	-11.6778
▁3.57	-11.6779
ho	-11.6782
▁XIII	-11.6784
▁particulate	-11.6785
▁extracting	-11.679
dicyclohexyl	-11.679
▁colored	-11.679
▁adhesive	-11.6791
▁2.45	-11.6792
▁Gal	-11.6792
ance	-11.6793
▁Saccharomyces	-11.6793
▁Ga	-11.6793
4-(3-	-11.6797
administered	-11.6797
▁aromatics	-11.6801
▁−80°	-11.6802
[(	-11.6804
pr	-11.6804
▁Pure	-11.6805
▁encapsulated	-11.6805
bp	-11.6805
▁NRc	-11.6807
▁tetrazolyl	-11.6807
▁correlated	-11.6808
▁0.91	-11.6808
▁2.55	-11.6812
1.4	-11.6812
purified	-11.6815
MP	-11.6817
▁middle	-11.6817
ler	-11.6819
▁manipulation	-11.6819
▁scientific	-11.6821
▁Particular	-11.6823
▁ch	-11.6825
FL	-11.6826
▁examination	-11.6827
▁6.84	-11.6828
anilino	-11.6829
dihydrobenzo	-11.6829
▁mbar	-11.683
▁GI	-11.6835
▁ethylbenzene	-11.6836
▁flasks	-11.6836
▁3.45	-11.6838
COOR	-11.6838
▁Hu	-11.6838
Gal	-11.6839
▁86%	-11.6839
high	-11.684
▁Benzyl	-11.6841
▁kinetics	-11.6845
▁8.20	-11.6849
▁DME	-11.6851
butanoic	-11.6854
▁Freund	-11.6855
transfected	-11.6857
▁carcinomas	-11.6858
▁sulphur	-11.686
▁phosphodiester	-11.6868
li	-11.6871
4.7	-11.6873
▁Ad	-11.6874
▁3.35	-11.6874
7.8	-11.6881
▁BL	-11.6881
280	-11.6882
ize	-11.6887
▁complications	-11.6889
▁excised	-11.6892
▁basified	-11.6894
TS	-11.6895
CAS	-11.6895
▁synergistic	-11.6897
▁cycloheptyl	-11.69
▁disodium	-11.6908
▁1.08	-11.6908
▁pg	-11.6909
▁285	-11.6911
3%	-11.6913
▁mimic	-11.6915
BF	-11.6917
=4.9	-11.6918
▁Selection	-11.692
▁3.63	-11.692
▁2.22	-11.6921
MA	-11.6923
▁1.01	-11.6923
▁homolog	-11.6928
alkoxycarbonyl	-11.6929
▁AF	-11.6932
]+,	-11.6932
▁0.42	-11.6933
2)3	-11.6934
tetrafluoro	-11.6935
serine	-11.6935
▁2.90	-11.6936
▁reason	-11.6937
▁6.83	-11.694
▁tandem	-11.6941
nor	-11.6941
30,	-11.6943
methoxyethoxy	-11.6945
▁hydroxides	-11.6945
butylphenyl	-11.6948
418	-11.6948
▁(55	-11.6953
▁5-(2-	-11.6953
▁vesicles	-11.6955
▁stabilization	-11.6957
▁7.97	-11.6959
▁quickly	-11.6963
substantially	-11.6963
▁3.58	-11.6963
22,	-11.6967
▁opposite	-11.6968
1′	-11.697
▁phenols	-11.697
▁1.95	-11.6973
ethanamine	-11.6975
▁overexpression	-11.6975
▁successful	-11.6975
160	-11.6976
control	-11.6977
▁fractionated	-11.6978
▁ubiquitin	-11.6979
▁BD	-11.698
▁EMBO	-11.6982
▁3.69	-11.6982
▁CYP	-11.6982
▁estrogen	-11.6985
▁abundance	-11.6986
WO	-11.6988
▁Health	-11.6991
▁collecting	-11.6993
rate	-11.6994
0.00	-11.6994
3′	-11.6995
DI	-11.6996
▁(65	-11.6997
▁COOH	-11.6999
▁understand	-11.7
FA	-11.7002
▁(0.20	-11.7002
▁1.49	-11.7006
▁antifungal	-11.7006
▁0.84	-11.7007
▁MAb	-11.7012
)-1,2,4-	-11.7012
▁joint	-11.7013
▁matched	-11.7014
▁immunoconjugate	-11.7016
bottomed	-11.7016
▁0.37	-11.7016
▁ee	-11.7018
NK	-11.702
app	-11.7021
▁primate	-11.7021
-((1	-11.7022
▁Hydrogen	-11.7024
idine	-11.7026
▁234	-11.7027
06	-11.7027
▁Raney	-11.7027
▁Vitro	-11.703
08	-11.703
▁kanamycin	-11.7031
▁configured	-11.7033
be	-11.7035
▁setting	-11.7036
AC	-11.7037
▁UK	-11.7041
ax	-11.7043
phen	-11.7045
7##	-11.7046
▁Four	-11.7047
▁Approximately	-11.7053
▁Gel	-11.7054
▁1.02	-11.7056
▁2.24	-11.7057
▁MDA	-11.7058
▁1:2	-11.7059
▁CpG	-11.706
▁arylene	-11.706
▁subtype	-11.7066
▁scored	-11.7066
▁45%	-11.7066
▁3'-	-11.7072
▁4.02	-11.7074
▁diverse	-11.7075
▁4.03	-11.7075
▁3.66	-11.7077
▁capability	-11.7078
fused	-11.7079
▁butanol	-11.708
▁1.04	-11.7085
▁enteric	-11.7086
▁cleave	-11.7088
=4.4	-11.7089
isation	-11.7091
▁phosphite	-11.7092
)-1-((	-11.7092
▁siNA	-11.7093
▁2.34	-11.7095
▁2.27	-11.7097
▁aggregates	-11.7097
Asn	-11.71
▁6.82	-11.7102
▁4.12	-11.7102
difluoromethoxy	-11.7103
▁70,	-11.7104
▁triazolyl	-11.7104
▁rac	-11.7106
▁tautomeric	-11.7106
▁approved	-11.711
▁abbreviations	-11.7113
EF	-11.7114
▁clinically	-11.7116
▁ATG	-11.7116
▁0.46	-11.7118
▁Purity	-11.7119
▁proximity	-11.7122
▁2.26	-11.7122
▁safe	-11.7122
ferrocene	-11.7123
▁1993,	-11.7124
▁somatic	-11.7129
▁guanine	-11.713
▁0.07	-11.7131
▁8.18	-11.7131
▁verified	-11.7133
nonane	-11.7134
KD	-11.7135
▁dopamine	-11.7135
2.3	-11.7136
▁(0.7	-11.7136
94	-11.7138
▁pests	-11.7139
RF	-11.7141
▁1.13	-11.7142
▁emulsifiers	-11.7144
-4(	-11.7144
▁Active	-11.7146
oxadiazole	-11.7147
▁AND	-11.7148
▁Eur	-11.7149
ME	-11.715
▁3.55	-11.7151
IB	-11.7153
▁progenitor	-11.7155
×106	-11.7157
▁2.18	-11.7158
example	-11.7158
pyrid	-11.7158
-27	-11.716
▁objects	-11.7161
▁acyclic	-11.7162
▁(1.7	-11.7163
cc	-11.7163
▁constituent	-11.7163
isoxazole	-11.7164
▁NM	-11.7164
ti	-11.7165
decan	-11.7169
▁randomly	-11.7173
hydrazino	-11.7175
▁portionwise	-11.7176
ane	-11.7176
▁States	-11.7178
106	-11.7178
▁saturation	-11.7178
▁ethynyl	-11.7179
▁stain	-11.7182
▁4.18	-11.7184
▁ethanolamine	-11.7185
fusion	-11.7185
▁1.21	-11.7185
▁tosylate	-11.7186
▁stripping	-11.7186
▁possesses	-11.7189
▁1640	-11.719
▁mixer	-11.7196
▁concerns	-11.7197
▁accompanying	-11.7199
▁paraffins	-11.7201
▁plural	-11.7206
▁7%	-11.7206
GM	-11.7208
▁spot	-11.7209
▁butter	-11.7211
▁185	-11.7212
▁Acta	-11.7217
▁Aspergillus	-11.7221
▁Antisense	-11.7224
▁CXCR	-11.7234
▁AT	-11.7235
▁recent	-11.7237
▁BACKGROUND	-11.7239
(3,5-	-11.724
▁(5%	-11.724
▁ear	-11.724
▁plaques	-11.7243
benzamido	-11.7245
70,	-11.7246
(+)	-11.7246
COR	-11.7247
▁exchanged	-11.7247
▁8.11	-11.7247
▁versions	-11.7247
▁0.80	-11.7248
▁(1986)	-11.725
▁fever	-11.7254
▁(0.11	-11.726
▁(2.4	-11.7262
phenylsulfonyl	-11.727
ethenyl	-11.727
▁Kd	-11.7271
▁8.09	-11.7274
aliphatic	-11.7275
▁dt	-11.7275
▁pseudo	-11.7276
BR	-11.7277
TOF	-11.7278
▁anticancer	-11.7281
▁1999,	-11.7283
123	-11.7286
▁2.17	-11.7287
▁Temperature	-11.729
▁lane	-11.7291
▁contaminants	-11.7291
185	-11.7294
▁disclosures	-11.7294
▁translocation	-11.7296
▁Se	-11.7302
▁5.00	-11.7304
▁Hydrochloride	-11.7304
▁lateral	-11.7305
3)3	-11.731
133	-11.7311
▁conductivity	-11.7311
Pharmacia	-11.7312
▁waxes	-11.7314
▁3.62	-11.7316
Dimethylamino	-11.732
▁flushed	-11.7321
▁IN	-11.7321
92	-11.7321
▁denote	-11.7321
▁Enzyme	-11.7323
▁disruption	-11.7325
▁Applications	-11.7327
]-1,3-	-11.7328
▁neoplastic	-11.7328
▁hybrids	-11.733
using	-11.7332
▁stands	-11.7332
▁alginic	-11.7336
▁(26	-11.7339
▁macrophage	-11.734
▁metabolites	-11.7343
▁intradermal	-11.7345
▁shaker	-11.7346
▁unnatural	-11.7351
epi	-11.7353
▁running	-11.7355
▁calculate	-11.7357
=1.3	-11.7357
▁des	-11.7357
▁Agrobacterium	-11.7358
rel	-11.7359
▁Comparison	-11.7359
▁hydroperoxide	-11.7365
▁nylon	-11.7366
▁1.19	-11.737
▁8%	-11.737
4.8	-11.7371
BSA	-11.7372
ian	-11.7373
▁delivering	-11.7376
▁urinary	-11.7377
▁aptamer	-11.7378
polypeptide	-11.7379
▁6.78	-11.7381
naphtho	-11.7382
▁1-(5-	-11.7385
benzophenone	-11.7386
▁acylamino	-11.7387
▁medicine	-11.7389
-34	-11.739
▁acylating	-11.7392
▁Section	-11.7395
Synthesis	-11.7399
▁counts	-11.7399
therapeutically	-11.7401
methyloxy	-11.7405
▁8.13	-11.741
▁Notch	-11.7412
ata	-11.7413
ET	-11.7416
▁2.29	-11.7419
▁leave	-11.742
▁11.5	-11.7421
▁diethylamine	-11.7423
▁link	-11.7428
▁anhydrides	-11.7428
)-5	-11.7432
▁implantation	-11.7432
=2.8	-11.7432
▁(0.14	-11.7433
▁1.56	-11.7435
CAT	-11.7439
▁Functional	-11.7439
2.9	-11.7439
▁antioxidant	-11.744
fluoropyridin	-11.7441
▁HRP	-11.7445
xi	-11.7446
▁2.37	-11.7447
SD	-11.7448
imine	-11.7448
available	-11.7451
▁finger	-11.7452
▁0.39	-11.7454
▁1994,	-11.7455
▁phospholipids	-11.7455
▁furanyl	-11.7458
▁0.78	-11.7459
”).	-11.7459
▁compartment	-11.7463
▁2.80	-11.7463
▁phosphates	-11.7466
Life	-11.7467
▁lowest	-11.7473
▁presenting	-11.7473
▁3.40	-11.7475
penta	-11.7479
▁8.16	-11.748
▁ointment	-11.7481
▁crops	-11.7483
▁0.48	-11.7485
▁2.70	-11.7487
fluorophenoxy	-11.749
▁5:1	-11.749
▁Red	-11.7491
ling	-11.7492
▁cancerous	-11.7494
rin	-11.7494
TG	-11.7494
Cell	-11.7494
▁residence	-11.7495
phenoxyphenyl	-11.7495
▁solubilized	-11.7495
▁6.81	-11.7496
▁33%	-11.7497
▁8.14	-11.7498
)-6,7-	-11.7501
Amersham	-11.7501
yellow	-11.7501
▁fifth	-11.7502
▁detergents	-11.7503
▁inoculation	-11.7507
▁destruction	-11.7509
4.6	-11.751
=3.6	-11.7511
morpholinyl	-11.7511
▁public	-11.7514
▁division	-11.7514
07	-11.7515
▁pressurized	-11.7516
▁171	-11.7518
▁sulfhydryl	-11.7519
▁polymorphism	-11.7519
decyl	-11.7522
▁nitrocellulose	-11.7524
▁Wash	-11.7526
▁4.08	-11.7528
▁−1	-11.753
▁interference	-11.7531
▁satisfactory	-11.7532
▁Chart	-11.7532
▁multivalent	-11.7535
▁Preparative	-11.7537
▁aminoalkyl	-11.7537
▁lubricating	-11.7539
ator	-11.7541
)-9-	-11.7541
▁Consequently	-11.7543
▁quenching	-11.7548
▁conduit	-11.7549
▁EMBODIMENTS	-11.755
▁2.85	-11.755
▁arterial	-11.755
▁290	-11.7551
TMS	-11.7554
▁graph	-11.7561
▁triplicate	-11.7561
▁epidermal	-11.7564
▁1996,	-11.7564
▁locations	-11.7567
0.7	-11.757
Nujol	-11.7573
car	-11.7576
▁Clones	-11.7576
-4(3	-11.7577
CMV	-11.7582
▁oleic	-11.7584
▁oxychloride	-11.7589
▁2.23	-11.759
▁titration	-11.7591
▁3.10	-11.7593
+1)+.	-11.7594
▁facilitates	-11.7595
▁sulfonamide	-11.7595
▁alkoxide	-11.7596
▁HT	-11.7596
ek	-11.7597
▁2.31	-11.7598
▁Jun	-11.76
nonyl	-11.76
▁1990,	-11.7604
▁uniformly	-11.7606
];	-11.761
BLAST	-11.7612
itis	-11.7614
=1.4	-11.7614
▁3.64	-11.7616
Dimethoxy	-11.7616
▁stabilize	-11.7617
▁HOBt	-11.7619
)-2,6-	-11.7619
▁FCS	-11.7621
▁Conversion	-11.7622
lambda	-11.7628
ative	-11.763
▁dropping	-11.7631
▁cycloalkylalkyl	-11.7633
olefin	-11.7636
▁Elmer	-11.7637
▁map	-11.7638
▁LDL	-11.7639
▁adequate	-11.7641
▁IB	-11.7644
benzoylamino	-11.7644
▁1.06	-11.7644
▁(6.0	-11.7646
▁vertebrate	-11.7648
1=	-11.7649
▁(10)	-11.7652
MG	-11.7656
7.4	-11.7661
dba	-11.7661
▁conducting	-11.7664
▁driving	-11.7665
▁hydroxymethyl	-11.7667
imide	-11.767
▁Ringer	-11.7672
▁(28	-11.7675
▁186	-11.7679
octanoic	-11.7685
▁daltons	-11.7685
▁aza	-11.7688
▁differentiated	-11.769
▁6%	-11.7692
▁galactose	-11.7694
▁coefficient	-11.7696
▁lost	-11.7697
▁lengths	-11.7698
▁(0.1%	-11.7698
▁0.60	-11.7698
▁Animal	-11.77
butadiene	-11.77
treating	-11.7701
dioxolane	-11.7705
▁1.60	-11.7705
▁blots	-11.7705
1.6	-11.7711
-[(2	-11.7711
)-1,2,3,4-	-11.7712
-12-	-11.7716
borate	-11.7716
▁combine	-11.7719
▁isolates	-11.7719
▁1,8-	-11.772
▁0.83	-11.7721
RD	-11.7723
▁(50%	-11.7726
▁clean	-11.7726
▁electrodes	-11.7731
▁count	-11.7731
▁vaccinia	-11.7731
▁Un	-11.7733
-4,5,6,7-	-11.7733
▁Study	-11.7733
▁shell	-11.7734
▁193	-11.7735
(3)	-11.7738
▁3.99	-11.7738
▁Mono	-11.7739
▁Addition	-11.7742
nicotinamide	-11.7743
▁1.03	-11.7743
ka	-11.7746
▁nontoxic	-11.7747
)-9	-11.775
]-7-	-11.7752
-4,	-11.7752
99%	-11.7753
▁fish	-11.7754
▁dis	-11.7754
▁affinities	-11.7754
conservative	-11.7755
▁4.40	-11.7755
▁question	-11.7758
▁pores	-11.776
▁catalytically	-11.7761
▁267	-11.7765
▁quantification	-11.7766
▁borane	-11.7768
▁Enzymology	-11.777
methylbenzyl	-11.7771
▁polysaccharides	-11.7772
▁May	-11.7773
▁(0.13	-11.7774
▁demonstrating	-11.7774
▁attack	-11.7774
=4.0	-11.7775
▁relate	-11.7778
film	-11.7779
dihydropyridin	-11.778
▁4.06	-11.778
▁dimerization	-11.7781
▁650	-11.7782
▁4.01	-11.7785
quinolyl	-11.7785
dodecyl	-11.7785
▁chromosomes	-11.7785
▁alginate	-11.7786
▁cocoa	-11.7786
▁determinant	-11.7787
▁drive	-11.7789
▁(110	-11.7789
▁veterinary	-11.7789
▁MM	-11.779
[1,4]	-11.779
▁Stirring	-11.7793
▁finding	-11.7794
▁redissolved	-11.7794
-5.	-11.7794
▁1.07	-11.7795
▁Studies	-11.7797
▁(0.16	-11.7797
8.2	-11.7798
▁affects	-11.78
▁pUC	-11.78
▁interacts	-11.7803
▁3.18	-11.7804
▁impaired	-11.7804
Fab	-11.7805
▁PPAR	-11.7807
bearing	-11.7808
▁FITC	-11.7808
SG	-11.7808
▁phenethyl	-11.7808
▁clay	-11.7811
▁PL	-11.7811
▁ordinarily	-11.7812
▁trial	-11.7812
▁packing	-11.7814
dioxolan	-11.7816
▁gain	-11.7818
-1,3,5-	-11.7818
▁Ir	-11.7821
▁Structural	-11.7822
▁reservoir	-11.7823
▁2.21	-11.7823
▁NIH	-11.7824
▁diagram	-11.7825
▁(0.17	-11.7827
▁1997,	-11.7829
▁operatively	-11.7829
▁arrays	-11.7831
001	-11.7833
▁36,	-11.7833
alkylthio	-11.7834
▁Madison	-11.7836
▁2.16	-11.7836
▁candidates	-11.7838
▁phosphoramidite	-11.784
vol	-11.7842
2.7	-11.7843
▁modes	-11.7843
▁monostearate	-11.7844
▁syn	-11.7847
▁tagged	-11.7849
▁elemental	-11.785
▁enzymatically	-11.785
▁1.55	-11.7852
▁(22	-11.7853
-3(2	-11.7854
▁deep	-11.7859
▁protons	-11.7863
-36	-11.7866
▁progressive	-11.7869
▁3.12	-11.7869
▁plays	-11.7873
▁pET	-11.7879
▁(+)-	-11.7879
▁embryo	-11.7881
sense	-11.7883
azo	-11.7883
▁propoxy	-11.7887
▁turned	-11.7888
▁SFC	-11.789
▁sesame	-11.7891
▁bs	-11.7895
4%	-11.7895
4-(3,4-	-11.7896
▁intramuscularly	-11.79
▁crosslinked	-11.7901
land	-11.7903
▁relating	-11.7903
▁cosmetic	-11.7907
▁ADC	-11.7909
▁cats	-11.7911
]+:	-11.7912
▁practiced	-11.7913
▁4.50	-11.7913
▁sulphuric	-11.7916
▁2.62	-11.7918
▁platelets	-11.792
▁Ther	-11.7924
▁compression	-11.7926
▁triazole	-11.7928
▁none	-11.7929
▁suited	-11.7931
▁Chinese	-11.7931
2=	-11.7931
methylpyrrolidin	-11.7936
▁wise	-11.7942
▁4.35	-11.7944
▁fit	-11.7944
▁Nucl	-11.7945
(5)	-11.7948
po	-11.795
arw	-11.7951
hydro	-11.7951
▁0.44	-11.7952
▁Multiple	-11.7952
ot	-11.7952
EG	-11.7954
▁2.67	-11.7955
▁0.0	-11.7956
▁2.14	-11.7957
▁Isomer	-11.7957
▁bottoms	-11.7958
▁alkenylene	-11.796
▁MUC	-11.7961
▁amination	-11.7963
▁default	-11.7965
▁8.21	-11.7967
▁188	-11.7968
▁alcoholic	-11.7968
31,	-11.7969
91	-11.7971
act	-11.7971
▁4.13	-11.7972
▁4.28	-11.7972
▁disclose	-11.7979
8##	-11.7981
6.9	-11.7982
▁disintegrating	-11.7982
IF	-11.7982
▁true	-11.7983
▁trait	-11.7983
▁Greene	-11.7983
weight	-11.7985
▁percentages	-11.7987
▁×	-11.7989
▁patch	-11.7991
cooled	-11.7993
▁Staphylococcus	-11.7996
week	-11.8
▁pyruvate	-11.8003
esterification	-11.8005
▁dog	-11.8006
▁1.80	-11.8006
▁bioactive	-11.8007
▁anxiety	-11.8007
▁12%	-11.8009
▁About	-11.8011
▁cisplatin	-11.8013
▁XL	-11.8014
bio	-11.8016
=3.0	-11.8017
134	-11.8022
▁histone	-11.8022
▁Pharmacia	-11.8023
▁kilogram	-11.8024
▁thrombosis	-11.8024
▁originally	-11.8025
▁obvious	-11.8027
▁FVIII	-11.8033
5.5	-11.8035
▁Potassium	-11.8036
▁(27	-11.8036
rac	-11.8036
aluminum	-11.8039
▁analyzing	-11.8039
▁come	-11.8044
3.5	-11.8044
+]	-11.8045
▁214	-11.8045
▁blend	-11.8047
▁1200	-11.8048
▁pos	-11.8052
ING	-11.8052
▁8.19	-11.8052
▁34,	-11.8053
▁2.44	-11.8057
▁Cr	-11.8058
▁8.22	-11.8059
▁herbicide	-11.8059
▁concept	-11.8061
▁sperm	-11.8062
▁neopentyl	-11.8062
▁lymphoid	-11.8062
▁2.42	-11.8067
▁solubilizing	-11.8067
▁310	-11.8068
▁pcDNA	-11.807
benzylidene	-11.8072
▁22.	-11.8073
tBu	-11.8075
▁accessible	-11.8077
▁purge	-11.8079
-3'-	-11.808
▁1.09	-11.808
▁tower	-11.8081
▁herbicides	-11.8085
AF	-11.8086
Qiagen	-11.8086
▁Yet	-11.8087
▁expressly	-11.809
▁patches	-11.8091
▁monkeys	-11.8091
therapeutic	-11.8092
▁render	-11.8093
)-3,5-	-11.8094
gradient	-11.8094
▁neo	-11.8095
▁discharged	-11.8097
▁TM	-11.8097
▁4.04	-11.8099
▁microliters	-11.8101
sh	-11.8101
ethylenedioxy	-11.8102
-90	-11.8103
▁Schemes	-11.8103
SE	-11.8105
▁triphenyl	-11.8106
▁reasons	-11.8106
▁Due	-11.8108
▁(36	-11.8109
▁counting	-11.8112
▁APCI	-11.8113
▁(2003)	-11.8116
kinase	-11.8118
▁mmHg	-11.8118
▁microspheres	-11.8119
▁attenuated	-11.8119
cyanoborohydride	-11.812
▁insects	-11.812
-17-	-11.812
LL	-11.8121
sil	-11.8121
▁quinolinyl	-11.8122
▁Indeed	-11.8123
▁8.9	-11.8124
Cu	-11.8125
response	-11.8126
▁2.63	-11.8127
▁(800	-11.8127
▁(2.1	-11.8128
▁3.05	-11.8132
▁yellowish	-11.8132
▁6.79	-11.8133
-[(3	-11.8134
1.9	-11.8135
)-4-(2-	-11.8136
▁179	-11.8137
▁1.11	-11.814
phosphonic	-11.8141
▁pipe	-11.8144
9.0	-11.8144
27,	-11.8145
phosphino	-11.8146
▁conductive	-11.8147
▁Measurement	-11.8147
▁nutrient	-11.8147
so	-11.815
▁ionization	-11.815
▁schematic	-11.815
▁8.23	-11.8154
▁peanut	-11.8155
▁(2004)	-11.8157
cy	-11.8162
▁152	-11.8165
▁Isolated	-11.8165
▁schizophrenia	-11.8168
ke	-11.8169
▁denaturation	-11.817
▁herbicidal	-11.8174
▁3.42	-11.8175
▁customary	-11.8175
▁examine	-11.8177
▁(270	-11.8178
▁Sub	-11.8179
▁Iso	-11.8181
▁likewise	-11.8181
▁pairing	-11.8182
ip	-11.8182
▁2.73	-11.8182
glucose	-11.8183
▁serotonin	-11.8184
▁untranslated	-11.8184
▁1.85	-11.8187
chemiluminescent	-11.8188
▁0.67	-11.8191
chloropyridin	-11.8193
▁(0.18	-11.8194
297	-11.8195
▁plot	-11.8195
▁mellitus	-11.8195
▁0.66	-11.8196
quinolinyl	-11.8196
▁hairpin	-11.8198
▁dopant	-11.8199
▁oligopeptide	-11.8201
▁filler	-11.8205
▁spraying	-11.8206
▁2.43	-11.8207
▁avidin	-11.8208
▁duplexes	-11.8213
▁mucosal	-11.8214
▁principles	-11.8214
=2.6	-11.8215
▁RE	-11.8215
▁paclitaxel	-11.8217
▁neutralize	-11.8217
TK	-11.8217
log	-11.8218
▁(0.50	-11.8219
▁concurrently	-11.8221
genic	-11.8222
▁2000,	-11.8226
▁pneumoniae	-11.8226
▁lyophilization	-11.8227
▁lesion	-11.8227
▁PP	-11.8228
▁osteoporosis	-11.823
9.3	-11.8231
dien	-11.8237
ethoxymethyl	-11.8237
▁2.66	-11.8242
way	-11.8243
▁placebo	-11.8243
▁6.65	-11.8246
▁0.47	-11.8249
▁partners	-11.8249
▁depicts	-11.825
fa	-11.8252
do	-11.8252
▁Ch	-11.8253
▁trifluoride	-11.8253
▁2.02	-11.8253
cin	-11.8254
DP	-11.8257
▁Rx	-11.8259
Ga	-11.8259
▁(12)	-11.8261
▁(0.01	-11.8261
RE	-11.8263
▁2.08	-11.8263
▁37%	-11.8264
▁236	-11.8265
▁Sn	-11.8266
administration	-11.8268
▁Vector	-11.8268
}-4-	-11.827
▁1998,	-11.8271
-3,3-	-11.8274
▁275	-11.8276
Fe	-11.8279
▁0.70	-11.828
▁2.64	-11.8284
▁3.52	-11.8284
-(2,6-	-11.8286
▁trauma	-11.8287
▁underlying	-11.8291
89	-11.8291
UV	-11.8292
▁Dec	-11.8295
▁compare	-11.8295
cyclophosphamide	-11.8297
infected	-11.8298
▁PBMCs	-11.8301
:1.	-11.8301
▁distilling	-11.8302
▁(13)	-11.8304
▁undergoing	-11.8306
▁persons	-11.8308
MEM	-11.8308
▁Kinase	-11.831
-2-(1-	-11.831
▁unbranched	-11.8314
▁6.76	-11.8315
▁−10°	-11.8318
▁acylated	-11.8319
ou	-11.8319
ylcarbamate	-11.8319
)-1,4-	-11.832
▁8.28	-11.8321
▁duplicate	-11.8321
chroman	-11.8323
▁2.78	-11.8327
▁3.14	-11.8329
▁androgen	-11.8331
▁cure	-11.8331
▁suppressing	-11.8336
fluoren	-11.8341
methoxyimino	-11.8342
▁4.16	-11.8343
▁Only	-11.8343
▁dehydrated	-11.8343
▁Pichia	-11.8347
▁utilizes	-11.835
methylsulfanyl	-11.835
▁(160	-11.835
▁needles	-11.8354
▁neither	-11.8354
▁luminescence	-11.8356
ins	-11.8356
hu	-11.8357
▁summary	-11.8359
▁4.30	-11.8361
▁promotes	-11.8366
pyrimido	-11.8367
▁histamine	-11.8367
▁8:	-11.8367
▁dominant	-11.837
▁1.82	-11.837
EGFR	-11.837
▁8.17	-11.8372
]+=	-11.8374
▁0.43	-11.8374
tetrazole	-11.8376
▁1.78	-11.8376
▁termini	-11.8382
▁neuropathy	-11.8384
▁lungs	-11.8384
6%	-11.8385
▁displays	-11.8386
/0.1%	-11.8386
▁square	-11.8388
▁dropped	-11.8388
▁ready	-11.8391
▁Chain	-11.8391
6-14	-11.8393
▁transformant	-11.8395
▁characterize	-11.8398
▁4.07	-11.8398
=1.0	-11.8398
▁VEGFR	-11.8399
▁4.14	-11.8402
-2(3	-11.8404
▁impairment	-11.8405
▁MA	-11.8406
▁antisera	-11.8409
▁Oil	-11.841
▁(130	-11.841
immunodeficiency	-11.8411
ret	-11.8412
▁tubular	-11.8414
▁choline	-11.8416
fluorene	-11.8417
▁enrichment	-11.8419
LA	-11.8422
▁rearrangement	-11.8422
bath	-11.8424
▁8.30	-11.8425
▁2.13	-11.8426
▁calcination	-11.8426
▁driven	-11.8427
BT	-11.8427
▁advanced	-11.8432
▁Bo	-11.8432
▁1.70	-11.8437
28,	-11.844
▁(2×50	-11.844
▁anchor	-11.8444
4.4	-11.8444
▁window	-11.8445
ran	-11.8446
-(2,4-	-11.8446
▁England	-11.8447
▁regardless	-11.8448
dimethoxyethane	-11.8449
▁retinopathy	-11.8451
2-10	-11.8453
-1,8-	-11.8457
thione	-11.8461
▁2.07	-11.8461
▁Oral	-11.8464
oid	-11.8467
4.1	-11.8468
heterocycle	-11.8469
(4)	-11.8469
carboxymethyl	-11.847
▁possessing	-11.8473
▁junction	-11.8474
glutamine	-11.8475
▁taught	-11.8484
▁apart	-11.8484
▁osmotic	-11.8486
volume	-11.849
2.4	-11.849
ethylenediamine	-11.8492
▁1.98	-11.8494
▁1,2,3-	-11.8496
ang	-11.8497
▁1.72	-11.85
3.9	-11.8501
239	-11.8501
▁Lane	-11.8502
FT	-11.8505
▁traits	-11.8508
▁ALK	-11.8509
(2,3-	-11.8509
▁compete	-11.851
▁239	-11.851
phenylenediamine	-11.8511
▁ameliorating	-11.8511
2-(3-	-11.8511
▁3.22	-11.8513
▁chlorides	-11.8516
▁2.46	-11.8518
▁6.77	-11.8518
2′	-11.8519
▁SF	-11.8523
▁11.0	-11.8523
oc	-11.8524
▁0.56	-11.8525
▁constants	-11.8525
▁neural	-11.8529
▁gentle	-11.8534
▁diethylene	-11.8535
CHF	-11.8538
▁microarray	-11.8541
▁flowing	-11.8543
▁connecting	-11.8543
322	-11.8546
0.6	-11.8548
▁2.72	-11.855
▁Patients	-11.8555
▁ophthalmic	-11.8556
▁%.	-11.8559
▁1.74	-11.856
▁0.09	-11.8562
▁butadiene	-11.8562
▁(1983)	-11.8569
mers	-11.8573
▁nonionic	-11.8574
▁3.13	-11.8574
▁quench	-11.8578
197	-11.8578
▁character	-11.8579
methano	-11.8581
methylbutyl	-11.8582
▁nucleobase	-11.8584
FU	-11.8585
PV	-11.8588
quinazolinyl	-11.8589
▁randomized	-11.859
▁user	-11.8592
benzylamino	-11.8593
methoxypyridin	-11.8593
▁Silica	-11.8593
▁publicly	-11.8595
lactam	-11.8595
▁(19	-11.8596
▁folding	-11.8597
azepine	-11.8598
ome	-11.8599
▁families	-11.86
1-12	-11.86
▁own	-11.86
▁83%	-11.8603
▁technologies	-11.8604
▁(3.2	-11.8605
imidazolyl	-11.8605
-19	-11.8606
▁dishes	-11.8607
▁4'-	-11.8607
▁4.22	-11.8608
▁Sepharose	-11.8609
▁benign	-11.8609
crystal	-11.8609
9##	-11.8611
▁trityl	-11.8614
▁3.56	-11.8617
▁(2005)	-11.8619
▁fibronectin	-11.8619
▁ErbB	-11.8623
▁Bcl	-11.8624
3'	-11.8625
Butoxycarbonyl	-11.8626
4.3	-11.8626
▁cytoplasm	-11.8628
Ro	-11.8629
▁entireties	-11.8631
▁checkpoint	-11.8631
▁weighing	-11.8633
▁establish	-11.8635
▁#2	-11.8637
▁retrovirus	-11.8637
▁2.68	-11.864
ACT	-11.864
▁Five	-11.8646
▁3.54	-11.8646
RED	-11.8647
▁1.54	-11.8648
▁0.82	-11.8652
DMA	-11.8654
]−	-11.8654
hydroformylation	-11.8657
▁initiate	-11.8658
)-7	-11.8659
stimulatory	-11.866
▁diversity	-11.8661
▁transiently	-11.8663
▁exothermic	-11.8665
-01	-11.8668
▁FA	-11.8669
▁furthermore	-11.8669
▁node	-11.8671
▁lacks	-11.8671
▁isothiazolyl	-11.8672
▁kinetic	-11.8673
▁checked	-11.8673
▁Different	-11.8674
▁inserting	-11.8681
▁catheter	-11.8682
▁trichloride	-11.8684
hetero	-11.8684
▁1:10	-11.8685
▁luminescent	-11.8686
actin	-11.8687
▁adversely	-11.869
▁295	-11.8692
flow	-11.8692
TP	-11.8694
▁Salmonella	-11.8695
▁82%	-11.8696
▁hundred	-11.8699
▁Oct	-11.8704
▁accompanied	-11.8704
▁glioblastoma	-11.8704
▁network	-11.8704
-((	-11.8707
sulfonylamino	-11.8709
eds	-11.8709
5.0	-11.8711
▁224	-11.8714
▁neutrophils	-11.8714
▁238	-11.8715
▁suppressed	-11.8723
▁4.09	-11.8723
7%	-11.8723
▁steric	-11.8725
ella	-11.8725
▁2.39	-11.8726
▁3.38	-11.8727
/100	-11.8728
▁CB	-11.8728
▁constituents	-11.8728
▁8.35	-11.873
20-	-11.8733
▁0.72	-11.8734
▁2.19	-11.8735
▁HGF	-11.8735
▁1.68	-11.8737
▁(14)	-11.8738
▁2.88	-11.8739
=1,	-11.8739
body	-11.874
Ex	-11.8741
▁(180	-11.8741
thiadiazole	-11.8742
prophylactically	-11.8746
▁intervening	-11.8747
two	-11.8753
▁analyze	-11.8755
▁4.17	-11.8755
▁Streptomyces	-11.8755
▁incidence	-11.8755
XIII	-11.8756
8.5	-11.8756
▁Reagent	-11.8756
=0.8	-11.8763
▁8.27	-11.8764
▁0.68	-11.8766
▁2.58	-11.8767
-[4-	-11.8769
▁manual	-11.8771
▁availability	-11.8772
▁continuation	-11.8772
268	-11.8777
▁Ill	-11.878
amyl	-11.878
-7,8-	-11.8781
▁macular	-11.8782
▁3.59	-11.8782
▁phosgene	-11.8782
▁edema	-11.8783
▁unlabeled	-11.8783
ylene	-11.8785
▁plotted	-11.8786
▁3.02	-11.8787
▁194	-11.8791
▁297	-11.8791
▁6.68	-11.8794
sc	-11.8795
▁DMA	-11.8796
▁impregnated	-11.8798
▁3.37	-11.88
234	-11.88
▁Generation	-11.8801
▁caspase	-11.8802
▁Injection	-11.8803
▁9.6	-11.8804
7.3	-11.8805
deficient	-11.8806
▁thereon	-11.8806
▁cleaning	-11.8809
▁(2.7	-11.881
▁pot	-11.881
▁gl	-11.881
▁MASP	-11.8813
-[4-(3-	-11.8814
)2—	-11.8817
▁Chiral	-11.8817
▁dimethylamine	-11.8818
▁denaturing	-11.8821
phos	-11.8824
▁quite	-11.8824
▁10.8	-11.8825
(2,4-	-11.8825
▁380	-11.8825
▁hexamethyl	-11.8826
▁3.17	-11.8827
▁fruit	-11.8828
▁Multi	-11.8828
▁3.61	-11.883
▁Primary	-11.883
▁208	-11.8831
para	-11.8832
▁sleep	-11.8834
▁cleaving	-11.8835
▁immunizing	-11.8837
▁ultrafiltration	-11.8837
▁streptomycin	-11.8839
phenylthio	-11.8841
▁transmission	-11.8842
▁2.82	-11.8842
▁292	-11.8844
▁9:	-11.8845
▁Host	-11.8847
▁glycosyl	-11.8847
▁exons	-11.8847
▁confers	-11.8848
▁298	-11.885
▁inserts	-11.8853
▁(0.22	-11.8854
▁diluting	-11.8854
▁biomarker	-11.8855
▁9.2	-11.8855
▁4000	-11.8857
eno	-11.8857
▁chicken	-11.8859
propylamine	-11.8861
▁42°	-11.8863
▁1.58	-11.8863
▁2.04	-11.8863
▁discharge	-11.8865
▁width	-11.8866
▁8.26	-11.8867
▁222	-11.8868
▁equally	-11.8872
▁(140	-11.8874
▁capped	-11.8874
)-1,3,4-	-11.8875
▁year	-11.8876
=9.6	-11.8876
▁95:5	-11.8876
▁400°	-11.8876
▁calculation	-11.8877
▁arylthio	-11.8879
▁generic	-11.8882
{[(	-11.8882
BI	-11.8882
lipid	-11.8883
▁diffuse	-11.8883
ami	-11.8883
▁diagnosing	-11.8885
hexanoic	-11.8885
▁Enzymol	-11.8887
GT	-11.8889
▁4.11	-11.8891
toluenesulfonate	-11.8891
}-5-	-11.8892
▁phenylene	-11.8893
Cr	-11.8893
Roche	-11.8894
)-3-(3-	-11.8895
▁homogenized	-11.8896
▁2.74	-11.8899
▁2.93	-11.8901
▁document	-11.8901
▁184	-11.8901
▁fructose	-11.8902
14)	-11.8904
▁salicylic	-11.8904
▁magnitude	-11.8907
phosphinyl	-11.8907
butyloxycarbonyl	-11.8907
▁nucleobases	-11.8907
▁analgesic	-11.8907
HIV	-11.8908
▁1.62	-11.8911
▁Meth	-11.8912
▁mini	-11.8913
▁209	-11.8915
▁desirably	-11.8915
▁alia	-11.8916
6.0	-11.8917
▁transferring	-11.8917
mRNA	-11.8918
▁Tablets	-11.8919
▁Syndrome	-11.892
▁2.54	-11.892
Rad	-11.8923
▁sc	-11.8925
▁phospholipid	-11.8927
▁maleimide	-11.8927
▁1988,	-11.893
regulated	-11.8931
▁triglycerides	-11.8938
▁8.24	-11.894
▁filtrated	-11.894
▁1.90	-11.8942
▁malic	-11.8943
▁MCP	-11.8944
▁respond	-11.8947
▁triacetoxyboro	-11.8952
▁("	-11.8953
ay	-11.8953
127	-11.8953
▁6,7-	-11.8954
▁2.98	-11.8955
▁14-	-11.8955
▁PGE	-11.8956
=15	-11.8956
salt	-11.8957
▁Usually	-11.8959
CK	-11.8961
0.2°	-11.8961
11-	-11.8962
▁sprays	-11.8964
▁Chemicals	-11.8966
6.8	-11.8966
▁NT	-11.8967
▁Perkin	-11.8968
▁sold	-11.8969
▁TG	-11.897
▁LT	-11.897
MW	-11.8971
▁median	-11.8971
▁(3×50	-11.8971
▁7.5,	-11.8971
▁33,	-11.8971
562	-11.8973
205	-11.8974
▁dividing	-11.8978
▁scores	-11.8979
-(7-	-11.8979
▁PNAS	-11.898
▁2.84	-11.8981
6.7	-11.8985
▁3-4	-11.8985
▁201	-11.8991
Stratagene	-11.8991
▁4.38	-11.8995
▁Coupling	-11.8998
▁monomethyl	-11.8998
Hodgkin	-11.9
▁metathesis	-11.9003
▁Nuclear	-11.9004
▁265	-11.9005
▁4.42	-11.9006
▁20.0	-11.9006
benzopyran	-11.9006
▁triflate	-11.9006
▁configurations	-11.9008
)-1-(3-	-11.9014
gas	-11.9016
▁187	-11.9016
chemical	-11.9017
▁2.52	-11.9017
NF	-11.9017
PF	-11.9018
▁homozygous	-11.9018
▁BB	-11.9019
116	-11.9019
Ic	-11.9019
▁Formation	-11.902
▁lymphomas	-11.9023
▁ESIMS	-11.9023
ence	-11.9027
1-20	-11.9032
▁synthesizer	-11.9033
▁3.48	-11.9033
▁disrupted	-11.9034
second	-11.9035
▁1.52	-11.9038
▁420	-11.9038
▁SD	-11.9042
▁aminocarbonyl	-11.9045
UTR	-11.9046
)-4,4-	-11.9046
▁steady	-11.9047
▁6.25	-11.9048
carb	-11.905
▁(21	-11.9052
▁biopsy	-11.9052
▁Ten	-11.9052
▁ethoxide	-11.9053
dioxa	-11.9054
-500	-11.9054
▁3.08	-11.9055
▁benzyloxy	-11.9055
▁subclass	-11.9055
▁(23	-11.9057
▁3.43	-11.9061
▁creating	-11.9061
▁tungsten	-11.9063
ethan	-11.9064
▁platform	-11.9066
-[3-(	-11.9067
▁4.23	-11.9067
▁breeding	-11.9068
pentenyl	-11.907
▁203	-11.9071
80,	-11.9072
cyclobutane	-11.9073
▁2.47	-11.9075
EtOH	-11.9075
▁chilled	-11.9075
▁thickening	-11.9078
TR	-11.9079
254	-11.908
▁extend	-11.9085
dihydropyridine	-11.9085
cf	-11.9086
▁SNPs	-11.9086
▁(350	-11.9086
▁benzimidazolyl	-11.9089
▁2.48	-11.9091
▁pools	-11.9092
▁printing	-11.9092
▁polymorphisms	-11.9097
CDRs	-11.9102
▁insecticidal	-11.9104
▁runs	-11.9104
(1)	-11.9106
▁6.67	-11.9111
▁2.03	-11.9112
▁Her	-11.9113
▁Especially	-11.9114
▁convenience	-11.9114
om	-11.9115
▁Or	-11.9115
EDTA	-11.9116
phenylpropyl	-11.9116
▁Suzuki	-11.9117
▁amplifying	-11.9117
▁tolerated	-11.9119
▁4.27	-11.9119
▁3.28	-11.912
128	-11.912
▁sulfite	-11.9121
▁MCF	-11.9121
cat	-11.9121
▁singly	-11.9123
▁pulse	-11.9126
(5-	-11.9127
▁9:1	-11.9131
▁2.97	-11.9133
▁Sep	-11.9135
endo	-11.9135
ylcarbonyl	-11.9138
mmunosuppressive	-11.9142
▁phosphonium	-11.9144
▁3.03	-11.9146
▁diisocyanate	-11.9146
▁3.16	-11.9148
1000	-11.9151
▁maltose	-11.9151
▁4.65	-11.9151
▁exceed	-11.9153
▁0.49	-11.9155
let	-11.9155
ov	-11.9157
▁1.53	-11.9162
▁BF	-11.9162
▁Microbiol	-11.9163
93	-11.9163
)-2-(3-	-11.9165
▁11.6	-11.9166
▁NCH	-11.9166
▁8.32	-11.9167
▁0;	-11.9167
▁212	-11.9171
▁39,	-11.9171
=0.5	-11.9172
undec	-11.9179
▁4.24	-11.9181
her	-11.9182
▁canine	-11.9184
▁eliminating	-11.9185
▁glycoproteins	-11.9187
NHS	-11.9188
▁Center	-11.9188
ist	-11.9188
▁3.53	-11.9189
▁inch	-11.9189
▁evaluating	-11.919
▁pigments	-11.9192
▁ulcerative	-11.9193
)-5-(2-	-11.9193
host	-11.9194
▁Con	-11.9196
▁4.19	-11.92
pe	-11.9203
▁sonicated	-11.9203
Oxo	-11.9204
▁4.36	-11.9204
trityl	-11.9204
▁227	-11.9205
▁synthetase	-11.9208
carboxaldehyde	-11.9211
-(3,5-	-11.9211
▁CP	-11.9213
▁mannose	-11.9215
GL	-11.9217
phosphoric	-11.9219
▁ret	-11.9219
▁Complex	-11.9219
▁Experiment	-11.9221
▁3×	-11.9221
pentamethyl	-11.9222
▁Mixture	-11.9227
▁SB	-11.9228
▁subtypes	-11.923
▁0.77	-11.9232
▁Biotage	-11.9234
▁starches	-11.9235
▁movement	-11.9237
Applied	-11.9237
▁pyrrolidone	-11.9238
▁delaying	-11.9238
▁(0.30	-11.9239
▁13.5	-11.9239
fwd	-11.9239
▁2001,	-11.924
▁3.44	-11.9243
▁CHLOROFORM	-11.9245
oxime	-11.9245
▁pyridinium	-11.9246
enriched	-11.9246
▁concentrating	-11.9251
▁Variants	-11.9253
▁22°	-11.9253
4.9	-11.9254
▁activators	-11.9254
harmacologically	-11.9256
▁370	-11.926
▁2.41	-11.9264
sen	-11.9265
phospho	-11.9265
▁defective	-11.9267
oxetan	-11.9267
toluenesulfonyl	-11.9269
▁CSF	-11.9269
cycloalkenyl	-11.9271
▁8.29	-11.9271
ATP	-11.9276
ll	-11.9276
▁AM	-11.9277
pressure	-11.9277
▁PdCl	-11.9279
145	-11.9279
▁entities	-11.928
nm	-11.9281
▁anions	-11.9286
▁2.86	-11.9286
▁morphology	-11.9289
▁drawings	-11.929
▁finished	-11.9291
▁lipase	-11.9292
▁Bu	-11.9293
▁Practice	-11.9294
▁regulator	-11.9294
oxymethyl	-11.9295
▁Polymer	-11.9298
▁figures	-11.9298
▁3.46	-11.9298
▁STAT	-11.9302
▁handling	-11.9303
▁Primer	-11.9304
indan	-11.9305
▁optimize	-11.9305
▁11.2	-11.9306
▁204	-11.9309
▁216	-11.9309
▁2).	-11.931
▁0.76	-11.9311
▁TAT	-11.9311
dimethylpropyl	-11.9311
▁TBS	-11.9315
▁Arabidopsis	-11.9315
▁Chapter	-11.9316
▁Bis	-11.9318
▁4.21	-11.9321
ogenic	-11.9321
▁Weight	-11.9322
▁3.39	-11.9324
▁uM	-11.9325
▁4.80	-11.9325
▁susceptibility	-11.9325
cal	-11.9326
▁90,	-11.9327
▁2.89	-11.9327
amidino	-11.9328
▁2.57	-11.9329
targeting	-11.9331
Bi	-11.9331
▁32,	-11.9332
▁algorithms	-11.9333
pt	-11.9334
▁Products	-11.9334
▁calibration	-11.9334
▁2.77	-11.9335
▁Cry	-11.9336
-7-(	-11.9339
fluorescence	-11.9339
▁2.01	-11.934
▁3.01	-11.934
▁3.41	-11.934
▁balloon	-11.9345
▁1.67	-11.9347
▁3.27	-11.9348
▁Derivatives	-11.9349
▁pyrolysis	-11.9353
glycol	-11.9354
▁23.	-11.9355
▁2.56	-11.9355
235	-11.9357
▁Appropriate	-11.9357
▁scan	-11.936
▁singular	-11.9362
imidazolidin	-11.9362
▁38,	-11.9363
▁replicate	-11.9363
ORF	-11.9364
DV	-11.9364
▁incomplete	-11.9365
▁2.61	-11.9366
buffered	-11.9366
▁disrupt	-11.9367
butanoate	-11.9367
▁7.4,	-11.9367
tion	-11.9367
BuLi	-11.9367
▁3.33	-11.937
▁malonate	-11.9374
nzyloxycarbonyl	-11.9375
▁pretreatment	-11.9378
▁4.60	-11.9379
▁3.24	-11.9379
▁4.58	-11.938
]:	-11.9383
▁(2.3	-11.9384
ities	-11.9384
201	-11.9385
1,4	-11.9385
▁match	-11.9386
▁extending	-11.9387
▁Reduction	-11.9387
▁break	-11.939
DS	-11.9392
▁202	-11.9393
SK	-11.9393
ob	-11.9394
▁comparisons	-11.9396
▁horseradish	-11.9399
butylamino	-11.9401
▁releasing	-11.9402
▁2.76	-11.9404
GR	-11.9405
)-5-(4-	-11.9405
▁western	-11.9406
▁206	-11.9406
▁Xa	-11.9409
▁5,6-	-11.9409
+);	-11.9411
mo	-11.9411
▁0.64	-11.9412
▁pieces	-11.9416
configuration	-11.9416
▁ending	-11.9417
▁Physiol	-11.9421
▁considerable	-11.9422
▁beige	-11.9425
▁DEAE	-11.9428
covalent	-11.9428
▁deuterated	-11.943
▁optimization	-11.9431
▁BSUM	-11.9431
▁rh	-11.9432
▁Experiments	-11.9433
▁3.06	-11.9434
▁vanadium	-11.9434
▁requirement	-11.9434
methylcarbamoyl	-11.9435
▁indium	-11.9436
▁carbonic	-11.9438
▁12.8	-11.9441
▁7.36-7.	-11.9441
Ci	-11.9443
▁(0.9	-11.9443
▁GPR	-11.9444
▁226	-11.9446
=3.5	-11.9446
▁psia	-11.9446
▁Applicants	-11.9446
sequence	-11.945
(1,1-	-11.945
▁Agilent	-11.9453
(2,6-	-11.9453
▁proximal	-11.9453
com	-11.9454
▁Rd	-11.9454
-5-(3-	-11.9455
▁alkyne	-11.9456
▁(1982)	-11.9456
▁Dr	-11.9456
final	-11.9456
oxopropyl	-11.9458
▁tuberculosis	-11.9458
▁(0.75	-11.9458
glycerol	-11.9459
▁der	-11.946
▁met	-11.946
▁2.96	-11.946
▁3.51	-11.9462
TE	-11.9462
09	-11.9464
▁polysorbate	-11.9464
▁assessing	-11.9465
cl	-11.9467
ethanolamine	-11.9469
▁Separation	-11.9469
polymer	-11.947
▁con	-11.947
ketone	-11.947
propionamide	-11.9472
nic	-11.9473
▁2.11	-11.9473
▁shifts	-11.9473
▁classical	-11.9474
▁4.45	-11.9476
state	-11.9477
▁(48	-11.9478
▁uterine	-11.9481
cysteine	-11.9483
▁expensive	-11.9486
Cy	-11.9487
5′	-11.9488
▁5.15	-11.9488
▁Gas	-11.9489
▁mRNAs	-11.949
butynyl	-11.9491
▁BCMA	-11.9492
▁2′	-11.9492
▁intrinsic	-11.9492
▁cassettes	-11.9494
▁traditional	-11.9497
▁stretch	-11.9499
▁lectin	-11.95
▁somewhat	-11.95
MD	-11.9503
▁4.39	-11.9504
nicotinic	-11.9504
▁chelate	-11.9504
scale	-11.9505
filled	-11.9506
Isopropyl	-11.9508
▁197	-11.9509
▁2.59	-11.951
=12.0	-11.9511
paraformaldehyde	-11.9511
▁Id	-11.9511
▁specificities	-11.9513
▁hydrazide	-11.9513
▁situations	-11.9516
▁ICAM	-11.9519
▁Rat	-11.952
▁aging	-11.9522
▁Polynucleotides	-11.9522
▁opioid	-11.9523
330	-11.9523
▁thioether	-11.9524
▁AcOEt	-11.9525
▁redox	-11.9526
▁neomycin	-11.9527
▁enter	-11.9528
DT	-11.9528
▁0.41	-11.9528
▁(32	-11.9529
oxazine	-11.9529
▁(0.19	-11.9529
▁TGA	-11.9533
▁neat	-11.9533
▁Chimeric	-11.9537
▁bisphenol	-11.9538
▁Subsequent	-11.954
▁Affinity	-11.9542
▁Inhibitors	-11.9543
▁2.81	-11.9546
▁1/2	-11.9546
▁4.26	-11.9547
ty	-11.955
115	-11.9551
▁2-(1-	-11.9552
—1_	-11.9553
▁3.47	-11.9555
▁207	-11.9555
▁Ma	-11.9557
▁4.32	-11.9558
▁Sch	-11.9558
▁probability	-11.956
▁MG	-11.9561
GLP	-11.9561
▁sol	-11.9562
▁switch	-11.9563
−)	-11.9563
▁hydrated	-11.9564
▁history	-11.9565
▁usable	-11.9565
▁aggregate	-11.9565
▁2.06	-11.9565
▁5,6	-11.9566
▁12.4	-11.9566
-3.	-11.9567
6.6	-11.9567
▁rounds	-11.9571
▁2.92	-11.9571
▁DP	-11.9572
=4.6	-11.9573
▁prop	-11.9575
▁(2.8	-11.9575
▁methodologies	-11.9575
▁medicaments	-11.9575
▁Plasma	-11.9576
▁325	-11.9578
▁28%	-11.9578
▁ultra	-11.958
▁sandwich	-11.9581
hexa	-11.9582
8.8	-11.9583
▁accepted	-11.9583
hi	-11.9587
▁contamination	-11.9592
determining	-11.9593
▁micrograms	-11.9594
▁steroids	-11.9598
hydroxybenzoate	-11.9598
▁knockout	-11.9599
dimethoxybenzyl	-11.9599
▁acetaldehyde	-11.96
▁6.72	-11.96
CX	-11.9601
▁iridium	-11.9604
▁Domain	-11.9607
▁0.58	-11.9607
pos	-11.9608
▁begins	-11.9609
biotin	-11.9612
▁hemagglutinin	-11.9613
▁dihydrate	-11.9613
▁azeotropic	-11.9614
▁recognizing	-11.9615
▁3.36	-11.9615
▁path	-11.9616
▁6.70	-11.9617
▁symbol	-11.9617
▁abovementioned	-11.9617
=3.2	-11.962
triol	-11.9621
reaction	-11.9623
▁malonic	-11.9625
{[	-11.9625
+1]+.	-11.9627
▁castor	-11.9629
9.5	-11.963
▁196	-11.9631
▁hydrophobicity	-11.9632
▁nodes	-11.9633
isoindoline	-11.9633
▁45,	-11.9634
▁therewith	-11.9637
▁0.63	-11.9638
▁ameliorate	-11.9639
WT	-11.9641
▁384	-11.9642
▁defects	-11.9642
HRP	-11.9642
(2,2-	-11.9643
thymidine	-11.9643
▁2.83	-11.9647
▁Yeast	-11.9648
▁mouth	-11.9648
▁apoptotic	-11.9653
▁85,	-11.9653
▁needs	-11.9654
IG	-11.9656
▁schedule	-11.9657
▁stationary	-11.9657
▁competent	-11.9658
-3,6-	-11.9658
▁Crude	-11.9658
▁2005	-11.966
▁99.5%	-11.966
▁245	-11.9661
165	-11.9662
ELISA	-11.9664
▁cocktail	-11.9665
▁synthetically	-11.9666
▁integrity	-11.9668
▁9.3	-11.9669
-9.	-11.9669
▁distinguished	-11.9669
▁Activation	-11.967
2,3-	-11.967
▁SN	-11.967
▁1.84	-11.967
▁(0.24	-11.9672
▁cytomegalovirus	-11.9673
82	-11.9675
▁twelve	-11.9677
typically	-11.9682
▁2.53	-11.9682
▁1.51	-11.9686
use	-11.9687
cr	-11.9687
▁2.79	-11.9687
DA	-11.9687
Perkin	-11.9687
▁4′-	-11.9691
▁amelioration	-11.9692
▁8.38	-11.9693
▁3.04	-11.9696
▁imidazo	-11.9703
▁dichloroethane	-11.9704
sub	-11.9705
site	-11.9705
▁183	-11.9706
-6-(4-	-11.9707
=9.3	-11.971
LT	-11.9712
9.1	-11.9712
drying	-11.9713
▁Oxford	-11.9714
▁5×	-11.9715
ever	-11.9717
either	-11.9718
▁6.60	-11.9718
selective	-11.9721
▁acetylation	-11.9722
▁judgment	-11.9724
▁2.71	-11.9724
▁mimetics	-11.9724
▁268	-11.9725
▁1.86	-11.9728
▁alkoxyl	-11.9728
▁(0.35	-11.9728
▁butane	-11.9729
histidine	-11.9729
▁mast	-11.973
▁Dis	-11.973
▁alkanes	-11.9731
▁DH	-11.9737
▁meal	-11.9738
reducing	-11.974
▁192	-11.974
▁1.63	-11.9741
▁MT	-11.9741
▁MeOD	-11.9743
▁deduced	-11.9744
▁ribozymes	-11.9745
▁egg	-11.9747
▁glycidyl	-11.9747
▁characterised	-11.9748
methylamine	-11.975
▁3.23	-11.9752
▁cycloaliphatic	-11.9753
▁Cap	-11.9753
▁viewpoint	-11.9753
▁cognate	-11.9755
▁dust	-11.9756
5'	-11.9758
▁1.57	-11.9763
ai	-11.9765
▁mmRNA	-11.9765
sulfate	-11.9766
▁Present	-11.9768
▁2.49	-11.9769
50)	-11.977
▁Siva	-11.9771
▁holes	-11.9772
▁0.74	-11.9774
-70	-11.9775
benzylamine	-11.9775
▁utilization	-11.9777
▁Elution	-11.9777
▁3.26	-11.9781
▁Carlsbad	-11.9781
methylbenzene	-11.9782
▁reasonable	-11.9782
▁5.25	-11.9784
▁silk	-11.9786
▁referenced	-11.9786
▁VGAM	-11.9786
▁Low	-11.9788
▁evacuated	-11.9791
▁halogens	-11.9791
▁quantitatively	-11.9792
▁FT	-11.9792
▁propanol	-11.9793
▁figure	-11.9794
▁8.39	-11.9795
▁pan	-11.9795
▁extensively	-11.9798
▁Software	-11.98
-13-	-11.9801
yne	-11.9804
leucine	-11.9806
1-6-	-11.9809
▁(1:1	-11.9809
▁inverted	-11.9811
136	-11.9813
▁375	-11.9813
▁1.92	-11.9815
▁subgroup	-11.9816
▁concentrates	-11.9816
XIV	-11.9818
288	-11.9819
butanediol	-11.9821
old	-11.9824
▁3.32	-11.9825
▁trimer	-11.9825
▁2004	-11.9826
▁(34	-11.9827
alkanoyl	-11.9827
▁serotype	-11.9828
▁218	-11.9828
0.9	-11.9829
▁fluidized	-11.9831
eth	-11.9832
FP	-11.9833
▁Surface	-11.9833
▁8.45	-11.9834
CTLA	-11.9834
▁8.50	-11.9836
sulfo	-11.9836
▁flu	-11.9836
▁REFERENCE	-11.9837
▁7.4)	-11.984
▁GS	-11.9842
▁recycling	-11.9843
▁reversible	-11.9844
ole	-11.9845
uronium	-11.9849
8°	-11.9852
▁mammary	-11.9853
▁4.29	-11.9856
-4-(1-	-11.9858
▁Procedures	-11.9858
▁assaying	-11.986
▁whereupon	-11.9863
New	-11.9866
[1,3]	-11.9867
▁tetramethyl	-11.9869
▁4.41	-11.9872
▁mill	-11.9872
▁Therapeutics	-11.9872
▁osteoarthritis	-11.9872
154	-11.9873
Rc	-11.9874
▁bleeding	-11.9877
▁42,	-11.9877
=1.1	-11.9878
Hexane	-11.988
produced	-11.988
▁erythematosus	-11.9882
▁consequence	-11.9882
▁BALB	-11.9883
ified	-11.9884
▁ISIS	-11.9885
▁spontaneous	-11.9885
del	-11.9886
▁1987,	-11.989
chromen	-11.9892
-300	-11.9893
▁photosensitive	-11.9893
pyrazino	-11.9894
▁isopropoxy	-11.9895
quinoxalin	-11.9896
▁0.81	-11.9897
▁#1	-11.9898
▁chloromethyl	-11.9898
)-5,6,7,8-	-11.9899
phosphoryl	-11.9899
▁(3.3	-11.9901
▁investigate	-11.9905
BOC	-11.9906
▁Reagents	-11.9906
▁(3.6	-11.9908
▁mols	-11.9908
▁beam	-11.9912
▁directing	-11.9915
▁heptyl	-11.9915
▁iii	-11.9915
▁measurable	-11.9916
▁dibutyl	-11.9917
16-	-11.9918
▁3.21	-11.9922
boiling	-11.9927
propanediol	-11.9934
▁Streptococcus	-11.9935
▁6.74	-11.9935
point	-11.9936
▁um	-11.9937
-45	-11.9943
▁Chloroform	-11.9944
▁Alkyl	-11.9945
▁(4.6	-11.9946
▁thermally	-11.9947
▁1.87	-11.9948
▁denoted	-11.9949
▁(29	-11.9951
▁largely	-11.9954
▁methacrylic	-11.9956
▁XIV	-11.9958
CV	-11.9959
▁1.76	-11.9959
▁dielectric	-11.9959
▁6.62	-11.996
Mass	-11.996
▁11.4	-11.9961
▁(700	-11.9961
▁1.66	-11.9962
▁specimens	-11.9963
▁8.55	-11.9964
val	-11.9965
▁1.83	-11.9965
▁melted	-11.9967
pyrrolyl	-11.9968
▁2.94	-11.9968
006	-11.9969
▁know	-11.9971
▁(85	-11.9972
95%	-11.9972
fer	-11.9973
▁heterocycles	-11.9974
▁Thermo	-11.9981
▁methoxycarbonyl	-11.9982
▁(7.5	-11.9982
409	-11.9983
▁Engineering	-11.9983
▁cascade	-11.9984
▁nmol	-11.9985
▁evidenced	-11.9986
▁3.49	-11.9987
▁trehalose	-11.9988
▁interior	-11.9988
▁arrest	-11.9988
▁4.33	-11.9989
▁racemate	-11.9989
▁248	-11.9991
ron	-11.9993
▁TF	-11.9994
▁xenograft	-11.9995
TX	-11.9996
▁12.6	-11.9999
recombinant	-12.0001
▁Amplification	-12.0001
▁0.73	-12.0003
▁8.48	-12.0004
2-8	-12.0004
▁subtilis	-12.0005
Id	-12.0006
▁PSA	-12.0007
▁hydrogel	-12.001
▁Het	-12.0012
▁Extraction	-12.0013
▁codes	-12.0014
▁plane	-12.0014
▁messenger	-12.0015
reactivity	-12.0016
pyridinium	-12.0017
▁1.59	-12.0017
▁industry	-12.0017
▁overcome	-12.0017
▁NA	-12.0018
▁productivity	-12.002
LD	-12.0021
▁carries	-12.0022
den	-12.0023
▁RF	-12.0026
▁carbodiimide	-12.0028
▁en	-12.0028
900	-12.0029
▁repertoire	-12.003
480	-12.0033
▁(5.5	-12.0034
▁slide	-12.0035
▁tip	-12.0036
▁Definitions	-12.0037
▁Transgenic	-12.0037
Hex	-12.0038
▁0-3	-12.0046
▁266	-12.0046
alcohol	-12.005
▁4.55	-12.0051
▁2.69	-12.0054
▁Fluorescence	-12.0054
▁developmental	-12.0055
▁13.0	-12.0057
methylpiperidine	-12.0059
▁Development	-12.006
▁adenoviral	-12.0061
ethylthio	-12.0062
hexan	-12.0064
▁296	-12.0065
ana	-12.0067
▁1.88	-12.0067
▁IPTG	-12.0069
isomers	-12.0071
▁angiotensin	-12.0071
affinity	-12.0074
▁depletion	-12.0076
▁superfamily	-12.0076
▁ddd	-12.0081
▁PET	-12.0081
%;	-12.0082
▁specimen	-12.0084
▁3.07	-12.0084
=9.1	-12.0084
▁94%	-12.0086
▁219	-12.0087
Rx	-12.0087
▁0.53	-12.0087
▁1.64	-12.0088
://	-12.0088
▁coordination	-12.0088
▁8.40	-12.0089
IIIa	-12.009
▁faster	-12.0092
CHR	-12.0093
▁Cross	-12.0096
ik	-12.0096
▁formats	-12.0097
De	-12.0097
▁0.62	-12.0098
strand	-12.0098
▁3.19	-12.0099
▁workup	-12.0102
▁(3.4	-12.0104
▁wishing	-12.0106
▁APC	-12.0107
▁nuclei	-12.0111
▁epi	-12.0111
▁11.3	-12.0112
▁horse	-12.0112
▁broadly	-12.0112
▁pest	-12.0113
▁1.97	-12.0114
disubstituted	-12.0114
▁hGH	-12.0116
▁oxadiazolyl	-12.0116
Ru	-12.0117
uracil	-12.0118
2-(	-12.0118
▁4.75	-12.012
▁considerably	-12.012
▁237	-12.012
▁diatomaceous	-12.0121
▁ultimately	-12.0121
ut	-12.0124
▁unstable	-12.0126
▁pyrazine	-12.0126
▁killed	-12.0127
▁glycolic	-12.0127
pyridylmethyl	-12.0128
▁infra	-12.0129
▁3.29	-12.0131
▁CAT	-12.0131
enoate	-12.0132
▁idiopathic	-12.0132
▁leukocyte	-12.0133
▁2.99	-12.0134
▁exposing	-12.0135
ard	-12.0139
▁5.10	-12.014
▁flux	-12.0141
▁CDC	-12.0142
▁thiourea	-12.0144
▁repeatedly	-12.0144
▁191	-12.0145
005	-12.0146
(3,4-	-12.0148
▁6.63	-12.0149
▁formalin	-12.0149
−/−	-12.0151
▁paragraphs	-12.0152
▁Positive	-12.0152
▁(2.6	-12.0154
▁polyether	-12.0156
▁adjustment	-12.0157
▁AUC	-12.0157
▁sublingual	-12.0158
lan	-12.0158
▁triethanolamine	-12.0161
▁sulfonates	-12.0161
coupled	-12.0165
▁gasoline	-12.0165
▁fats	-12.0166
▁minus	-12.0166
▁228	-12.0166
1—	-12.0167
▁generates	-12.0168
butanoyl	-12.0168
▁8.37	-12.017
▁2.09	-12.0171
▁glaucoma	-12.0171
▁OCF	-12.0171
▁5.05	-12.0173
▁480	-12.0173
▁observations	-12.0176
▁1.77	-12.0177
190	-12.0179
▁(42	-12.0183
-(3,4-	-12.0183
indoline	-12.0185
▁cyclopentane	-12.0187
▁1.99	-12.0189
▁prostaglandin	-12.019
ants	-12.0191
▁na	-12.0193
▁autologous	-12.0194
▁cultivated	-12.0194
▁contrary	-12.0194
▁Pr	-12.0199
▁En	-12.0199
▁fabric	-12.02
▁sent	-12.0203
▁8.34	-12.0204
▁dynamic	-12.0205
▁former	-12.0206
▁modulated	-12.0206
-75	-12.0209
▁Prism	-12.0209
▁1.89	-12.0211
subject	-12.0213
▁264	-12.0214
pentan	-12.0216
▁diethylether	-12.0217
▁500°	-12.0217
▁virtually	-12.022
▁3.11	-12.0223
benzodiazepin	-12.0223
▁briefly	-12.0226
▁5,000	-12.0226
methylpyridine	-12.0227
(9	-12.0228
119	-12.0228
▁immersed	-12.0229
▁4,4	-12.023
▁Liposomes	-12.0233
▁276	-12.0235
surface	-12.0238
▁255	-12.0241
▁3.34	-12.0242
▁constituting	-12.0242
▁Industries	-12.0244
▁Preferable	-12.0244
indene	-12.0246
▁NCBI	-12.0247
▁diester	-12.0252
neu	-12.0253
ula	-12.0254
▁3.31	-12.0254
LCMS	-12.0257
▁situation	-12.0258
dinitro	-12.0258
late	-12.026
CCl	-12.0264
[1,2,4]	-12.0266
▁ethoxycarbonyl	-12.0267
3.4	-12.0272
▁6.73	-12.0272
EV	-12.0272
▁octane	-12.0272
▁actually	-12.0272
▁quantitated	-12.0273
▁concomitant	-12.0274
▁multimeric	-12.0275
▁2002,	-12.028
▁Volume	-12.0281
-11.	-12.0282
5.8	-12.0282
▁boiled	-12.0284
▁kaolin	-12.0289
EE	-12.0289
▁2.87	-12.029
)-3-((	-12.0294
▁2.91	-12.0294
=0.9	-12.0295
linear	-12.0297
▁Ro	-12.0297
ba	-12.0298
▁benzothiazolyl	-12.0299
▁syntheses	-12.0299
▁shaped	-12.0299
▁15.0	-12.03
▁8.52	-12.0303
▁IIa	-12.0306
▁molding	-12.0306
▁his	-12.0306
▁umol	-12.0306
003	-12.0306
▁(0.21	-12.0308
▁1.79	-12.0312
▁thiadiazolyl	-12.0315
▁grafted	-12.0316
▁13.2	-12.0316
▁8.31	-12.0318
▁centrifugal	-12.0319
▁Ultra	-12.0321
▁(0.02	-12.0325
▁deleterious	-12.033
ace	-12.0331
▁brief	-12.0333
acting	-12.0334
▁plasmon	-12.0334
102	-12.0335
▁4,4-	-12.0335
▁fibrinogen	-12.0336
▁hapten	-12.0336
▁mimetic	-12.0336
▁ethylacetate	-12.0337
▁1.94	-12.0337
▁4-1	-12.0338
nt	-12.0339
▁virtue	-12.0339
No	-12.034
▁pmol	-12.0342
-[3-	-12.0343
▁Molecules	-12.0344
▁Summary	-12.0344
propanoyl	-12.035
▁4.48	-12.0353
▁sorting	-12.0355
▁490	-12.0357
▁inherent	-12.0358
▁0.69	-12.0358
▁tables	-12.0359
▁25%,	-12.0362
▁9.1	-12.0364
▁approx	-12.0366
▁Ko	-12.0366
bu	-12.0366
▁Mp	-12.0366
▁Fragments	-12.0367
▁leukocytes	-12.0368
▁(1.9	-12.0369
GlcNAc	-12.037
▁1.96	-12.0372
▁1:3	-12.0373
▁37,	-12.0374
▁4.46	-12.0374
▁dipeptide	-12.0375
▁excretion	-12.0375
▁[1	-12.0375
anthracene	-12.0377
NHSO	-12.0379
▁assist	-12.0381
▁carbocycle	-12.0383
▁286	-12.0384
▁successive	-12.0394
methylpiperazine	-12.0394
▁hemi	-12.0394
▁oxazole	-12.0394
)-2,5-	-12.0397
▁oxidant	-12.0397
▁defect	-12.04
▁bars	-12.0402
▁activates	-12.0403
pectrophotometer	-12.0404
etrafluoroborate	-12.0405
▁labile	-12.0406
▁methylthio	-12.0406
▁(33	-12.0408
▁intrathecal	-12.0409
▁collect	-12.041
▁Properties	-12.0412
▁glyceryl	-12.0413
▁porcine	-12.0413
▁1.61	-12.0414
▁(1980)	-12.0415
▁say	-12.0418
▁bridging	-12.0422
▁lozenges	-12.0423
▁cynomolgus	-12.0427
▁outcome	-12.0428
▁mercury	-12.0428
▁FL	-12.0431
regulation	-12.0433
▁swelling	-12.0434
▁item	-12.0435
118	-12.0435
(1,3-	-12.0436
▁adducts	-12.0436
▁introns	-12.0437
▁modeling	-12.0438
▁flanked	-12.0439
▁serially	-12.0443
3.8	-12.0444
▁eV	-12.0444
▁4,4′-	-12.0445
EM	-12.0445
▁primates	-12.0445
168	-12.0446
DC	-12.0446
▁Male	-12.0446
▁DCC	-12.0447
▁solidified	-12.0448
4(	-12.045
▁sepsis	-12.0451
art	-12.0451
▁12.2	-12.0451
▁aptamers	-12.0453
▁(0.23	-12.0453
▁GPC	-12.0455
▁Numerous	-12.0456
▁(0.45	-12.0456
▁exo	-12.0457
▁erbB	-12.0457
▁8.36	-12.0461
particularly	-12.0461
▁tools	-12.0464
▁CM	-12.0465
002	-12.0466
▁distinguish	-12.0467
▁adeno	-12.0468
▁agricultural	-12.047
▁trimethylamine	-12.0471
▁numbered	-12.0472
=4.7	-12.0472
▁solely	-12.0472
▁189	-12.0473
▁muscular	-12.0474
▁halogenating	-12.0475
▁droplets	-12.0475
▁sialic	-12.0476
▁rapamycin	-12.0476
▁41,	-12.0476
ethylhexyl	-12.0478
▁6.69	-12.0479
uridine	-12.048
Gene	-12.048
▁polyamine	-12.048
▁(38	-12.0482
dimethylbutyl	-12.0482
myc	-12.0484
▁8.42	-12.0485
cyclohexylmethyl	-12.0485
▁FOR	-12.0486
-3-(1-	-12.0486
▁11.8	-12.0487
▁(2×100	-12.0489
0.2,	-12.0496
▁continue	-12.05
▁benzofuranyl	-12.0501
▁aged	-12.0501
0%	-12.0501
▁294	-12.0501
trifluoroethoxy	-12.0502
▁electrophoretic	-12.0503
▁warming	-12.0505
▁racemates	-12.0506
▁aeruginosa	-12.0507
▁Pharmaceuticals	-12.0509
Fluorophenyl	-12.0509
▁descriptions	-12.0511
▁6.71	-12.0512
▁0-2	-12.0512
▁TRAIL	-12.0513
phthalimide	-12.0519
▁5.12	-12.0519
va	-12.052
cd	-12.0522
▁pelleted	-12.0522
▁phosphonic	-12.0523
▁fluorenyl	-12.0527
431	-12.0527
quin	-12.0528
▁mercaptan	-12.0529
▁Humanized	-12.0531
2.6	-12.0533
cresol	-12.0533
▁(37	-12.0533
Mo	-12.0536
287	-12.0537
▁report	-12.0538
▁substitute	-12.0538
▁Dev	-12.054
▁Le	-12.054
amp	-12.0542
▁listing	-12.0542
▁stronger	-12.0542
▁malignancies	-12.0543
lactone	-12.0545
▁269	-12.0546
▁Substituted	-12.0546
▁XVI	-12.0546
▁Fisher	-12.0546
both	-12.0547
▁pumped	-12.0548
▁0.54	-12.055
▁polyurethane	-12.0552
▁cortex	-12.0553
▁transplanted	-12.0555
▁glioma	-12.0556
138	-12.0557
▁−70°	-12.0558
▁azo	-12.0558
▁acrylamide	-12.0559
▁259	-12.0561
▁propellant	-12.0562
mole	-12.0563
carboxyl	-12.0565
XL	-12.0565
▁(0.26	-12.0568
▁isotopically	-12.0568
▁benzaldehyde	-12.057
ung	-12.0571
▁75,	-12.0572
▁lipoprotein	-12.0573
benzothiazole	-12.0573
▁2.5%	-12.0574
▁0.79	-12.0578
▁2-4	-12.0579
▁4-(5-	-12.0582
FF	-12.0583
▁row	-12.0585
▁milliliters	-12.0587
▁HBr	-12.0589
▁NHS	-12.0592
▁properly	-12.0593
▁disc	-12.0597
▁elongation	-12.0599
▁fluoroalkyl	-12.06
▁improves	-12.0608
▁Over	-12.0608
catalyst	-12.0613
▁mounted	-12.0614
ara	-12.0617
▁100,000	-12.0618
RL	-12.0621
tro	-12.0623
▁deviation	-12.0624
ification	-12.0625
▁evaporating	-12.0625
Ir	-12.0626
▁mucosa	-12.0626
▁213	-12.0627
▁55,	-12.0628
▁Lu	-12.0629
▁catalyze	-12.063
▁9.4	-12.0631
▁241	-12.0633
▁6.66	-12.0634
▁dimeric	-12.0635
▁mutein	-12.0635
▁exclude	-12.0635
our	-12.0638
su	-12.064
▁electrochemical	-12.0642
▁0-100%	-12.0643
ESIpos	-12.0644
▁5.20	-12.0646
▁Full	-12.0647
dibenzylidene	-12.0647
▁(0.28	-12.0647
▁cultivation	-12.065
undue	-12.0651
▁Encoding	-12.0651
▁3-(5-	-12.0654
▁retaining	-12.0654
▁moving	-12.0654
▁1100	-12.0661
′),	-12.0662
▁anesthetized	-12.0664
▁Opin	-12.0664
▁4.63	-12.0665
Tetrahydro	-12.0671
▁217	-12.0678
-125	-12.0679
oyl	-12.0681
▁representation	-12.0681
▁regular	-12.0686
▁17-	-12.0687
thiazolidine	-12.0687
▁metastases	-12.0688
158	-12.0688
▁aerosols	-12.0689
-5′-	-12.0691
diethoxy	-12.0691
▁employs	-12.0691
▁placing	-12.0693
▁Letters	-12.0693
121	-12.0694
▁Triethylamine	-12.0694
▁belongs	-12.0696
▁displaying	-12.0696
10##	-12.0698
▁obstructive	-12.0698
8.1	-12.0698
butyryl	-12.0699
▁mismatch	-12.07
▁modulates	-12.0702
▁microplate	-12.0703
▁Tr	-12.0705
▁0.57	-12.0705
▁Steps	-12.0706
aralkyl	-12.0707
▁4.47	-12.0708
▁bisulfite	-12.0709
▁quantum	-12.0709
amin	-12.0713
acetaldehyde	-12.0716
▁immunologically	-12.0717
▁exclusively	-12.072
sulphonyl	-12.072
▁BOC	-12.0724
▁intake	-12.0725
▁14:	-12.0727
virus	-12.0727
▁proportional	-12.0727
=18	-12.0729
▁223	-12.073
▁Hum	-12.0733
▁assumed	-12.0734
▁nomenclature	-12.0735
ow	-12.0735
▁Alk	-12.0735
ong	-12.0736
▁spent	-12.0737
14-	-12.0737
▁dispensed	-12.0738
▁achieving	-12.0739
▁460	-12.074
▁polymerized	-12.074
▁propagation	-12.074
)-3,3-	-12.0742
oy	-12.0743
▁TO	-12.0743
▁3.09	-12.0745
▁clarified	-12.0746
▁4.37	-12.0747
Mn	-12.0749
▁(17)	-12.0749
▁insufficient	-12.075
▁sonication	-12.0751
▁differing	-12.0751
SN	-12.0753
▁carbazole	-12.0754
}-1-	-12.0754
▁robust	-12.0756
▁distal	-12.0757
chlorophenoxy	-12.0757
5.2	-12.0759
▁3).	-12.0761
mass	-12.0762
ish	-12.0763
▁refractory	-12.0763
-[1-(4-	-12.0763
▁4.59	-12.0764
ver	-12.077
▁polyesters	-12.0773
▁Final	-12.0777
dry	-12.078
TL	-12.0782
AV	-12.0783
▁430	-12.0785
DG	-12.0785
organic	-12.0787
histochemistry	-12.0787
▁1.91	-12.0789
▁phenotypic	-12.0792
▁implant	-12.0793
benzoxazin	-12.0793
▁familiar	-12.0794
▁probably	-12.0794
▁ECD	-12.0795
+].	-12.0795
▁PT	-12.08
▁decyl	-12.0801
=17	-12.0804
▁Instruments	-12.0804
▁thermo	-12.0807
-55	-12.0807
▁biomarkers	-12.0808
azine	-12.081
▁batches	-12.0811
▁TE	-12.0811
▁holding	-12.0811
PGF	-12.0812
▁262	-12.0813
▁GAL	-12.0814
dis	-12.0815
▁HFC	-12.0817
ni	-12.0818
175	-12.0818
−1)	-12.0818
▁Alternative	-12.0818
▁315	-12.0819
179	-12.0822
▁10.2	-12.0822
▁APP	-12.0825
▁287	-12.0826
▁Sf	-12.0827
▁keep	-12.0828
=20	-12.0828
▁DI	-12.0829
▁text	-12.0829
▁pastes	-12.083
▁filling	-12.0832
neo	-12.0833
▁whilst	-12.0835
11)	-12.0838
▁Before	-12.084
▁degraded	-12.0841
▁1.73	-12.0841
▁8.56	-12.0842
long	-12.0843
native	-12.0845
8.6	-12.0845
borane	-12.0846
IS	-12.0846
ri	-12.0847
▁(0.27	-12.0849
9%	-12.085
▁8.49	-12.085
▁8.43	-12.0851
▁sulfates	-12.0852
XV	-12.0854
298	-12.0856
VA	-12.0856
▁Dulbecco	-12.0864
▁vincristine	-12.0865
ham	-12.0865
▁IU	-12.0866
Tri	-12.0867
-[1	-12.0868
▁(2×10	-12.0869
▁modifiers	-12.0872
▁methoxymethyl	-12.0875
▁stimulus	-12.0875
▁1.69	-12.0875
▁Phenyl	-12.0876
▁RD	-12.0878
▁CRISPR	-12.0878
▁50.0	-12.0879
▁Combination	-12.088
LP	-12.088
ylthio	-12.0882
ast	-12.0882
ten	-12.0884
▁Tert	-12.0887
▁1,2,3,4-	-12.0887
▁thiocyanate	-12.0888
▁word	-12.0888
▁Material	-12.0889
▁11:	-12.0893
▁Advantageously	-12.0893
▁thawed	-12.0893
▁272	-12.0893
▁actin	-12.0894
▁95,	-12.0896
▁triglyceride	-12.0898
▁scoring	-12.0899
▁2,000	-12.0899
▁hepatocellular	-12.0901
2000	-12.0901
366	-12.0901
▁0.71	-12.0902
▁43,	-12.0902
▁233	-12.0903
▁ne	-12.0904
▁generator	-12.0905
▁gallium	-12.0905
DF	-12.0906
▁administrations	-12.0907
▁nude	-12.0908
▁suppressor	-12.0908
11##	-12.0908
▁8.33	-12.0908
▁8.53	-12.0913
▁4.43	-12.0913
▁microparticles	-12.0915
8.3	-12.0917
▁4.52	-12.0917
Dichlorophenyl	-12.0918
ock	-12.0918
▁fields	-12.0918
▁0.3%	-12.092
▁face	-12.0922
▁wounds	-12.0923
▁vertical	-12.0926
▁[1]	-12.0928
▁4.34	-12.0929
▁emulsifier	-12.0931
+1);	-12.0932
▁reports	-12.0932
hydroxyimino	-12.0937
▁4.90	-12.0937
▁EI	-12.0941
▁Again	-12.0941
www	-12.0942
diisopropylamine	-12.0943
radioimmunoassay	-12.0944
injection	-12.095
▁198	-12.0951
▁determinants	-12.0952
▁deemed	-12.0952
▁unsaturation	-12.0952
8.7	-12.0954
▁siloxane	-12.0954
▁Herein	-12.0955
▁surprising	-12.0956
▁Transformation	-12.0957
▁199	-12.0958
30)	-12.096
▁MAP	-12.096
▁Hepes	-12.0963
▁Lab	-12.0963
▁Ethanol	-12.0965
166	-12.0966
bromosuccinimide	-12.0969
▁NotI	-12.0971
bed	-12.0972
▁applies	-12.0973
▁440	-12.0973
▁FLAG	-12.0974
▁DL	-12.0975
▁4.70	-12.0977
29,	-12.0977
3—	-12.0977
▁infiltration	-12.0978
▁blank	-12.0978
▁recurrence	-12.0979
▁274	-12.0979
▁1.93	-12.0982
XX	-12.0985
▁invasion	-12.0986
▁Invest	-12.0987
▁propargyl	-12.0989
diazepine	-12.099
▁naked	-12.099
▁aspartate	-12.099
▁adrenal	-12.0991
▁anthracene	-12.0995
▁digital	-12.0998
▁acrolein	-12.0999
▁4.31	-12.1
▁neuropathic	-12.1
▁DBU	-12.1003
▁2008	-12.1005
▁larvae	-12.1007
▁327	-12.1008
glycosylation	-12.1009
▁rhodamine	-12.101
ogen	-12.1012
YT	-12.1012
▁11.7	-12.1013
-6-(2-	-12.1013
▁(20%	-12.1014
methanesulfonic	-12.1014
3.6	-12.1015
▁homologues	-12.1015
▁MIC	-12.1016
▁efficacious	-12.1016
▁butyrate	-12.1017
▁airway	-12.1017
▁ACC	-12.1019
▁2.51	-12.102
▁(220	-12.1023
lactamase	-12.1024
▁intramolecular	-12.1026
ylcarbamoyl	-12.1027
▁reconstitution	-12.1027
▁44,	-12.1028
▁tr	-12.1028
▁ketal	-12.1028
▁iRNA	-12.1029
catalyzed	-12.1032
×2).	-12.1032
=0.7	-12.1034
▁(2.9	-12.1035
-3-[	-12.1036
▁6.64	-12.1036
▁4.78	-12.1037
▁1.71	-12.1038
MHC	-12.1038
cellulose	-12.1039
▁urethane	-12.104
▁278	-12.1044
▁Forms	-12.1045
▁City	-12.1045
▁Release	-12.1046
▁Base	-12.1047
methylquinoline	-12.1049
▁neuron	-12.1051
▁Plants	-12.1053
▁bentonite	-12.1054
▁Be	-12.1054
carbo	-12.1055
▁benzimidazole	-12.1058
immune	-12.1059
▁zones	-12.106
-1):	-12.1062
▁Medical	-12.1062
▁propionyl	-12.1065
▁interrupted	-12.1067
onyl	-12.1068
coupling	-12.1069
238	-12.107
isocyanate	-12.1072
methylpentyl	-12.1072
▁COX	-12.1073
4-(4,4,5,5-	-12.1075
Reference	-12.1075
▁likelihood	-12.1076
mercaptoethanol	-12.1078
▁4.56	-12.1079
▁1,1′-	-12.108
▁ABI	-12.1081
▁abandoned	-12.1081
uk	-12.1082
saturated	-12.1088
▁Fischer	-12.1088
▁attach	-12.1089
155	-12.1089
▁8.47	-12.109
▁Mab	-12.1091
▁Mack	-12.1093
▁nitriles	-12.1093
▁flank	-12.1095
▁Parr	-12.1096
−1;	-12.1096
ones	-12.1098
▁horses	-12.1101
▁XV	-12.1102
gal	-12.1103
▁ET	-12.1104
▁4.44	-12.1105
▁14.0	-12.1106
▁lotions	-12.1106
▁SEC	-12.1107
▁Polypeptide	-12.1108
▁debris	-12.1108
▁atmospheres	-12.1109
▁Not	-12.1109
LG	-12.1112
▁336	-12.1113
3.7	-12.1113
▁243	-12.1119
▁Handbook	-12.1119
▁MALDI	-12.1119
▁488	-12.1122
nucleotides	-12.1123
▁Bruker	-12.1124
317	-12.1125
biphenylyl	-12.1126
neat	-12.1126
▁0.0001	-12.1129
Nitro	-12.113
▁SEQUENCE	-12.1131
▁258	-12.1131
)-5,6-	-12.1133
▁exert	-12.1133
▁templates	-12.1133
Figure	-12.1135
▁Ry	-12.1136
Ch	-12.1138
enol	-12.1139
omycin	-12.114
▁intraocular	-12.1141
▁explicitly	-12.1141
ina	-12.1142
2-3	-12.1143
phthalazin	-12.1145
▁fungus	-12.1146
▁methylated	-12.1149
▁273	-12.115
defined	-12.115
idene	-12.1151
▁pipette	-12.1151
▁homologue	-12.1151
▁11.1	-12.1152
▁cyclopropane	-12.1156
▁182	-12.1156
▁variability	-12.1157
pyrimidineamine	-12.1159
▁ABq	-12.1159
▁(95	-12.1161
▁(16)	-12.1161
enantiomer	-12.1162
▁0.025	-12.1163
ura	-12.1164
indeno	-12.1166
▁embedded	-12.1167
▁attaching	-12.117
ica	-12.1171
126	-12.1172
308	-12.1173
ill	-12.1178
GenBank	-12.1179
▁6.55	-12.1179
▁AS	-12.118
▁plasminogen	-12.1183
▁Carbon	-12.1188
▁pyridin	-12.1189
▁biocompatible	-12.119
▁Resonance	-12.1196
glycyl	-12.1197
▁229	-12.1197
▁5.08	-12.1199
▁spots	-12.1199
▁sought	-12.1202
butylamine	-12.1204
cyanoethyl	-12.1204
▁systemically	-12.1205
▁332	-12.1207
▁4,6-	-12.1207
▁periodic	-12.1207
▁2,2'-	-12.121
332	-12.1212
▁6.61	-12.1213
405	-12.1217
▁8.46	-12.1221
▁Photo	-12.1224
Benzo	-12.1226
-39	-12.1227
▁abbreviated	-12.1228
▁receiver	-12.1229
▁port	-12.123
▁Man	-12.1233
▁endometrial	-12.1234
▁harvest	-12.1235
dimethylsilyloxy	-12.1238
-5,7-	-12.1238
▁NHR	-12.1239
▁Small	-12.1239
▁Dayhoff	-12.124
▁spun	-12.124
-3′-	-12.124
)-4-((	-12.1241
▁trioxide	-12.1245
ile	-12.1245
▁8.51	-12.1248
▁246	-12.1251
tricyclo	-12.1251
▁neuroblastoma	-12.1252
▁CONH	-12.1254
▁8.60	-12.1255
+1]+	-12.1256
▁implants	-12.1257
onohydrochloride	-12.1257
hydrate	-12.1257
▁Combined	-12.1258
▁5.18	-12.1258
▁benz	-12.1259
▁IgD	-12.1261
▁exactly	-12.1265
purity	-12.1267
▁Adv	-12.1269
▁TNFR	-12.1271
succinimidyl	-12.1272
▁BC	-12.1275
▁attention	-12.1277
▁Nucleotide	-12.1278
▁12.1	-12.1279
sch	-12.128
▁0.02%	-12.1281
▁walls	-12.1282
▁(−)-	-12.1282
▁231	-12.1283
▁phenomenon	-12.1284
▁279	-12.1285
▁HSP	-12.1289
▁Alto	-12.1289
▁signalling	-12.1291
▁Dry	-12.1293
▁Modifications	-12.1294
vector	-12.1296
:2,	-12.1297
▁8.44	-12.1298
▁4.95	-12.1303
▁isoquinolinyl	-12.1303
AI	-12.1304
260	-12.1305
cel	-12.1305
▁252	-12.1306
)-[1,2,4]	-12.1308
TGF	-12.1309
targeted	-12.131
▁4.76	-12.131
DCI	-12.131
▁316	-12.1311
lane	-12.1311
▁enabling	-12.1311
▁4.85	-12.1312
270	-12.1313
▁(2.00	-12.1313
▁100%).	-12.1315
frame	-12.1317
0.8	-12.1318
difluorobenzyl	-12.1319
valent	-12.1319
▁unrelated	-12.132
cyclopent	-12.1322
▁filamentous	-12.1323
-9,10-	-12.1324
▁chromatograph	-12.1325
195	-12.1326
▁Obtained	-12.1328
▁Phage	-12.1328
Fmoc	-12.1329
toxin	-12.133
▁metallocene	-12.1333
▁washings	-12.1333
▁epoxidation	-12.1334
▁wood	-12.1334
▁radioisotope	-12.1335
▁Effects	-12.1336
▁st	-12.1339
▁8.41	-12.134
▁Dean	-12.1341
▁cyclized	-12.1342
▁Hal	-12.1343
▁simplex	-12.1344
▁Filtration	-12.1345
▁triphosphate	-12.1349
▁documents	-12.1349
117	-12.1352
▁furnish	-12.1352
9°	-12.1352
tra	-12.1354
▁1.5%	-12.1355
▁Apr	-12.1357
▁Diethyl	-12.1357
▁supporting	-12.1358
▁10.4	-12.1362
▁topoisomerase	-12.1363
199	-12.1364
▁Interestingly	-12.1367
)-7-(	-12.1368
Type	-12.1368
▁helical	-12.1369
▁pi	-12.1369
brown	-12.1374
▁IPA	-12.1375
▁530	-12.1377
▁DPP	-12.1378
▁aforesaid	-12.1378
▁PTA	-12.1381
▁dexamethasone	-12.1382
emia	-12.1383
▁XhoI	-12.1386
▁HCFC	-12.1388
▁288	-12.1389
▁Devices	-12.1389
han	-12.1389
▁electrostatic	-12.1389
7.9	-12.1392
▁coordinates	-12.1393
▁CCl	-12.1396
▁ethereal	-12.1398
cyanomethyl	-12.1398
cycle	-12.14
▁ALIGN	-12.1401
▁Do	-12.1401
▁Genetic	-12.1401
▁Alexa	-12.1405
▁329	-12.1406
▁Huntington	-12.1406
▁excluding	-12.1406
▁alloy	-12.1406
▁181	-12.1408
:2)	-12.1409
▁preliminary	-12.1412
Pd	-12.1414
PGE	-12.1415
▁POCl	-12.1416
▁max	-12.1417
▁thiosulfate	-12.1418
▁282	-12.1422
cap	-12.1424
▁MN	-12.1424
▁internalization	-12.1425
▁ricin	-12.1427
▁lifetime	-12.1428
▁restenosis	-12.1429
▁LA	-12.1429
▁peptidomimetic	-12.143
233	-12.143
KR	-12.1432
▁occupied	-12.1434
▁thirty	-12.1434
▁functionalities	-12.1436
▁polymorphs	-12.1437
▁colour	-12.1438
furanyl	-12.1438
des	-12.1439
▁(2×20	-12.1441
▁isotopic	-12.1443
▁4.67	-12.1444
▁failed	-12.1446
▁334	-12.1446
▁foil	-12.1446
▁dehydro	-12.1447
▁ferric	-12.1448
80%	-12.145
-[4-(2-	-12.1451
▁homogenous	-12.1451
Pierce	-12.1452
▁28.	-12.1453
methylpyrimidin	-12.1454
▁Transfer	-12.1455
styrene	-12.1457
▁multimer	-12.1457
ISP	-12.1461
▁Toluene	-12.1461
stable	-12.1465
-37	-12.1466
▁FC	-12.1467
▁temp	-12.1468
▁paired	-12.1468
▁6.58	-12.1469
▁Sequencing	-12.1469
▁grain	-12.147
▁11-	-12.1472
isopropylamino	-12.1472
▁avoided	-12.1472
▁repressor	-12.1476
▁4.49	-12.1477
▁dicarbonate	-12.1478
=8.4,	-12.1478
▁trade	-12.1479
245	-12.1479
▁(3.1	-12.1481
8.9	-12.1482
6.3	-12.1482
methylenedioxy	-12.1484
▁arms	-12.1485
▁withdrawal	-12.1485
▁isopentyl	-12.1485
▁PAR	-12.1486
▁Percent	-12.1487
▁hydroxyethyl	-12.149
▁(0.33	-12.149
▁Eagle	-12.149
tal	-12.1491
(6-	-12.1491
▁metered	-12.1492
▁throughput	-12.1498
▁paw	-12.1498
)2(	-12.1499
▁13:	-12.1499
▁(°	-12.15
▁4-(1-	-12.1505
▁1,1,1-	-12.1506
▁20:1	-12.1508
▁4.62	-12.1511
▁parathyroid	-12.1513
▁communication	-12.1513
▁trituration	-12.1513
▁deposits	-12.1513
▁blunt	-12.1517
129	-12.1518
AE	-12.1519
intermediate	-12.152
▁Acetic	-12.1523
▁HO	-12.1527
▁polyalkylene	-12.1527
▁underlined	-12.1529
▁Jan	-12.1532
▁judged	-12.1532
▁6.45	-12.1532
ko	-12.1534
ff	-12.1535
▁PREFER	-12.1535
▁Twenty	-12.1536
trifluoromethane	-12.1537
▁TP	-12.1539
▁1,6-	-12.1539
ull	-12.1539
▁5.11	-12.154
▁shared	-12.154
▁uridine	-12.1541
LS	-12.1544
▁etoposide	-12.1544
▁4.66	-12.1545
tyrosine	-12.1545
264	-12.1546
▁333	-12.1547
26,	-12.1547
plate	-12.1549
Sepharose	-12.1549
fl	-12.1549
▁infect	-12.1552
malonate	-12.1552
▁Society	-12.1553
▁van	-12.1554
▁lactam	-12.1555
)-6-(4-	-12.1558
▁despite	-12.1559
methylidene	-12.1561
▁Ka	-12.1562
▁NOV	-12.1565
abbreviation	-12.1566
▁quartz	-12.157
-26	-12.1571
▁520	-12.1571
▁5.13	-12.1571
AMP	-12.1572
▁GTP	-12.1575
30-	-12.1578
▁stereoisomeric	-12.1578
▁0-5°	-12.1581
▁(1991);	-12.1582
▁lens	-12.1583
CON	-12.1587
▁elute	-12.1589
:25	-12.1589
(2,5-	-12.159
CG	-12.1591
▁Pub	-12.1592
▁partly	-12.1593
unsaturated	-12.1595
MM	-12.1597
▁Dose	-12.1597
RIEF	-12.1597
▁flexibility	-12.1598
229	-12.1601
▁So	-12.1604
▁8.58	-12.1608
▁Cellular	-12.1611
average	-12.1612
▁endotoxin	-12.1612
▁5.16	-12.1613
▁4.54	-12.1613
▁5.23	-12.1614
tending	-12.1615
▁4.68	-12.1615
▁omitted	-12.1616
▁pollen	-12.1616
▁transferrin	-12.1617
▁circuit	-12.1617
▁neutrophil	-12.1618
▁lamp	-12.1618
▁(1977)	-12.1618
angiogenic	-12.1619
950	-12.1619
▁Suitably	-12.1621
+0.1%	-12.1622
omega	-12.1623
▁broken	-12.1627
▁pharmaceuticals	-12.1627
▁confirming	-12.1627
▁pKa	-12.1628
=14	-12.1628
▁Biacore	-12.1628
▁350°	-12.1628
▁annealed	-12.1629
▁arise	-12.1629
ases	-12.163
▁0.00	-12.163
pyrazolyl	-12.1632
=3.3	-12.1632
▁312	-12.1633
▁10.7	-12.1633
▁tribromide	-12.1634
▁211	-12.1636
▁8.54	-12.1637
▁6.59	-12.1639
Thermo	-12.1641
▁reperfusion	-12.1641
▁12:	-12.1641
▁21-	-12.1644
▁rendered	-12.1646
▁polarity	-12.1646
temperature	-12.1647
▁jet	-12.1649
homo	-12.1652
▁pBR	-12.1652
▁(46	-12.1654
▁dihydrogen	-12.1656
▁Statistical	-12.1658
▁SM	-12.1659
▁6-(4-	-12.166
▁intensities	-12.1661
▁condensate	-12.1665
▁atopic	-12.1666
-400	-12.1667
▁car	-12.1669
▁263	-12.1671
▁lethal	-12.1672
▁alkanol	-12.1672
▁6.53	-12.1672
imidazolidine	-12.1673
-2-(5-	-12.1674
enic	-12.1675
▁Prodrugs	-12.1677
more	-12.1678
▁Normal	-12.1678
▁acrylonitrile	-12.1678
▁combustion	-12.168
▁328	-12.1681
▁indications	-12.1684
dehydro	-12.1685
▁immunogens	-12.1687
▁press	-12.1688
▁operate	-12.1691
fluoromethyl	-12.1692
▁1,3,5-	-12.1692
▁26.	-12.1692
135	-12.1693
▁odor	-12.1694
nitrile	-12.1697
▁esophageal	-12.1697
▁20,000	-12.1698
▁dimensions	-12.17
▁hydroquinone	-12.17
pyrazinyl	-12.1701
▁EDCI	-12.1701
▁Yellow	-12.1702
▁retroviruses	-12.1702
▁4.53	-12.1704
▁alkyloxy	-12.1705
▁305	-12.1705
methylpropan	-12.1705
▁PB	-12.1708
▁Candida	-12.1709
▁(1993);	-12.171
▁HDL	-12.1712
▁nonspecific	-12.1712
▁Tetra	-12.1712
butanamide	-12.1714
ser	-12.1714
▁benefits	-12.1716
▁Site	-12.1716
▁lac	-12.172
▁disubstituted	-12.1721
GG	-12.1722
trihydroxy	-12.1722
▁Stability	-12.1725
▁(3×100	-12.1726
▁amplicon	-12.1729
enantiomerically	-12.1729
▁-70°	-12.173
▁glycan	-12.173
▁facilitating	-12.1733
ey	-12.1734
▁HS	-12.1734
▁Free	-12.1736
▁0.52	-12.1737
▁impart	-12.1738
▁(1000	-12.1738
▁azeotrope	-12.174
-52	-12.174
bb	-12.1741
▁allosteric	-12.1742
dichlorobenzyl	-12.1744
▁alignments	-12.1745
rt	-12.1749
IM	-12.175
▁acetamide	-12.1751
▁blending	-12.1751
▁(44	-12.1757
▁(0.03	-12.1758
▁benzenesulfonic	-12.1761
▁antiserum	-12.1762
▁thymine	-12.1762
py	-12.1762
▁Hereinafter	-12.1763
probe	-12.1765
0.01	-12.1767
▁(4.2	-12.1768
▁Basic	-12.177
adenosine	-12.1772
PM	-12.1774
▁lesser	-12.1776
loop	-12.1778
CHCH	-12.1781
▁binary	-12.1783
▁gaps	-12.1786
▁diagnose	-12.1786
▁carbonylation	-12.1787
▁2-[(	-12.1788
▁9%	-12.179
blocking	-12.1793
▁48%	-12.1794
▁beyond	-12.1794
▁Ang	-12.1796
ng	-12.1796
114	-12.1797
▁corrosion	-12.1797
chi	-12.1798
bromide	-12.1798
▁LAG	-12.1798
van	-12.1799
▁Sephadex	-12.1804
▁Beta	-12.1805
lu	-12.1806
▁4.61	-12.1806
eluting	-12.181
especially	-12.181
=4.2	-12.1811
▁49,	-12.1813
carbonylmethyl	-12.1814
▁(39	-12.1814
▁mu	-12.1815
guanidine	-12.1815
▁quencher	-12.1816
▁edible	-12.1818
4′	-12.1818
▁oxa	-12.1819
▁USP	-12.1819
▁complexing	-12.1821
▁(43	-12.1822
▁Brain	-12.1822
=11	-12.1822
926	-12.1823
▁chromogenic	-12.1824
▁prognosis	-12.1825
236	-12.1826
▁Jurkat	-12.1827
labelled	-12.1829
▁stimuli	-12.1829
GI	-12.1831
▁impregnation	-12.1831
)-5-(3-	-12.1834
▁cutaneous	-12.1835
▁(0.36	-12.1836
▁GE	-12.1836
3=	-12.1837
▁predict	-12.1838
▁247	-12.1843
KL	-12.1843
▁tension	-12.1845
▁12.7	-12.1846
▁amber	-12.1847
▁2007	-12.1848
▁backbones	-12.1849
3)(	-12.1853
qu	-12.1855
▁281	-12.1858
▁passes	-12.186
hydroxylamine	-12.186
adamantyl	-12.1861
immunoglobulin	-12.1863
▁practitioner	-12.1863
▁differentially	-12.1863
shaped	-12.1864
▁alternatives	-12.1865
3,4-	-12.1865
)2-	-12.1866
pyr	-12.1866
▁6.50	-12.1867
▁constitutes	-12.1869
▁constructing	-12.187
ij	-12.187
▁goal	-12.1871
▁5.30	-12.1871
-16-	-12.1872
▁3-(1-	-12.1874
▁ISCO	-12.1877
decomp	-12.1879
stimulated	-12.188
▁337	-12.1881
▁4.74	-12.1881
▁232	-12.1881
+1)+	-12.1881
IIb	-12.1881
▁locally	-12.1882
MI	-12.1887
▁Akt	-12.1888
131	-12.1889
▁12.3	-12.1892
▁mV	-12.1892
▁epilepsy	-12.1894
pentanedioic	-12.1894
▁Listing	-12.1895
▁Drosophila	-12.1897
▁390	-12.1902
3)—	-12.1902
▁DM	-12.1903
▁anisole	-12.1908
=9.5	-12.1911
▁ozone	-12.1912
Cat	-12.1918
▁5.35	-12.1919
▁46,	-12.1921
▁activatable	-12.1921
TB	-12.1921
Chem	-12.1922
▁conduct	-12.1923
▁GAG	-12.1923
▁88%	-12.1925
▁4.51	-12.1925
gp	-12.1925
addition	-12.1927
▁HCDR	-12.1928
156	-12.1928
▁Celsius	-12.1929
▁Having	-12.1929
through	-12.1932
▁elicited	-12.1933
▁(19)	-12.1937
▁undergoes	-12.1937
ero	-12.1938
▁(2007)	-12.1939
▁Proliferation	-12.1941
▁immobilization	-12.1941
▁Reverse	-12.1942
▁isobutylene	-12.1944
▁opened	-12.1944
▁14.5	-12.1944
19-	-12.1946
GD	-12.1949
▁Ras	-12.1949
▁phosphoramidate	-12.1951
004	-12.1955
007	-12.1956
▁4.73	-12.1957
,13-	-12.1962
▁Os	-12.1962
▁lineage	-12.1963
▁1985,	-12.1963
▁XX	-12.1964
▁Commun	-12.1965
▁isoelectric	-12.1965
▁221	-12.1966
▁sulfinyl	-12.1967
▁Coomassie	-12.1967
▁reforming	-12.1968
▁(0.32	-12.1969
▁benzoxazolyl	-12.197
-17.	-12.197
▁(0.40	-12.1972
independent	-12.1975
148	-12.1975
▁170°	-12.1976
▁Solutions	-12.1976
▁8.57	-12.1977
▁MD	-12.1977
▁125°	-12.1977
▁PSMA	-12.1978
▁salicylate	-12.1979
▁ribose	-12.198
▁embraces	-12.198
▁Hodgkin	-12.1981
▁GB	-12.1983
▁(%):	-12.1984
activity	-12.1985
▁intervention	-12.1987
transformed	-12.1987
▁universal	-12.1988
aminopyridine	-12.1988
▁valence	-12.1988
▁bubbling	-12.1988
▁10.3	-12.1989
▁dead	-12.1994
▁Solvents	-12.1994
111	-12.1994
▁antimony	-12.1994
▁digest	-12.1996
[...]
