<unk>	0
<s>	0
</s>	0
,	-2.83878
.	-3.42329
▁the	-3.58421
▁of	-3.82524
-	-4.11788
▁and	-4.12058
▁(	-4.15387
▁a	-4.25931
)	-4.27697
▁to	-4.40202
▁in	-4.50349
H	-4.67998
▁	-4.71887
s	-4.76354
▁or	-4.78708
▁is	-4.89307
),	-4.93966
▁The	-5.04358
▁was	-5.04802
▁1	-5.18021
▁with	-5.18246
▁for	-5.22055
▁as	-5.27218
▁by	-5.37725
2	-5.4162
▁be	-5.42871
▁C	-5.58529
▁at	-5.59562
:	-5.61001
▁are	-5.62706
▁an	-5.65361
/	-5.67645
▁2	-5.77051
C	-5.80262
;	-5.81987
▁from	-5.82292
1	-5.83468
▁acid	-5.84036
m	-5.85239
d	-5.90302
3	-5.92614
▁In	-5.9377
▁that	-5.98189
▁R	-6.03376
).	-6.05191
(	-6.095
▁may	-6.11846
▁can	-6.13427
g	-6.13774
e	-6.16215
▁A	-6.16391
▁J	-6.16718
▁compound	-6.17781
yl	-6.18077
▁g	-6.18286
▁3	-6.18988
▁which	-6.19448
▁were	-6.21775
4	-6.23366
▁invention	-6.24277
▁group	-6.24709
▁such	-6.25723
▁one	-6.34424
▁mixture	-6.37571
S	-6.39187
N	-6.39552
▁reaction	-6.39894
▁Hz	-6.43101
▁used	-6.43498
▁solution	-6.44514
]	-6.46363
▁mg	-6.46629
R	-6.47899
▁mmol	-6.47995
a	-6.48951
▁mL	-6.52391
methyl	-6.55407
O	-6.55554
▁H	-6.55931
▁about	-6.57147
▁N	-6.57499
M	-6.58618
▁5	-6.60002
▁added	-6.61025
▁4	-6.62745
5	-6.63975
▁Example	-6.64231
▁example	-6.64898
▁on	-6.65475
▁present	-6.66455
6	-6.66802
▁m	-6.67415
▁cells	-6.72864
-2-	-6.73357
▁more	-6.78109
▁using	-6.78168
▁sequence	-6.78413
▁described	-6.7961
or	-6.80946
▁amino	-6.81728
▁(1	-6.81872
▁compounds	-6.85823
▁not	-6.89001
▁temperature	-6.90805
A	-6.91401
”	-6.91643
▁ml	-6.91908
▁“	-6.9306
▁include	-6.94227
▁embodiments	-6.94428
t	-6.94881
▁10	-6.95222
▁cell	-6.95436
▁6	-6.96557
▁water	-6.97307
-1	-6.97734
▁then	-6.98174
▁herein	-6.99291
▁protein	-7.01743
b	-7.02628
▁antibody	-7.03001
7	-7.04154
▁least	-7.04616
▁other	-7.0472
▁B	-7.05891
▁under	-7.06561
▁also	-7.06884
ing	-7.06907
▁formula	-7.08006
▁this	-7.0978
▁ID	-7.10262
▁alkyl	-7.10825
-4-	-7.11606
8	-7.12463
▁embodiment	-7.12533
▁—	-7.13472
phenyl	-7.13886
CH	-7.14894
▁wherein	-7.15736
-3-	-7.17721
▁NO	-7.18305
-1-	-7.1844
▁substituted	-7.18892
▁stirred	-7.19273
L	-7.1957
)-	-7.19623
▁M	-7.19948
▁into	-7.20037
ed	-7.20419
▁above	-7.20745
c	-7.21626
);	-7.21679
▁al	-7.21807
▁preferably	-7.21831
▁(2	-7.22982
▁product	-7.23807
▁et	-7.23987
amino	-7.24162
▁s	-7.24932
B	-7.25496
▁each	-7.25765
▁obtained	-7.25839
+	-7.26443
I	-7.28602
▁T	-7.28634
▁method	-7.28921
▁S	-7.30161
▁having	-7.30584
▁any	-7.31593
▁sodium	-7.34196
▁thereof	-7.35341
9	-7.35547
▁solid	-7.356
▁prepared	-7.35938
▁e	-7.35971
D	-7.3629
p	-7.38614
▁μ	-7.3936
▁organic	-7.39782
▁some	-7.39858
▁hours	-7.40155
▁I	-7.402
▁selected	-7.40851
l	-7.41361
▁ethyl	-7.41429
n	-7.41479
▁d	-7.42307
▁form	-7.4281
▁it	-7.4315
i	-7.43265
▁L	-7.43532
▁than	-7.4435
▁have	-7.45699
▁20	-7.45987
▁dried	-7.4695
ly	-7.47313
▁solvent	-7.4762
▁p	-7.47649
▁washed	-7.48083
▁SEQ	-7.48107
▁2-	-7.48588
z	-7.48623
▁binding	-7.48775
▁over	-7.4912
▁containing	-7.49416
▁[	-7.49973
▁acetate	-7.50039
▁D	-7.50095
in	-7.50311
▁residue	-7.5041
▁but	-7.50564
0	-7.50608
▁has	-7.50935
▁NMR	-7.51275
▁DNA	-7.52621
▁concentrated	-7.52866
▁two	-7.5298
▁For	-7.53021
▁δ	-7.53398
ethyl	-7.53766
▁comprising	-7.53995
▁hydrogen	-7.54029
▁according	-7.54249
▁groups	-7.5472
F	-7.56178
1-	-7.56192
P	-7.56209
▁human	-7.56248
▁following	-7.56477
▁h	-7.56531
▁carbon	-7.56731
▁further	-7.56962
▁room	-7.57134
▁known	-7.58914
▁non	-7.59686
▁To	-7.6035
▁purified	-7.60492
▁E	-7.61084
▁expression	-7.62144
▁30	-7.622
▁activity	-7.638
'	-7.63834
▁aqueous	-7.63924
▁methods	-7.6397
▁another	-7.63996
▁antibodies	-7.6422
▁-	-7.64845
3,	-7.6507
▁polypeptide	-7.65222
▁anti	-7.6536
▁(3	-7.65792
▁P	-7.65986
▁F	-7.66087
▁amount	-7.66187
▁same	-7.66965
E	-7.67104
▁After	-7.67779
butyl	-7.6839
▁chloride	-7.69548
▁sequences	-7.69798
▁gene	-7.699
▁acids	-7.69902
▁15	-7.69905
▁pressure	-7.70721
▁art	-7.71345
▁composition	-7.72786
▁7	-7.72943
▁min	-7.7308
▁MHz	-7.73121
2,	-7.73201
▁This	-7.7331
▁nucleic	-7.73394
▁X	-7.73659
▁addition	-7.73788
▁use	-7.74522
-5-	-7.7481
▁chain	-7.74876
▁chromatography	-7.75571
▁methyl	-7.75601
o	-7.75607
▁column	-7.75622
▁between	-7.75657
▁salt	-7.7604
▁will	-7.76306
▁give	-7.76307
one	-7.77941
-2	-7.7801
▁agent	-7.78042
▁8	-7.78697
▁100	-7.78956
10	-7.79141
▁atoms	-7.79276
▁well	-7.79747
▁process	-7.80386
▁12	-7.80881
alkyl	-7.81009
▁yield	-7.81034
▁minutes	-7.81634
▁those	-7.81696
▁layer	-7.82638
T	-7.8286
▁weight	-7.83423
):	-7.83705
▁preferred	-7.83841
▁treatment	-7.83925
▁including	-7.84112
▁peptide	-7.84119
ic	-7.84428
▁50	-7.8477
▁4-	-7.84856
▁As	-7.84941
▁been	-7.84991
▁filtered	-7.85131
▁these	-7.85428
al	-7.85591
▁O	-7.85879
▁shown	-7.85911
▁title	-7.85975
▁optionally	-7.86179
▁G	-7.86217
▁PA	-7.86297
▁reduced	-7.8636
chloro	-7.87157
▁suitable	-7.87934
▁agents	-7.87952
y	-7.87969
▁n	-7.88087
hydroxy	-7.88466
▁PAC	-7.88735
▁like	-7.89102
▁No	-7.89459
▁resulting	-7.90007
▁CH	-7.90686
▁active	-7.9167
er	-7.9174
▁gel	-7.91748
▁after	-7.92901
▁conditions	-7.92965
▁comprises	-7.93786
3)	-7.94274
▁material	-7.94973
▁U	-7.96048
—	-7.96128
▁catalyst	-7.9643
▁K	-7.96987
▁term	-7.97725
▁when	-7.97962
▁3-	-7.98297
▁Compound	-7.98358
▁9	-7.98429
▁Formula	-7.98434
"	-7.98731
di	-7.98784
▁step	-7.9966
▁ether	-8.00147
▁region	-8.00315
▁dissolved	-8.00361
▁limited	-8.00556
G	-8.00949
▁ring	-8.00964
r	-8.0121
▁oil	-8.01327
▁ester	-8.01771
▁through	-8.02139
▁disease	-8.02163
▁cancer	-8.02191
▁t	-8.02365
▁specific	-8.02429
▁first	-8.02702
▁proteins	-8.0289
▁out	-8.03222
▁certain	-8.03427
▁time	-8.03457
▁molecule	-8.04234
▁Examples	-8.04627
▁administration	-8.04658
▁all	-8.04692
▁di	-8.05048
▁MS	-8.05802
oxy	-8.05933
▁EXAMPLE	-8.06114
▁particular	-8.06722
▁phase	-8.06851
methoxy	-8.07337
▁light	-8.07496
▁extracted	-8.07517
V	-8.07531
▁pH	-8.07731
▁concentration	-8.08535
▁presence	-8.08654
fluoro	-8.09155
1,	-8.09239
K	-8.0936
▁silica	-8.09572
▁mM	-8.09802
▁per	-8.0985
▁"	-8.10211
▁antigen	-8.11288
▁compositions	-8.11569
▁Step	-8.11651
▁different	-8.11764
ol	-8.11901
dimethyl	-8.12285
oxo	-8.1235
▁where	-8.13007
▁CD	-8.13035
▁It	-8.13184
▁aryl	-8.13203
▁13	-8.13682
▁provided	-8.13863
▁desired	-8.14016
▁its	-8.14022
▁atom	-8.14424
20	-8.14738
dd	-8.14872
4,	-8.14979
▁high	-8.15012
▁treated	-8.15516
▁said	-8.15677
▁acceptable	-8.15683
▁administered	-8.16537
▁system	-8.16688
v	-8.168
▁liquid	-8.17009
▁combined	-8.17455
ation	-8.18016
▁domain	-8.1815
▁defined	-8.18249
▁removed	-8.18948
▁target	-8.19657
Cl	-8.19673
▁less	-8.20148
▁16	-8.20762
X	-8.20896
[	-8.21143
▁receptor	-8.21307
▁refers	-8.2138
dihydro	-8.21534
▁within	-8.21916
f	-8.22064
▁second	-8.22105
▁nitrogen	-8.22174
▁consisting	-8.22318
▁followed	-8.23405
▁independently	-8.23552
▁pharmaceutical	-8.2369
▁5-	-8.24077
▁number	-8.24499
▁below	-8.24752
50	-8.25384
▁methanol	-8.25795
amine	-8.25867
▁found	-8.25884
11	-8.26205
▁both	-8.2651
en	-8.2657
▁single	-8.27493
ate	-8.27573
▁procedure	-8.27616
h	-8.28154
▁general	-8.28211
▁their	-8.28219
▁Table	-8.28271
▁metal	-8.28854
▁Preparation	-8.28903
▁subject	-8.29279
▁control	-8.29326
▁cooled	-8.29334
▁includes	-8.29995
6)	-8.30113
▁(5	-8.30323
▁salts	-8.30538
▁0	-8.31065
MS	-8.31198
▁combination	-8.31504
▁V	-8.31618
▁three	-8.31744
▁25	-8.31802
pharmaceutically	-8.31865
▁poly	-8.32102
▁base	-8.32226
▁lower	-8.32284
12	-8.3258
▁molecules	-8.32733
▁heated	-8.33056
▁fragment	-8.33072
▁saturated	-8.33191
▁24	-8.33356
▁provides	-8.33377
▁examples	-8.33425
on	-8.33599
-4	-8.34047
▁sulfate	-8.34129
▁sample	-8.34339
SEQ	-8.34347
▁crude	-8.34511
-6-	-8.34519
pyridin	-8.34804
▁range	-8.34988
▁=	-8.35643
▁results	-8.35668
(1	-8.36187
▁structure	-8.36228
▁comprise	-8.3707
▁reference	-8.37244
)-2-	-8.37293
▁0.5	-8.37953
▁without	-8.37978
▁being	-8.38347
▁vector	-8.38675
▁useful	-8.38684
▁means	-8.38734
▁performed	-8.38796
▁carried	-8.38962
▁##	-8.39328
▁1-	-8.39447
▁determined	-8.39606
Y	-8.39946
▁encoding	-8.40015
▁phenyl	-8.4043
▁--	-8.40843
▁(10	-8.40942
ene	-8.41537
SO	-8.4165
▁assay	-8.4186
▁Y	-8.42282
▁40	-8.42386
18	-8.42535
▁no	-8.42607
▁either	-8.42717
▁re	-8.42905
]-	-8.42938
▁medium	-8.43035
es	-8.43089
▁evaporated	-8.43539
▁produced	-8.43583
▁(4	-8.43818
▁provide	-8.43896
▁isolated	-8.44008
▁manner	-8.44333
▁W	-8.44391
propyl	-8.4442
▁similar	-8.44532
▁mol	-8.44688
▁various	-8.44864
=	-8.45103
2-	-8.45237
▁buffer	-8.45241
▁effective	-8.45473
▁18	-8.45707
▁unsubstituted	-8.45793
▁analysis	-8.45875
▁RNA	-8.46074
▁IL	-8.47042
▁preparation	-8.47071
▁These	-8.47306
▁therapeutic	-8.47678
STR	-8.47862
▁14	-8.47936
bromo	-8.47947
▁white	-8.48008
▁corresponding	-8.4808
an	-8.48223
▁An	-8.48894
=1	-8.48942
ml	-8.49429
▁contain	-8.4956
▁test	-8.4976
▁diluted	-8.50135
▁residues	-8.50538
carboxylic	-8.50574
▁host	-8.50959
▁aspect	-8.51437
▁11	-8.51927
▁disclosed	-8.52084
carbonyl	-8.52269
br	-8.52467
14	-8.52721
▁(400	-8.53073
▁nucleotide	-8.5365
▁tumor	-8.54174
40	-8.54352
▁site	-8.54555
▁obtain	-8.54558
▁type	-8.54852
▁ethanol	-8.55081
NMR	-8.55173
▁up	-8.55784
▁stirring	-8.55879
▁surface	-8.56367
▁halogen	-8.57305
▁appropriate	-8.57327
▁Z	-8.57345
▁only	-8.57501
▁fragments	-8.57635
▁ppm	-8.57801
▁Pat	-8.58083
▁c	-8.58131
▁represented	-8.58218
▁synthesis	-8.58229
-(	-8.58516
▁particularly	-8.5853
▁anhydrous	-8.58557
x	-8.58593
▁%	-8.58822
▁DMSO	-8.59237
▁i	-8.59249
-7	-8.59448
NH	-8.59564
▁separated	-8.59595
▁0°	-8.59662
▁Such	-8.59719
tetrahydro	-8.5976
2)	-8.59845
▁portion	-8.60022
▁II	-8.60188
15	-8.60372
▁additional	-8.60382
w	-8.60544
▁tert	-8.60628
▁complex	-8.60864
▁modified	-8.60949
}	-8.60958
▁Synthesis	-8.61016
▁0.1	-8.61137
▁etc	-8.61295
▁vacuo	-8.61468
▁tissue	-8.61517
▁hour	-8.61577
trifluoromethyl	-8.61753
tert	-8.61848
u	-8.6197
α	-8.62087
5,	-8.62161
pyridine	-8.62181
▁growth	-8.62355
▁so	-8.6249
▁recombinant	-8.62653
▁carbonate	-8.62912
U	-8.62917
13	-8.62966
ine	-8.63008
▁aromatic	-8.63614
▁brine	-8.63622
▁afford	-8.63764
CO	-8.63865
▁overnight	-8.64189
-3.	-8.64246
▁production	-8.64399
▁mice	-8.64458
-3	-8.64481
▁effect	-8.6454
▁dichloromethane	-8.64647
▁ratio	-8.64796
▁HPLC	-8.65067
▁if	-8.65236
▁represents	-8.65431
30	-8.6544
▁forms	-8.65594
▁starting	-8.65636
16	-8.65735
▁via	-8.65894
▁dose	-8.66018
▁formed	-8.66146
J	-8.66167
▁polypeptides	-8.66336
-5	-8.66395
6,	-8.66412
▁gas	-8.66468
▁alcohol	-8.66654
II	-8.67063
▁yellow	-8.67094
▁60	-8.67213
ar	-8.67311
▁EtOAc	-8.67341
W	-8.67351
▁potassium	-8.67387
▁fusion	-8.67878
25	-8.68075
▁b	-8.68292
tri	-8.68388
▁times	-8.68473
▁heteroaryl	-8.68481
Z	-8.68703
3-	-8.68776
▁employed	-8.6914
▁Na	-8.69226
▁THF	-8.69566
▁based	-8.69704
▁de	-8.69757
19	-8.69813
▁rate	-8.69958
▁most	-8.70144
▁NUM	-8.70179
▁tri	-8.70405
carboxylate	-8.70482
▁Thus	-8.70597
▁moiety	-8.70701
▁200	-8.70812
▁set	-8.71109
▁standard	-8.71171
6-	-8.71223
▁generally	-8.71283
▁position	-8.71286
)-3-	-8.71412
▁days	-8.7157
▁derivatives	-8.7166
alpha	-8.71763
▁hydroxide	-8.71764
▁derived	-8.72032
▁incorporated	-8.72181
▁molecular	-8.72237
▁co	-8.72284
▁purification	-8.72318
▁heavy	-8.72338
17	-8.72369
NR	-8.72394
▁made	-8.7247
kg	-8.7252
CDCl	-8.72553
CD	-8.72807
-6	-8.73036
▁alkoxy	-8.73053
▁peptides	-8.73616
▁10%	-8.73693
▁patient	-8.73942
▁materials	-8.74049
▁claim	-8.74385
ated	-8.74667
us	-8.74986
▁CDCl	-8.75221
▁total	-8.75429
▁suspension	-8.75458
▁oligonucleotide	-8.75727
1-6	-8.75816
▁off	-8.75895
▁vacuum	-8.7612
▁disclosure	-8.7619
▁17	-8.76295
Q	-8.76534
▁(20	-8.76764
▁cycloalkyl	-8.76784
▁dosage	-8.77167
▁mixed	-8.77196
▁When	-8.77336
▁measured	-8.77414
)-1	-8.77561
▁techniques	-8.78093
▁compared	-8.78182
benzyl	-8.78395
▁free	-8.78448
▁derivative	-8.78459
▁virus	-8.78627
▁reactor	-8.78837
▁culture	-8.78979
▁variable	-8.7904
▁promoter	-8.79314
OH	-8.79624
▁expressed	-8.79859
▁mono	-8.80327
▁blood	-8.80371
▁case	-8.80375
▁response	-8.80396
th	-8.80398
▁substituents	-8.8055
▁respectively	-8.80865
▁hydrochloride	-8.80902
▁enzyme	-8.81106
▁they	-8.81188
▁low	-8.8154
thio	-8.81641
ESI	-8.81674
▁levels	-8.81975
ase	-8.81996
▁PCR	-8.82226
▁level	-8.8246
▁drug	-8.82582
▁chemical	-8.82692
▁collected	-8.82772
▁magnesium	-8.83027
▁part	-8.83107
▁products	-8.83119
▁order	-8.83184
▁available	-8.832
▁nm	-8.83201
▁(100	-8.83262
▁6-	-8.83271
▁against	-8.83758
▁carrier	-8.83903
▁regions	-8.84702
▁produce	-8.84876
▁there	-8.85048
▁associated	-8.85319
7,	-8.85417
▁specifically	-8.85466
▁volume	-8.85987
▁thus	-8.86184
as	-8.86301
▁while	-8.86385
▁skilled	-8.86403
▁together	-8.86544
▁genes	-8.86835
▁mass	-8.87589
ethoxy	-8.87903
▁oxygen	-8.87935
▁toluene	-8.88125
▁functional	-8.8852
▁allowed	-8.88684
▁19	-8.88686
re	-8.88826
pyrimidin	-8.88836
%	-8.88866
▁flow	-8.89207
▁bond	-8.89326
▁HCl	-8.89671
▁(6	-8.89766
▁(50	-8.89797
see	-8.90259
▁contains	-8.90421
▁amine	-8.90528
k	-8.90851
▁WO	-8.91011
▁length	-8.91097
▁data	-8.91162
bis	-8.9127
▁during	-8.91418
▁greater	-8.91599
▁polynucleotide	-8.91706
amide	-8.91821
▁mm	-8.91827
▁point	-8.91905
▁ligand	-8.91915
el	-8.91931
▁plant	-8.91931
24	-8.92077
▁filtrate	-8.92146
min	-8.92369
q	-8.92738
)-4-	-8.92837
beta	-8.92943
▁ice	-8.92967
▁phosphate	-8.92975
▁hydroxy	-8.93031
▁treating	-8.93036
▁filtration	-8.9314
▁identified	-8.9319
▁typically	-8.93241
▁function	-8.93355
▁pre	-8.93609
▁1.5	-8.93708
▁dropwise	-8.93829
▁IgG	-8.93898
________________	-8.94062
▁_______________	-8.94412
at	-8.94468
▁line	-8.94619
▁condition	-8.94734
▁Fc	-8.94893
able	-8.94932
▁result	-8.95316
▁affinity	-8.95324
▁polymer	-8.95413
▁un	-8.96133
▁higher	-8.96268
▁cm	-8.96281
▁incubated	-8.96532
▁application	-8.9664
▁synthesized	-8.96664
8,	-8.96856
▁signal	-8.96871
▁given	-8.96889
%)	-8.96895
▁small	-8.96977
▁dry	-8.96981
▁cDNA	-8.9715
▁diseases	-8.97417
60	-8.97419
-7-	-8.97493
▁substrate	-8.97799
▁animal	-8.97896
▁stream	-8.97907
28	-8.98356
et	-8.98393
▁35	-8.98444
▁increase	-8.98765
▁value	-8.98773
▁formation	-8.99377
(2	-8.99658
to	-8.99674
ity	-9.00045
▁unit	-9.00132
▁biological	-9.00218
▁acetic	-9.00337
▁samples	-9.00392
sulfonyl	-9.00655
▁NH	-9.00741
▁vectors	-9.00805
−	-9.00829
▁conventional	-9.00995
▁glycol	-9.01155
▁tetrahydrofuran	-9.01325
21	-9.01362
▁percent	-9.01394
▁observed	-9.01461
▁serum	-9.01622
▁attached	-9.01694
▁Q	-9.0181
▁bind	-9.01854
▁increased	-9.01972
▁inhibitors	-9.02033
▁indicated	-9.02041
▁substantially	-9.02075
ized	-9.02159
▁end	-9.02225
containing	-9.02296
▁DMF	-9.0238
4-	-9.02396
▁injection	-9.02473
38	-9.0254
▁capable	-9.02662
▁hydrocarbon	-9.02662
▁DCM	-9.02676
il	-9.02682
▁intermediate	-9.03305
▁substituent	-9.03405
acetyl	-9.03422
▁membrane	-9.03502
:1	-9.03581
▁immune	-9.03631
)-1-	-9.03676
▁relates	-9.03681
▁before	-9.03715
▁flask	-9.03865
▁powder	-9.03913
carboxamide	-9.03985
▁500	-9.04117
benzo	-9.04339
▁inhibitor	-9.04549
▁day	-9.04816
substituted	-9.04831
▁LC	-9.04999
▁side	-9.05005
▁solvents	-9.05024
▁properties	-9.05094
▁mouse	-9.05106
▁ammonium	-9.05618
▁components	-9.05887
▁synthetic	-9.05898
29	-9.06183
▁alkenyl	-9.06812
▁acetonitrile	-9.07108
▁period	-9.07177
▁upon	-9.07243
▁assays	-9.07289
binding	-9.07409
▁eq	-9.07572
▁(300	-9.07736
specific	-9.07777
DMSO	-9.07778
▁CDR	-9.07886
4)	-9.07919
Hz	-9.07998
▁disorder	-9.08614
▁5%	-9.08969
▁Chem	-9.09397
▁size	-9.09666
▁prior	-9.09824
9,	-9.1014
▁oxide	-9.10312
▁linked	-9.10502
▁species	-9.10632
▁had	-9.10668
▁α	-9.11047
▁1.0	-9.1133
▁relative	-9.11415
▁possible	-9.11929
▁component	-9.11957
▁resin	-9.11971
um	-9.11994
▁Alternatively	-9.12056
ization	-9.12166
23	-9.12181
▁80	-9.12231
▁should	-9.12473
▁Cl	-9.12481
▁However	-9.1276
▁wt	-9.12806
ur	-9.12825
▁mRNA	-9.12874
▁vivo	-9.12892
OR	-9.12928
▁reflux	-9.13171
▁PAL	-9.13205
▁reacted	-9.13336
▁constant	-9.13384
▁monoclonal	-9.13529
▁variety	-9.13721
▁introduced	-9.13739
▁individual	-9.13857
▁directly	-9.13866
▁LCMS	-9.13916
_______	-9.1407
▁CO	-9.14097
▁approximately	-9.14134
ac	-9.14242
▁taken	-9.14284
▁45	-9.14615
▁final	-9.14622
35	-9.14906
)-5-	-9.15308
▁four	-9.1552
▁f	-9.15585
mL	-9.15806
▁factor	-9.15862
▁atmosphere	-9.15913
▁layers	-9.15986
1-4	-9.1604
27	-9.16161
▁methylene	-9.16234
000	-9.16273
benzene	-9.16338
▁formulation	-9.16369
▁normal	-9.16444
▁sites	-9.16456
▁would	-9.16557
le	-9.16557
▁ability	-9.16588
▁plasmid	-9.16604
▁body	-9.16754
7-	-9.1704
▁procedures	-9.17061
▁nucleotides	-9.17096
▁PRO	-9.17249
▁animals	-9.17462
′	-9.17503
▁hydrochloric	-9.17516
▁disorders	-9.17584
phenoxy	-9.17593
▁MeOH	-9.17731
ul	-9.17738
26	-9.1775
▁48	-9.17758
▁plate	-9.17792
▁300	-9.17836
▁intended	-9.17895
▁RT	-9.17936
piperidin	-9.18011
ter	-9.18061
▁branched	-9.18164
▁Preferably	-9.18307
▁Ar	-9.18397
▁mole	-9.1845
TM	-9.18456
▁bound	-9.18609
id	-9.18691
▁variant	-9.18793
▁identity	-9.19041
▁pro	-9.19094
▁until	-9.19249
nitro	-9.19738
pyrazol	-9.20322
▁90	-9.20551
▁Co	-9.2076
▁parts	-9.20861
▁identical	-9.21109
ion	-9.21157
▁otherwise	-9.21278
▁III	-9.21355
▁Compounds	-9.21563
▁effects	-9.21628
ating	-9.2164
▁tested	-9.21806
▁calcium	-9.21979
▁ion	-9.22018
ive	-9.22038
47	-9.222
▁150	-9.22205
for	-9.22263
▁Other	-9.22275
▁Re	-9.22355
hexane	-9.22413
▁r	-9.2264
▁calculated	-9.22915
▁required	-9.23151
▁28	-9.23182
▁content	-9.23246
▁inhibition	-9.23305
▁(1)	-9.23695
▁steps	-9.23745
▁radical	-9.23765
▁benzyl	-9.23811
▁esters	-9.23847
▁concentrations	-9.23929
co	-9.24039
▁21	-9.24103
is	-9.24109
III	-9.24115
▁hydroxyl	-9.24151
ant	-9.24231
▁One	-9.24537
▁70	-9.24551
22	-9.24809
▁several	-9.25012
▁double	-9.25096
ally	-9.2513
ium	-9.25216
▁solutions	-9.2532
▁domains	-9.25335
ab	-9.25443
▁shows	-9.25834
▁diethyl	-9.25845
▁2.5	-9.25902
terminal	-9.26002
▁referred	-9.26159
▁complete	-9.2622
▁values	-9.26426
▁therapy	-9.26782
▁mixtures	-9.26801
▁terms	-9.26848
▁does	-9.26974
it	-9.27106
acetic	-9.27124
▁Suitable	-9.27271
delta	-9.27355
33	-9.27973
▁primary	-9.27983
▁binds	-9.28064
▁nM	-9.28137
57	-9.28166
▁linker	-9.28189
▁reduction	-9.28331
▁100%	-9.28512
-8	-9.28515
▁cooling	-9.28842
▁interest	-9.28866
AP	-9.28873
▁vitro	-9.28936
▁subjected	-9.28989
type	-9.29209
▁halo	-9.29217
IV	-9.29235
39	-9.29281
▁probe	-9.29388
▁multiple	-9.29403
5-	-9.29503
▁29	-9.29679
▁All	-9.29727
▁variants	-9.29819
▁reagent	-9.29933
▁flash	-9.30034
78	-9.30035
▁dd	-9.30042
▁accordance	-9.30142
cyclohexyl	-9.3025
▁400	-9.30256
▁release	-9.30265
ES	-9.30405
90	-9.30436
▁scope	-9.30467
▁50%	-9.30489
▁pure	-9.30532
▁heterocyclic	-9.30549
▁except	-9.3055
▁understood	-9.30599
×	-9.30695
CN	-9.30799
mu	-9.30845
▁v	-9.30901
▁Cell	-9.3112
▁could	-9.31147
▁forth	-9.31263
▁22	-9.31319
95	-9.31413
▁applied	-9.31497
▁trans	-9.31798
49	-9.31863
▁included	-9.31872
▁coding	-9.31873
ide	-9.3203
▁placed	-9.32203
▁chloroform	-9.32216
▁separation	-9.32277
the	-9.32474
▁systems	-9.3249
▁Further	-9.32496
▁formulations	-9.32517
87	-9.32576
▁27	-9.32601
▁32	-9.32681
aryl	-9.32783
▁media	-9.32905
▁Intermediate	-9.32954
▁determine	-9.33138
▁sub	-9.33192
]+	-9.33219
48	-9.33357
▁purity	-9.33374
cyano	-9.33401
▁previously	-9.33718
▁conversion	-9.33727
pyrrolo	-9.33906
well	-9.34058
▁hexane	-9.34088
34	-9.34201
▁follows	-9.34329
▁ingredient	-9.34382
ia	-9.34405
▁Methods	-9.3446
fluorophenyl	-9.34463
CF	-9.34699
44	-9.34778
▁viral	-9.34821
ose	-9.34908
▁skill	-9.34919
_	-9.35061
-(2-	-9.35208
79	-9.35227
▁oral	-9.35401
▁37°	-9.355
▁patients	-9.35512
▁detection	-9.35647
▁precipitate	-9.35921
cyclopropyl	-9.35951
▁26	-9.36011
▁analyzed	-9.36127
▁showed	-9.36139
37	-9.36329
pyrimidine	-9.36343
▁plates	-9.36411
un	-9.36539
▁(30	-9.36629
▁long	-9.36634
▁even	-9.367
▁l	-9.36966
▁support	-9.37182
▁triethylamine	-9.37366
and	-9.37383
▁positive	-9.37433
▁Then	-9.37507
▁36	-9.37626
▁pyridine	-9.37751
▁0.2	-9.37839
ex	-9.37923
▁administering	-9.37933
▁need	-9.37998
▁detected	-9.38015
99	-9.38076
▁feed	-9.38131
▁gradient	-9.38179
▁micro	-9.38214
▁producing	-9.38248
▁generated	-9.38492
▁distillation	-9.38671
45	-9.38772
5%	-9.38785
▁reactions	-9.38913
-8-	-9.39015
88	-9.39027
▁reacting	-9.39169
▁linear	-9.39181
▁converted	-9.39194
de	-9.39203
-9	-9.3935
▁large	-9.39407
▁thereby	-9.39493
▁do	-9.39525
▁contained	-9.39577
▁immunoglobulin	-9.39611
▁7-	-9.39768
▁alkynyl	-9.39871
75	-9.39882
▁By	-9.40153
▁infection	-9.40324
▁distilled	-9.40373
▁33	-9.4044
[2,3-	-9.40524
▁amounts	-9.40581
▁According	-9.40584
▁thereto	-9.41004
▁iso	-9.41053
▁way	-9.41266
piperidine	-9.41271
▁34	-9.41281
80	-9.41368
36	-9.41422
▁equivalent	-9.41531
0.0	-9.4186
-(4-	-9.42082
▁activation	-9.42091
ent	-9.42103
-10	-9.42128
methanol	-9.4213
▁related	-9.42263
89	-9.42317
▁necessary	-9.42336
▁dimethyl	-9.42369
▁plants	-9.42439
▁VH	-9.42483
3):	-9.42531
▁fused	-9.42547
▁usually	-9.42553
▁bath	-9.42599
70	-9.42777
▁charged	-9.4285
▁lines	-9.42895
-1,3-	-9.42972
alkoxy	-9.42989
difluoro	-9.43012
▁Scheme	-9.43197
▁remove	-9.43566
▁x	-9.4359
▁bromide	-9.43682
isopropyl	-9.43696
▁inhibit	-9.43808
▁primer	-9.43819
▁acetone	-9.43838
▁cyano	-9.43847
31	-9.43908
59	-9.43946
▁inert	-9.44005
▁epitope	-9.44015
▁natural	-9.44213
membered	-9.44227
▁novel	-9.44285
▁device	-9.44374
▁benzene	-9.44401
▁carboxylic	-9.44453
46	-9.44462
▁replaced	-9.44521
▁full	-9.44667
▁processes	-9.44763
▁substance	-9.44776
(3	-9.44783
▁crystals	-9.44786
▁fatty	-9.44946
▁heat	-9.45171
▁construct	-9.45257
▁If	-9.45265
▁transcription	-9.45291
▁spectrum	-9.45343
▁ethylene	-9.45355
st	-9.4547
▁hr	-9.4562
▁fraction	-9.45624
▁PBS	-9.45705
▁crystalline	-9.45707
ir	-9.45755
▁31	-9.46004
▁(500	-9.46136
fold	-9.46419
▁alkali	-9.46451
water	-9.46758
32	-9.46761
▁cyclic	-9.46842
▁particles	-9.46852
▁primers	-9.46965
▁soluble	-9.46975
▁w	-9.46993
▁positions	-9.4702
▁excess	-9.47034
▁modifications	-9.47079
▁coli	-9.47112
OD	-9.47265
▁sufficient	-9.47307
58	-9.47353
▁(0.5	-9.47398
77	-9.47426
Na	-9.47506
yloxy	-9.4756
▁250	-9.47582
based	-9.47687
dimethylamino	-9.47994
▁characterized	-9.48103
such	-9.48105
human	-9.48212
mer	-9.48308
imethylformamide	-9.48711
ch	-9.4872
dichloro	-9.4876
▁due	-9.48807
im	-9.48929
▁conducted	-9.49
▁tetra	-9.49138
▁delivery	-9.49222
ous	-9.49234
▁nitro	-9.49257
▁At	-9.49327
Chloro	-9.49336
▁expressing	-9.49337
98	-9.49374
like	-9.49565
85	-9.49883
▁receptors	-9.49957
▁state	-9.49994
▁37	-9.5013
▁substitution	-9.50145
▁(8	-9.5018
acetate	-9.50201
2;	-9.50252
▁br	-9.50655
▁(15	-9.5071
▁equiv	-9.50753
ment	-9.50846
86	-9.5085
ap	-9.5093
▁hybridization	-9.51113
▁labeled	-9.51142
▁significant	-9.51217
▁cleavage	-9.51315
▁0.01	-9.51396
▁cases	-9.51443
)—	-9.51479
▁gave	-9.51532
▁extract	-9.51629
-12	-9.51636
ray	-9.51701
7.5	-9.51856
▁lithium	-9.51906
▁cross	-9.51909
▁fractions	-9.52048
▁23	-9.52168
▁(9	-9.52229
▁IV	-9.52238
▁TFA	-9.52251
▁especially	-9.52269
mol	-9.52529
▁kinase	-9.52584
▁ambient	-9.52593
▁Found	-9.52648
IL	-9.52688
▁tube	-9.52712
▁adding	-9.52718
▁immuno	-9.52907
▁anhydride	-9.5295
▁aliphatic	-9.53162
▁mammalian	-9.53167
96	-9.53259
▁chains	-9.53394
carbamoyl	-9.5342
▁activated	-9.53477
thiazol	-9.53532
▁reducing	-9.53565
▁poured	-9.53705
benzyloxy	-9.53707
biphenyl	-9.53716
▁protecting	-9.53733
▁still	-9.53906
▁reagents	-9.54012
▁alpha	-9.54101
67	-9.54201
▁isopropyl	-9.54226
▁75	-9.54276
▁chloro	-9.54601
▁alone	-9.5462
▁bis	-9.54639
▁stability	-9.54644
▁Inc	-9.54703
acetamide	-9.54719
▁mentioned	-9.54776
ut	-9.55116
▁Method	-9.55167
8-	-9.5533
▁therefore	-9.55384
▁filter	-9.55424
▁library	-9.55481
▁crystal	-9.55504
▁heterocyclyl	-9.55598
53	-9.55845
up	-9.56015
▁sterile	-9.56213
65	-9.56281
3;	-9.56485
Compound	-9.56493
▁encoded	-9.56745
imidazo	-9.56774
-15	-9.56781
76	-9.5684
▁post	-9.56841
▁factors	-9.56866
▁molar	-9.57051
▁many	-9.5707
▁heating	-9.57117
iso	-9.57175
▁chimeric	-9.57216
▁readily	-9.57218
▁twice	-9.5727
▁(200	-9.5731
imidazol	-9.57452
▁naturally	-9.57558
▁sulfur	-9.57784
▁combinations	-9.57823
73	-9.57962
▁adjusted	-9.57971
▁resistance	-9.58022
▁50°	-9.58051
▁amide	-9.58175
▁reverse	-9.58443
▁20%	-9.58495
▁place	-9.58502
▁tissues	-9.58548
▁+	-9.58611
▁bicarbonate	-9.5864
9-	-9.58745
▁See	-9.58802
56	-9.58824
▁maintained	-9.58827
▁depending	-9.58885
▁USA	-9.59169
▁5.0	-9.59242
▁°	-9.59258
▁eluting	-9.59275
▁preparing	-9.59332
▁bases	-9.59351
▁stable	-9.59433
▁VL	-9.59469
▁units	-9.59699
▁cellulose	-9.59737
NO	-9.59938
▁plasma	-9.59941
benzoic	-9.59966
▁coupling	-9.60024
ra	-9.60315
▁colorless	-9.60345
chlorophenyl	-9.60434
69	-9.60491
▁OF	-9.60521
▁—(	-9.60729
▁quenched	-9.60911
▁onto	-9.60951
▁source	-9.60959
▁lung	-9.61336
▁model	-9.61336
ill	-9.61441
▁Rf	-9.61443
PA	-9.61498
▁Another	-9.61503
per	-9.61618
▁Yield	-9.61636
▁Using	-9.61664
▁very	-9.61698
64	-9.61722
trans	-9.61903
cell	-9.61915
▁39	-9.61942
2—	-9.61957
▁polynucleotides	-9.61973
97	-9.61991
▁2.0	-9.62089
▁separate	-9.62213
▁38	-9.62228
74	-9.6225
▁film	-9.62282
]-2-	-9.62443
ting	-9.62443
▁membered	-9.62486
▁structural	-9.6261
▁weeks	-9.62613
▁100°	-9.62717
propan	-9.62734
▁new	-9.62741
▁antisense	-9.62759
benzoyl	-9.62823
▁kit	-9.63004
▁Sci	-9.6301
▁carriers	-9.63013
▁Biol	-9.63014
▁washing	-9.63054
▁Cells	-9.63072
▁moieties	-9.63115
▁types	-9.63175
▁NaCl	-9.63179
▁secondary	-9.63268
41	-9.63356
▁five	-9.63468
▁Also	-9.63492
▁IR	-9.63549
▁o	-9.63613
94	-9.63623
bi	-9.63693
55	-9.63699
ylmethyl	-9.63717
▁basic	-9.63731
84	-9.63794
▁extraction	-9.63871
▁Br	-9.63903
68	-9.63951
indol	-9.6396
dione	-9.63981
con	-9.63984
▁42	-9.64118
▁substitutions	-9.64147
▁mutant	-9.64234
▁elements	-9.6425
ne	-9.6434
▁palladium	-9.64348
▁strain	-9.64434
▁fluid	-9.64557
▁amplification	-9.64642
ph	-9.64674
▁(2)	-9.64684
carbamate	-9.64871
oxa	-9.64966
▁absence	-9.65038
methoxyphenyl	-9.65042
ppm	-9.6505
▁inorganic	-9.65078
▁structures	-9.65105
▁formulated	-9.65142
▁cellular	-9.65357
Me	-9.65507
-(3-	-9.6554
▁exemplary	-9.65873
▁Following	-9.65965
chain	-9.65999
▁25°	-9.66151
-20	-9.66185
▁Analysis	-9.66228
1;	-9.66311
▁glucose	-9.66316
ro	-9.66414
▁Patent	-9.66483
▁aspects	-9.66563
▁extracts	-9.66667
times	-9.66714
pyridyl	-9.66721
▁enzymes	-9.66762
+)	-9.66812
▁commercially	-9.6702
▁dryness	-9.67079
]+.	-9.67391
▁Reference	-9.67567
▁potential	-9.67676
Br	-9.67885
▁bacterial	-9.68056
▁Accordingly	-9.6809
▁selection	-9.68234
OC	-9.68283
▁yeast	-9.68454
▁resultant	-9.6865
▁thio	-9.68746
pyrrolidin	-9.68783
▁native	-9.68875
▁study	-9.68908
▁complementary	-9.6891
=2	-9.68922
}-	-9.69042
▁screening	-9.6912
100	-9.69189
▁44	-9.69279
200	-9.69305
▁class	-9.69332
▁vessel	-9.69398
▁because	-9.69477
phenol	-9.69585
▁yet	-9.6965
man	-9.69743
▁1%	-9.69786
▁glass	-9.69821
′-	-9.69965
benzamide	-9.70067
▁complexes	-9.70088
te	-9.70093
▁60°	-9.70165
▁therapeutically	-9.70213
▁instance	-9.70305
▁slowly	-9.70307
▁(7	-9.70377
-1,4-	-9.70377
▁portions	-9.70566
▁80°	-9.70621
▁unsaturated	-9.70629
ted	-9.70657
enyl	-9.70671
ite	-9.70711
▁90%	-9.70738
▁occurring	-9.70765
ary	-9.7086
li	-9.70891
▁NaHCO	-9.70947
▁show	-9.70973
[1,2-	-9.70973
▁zone	-9.71007
▁conjugate	-9.71031
▁equal	-9.71115
▁hydride	-9.71246
▁TLC	-9.71281
pro	-9.71474
43	-9.71517
▁0.1%	-9.71558
▁acyl	-9.71598
ii	-9.71631
▁marker	-9.71669
▁polyethylene	-9.71705
▁43	-9.7173
▁polymers	-9.7179
▁alkylene	-9.71825
▁wild	-9.7187
▁1,4-	-9.7205
▁isomers	-9.7205
▁Pd	-9.72185
▁average	-9.7224
including	-9.72341
▁Fab	-9.72449
▁oxidation	-9.725
▁lipid	-9.72664
▁(1.0	-9.72775
izing	-9.72813
▁Each	-9.72869
▁55	-9.72891
▁Furthermore	-9.7301
▁46	-9.73108
▁incubation	-9.73111
▁represent	-9.73116
▁changes	-9.73119
▁achieved	-9.73123
Amino	-9.73245
▁removal	-9.73249
▁whether	-9.73268
83	-9.73276
▁directed	-9.73294
63	-9.73296
-17	-9.73386
▁polymerase	-9.73581
▁Bio	-9.73611
▁once	-9.73637
▁tablets	-9.73932
▁eluted	-9.73979
pyrazolo	-9.74064
▁2-(	-9.74156
▁forming	-9.74202
▁carcinoma	-9.74262
tetramethyl	-9.74387
ot	-9.74388
04	-9.74412
▁element	-9.74417
▁catalysts	-9.7442
▁transformed	-9.74561
pyran	-9.74602
▁tumors	-9.74769
▁recovered	-9.74813
butoxycarbonyl	-9.74844
▁direct	-9.74889
▁straight	-9.74899
▁however	-9.75096
▁skin	-9.75126
-11	-9.75127
ial	-9.75135
▁instead	-9.75172
=4	-9.75196
▁Acid	-9.75196
▁next	-9.75485
▁prevent	-9.75507
▁catalytic	-9.75656
iodo	-9.75767
bs	-9.75809
methylene	-9.75852
▁reduce	-9.75859
▁95%	-9.75894
▁restriction	-9.75978
▁experiments	-9.7601
▁mutation	-9.76051
▁5′	-9.76077
▁refer	-9.76109
▁reported	-9.76113
7.0	-9.76123
▁genetic	-9.76152
▁express	-9.76212
▁5.5	-9.76274
OCH	-9.76334
em	-9.7634
▁beta	-9.76429
▁Preferred	-9.76448
▁fluorescent	-9.76473
▁multi	-9.76496
▁Form	-9.7651
j	-9.76533
10,	-9.7658
▁IC	-9.76643
▁analogous	-9.76691
▁q	-9.76766
01	-9.76849
▁highly	-9.76883
▁mutations	-9.76948
▁(25	-9.77179
▁respect	-9.77259
▁proliferation	-9.77267
▁transfer	-9.77288
▁studies	-9.77305
▁reactive	-9.77345
▁aluminum	-9.77383
▁saline	-9.77418
▁transferred	-9.77461
▁carboxy	-9.77478
ca	-9.77573
▁half	-9.77643
▁ex	-9.77673
▁treat	-9.77824
indole	-9.77869
▁comparison	-9.77959
▁development	-9.77982
66	-9.78054
▁alternatively	-9.78139
▁Res	-9.78153
)+	-9.78175
▁Ser	-9.78246
▁integer	-9.78285
▁isomer	-9.7832
▁THE	-9.7863
▁Human	-9.78638
CR	-9.78675
▁Protein	-9.78699
▁equivalents	-9.78706
▁120	-9.78706
▁iodide	-9.7874
▁pain	-9.78789
lin	-9.78849
▁bone	-9.78937
▁brain	-9.79051
4.0	-9.79084
ta	-9.7919
▁modification	-9.79198
▁6.0	-9.79311
▁ELISA	-9.79328
▁precursor	-9.7937
▁47	-9.79543
▁exchange	-9.7958
▁inflammatory	-9.79699
▁generate	-9.7973
▁insulin	-9.79764
▁repeated	-9.79765
▁description	-9.7977
▁strand	-9.79932
06	-9.79951
ED	-9.79955
▁MgSO	-9.79962
▁suspended	-9.79966
05	-9.79966
▁dioxane	-9.80023
Example	-9.80027
▁protected	-9.80035
limiting	-9.80064
▁Di	-9.80086
▁ingredients	-9.80087
▁improved	-9.80147
−1	-9.8026
▁induced	-9.80318
▁Mass	-9.80394
)(	-9.80435
▁electron	-9.80503
42	-9.80579
▁ng	-9.80618
▁49	-9.80641
▁99%	-9.80683
▁41	-9.80684
PD	-9.80795
8°	-9.80868
54	-9.80926
lo	-9.80943
pyrido	-9.80946
02	-9.80949
pentyl	-9.80983
PO	-9.80986
2°	-9.81008
▁fluoro	-9.81019
▁change	-9.81074
▁doses	-9.81076
▁syndrome	-9.81176
▁argon	-9.81196
▁con	-9.81241
▁utilized	-9.81324
piperazin	-9.81375
▁mean	-9.81392
▁More	-9.81476
▁Me	-9.81481
▁specificity	-9.81546
ry	-9.81559
▁see	-9.81571
▁probes	-9.81657
est	-9.81759
▁rt	-9.81786
-1,2-	-9.81877
▁fluorescence	-9.81883
▁air	-9.81889
▁sugar	-9.81906
▁96	-9.81995
▁temperatures	-9.82015
▁hydrocarbons	-9.82071
▁cyclo	-9.82089
oxide	-9.82114
▁inhibiting	-9.82249
▁interaction	-9.82301
▁alkaline	-9.82358
▁significantly	-9.8237
6):	-9.82407
▁Acad	-9.825
sulfonamide	-9.82545
▁NaOH	-9.82592
▁drying	-9.82629
line	-9.82633
▁purposes	-9.8269
▁1.2	-9.82699
▁supernatant	-9.82845
ox	-9.82897
▁clear	-9.82961
▁completion	-9.83011
▁genome	-9.83011
4;	-9.83034
▁characteristics	-9.83038
▁internal	-9.8312
▁Nos	-9.83121
▁SO	-9.83148
▁chlorine	-9.83254
▁liver	-9.83304
▁family	-9.83351
ers	-9.8338
▁conjugated	-9.8341
▁absorption	-9.83427
▁0.05	-9.83463
▁six	-9.83493
(2-	-9.83516
ton	-9.83564
▁Ra	-9.83642
03	-9.83646
▁expected	-9.83731
▁negative	-9.839
▁bottom	-9.83995
▁important	-9.84143
os	-9.84157
:1)	-9.84169
▁Chemical	-9.84171
piperazine	-9.84177
phosphate	-9.84254
▁PD	-9.84301
▁hydro	-9.84302
▁carboxyl	-9.84396
▁short	-9.84433
6;	-9.84516
▁ammonia	-9.84658
▁particle	-9.84675
cycloalkyl	-9.84726
-2,3-	-9.84772
heterocycloalkyl	-9.84822
trifluoro	-9.84822
▁preferable	-9.8486
)-6-	-9.84923
81	-9.84999
=8	-9.8506
iv	-9.85224
▁action	-9.85239
▁designed	-9.85245
▁humanized	-9.85311
▁Therefore	-9.85399
tic	-9.85407
▁round	-9.85431
lower	-9.85442
▁drugs	-9.85481
▁3′	-9.85613
▁area	-9.85616
▁contact	-9.85676
▁bio	-9.85707
▁propylene	-9.85708
▁−	-9.85714
93	-9.85762
▁1:1	-9.85945
▁substances	-9.85947
▁essentially	-9.85984
▁route	-9.86022
▁9.	-9.86087
[3,4-	-9.86167
▁down	-9.86196
▁peak	-9.86243
▁stage	-9.86273
▁clones	-9.86286
=3	-9.86305
▁inter	-9.8633
▁symptoms	-9.86332
▁HIV	-9.86348
▁indicates	-9.86421
08	-9.86481
▁antigens	-9.86578
61	-9.86661
▁illustrated	-9.86724
▁alternative	-9.86842
▁bacteria	-9.86852
▁allow	-9.86855
▁loss	-9.86863
▁brown	-9.87012
▁Proc	-9.87052
▁subsequent	-9.87078
▁1,2-	-9.87261
▁ch	-9.87262
71	-9.87322
ell	-9.8748
8.0	-9.87669
dimethoxy	-9.87678
▁mammal	-9.87845
▁specification	-9.87946
▁95	-9.87957
▁considered	-9.88034
▁determining	-9.88134
▁bonds	-9.88155
▁99	-9.88211
Methyl	-9.88222
▁mixing	-9.88365
tin	-9.88494
▁grams	-9.88513
▁preparations	-9.88532
▁72	-9.88539
▁population	-9.88556
age	-9.8859
7.6	-9.88606
AD	-9.88628
no	-9.88689
▁kg	-9.88846
▁starch	-9.88901
cyclo	-9.88977
)+.	-9.89014
▁k	-9.89044
▁presented	-9.89104
▁TBL	-9.89136
51	-9.89236
▁7,	-9.89253
PE	-9.89287
▁genomic	-9.8933
la	-9.89547
▁chronic	-9.89615
07	-9.89624
5.0	-9.89701
▁halide	-9.89734
meth	-9.8976
▁PEG	-9.89783
▁contacting	-9.89785
▁Exemplary	-9.89786
▁among	-9.89873
▁CF	-9.89875
▁decrease	-9.89931
terminus	-9.89963
7.1	-9.89968
▁mp	-9.89996
▁ordinary	-9.90008
0.1	-9.90084
09	-9.90182
▁targeting	-9.90187
▁partially	-9.90191
▁OH	-9.90209
prop	-9.90222
'-	-9.90289
▁prepare	-9.90294
▁color	-9.9041
▁evaporation	-9.9051
▁phage	-9.9055
(4-	-9.90661
▁hetero	-9.90745
AC	-9.9075
▁we	-9.90777
▁cultured	-9.90801
AT	-9.90826
=8.4	-9.90937
▁vary	-9.91061
vinyl	-9.91086
▁applications	-9.91151
▁degree	-9.91203
MH	-9.91234
▁confirmed	-9.91321
▁ESI	-9.91366
▁identify	-9.91709
▁0.3	-9.91726
▁refluxed	-9.91729
quinoline	-9.91757
▁protease	-9.91773
▁desirable	-9.91788
-9-	-9.9181
alkenyl	-9.91897
▁increasing	-9.91963
▁On	-9.91966
▁fluorine	-9.92015
▁1000	-9.92015
▁radicals	-9.92087
▁coating	-9.92105
▁clone	-9.92203
▁preparative	-9.92264
▁8-	-9.92328
▁promoters	-9.92433
▁third	-9.9247
▁subsequently	-9.92512
-1,2,4-	-9.92605
7;	-9.92675
▁occur	-9.92737
▁injected	-9.92851
1.0	-9.92957
▁pattern	-9.93069
ance	-9.93071
length	-9.93136
0.2	-9.93156
quinolin	-9.93221
ak	-9.93254
▁ligands	-9.93312
▁rat	-9.93319
methane	-9.93356
▁Li	-9.93416
▁parent	-9.93558
▁(40	-9.93611
methylphenyl	-9.93685
▁matrix	-9.93727
4.2	-9.93862
______________	-9.9387
ness	-9.93942
72	-9.93969
▁Calif	-9.93975
5°	-9.93983
▁transfected	-9.94
2),	-9.94093
▁198	-9.94132
form	-9.94147
dioxo	-9.94199
po	-9.94243
tetra	-9.94249
▁codon	-9.94271
▁TNF	-9.94328
▁Pro	-9.94407
▁clinical	-9.9441
oma	-9.94423
▁albumin	-9.9447
▁listed	-9.9461
▁acidic	-9.94715
]-3-	-9.94725
11,	-9.94754
62	-9.94778
7.2	-9.94844
6.0	-9.9488
AL	-9.94911
▁haloalkyl	-9.95038
▁density	-9.95039
▁hydrolysis	-9.9507
3),	-9.95116
-13	-9.95122
▁analogs	-9.95194
▁terminal	-9.9522
RP	-9.95285
-(1-	-9.95286
TP	-9.95305
▁en	-9.95324
▁initial	-9.9534
▁Tris	-9.95345
▁Mol	-9.95443
▁involved	-9.95463
ri	-9.95535
▁125	-9.95679
▁dye	-9.95759
na	-9.95766
▁There	-9.95778
▁7.5	-9.95829
▁65	-9.96124
▁melting	-9.96165
▁NR	-9.96203
▁transgenic	-9.96316
▁nature	-9.96364
▁cysteine	-9.9647
▁selective	-9.96494
▁Natl	-9.96561
8;	-9.9657
▁remaining	-9.9659
▁apparent	-9.96602
▁Antibodies	-9.96817
3.1	-9.96928
ti	-9.9696
=8.0	-9.97005
92	-9.97025
4.1	-9.97107
▁80%	-9.97145
▁claims	-9.97175
▁unless	-9.97191
mediated	-9.97261
▁rings	-9.97337
▁monomer	-9.97471
position	-9.9759
▁context	-9.97593
▁leukemia	-9.97603
-[	-9.97693
-2-(	-9.97739
▁85	-9.97823
▁specified	-9.97828
▁FIG	-9.9784
pyrazole	-9.97867
▁again	-9.97915
▁intra	-9.97952
▁1,3-	-9.97981
protein	-9.98065
▁photo	-9.98149
=5	-9.98253
ies	-9.98338
-3-(	-9.98378
all	-9.98378
▁antagonist	-9.98476
▁vaccine	-9.98537
▁coated	-9.98571
▁Non	-9.98585
▁56	-9.98653
▁zinc	-9.98699
▁Molecular	-9.98713
▁precipitated	-9.98747
CA	-9.98788
▁capsules	-9.98795
9;	-9.98896
▁sp	-9.98902
0.5	-9.98923
2%	-9.98924
▁General	-9.98983
IP	-9.99046
▁Pharmaceutical	-9.99064
propane	-9.99076
▁4°	-9.99276
but	-9.99341
▁libraries	-9.99349
uc	-9.99371
2.1	-9.99426
▁vehicle	-9.9943
-4-(	-9.99473
500	-9.99519
▁SDS	-9.99552
ethanol	-9.99559
pyrrolidine	-9.996
▁propyl	-9.99653
▁alcohols	-9.99656
▁UV	-9.99674
▁:	-9.9968
▁40°	-9.99723
▁display	-9.99723
▁common	-9.99728
▁ketone	-9.99754
▁preventing	-9.99793
HCl	-9.99804
=7.2	-10.0006
▁often	-10.0019
52	-10.0034
▁Purification	-10.0039
Pro	-10.0041
end	-10.0046
▁chosen	-10.0053
′,	-10.0067
▁6.3	-10.0072
▁evaluated	-10.0075
▁excipients	-10.0083
▁whole	-10.0086
▁transport	-10.0093
91	-10.0099
▁polymerization	-10.01
%,	-10.0102
Fc	-10.0104
▁signaling	-10.0106
▁extracellular	-10.0114
▁demonstrated	-10.0126
▁experiment	-10.0129
naphthyl	-10.0135
carboxy	-10.0137
▁vinyl	-10.0147
carbon	-10.0153
▁inserted	-10.0153
▁controlled	-10.0155
▁Nature	-10.016
▁Reaction	-10.0168
▁(1.5	-10.0169
▁copper	-10.0169
▁phenol	-10.0171
▁regulatory	-10.0174
▁detectable	-10.0182
butoxy	-10.0182
)-2-(	-10.0197
▁(0.3	-10.0199
peptide	-10.0201
MP	-10.0201
BP	-10.0202
lu	-10.021
▁detail	-10.0212
▁every	-10.0231
ical	-10.0243
▁constructs	-10.0245
▁Science	-10.0247
5;	-10.0247
sp	-10.0259
2.8	-10.0272
▁coupled	-10.0272
2.2	-10.0274
▁engineered	-10.0279
4.3	-10.028
wherein	-10.0288
▁chiral	-10.03
▁4-(	-10.0307
propoxy	-10.0309
itis	-10.0314
▁template	-10.0315
▁Anti	-10.0315
▁gelatin	-10.032
▁purpose	-10.033
▁Ab	-10.0339
▁efficiency	-10.0343
▁cloned	-10.0358
om	-10.0359
▁pathway	-10.0359
2(	-10.0362
▁54	-10.0364
-16	-10.0365
▁stem	-10.0365
▁INVENTION	-10.0367
▁methoxy	-10.0367
free	-10.0369
7.3	-10.037
▁(0.4	-10.0377
▁carbonyl	-10.039
MA	-10.0394
▁left	-10.04
▁percentage	-10.041
▁suspensions	-10.0419
dihydroxy	-10.042
▁since	-10.042
gen	-10.0424
82	-10.0429
▁noted	-10.0432
▁We	-10.0432
▁charge	-10.0438
▁Gene	-10.0454
VI	-10.0478
▁inhibitory	-10.0487
▁bar	-10.0494
▁1:	-10.0504
▁diameter	-10.0506
▁sec	-10.051
▁homologous	-10.0527
▁patent	-10.0528
▁partial	-10.0528
▁52	-10.0535
▁grown	-10.0549
▁designated	-10.0549
▁hydrogenation	-10.055
▁cold	-10.0559
ethane	-10.0561
4),	-10.0561
▁Al	-10.0564
▁cyclohexyl	-10.058
▁Ca	-10.058
▁Expression	-10.0582
▁rats	-10.0584
▁homology	-10.0585
max	-10.0594
1.1	-10.0599
tra	-10.0602
▁relatively	-10.0614
▁#	-10.0625
ve	-10.0633
ni	-10.0636
▁53	-10.064
▁bi	-10.0646
▁butyl	-10.0647
7.8	-10.0652
triazol	-10.0652
▁amines	-10.0652
1-3	-10.0657
ize	-10.0664
▁limitation	-10.0665
▁providing	-10.067
ure	-10.0674
▁pale	-10.0677
▁trifluoroacetic	-10.0677
▁moles	-10.0682
▁New	-10.0686
anti	-10.0686
▁series	-10.0687
▁Press	-10.0688
RS	-10.0697
▁entirety	-10.0707
▁diagnostic	-10.0715
▁block	-10.0715
1%	-10.0718
▁6.5	-10.0719
▁antagonists	-10.0724
▁energy	-10.0725
▁achieve	-10.073
▁physical	-10.0732
▁configuration	-10.0735
Butyl	-10.0749
▁58	-10.0756
▁0.4	-10.0757
hydroxymethyl	-10.076
▁aralkyl	-10.0765
▁continued	-10.0776
aza	-10.0776
cm	-10.0777
ET	-10.078
ylamino	-10.0784
▁intravenous	-10.0784
eg	-10.0791
8)	-10.0794
▁98	-10.0795
▁caused	-10.0796
▁amplified	-10.0796
▁commonly	-10.0803
▁heteroatoms	-10.0806
▁agonist	-10.0807
AG	-10.0813
▁8.8	-10.0831
▁11.	-10.0831
▁Et	-10.0838
▁De	-10.0842
′′	-10.0846
trimethyl	-10.0846
▁cis	-10.0852
▁breast	-10.0852
▁cycle	-10.0856
▁contemplated	-10.0863
Di	-10.0867
sis	-10.0869
▁eluent	-10.0871
▁51	-10.0871
-18	-10.0874
▁exhibit	-10.0877
▁phases	-10.0885
8%	-10.0887
▁calcd	-10.0903
7.7	-10.0906
▁processing	-10.0907
▁complement	-10.0917
▁Si	-10.0926
▁substituting	-10.0937
▁5.7	-10.0952
▁run	-10.0963
about	-10.097
▁encodes	-10.098
Bromo	-10.0981
=8.8	-10.0981
▁slurry	-10.0986
▁framework	-10.0986
▁IFN	-10.0988
tion	-10.1011
▁intracellular	-10.1016
▁Ethyl	-10.1021
TA	-10.1031
▁DESCRIPTION	-10.1031
▁Mo	-10.1033
▁make	-10.104
▁57	-10.105
MeOH	-10.1054
▁optical	-10.1055
-(5-	-10.1058
6%	-10.1059
son	-10.1075
▁technique	-10.1077
op	-10.1082
▁20°	-10.1086
▁pair	-10.109
▁30%	-10.1096
▁apparatus	-10.1101
ethylene	-10.1107
urea	-10.1114
▁(3)	-10.1121
benzoate	-10.1122
▁course	-10.1126
▁sulfuric	-10.113
▁5.4	-10.1132
6.9	-10.1135
▁transformation	-10.1137
▁located	-10.114
▁1.1	-10.115
pH	-10.1151
▁accomplished	-10.1152
6°	-10.1157
▁strong	-10.1159
2.7	-10.1159
▁Procedure	-10.1161
▁diluent	-10.1163
dependent	-10.1164
▁5.6	-10.1166
▁boiling	-10.117
▁3-(	-10.1171
▁stored	-10.1186
▁solubility	-10.1189
▁hyper	-10.1189
▁detecting	-10.1201
▁(0.6	-10.1202
▁Specific	-10.1206
▁vapor	-10.121
7%	-10.122
▁must	-10.1223
▁efficacy	-10.1223
▁magnetic	-10.1225
▁4.8	-10.1231
2.9	-10.1234
▁age	-10.1235
IN	-10.1237
▁making	-10.1249
ce	-10.1256
▁daily	-10.1257
▁While	-10.1259
▁discussed	-10.1265
▁major	-10.1273
▁acetyl	-10.1274
7.4	-10.1281
gene	-10.1288
▁polar	-10.1291
cyclohexane	-10.1292
▁Moreover	-10.1305
▁Rt	-10.1306
▁para	-10.1306
▁0.6	-10.1307
▁Although	-10.1324
▁foam	-10.1327
[1,5-	-10.133
▁endogenous	-10.1333
7°	-10.134
poly	-10.1343
▁cause	-10.1343
▁able	-10.1344
[3,2-	-10.135
▁person	-10.135
4.5	-10.1357
▁5.3	-10.136
-14	-10.1364
3.3	-10.1365
4°	-10.1367
▁parenteral	-10.1368
▁fully	-10.137
▁Methyl	-10.137
3°	-10.1377
▁replication	-10.1388
▁12.	-10.1389
▁bonded	-10.14
▁monitored	-10.1404
▁Con	-10.1408
aniline	-10.1423
▁heterologous	-10.1425
imino	-10.1429
▁label	-10.1432
lic	-10.1436
OS	-10.1442
▁continuous	-10.1443
0.00	-10.1443
▁59	-10.1445
▁wells	-10.1454
▁member	-10.1459
▁effector	-10.1463
RNA	-10.1476
▁acute	-10.1477
▁Ex	-10.1479
▁activities	-10.148
thiophene	-10.1481
DNA	-10.1484
ator	-10.1485
2.5	-10.1487
▁7.	-10.1488
▁bromine	-10.149
▁3.5	-10.149
▁selectivity	-10.149
SP	-10.1496
aR	-10.1513
▁3.0	-10.1519
▁(19	-10.1528
NA	-10.1542
CSF	-10.1544
hydroxyethyl	-10.1546
stranded	-10.1549
▁react	-10.1551
4.4	-10.1551
ler	-10.1556
▁centrifugation	-10.1559
linked	-10.1571
▁Any	-10.1579
▁intermediates	-10.1598
▁cloning	-10.1603
mal	-10.1605
▁heterocycle	-10.1607
3%	-10.1615
▁red	-10.1618
4%	-10.1628
RA	-10.1637
▁lymphoma	-10.1639
▁(0.1	-10.164
▁Water	-10.1642
vi	-10.1642
▁Group	-10.1648
▁mode	-10.1649
▁CR	-10.1653
+).	-10.1656
oid	-10.166
▁section	-10.166
ates	-10.1662
▁strains	-10.1669
▁parameters	-10.167
0%	-10.1672
hexahydro	-10.1677
▁5.8	-10.1696
▁did	-10.1698
spiro	-10.1719
▁consists	-10.1719
▁developed	-10.1739
3.2	-10.1754
acyl	-10.1754
▁transfection	-10.1756
▁muscle	-10.176
▁warm	-10.1765
▁object	-10.1767
furan	-10.1789
ct	-10.179
▁EP	-10.1793
acetamido	-10.1794
8.1	-10.1797
▁members	-10.1797
▁maximum	-10.1799
▁8,	-10.1801
PS	-10.1804
▁dilution	-10.1805
=7.5	-10.1808
▁13.	-10.1812
▁supra	-10.1812
6.8	-10.1815
ether	-10.1818
▁enhanced	-10.1819
—,	-10.1823
pa	-10.1827
imidazole	-10.1831
▁partitioned	-10.1839
▁aldehyde	-10.1842
▁kidney	-10.1846
AS	-10.1849
▁solids	-10.1861
]-4-	-10.1863
▁improve	-10.1866
▁(150	-10.1868
In	-10.1877
▁now	-10.1894
3.8	-10.1895
▁protocol	-10.1911
cyclic	-10.1914
▁murine	-10.1915
1.2	-10.1919
ane	-10.1927
7.9	-10.1928
3.0	-10.1931
▁solvate	-10.1932
▁6.2	-10.1935
▁hydrophobic	-10.1936
hexyl	-10.1938
▁Production	-10.1941
▁foregoing	-10.1943
▁limit	-10.1954
▁role	-10.1956
▁Typically	-10.196
°	-10.1962
of	-10.1963
▁CAR	-10.1964
pr	-10.1966
▁crystallization	-10.1969
4.6	-10.1973
diphenyl	-10.1977
▁design	-10.1977
ethylamine	-10.1978
mon	-10.1978
▁although	-10.1988
▁table	-10.199
▁4.5	-10.1991
▁occurs	-10.1992
▁induce	-10.2001
▁recrystallized	-10.2002
▁disulfide	-10.2006
=7	-10.2009
ative	-10.2013
▁information	-10.2016
val	-10.2017
▁instances	-10.202
mp	-10.202
-3,4-	-10.2025
▁Additionally	-10.2026
▁wide	-10.2026
he	-10.2036
▁entire	-10.2047
EtOAc	-10.2053
▁Ma	-10.2053
▁fixed	-10.2056
▁0.25	-10.2058
ens	-10.2061
induced	-10.2062
▁2000	-10.2068
silica	-10.2079
▁olefin	-10.208
[4,5-	-10.208
IR	-10.2082
▁hrs	-10.2084
▁Pa	-10.2089
▁translation	-10.2091
▁St	-10.2093
▁targeted	-10.2104
▁(“	-10.2106
hydroxyphenyl	-10.2108
▁hexanes	-10.211
μ	-10.2111
▁tertiary	-10.2111
▁seen	-10.2118
0°	-10.2121
-2,4-	-10.2123
diamine	-10.2133
ran	-10.2135
propanol	-10.2137
au	-10.2157
▁wash	-10.2158
Method	-10.2159
▁therein	-10.216
ho	-10.2161
ability	-10.2162
▁measuring	-10.2163
ha	-10.2165
day	-10.2166
▁hole	-10.2166
▁6.1	-10.217
EP	-10.2175
▁Assay	-10.2176
ip	-10.2178
▁En	-10.2181
▁siRNA	-10.2184
8.2	-10.2186
Hydroxy	-10.2205
▁enzymatic	-10.2208
ow	-10.2211
▁respective	-10.223
▁epitopes	-10.2232
9%	-10.224
mentioned	-10.225
der	-10.225
▁glycerol	-10.2251
6.5	-10.2253
cis	-10.2254
amido	-10.2255
▁approach	-10.2259
=7.6	-10.2259
▁monocyclic	-10.2262
▁measurement	-10.2262
▁tag	-10.2265
]-1	-10.2271
▁oils	-10.2272
fer	-10.2274
▁Generally	-10.2276
▁st	-10.2277
▁experimental	-10.2279
▁8.7	-10.2285
Ra	-10.2299
▁dioxide	-10.2305
▁origin	-10.2317
▁functions	-10.2318
5)	-10.232
▁beads	-10.2321
▁US	-10.2325
▁5.9	-10.2326
▁electrode	-10.2326
ER	-10.2327
halo	-10.2342
ID	-10.2345
▁adjacent	-10.2349
▁mineral	-10.2351
▁allows	-10.2356
▁segment	-10.2358
▁mature	-10.2368
1.5	-10.2375
▁indicate	-10.2382
▁66	-10.2387
▁equipped	-10.2388
▁Where	-10.2389
3.5	-10.2392
ester	-10.2393
▁organism	-10.2405
▁completely	-10.2408
▁pp	-10.2417
▁Cancer	-10.2419
AB	-10.242
▁viruses	-10.2421
▁decreased	-10.2426
▁prevention	-10.2426
▁70°	-10.2428
▁features	-10.2428
IS	-10.2434
▁contrast	-10.2439
▁seed	-10.2439
HPLC	-10.2442
2.3	-10.2442
▁Publication	-10.2443
methylamino	-10.2443
▁enhance	-10.2446
▁transition	-10.2447
▁elution	-10.2451
▁30°	-10.2454
▁detect	-10.2454
▁se	-10.2457
▁basis	-10.2463
AM	-10.2465
AA	-10.2466
▁chemically	-10.2469
nitrophenyl	-10.247
400	-10.2472
▁HLA	-10.2476
2.0	-10.2483
▁bromo	-10.2493
▁facilitate	-10.2493
oxycarbonyl	-10.2495
▁mediated	-10.2496
▁64	-10.2501
▁assessed	-10.2511
2/	-10.2516
▁storage	-10.2518
dioxane	-10.2526
▁easily	-10.2528
▁afforded	-10.2532
▁0.8	-10.2544
▁humans	-10.2561
EA	-10.2566
▁meant	-10.2566
▁70%	-10.2567
3.4	-10.2568
▁analog	-10.257
▁minute	-10.257
5.5	-10.2573
▁2,6-	-10.2577
▁thin	-10.2581
IC	-10.2587
▁heart	-10.2589
)-3-(	-10.2591
▁blocking	-10.2591
3.6	-10.2602
▁sequencing	-10.2605
▁back	-10.2609
—(	-10.2614
▁aforementioned	-10.2623
silyl	-10.2625
6.1	-10.2628
▁NOs	-10.264
let	-10.264
▁warmed	-10.264
▁altered	-10.2642
ci	-10.2645
▁Immunol	-10.2645
▁8.0	-10.2647
▁neutral	-10.2654
▁broad	-10.2662
▁sucrose	-10.2667
▁toxin	-10.2673
▁lysine	-10.2679
methoxycarbonyl	-10.2681
related	-10.2682
▁encode	-10.2684
▁emission	-10.2688
▁sealed	-10.2688
▁anion	-10.2689
▁8.	-10.2691
▁90%,	-10.2691
ect	-10.2696
▁Test	-10.2698
▁formulae	-10.2699
benz	-10.2701
▁inflammation	-10.2704
EM	-10.2716
be	-10.2727
▁markers	-10.2737
▁alignment	-10.2741
▁prostate	-10.2742
▁fold	-10.2749
iii	-10.2752
oc	-10.2757
▁responses	-10.276
▁week	-10.2762
(3-	-10.2766
▁good	-10.2769
▁7.0	-10.277
▁Additional	-10.2779
5.2	-10.2779
▁14.	-10.278
alkylene	-10.2781
▁immobilized	-10.2782
▁9.0	-10.2789
▁donor	-10.2789
▁operation	-10.2795
▁Med	-10.2803
▁60%	-10.2806
▁hybrid	-10.2808
▁ca	-10.281
BD	-10.2826
ence	-10.2845
ner	-10.2856
red	-10.286
▁phosphorus	-10.286
benzofuran	-10.2861
4.7	-10.2867
▁urea	-10.2872
▁arthritis	-10.2877
▁current	-10.2877
act	-10.2882
4.8	-10.2887
12,	-10.2889
▁Am	-10.2892
▁97	-10.2895
▁plurality	-10.2902
▁extent	-10.2905
▁along	-10.2905
8.5	-10.2911
▁variations	-10.2916
ile	-10.2929
▁5′-	-10.2929
300	-10.2935
▁6.4	-10.2938
▁program	-10.2942
▁Anal	-10.2946
▁core	-10.2949
▁theory	-10.2951
▁vial	-10.2951
▁With	-10.2953
2-6	-10.2956
=8.5	-10.296
ric	-10.2962
▁stir	-10.2963
▁68	-10.2964
▁passed	-10.2965
▁immediately	-10.2974
▁retention	-10.2975
Gly	-10.2976
2+	-10.2978
5.1	-10.2983
▁fluoride	-10.2986
ole	-10.2987
▁risk	-10.2987
▁Similarly	-10.2997
▁exposure	-10.2997
▁Some	-10.2998
00	-10.3001
IA	-10.3006
ear	-10.3012
benzaldehyde	-10.3013
▁generation	-10.3022
cin	-10.3024
▁bovine	-10.3025
derived	-10.3026
▁cool	-10.3029
ang	-10.3029
▁isolation	-10.303
▁benzo	-10.3031
ix	-10.3038
▁thiol	-10.3039
▁tyrosine	-10.3042
Fluoro	-10.3047
1°	-10.3049
▁depend	-10.3049
DP	-10.3051
nu	-10.3052
▁cyclopropyl	-10.3064
▁chromatographed	-10.3065
Si	-10.3073
▁residual	-10.3073
▁secretion	-10.3074
▁2,4-	-10.3085
▁reporter	-10.3088
▁CDRs	-10.3089
▁ranging	-10.3095
14,	-10.3096
▁earth	-10.3102
thieno	-10.3106
▁scheme	-10.3109
AR	-10.3113
▁diabetes	-10.3127
▁yields	-10.3128
▁(60	-10.3145
io	-10.3147
phase	-10.3147
acetoxy	-10.3155
Ph	-10.3155
PCR	-10.3156
Table	-10.3158
aromatic	-10.3164
▁involves	-10.3166
-5-(	-10.3167
idine	-10.3169
phenylphosphine	-10.3175
▁1.6	-10.3176
inyl	-10.318
▁130	-10.3184
9.0	-10.3186
▁physiological	-10.3192
▁Nucleic	-10.3193
▁bispecific	-10.3195
▁spray	-10.3196
ard	-10.3203
▁VI	-10.3204
ice	-10.3205
▁cultures	-10.3212
lan	-10.3213
▁197	-10.3214
▁stearate	-10.3217
▁iron	-10.3217
▁gum	-10.3222
▁peroxide	-10.3224
non	-10.3225
▁container	-10.3227
▁centrifuged	-10.3233
▁Laboratory	-10.3236
▁prodrug	-10.3238
SR	-10.3246
▁110	-10.3252
▁fed	-10.3252
LC	-10.3254
ants	-10.3259
▁Embodiment	-10.3261
propionic	-10.3262
6.2	-10.3277
described	-10.3286
▁acidified	-10.3286
3)2	-10.3289
DA	-10.329
▁powders	-10.3295
ling	-10.3296
naphthalene	-10.3306
Al	-10.3308
▁67	-10.3308
▁subcutaneous	-10.3323
▁Application	-10.3325
▁distribution	-10.3333
▁toxicity	-10.3336
carbonitrile	-10.3343
associated	-10.3351
▁2%	-10.3367
▁lactose	-10.3373
▁94	-10.3375
late	-10.3375
▁degradation	-10.338
yn	-10.3382
▁10-	-10.3382
▁cytotoxic	-10.3389
)-7-	-10.3408
MgSO	-10.3409
▁Fe	-10.3414
▁staining	-10.342
=7.8	-10.3423
▁divided	-10.3423
CI	-10.3428
▁open	-10.3444
hr	-10.3444
▁quantity	-10.3449
(4	-10.3449
▁constructed	-10.3454
▁62	-10.3458
ring	-10.3472
nd	-10.3479
▁69	-10.3482
▁bicyclic	-10.3484
▁From	-10.349
▁rpm	-10.3495
CDR	-10.3497
10-	-10.35
▁radiation	-10.3505
▁semi	-10.3507
▁(2.0	-10.3512
)-(	-10.3517
#	-10.3519
-(6-	-10.3522
deoxy	-10.3522
▁7.4	-10.3541
▁seconds	-10.3547
Ar	-10.3549
▁recognized	-10.3551
▁cation	-10.3554
▁25%	-10.3554
sil	-10.3574
▁kDa	-10.358
▁conjugates	-10.358
)2,	-10.3586
▁removing	-10.3592
▁ranges	-10.3601
▁dispersion	-10.3607
▁bed	-10.361
7)	-10.3613
▁software	-10.3614
▁attachment	-10.3615
▁(4)	-10.3629
=9	-10.3629
▁infected	-10.3636
▁electrophoresis	-10.365
▁neuro	-10.3662
naphthalen	-10.3663
rin	-10.367
▁Ph	-10.3673
▁difference	-10.368
▁recovery	-10.3689
▁linkage	-10.3689
EL	-10.3689
6.7	-10.3694
▁stated	-10.3701
methylsulfonyl	-10.3702
▁VEGF	-10.3702
▁strength	-10.3703
ov	-10.3705
▁dependent	-10.3706
▁−78°	-10.3714
▁0.7	-10.3717
▁normally	-10.3719
▁OD	-10.3724
50°	-10.373
▁2,3-	-10.3734
▁claimed	-10.3737
▁later	-10.3737
▁nano	-10.3748
▁exposed	-10.3748
▁loaded	-10.375
▁occurrence	-10.3751
▁trifluoromethyl	-10.3753
pyrazin	-10.3763
▁manufacture	-10.3766
▁encompasses	-10.3778
▁carrying	-10.378
SC	-10.3782
▁Part	-10.3787
1.8	-10.3791
▁77	-10.38
osis	-10.381
▁exemplified	-10.381
▁eukaryotic	-10.3817
yield	-10.3828
▁CHO	-10.3836
▁bp	-10.3848
▁commercial	-10.3848
▁Results	-10.3853
▁8.9	-10.3855
ie	-10.3858
butanol	-10.3859
▁EDTA	-10.3861
▁80%,	-10.3866
▁4.0	-10.3868
▁itself	-10.3871
▁adjuvant	-10.3871
ish	-10.388
▁90°	-10.3882
▁oily	-10.3882
▁sense	-10.3882
▁Ac	-10.3883
▁meaning	-10.3884
▁scale	-10.3886
toxic	-10.3886
TR	-10.3886
▁silicon	-10.3893
▁cancers	-10.3893
▁intensity	-10.3896
CL	-10.3896
▁electro	-10.3896
▁600	-10.3901
▁association	-10.3901
▁longer	-10.3903
▁1.3	-10.3912
▁mutagenesis	-10.3913
ised	-10.3914
3.9	-10.3918
▁agonists	-10.3927
▁VIII	-10.3928
pyridinyl	-10.3934
▁membranes	-10.3942
cyclopentyl	-10.3946
▁hormone	-10.3948
RI	-10.3949
▁increases	-10.3952
▁cap	-10.3954
▁2:	-10.3955
▁selectively	-10.3957
▁condensation	-10.3966
SA	-10.3967
life	-10.3967
alkynyl	-10.3969
▁elevated	-10.397
▁0.02	-10.3979
acid	-10.3989
ther	-10.3994
▁uses	-10.3997
▁insert	-10.3999
▁candidate	-10.4001
▁field	-10.4002
ty	-10.4006
▁backbone	-10.4009
▁autoimmune	-10.4011
▁typical	-10.4016
ick	-10.4016
9°	-10.4022
morpholino	-10.4028
den	-10.4037
▁affect	-10.4038
▁insoluble	-10.4044
Arg	-10.4047
▁exist	-10.4047
▁Organic	-10.4049
▁Cu	-10.4053
▁scFv	-10.4058
▁topical	-10.406
▁Le	-10.4062
▁Sh	-10.4069
▁Calcd	-10.4079
▁tetrahydro	-10.4079
▁1-(	-10.4082
▁orally	-10.4082
▁63	-10.4085
IT	-10.4086
BA	-10.4087
▁Lys	-10.4098
=6	-10.4098
▁EtOH	-10.4103
▁subjects	-10.4105
▁resulted	-10.4105
▁kept	-10.4108
▁(12	-10.4108
▁Antibody	-10.4112
▁organ	-10.412
cyclopropane	-10.4122
SS	-10.4125
dbd	-10.4132
-100	-10.4133
▁120°	-10.4133
1.3	-10.4134
heteroaryl	-10.4138
▁glycine	-10.4142
▁deletion	-10.4144
2′	-10.4148
▁contents	-10.4148
OX	-10.4158
▁mechanism	-10.4163
ethoxycarbonyl	-10.4169
-1,2,3,4-	-10.418
▁survival	-10.4181
▁hydrate	-10.4184
silane	-10.4194
:10	-10.4198
▁zeolite	-10.4199
▁interactions	-10.42
▁pairs	-10.4202
▁composed	-10.4207
▁whereas	-10.421
▁York	-10.4212
▁chamber	-10.4215
▁collagen	-10.4221
▁Ed	-10.4221
▁racemic	-10.4222
▁mAb	-10.4229
▁recognition	-10.4231
1.4	-10.4237
8.3	-10.4238
▁naphthyl	-10.4238
▁inventors	-10.424
▁citrate	-10.4243
▁covalently	-10.4249
=7.0	-10.425
▁screen	-10.4252
▁91	-10.4259
compound	-10.4259
▁precipitation	-10.4264
-2.0	-10.4268
6.6	-10.4271
▁diisopropyl	-10.4275
▁plasmids	-10.4276
▁literature	-10.428
qui	-10.4281
▁done	-10.4283
▁(2.5	-10.4288
▁Two	-10.4293
▁imaging	-10.4297
▁optically	-10.4299
▁hybridoma	-10.4302
[4,3-	-10.4305
▁40%	-10.4312
▁devices	-10.4313
▁95%,	-10.4313
▁act	-10.4328
▁introducing	-10.4331
med	-10.4332
▁peripheral	-10.4335
▁signals	-10.4339
sh	-10.4343
▁ten	-10.4345
trimethylsilyl	-10.4346
▁monomers	-10.4346
▁serine	-10.4347
▁8.6	-10.4348
▁metals	-10.4349
PT	-10.435
▁Of	-10.4355
▁ethers	-10.4355
▁frame	-10.4367
▁connected	-10.4367
▁environment	-10.4369
▁performance	-10.4373
▁allyl	-10.4375
▁simultaneously	-10.4377
fect	-10.438
▁Since	-10.4382
▁61	-10.4386
ist	-10.4389
3.7	-10.4389
▁ES	-10.439
tro	-10.4396
-3,5-	-10.4409
white	-10.4412
▁Trans	-10.4413
▁start	-10.4417
ron	-10.442
chi	-10.4421
pl	-10.4426
-2,6-	-10.4428
dt	-10.4429
▁VII	-10.4429
ins	-10.4431
▁cytokine	-10.4437
ification	-10.4441
diyl	-10.4441
▁months	-10.4442
▁thermal	-10.4442
benzonitrile	-10.4446
5.6	-10.4446
▁potent	-10.4447
▁colon	-10.4447
0.9	-10.4449
▁screened	-10.4451
=10	-10.4454
▁iodine	-10.4456
▁peaks	-10.4458
Phe	-10.4461
▁cleaved	-10.4461
▁biologically	-10.4464
IF	-10.4471
▁amorphous	-10.4476
if	-10.4478
▁1.8	-10.4479
▁serve	-10.4479
9.1	-10.4481
Ala	-10.4487
▁medicament	-10.449
hi	-10.4491
▁testing	-10.4492
▁microwave	-10.4493
sulfonic	-10.4494
▁determination	-10.4496
2.4	-10.4498
▁Ch	-10.4503
▁PCT	-10.4506
▁76	-10.4506
▁excipient	-10.4514
▁overall	-10.4515
9.5	-10.4519
-5.	-10.4522
▁tablet	-10.4523
18,	-10.4524
▁dis	-10.4525
▁78	-10.4531
▁suitably	-10.4543
▁wavelength	-10.4546
▁EXAMPLES	-10.4547
▁140	-10.4549
▁alkylation	-10.455
▁damage	-10.455
▁corn	-10.4552
▁death	-10.4553
▁controls	-10.4553
▁SP	-10.4564
▁(0.2	-10.4566
▁phospho	-10.4568
▁whose	-10.457
▁1.4	-10.4572
ast	-10.4575
azetidin	-10.4575
PEG	-10.4575
▁depicted	-10.4584
▁technology	-10.4586
4.9	-10.4589
▁describes	-10.459
▁infusion	-10.46
EC	-10.4601
▁86	-10.4603
▁vol	-10.4606
alk	-10.4612
▁5,6	-10.4613
▁lead	-10.4615
hexanes	-10.462
ba	-10.462
thiadiazol	-10.4622
▁DETAIL	-10.4623
genic	-10.4626
▁GC	-10.4631
IX	-10.4631
▁xylene	-10.4632
▁manufacturer	-10.4637
soluble	-10.4638
▁injectable	-10.464
Lys	-10.4642
eno	-10.4644
▁whereby	-10.4651
pyrrol	-10.4652
▁oxo	-10.4653
▁aq	-10.4656
▁consist	-10.4663
▁74	-10.467
phen	-10.4673
▁They	-10.4677
▁isobutyl	-10.4691
6.4	-10.4691
▁ATCC	-10.4694
▁identification	-10.4699
▁0,	-10.4699
▁auto	-10.4709
GA	-10.4711
NP	-10.4716
▁deposited	-10.4722
▁1,1-	-10.4735
▁concentrate	-10.4737
▁practice	-10.4737
▁examined	-10.4742
▁89	-10.4742
PC	-10.4746
▁supplemented	-10.4746
▁isopropanol	-10.4751
▁dark	-10.4752
▁FR	-10.4753
▁73	-10.4755
ue	-10.4759
TE	-10.476
▁protective	-10.4766
tetrazol	-10.4774
▁larger	-10.4774
▁digested	-10.4784
9.2	-10.4786
▁characteristic	-10.4787
▁medical	-10.4789
Leu	-10.479
carbonylamino	-10.4791
heptane	-10.4796
▁immunogenic	-10.4798
▁EC	-10.4799
-1)	-10.48
▁recognize	-10.4803
▁injury	-10.4803
▁phosphoric	-10.4804
Ac	-10.4807
active	-10.4807
▁ions	-10.4807
▁(1991)	-10.4808
KBr	-10.4809
methylthio	-10.481
▁channel	-10.4821
gel	-10.4829
▁AD	-10.4829
▁computer	-10.4835
ver	-10.4836
▁heteroatom	-10.4839
▁harvested	-10.4839
pyrazine	-10.4845
▁maintain	-10.4845
PP	-10.4847
azabicyclo	-10.485
▁believed	-10.4851
▁1.00	-10.4852
▁linking	-10.4857
▁96-	-10.486
▁84	-10.4861
ST	-10.4865
hy	-10.4868
=8.1	-10.4882
Re	-10.4884
▁2-(4-	-10.4892
butane	-10.4892
▁protection	-10.4893
▁0.03	-10.4894
▁reading	-10.4898
5.3	-10.4898
▁160	-10.4908
art	-10.4909
ism	-10.491
▁(0.7	-10.4911
1.6	-10.4911
aldehyde	-10.4913
▁z	-10.4918
labeled	-10.492
▁likely	-10.4927
×10	-10.494
▁obtaining	-10.4945
1.9	-10.4954
over	-10.4958
▁degrees	-10.4962
amp	-10.4964
8.4	-10.4965
oxadiazol	-10.4971
log	-10.4978
▁emulsion	-10.4983
▁Sp	-10.4994
δ	-10.4999
▁requires	-10.5
▁lyophilized	-10.5001
▁nitrate	-10.5002
=6.8	-10.5011
0.3	-10.5011
▁mmole	-10.5017
diol	-10.502
▁citric	-10.5021
▁eye	-10.5024
▁work	-10.5024
do	-10.5029
▁appreciated	-10.503
)-4-(	-10.5042
▁instructions	-10.5049
part	-10.5049
▁comprised	-10.5052
▁Immuno	-10.5059
▁turn	-10.5066
▁Spring	-10.5071
▁sources	-10.5073
▁capacity	-10.5082
▁Comparative	-10.5086
▁CN	-10.5086
▁interferon	-10.5087
NT	-10.509
our	-10.509
▁measure	-10.5092
][1,4]	-10.5101
oxazol	-10.5103
=8.7	-10.5107
▁Th	-10.5109
▁1.7	-10.5111
sulfinyl	-10.5112
▁Poly	-10.5116
▁induction	-10.512
▁delivered	-10.5127
▁numbers	-10.5131
bicyclo	-10.5134
▁(1.2	-10.5136
trifluoromethoxy	-10.5137
PAGE	-10.5138
▁MHC	-10.5139
▁systemic	-10.5146
known	-10.515
▁unique	-10.5154
▁Micro	-10.5156
▁who	-10.5156
-2,5-	-10.5158
▁introduction	-10.5158
6.3	-10.516
▁insertion	-10.5165
▁hand	-10.5166
▁vascular	-10.5167
▁OCH	-10.5168
5.4	-10.5168
-21	-10.5168
▁curve	-10.5173
▁cut	-10.5173
ub	-10.5176
=8.3	-10.5177
OP	-10.5177
▁sulphate	-10.5179
▁alumina	-10.519
▁severity	-10.519
▁absolute	-10.5194
▁pharmacological	-10.5196
▁inhibits	-10.5202
▁score	-10.5204
difluorophenyl	-10.5207
]-5-	-10.5208
octane	-10.5209
▁blot	-10.5212
mo	-10.5213
onic	-10.5219
RT	-10.5223
▁polymeric	-10.523
▁pump	-10.5233
▁surfactant	-10.5233
▁88	-10.5235
phthal	-10.5238
EN	-10.524
▁central	-10.5243
▁Boc	-10.5247
octyl	-10.525
▁demonstrate	-10.5254
20,	-10.5254
▁covalent	-10.5257
▁resuspended	-10.5262
▁2′-	-10.5263
▁93	-10.5268
tolyl	-10.5268
▁liposomes	-10.5269
▁profile	-10.5272
▁Vol	-10.5277
pt	-10.5283
thiazole	-10.5285
dec	-10.529
ning	-10.5295
▁allowing	-10.5298
▁Binding	-10.5299
▁consistent	-10.53
=7.3	-10.5306
▁much	-10.5312
res	-10.5313
rol	-10.5314
til	-10.532
▁(250	-10.5321
▁0.5%	-10.5329
▁sequentially	-10.5334
▁(0.8	-10.5334
{[	-10.5335
▁slow	-10.5338
1-10	-10.5342
isoquinolin	-10.5344
mann	-10.5352
▁Sodium	-10.5353
▁alkoxycarbonyl	-10.5354
▁advantageous	-10.5365
▁150°	-10.5366
go	-10.5368
▁glycosylation	-10.5369
▁thickness	-10.5376
pe	-10.5382
▁self	-10.5382
▁diluents	-10.539
▁limiting	-10.5391
=8.2	-10.5403
▁insect	-10.5406
▁silver	-10.5407
▁food	-10.5413
port	-10.5419
▁TCR	-10.5423
▁4.9	-10.5428
2##	-10.5431
▁AAV	-10.5432
ax	-10.5434
ult	-10.5436
glyc	-10.545
▁TABLE	-10.5451
aS	-10.5455
isoquinoline	-10.5457
thia	-10.5461
ob	-10.5466
0-	-10.5466
_______________	-10.5467
inflammatory	-10.5476
▁(1989)	-10.5477
mod	-10.5478
▁(80	-10.548
cyclopenta	-10.5483
▁92	-10.5485
▁endo	-10.5485
600	-10.5493
▁substrates	-10.5493
▁raw	-10.5494
▁HF	-10.5494
▁2.4	-10.5496
▁5.2	-10.5501
▁copolymer	-10.5506
thiophen	-10.5509
emitting	-10.5509
▁initiation	-10.5509
▁indicating	-10.5512
VII	-10.5516
▁7.2	-10.5519
▁Factor	-10.5519
▁assayed	-10.5522
▁loop	-10.5522
▁manufactured	-10.5524
▁pyridyl	-10.5533
rad	-10.5537
▁HA	-10.5539
omycin	-10.5541
DI	-10.5545
▁cassette	-10.5548
CP	-10.5548
▁platinum	-10.5549
ana	-10.555
▁spectra	-10.5555
▁top	-10.5557
▁granules	-10.5559
▁enantiomers	-10.5564
indazol	-10.5565
ral	-10.5567
▁hexa	-10.5568
DL	-10.5575
▁predicted	-10.5575
-25	-10.5576
▁MA	-10.5581
▁HRMS	-10.5588
BS	-10.5593
formyl	-10.56
▁105	-10.5601
-30	-10.5612
pyridazin	-10.5615
▁head	-10.5618
▁apoptosis	-10.562
▁heptane	-10.5623
BL	-10.5628
▁Sequence	-10.5629
▁orange	-10.5631
3##	-10.5636
▁stock	-10.5637
▁TGF	-10.5638
aminomethyl	-10.5638
treated	-10.5648
▁corresponds	-10.5653
▁metabolic	-10.5653
▁throughout	-10.5659
▁segments	-10.5659
▁phosphorylation	-10.5662
▁emulsions	-10.5666
▁ethoxy	-10.5667
▁differentiation	-10.5674
LA	-10.5675
▁polyclonal	-10.5676
▁improvement	-10.5677
▁15%	-10.5684
▁(1992)	-10.5685
SF	-10.5689
▁(1993)	-10.5691
▁formic	-10.5693
▁impurities	-10.5696
▁Unless	-10.5696
0.8	-10.5696
▁isocyanate	-10.5697
]-1-	-10.5703
ind	-10.571
hydro	-10.5711
▁hot	-10.5713
▁nuclear	-10.5716
-1-(	-10.5719
▁neutralized	-10.5732
▁leaving	-10.5738
ammonium	-10.5739
▁8.5	-10.574
5.8	-10.5746
▁variation	-10.5753
▁2,2-	-10.5754
▁Type	-10.5754
▁81	-10.5754
diene	-10.5755
-23	-10.576
▁sat	-10.5763
▁published	-10.5768
ato	-10.577
dichlorophenyl	-10.5776
▁conc	-10.578
-3′	-10.578
transferase	-10.5786
▁contiguous	-10.5787
▁cyclopentyl	-10.5791
▁79	-10.5791
▁Treatment	-10.5792
▁sulfonyl	-10.5793
0.6	-10.5793
▁petroleum	-10.5797
▁monovalent	-10.5805
butene	-10.5805
ple	-10.5805
120	-10.5809
propenyl	-10.5817
▁Specifically	-10.5824
▁modulate	-10.5825
-[1	-10.5826
▁models	-10.5827
▁dosing	-10.5828
▁nickel	-10.5829
▁matter	-10.5829
▁halogenated	-10.5839
▁71	-10.5842
▁correspond	-10.5844
▁called	-10.5845
▁Drug	-10.5847
▁2.1	-10.5852
▁9-	-10.5854
▁utilizing	-10.5862
▁Plant	-10.5868
str	-10.587
8.6	-10.5873
▁transmembrane	-10.5873
ible	-10.5879
ATCC	-10.588
▁distinct	-10.5883
ans	-10.5886
▁index	-10.589
1##	-10.5891
▁latter	-10.5895
▁representative	-10.5895
▁Among	-10.5898
▁viscosity	-10.5901
▁frequency	-10.5902
)-5-(	-10.5907
0.7	-10.5911
CT	-10.5915
▁space	-10.5921
▁cyclohexane	-10.5923
▁infections	-10.5926
▁uptake	-10.593
▁here	-10.5931
▁effected	-10.5933
▁2.2	-10.5937
▁possess	-10.5939
▁subunit	-10.5944
▁drop	-10.5946
▁additives	-10.5949
▁antigenic	-10.595
▁targets	-10.5954
Methoxy	-10.5955
nal	-10.5962
▁resistant	-10.5966
▁filed	-10.5971
▁Tri	-10.5973
▁excellent	-10.5974
▁volumes	-10.5977
▁sc	-10.5979
col	-10.598
oyl	-10.5981
cc	-10.5989
isomer	-10.5989
▁3,4-	-10.5997
emb	-10.5998
▁lymphocytes	-10.6
▁tubes	-10.6004
Rb	-10.6005
GT	-10.6005
DS	-10.6007
PG	-10.601
▁Ltd	-10.6012
▁previous	-10.6012
▁divalent	-10.6013
▁secreted	-10.6014
Dimethyl	-10.6018
sulfanyl	-10.6019
▁Ala	-10.6023
▁toxic	-10.6024
▁(2×	-10.6024
▁established	-10.6027
▁chemistry	-10.6029
ay	-10.6029
▁surfactants	-10.6034
morpholin	-10.6035
US	-10.6037
diethyl	-10.6039
▁sulfonate	-10.6042
cyan	-10.6042
ology	-10.6046
EI	-10.6047
ef	-10.6054
decyl	-10.6055
▁illustrative	-10.6055
▁alkylamino	-10.6059
=8.6	-10.6071
▁few	-10.6072
▁main	-10.6073
▁points	-10.6081
▁ortho	-10.6089
4##	-10.6095
▁128	-10.6096
▁code	-10.6098
▁influenza	-10.6102
thienyl	-10.6104
▁la	-10.6108
▁293	-10.611
▁consensus	-10.6112
▁upper	-10.6112
▁downstream	-10.6113
(1-	-10.6114
-4,5-	-10.6118
2.6	-10.6119
▁PI	-10.6124
+1)	-10.6127
▁(1994)	-10.613
▁imidazole	-10.6133
▁differences	-10.6135
▁dimer	-10.6136
▁arginine	-10.6137
▁critical	-10.6143
carbo	-10.6144
▁dissolving	-10.6147
▁98%	-10.6149
▁denotes	-10.615
▁BSA	-10.615
▁male	-10.6157
▁hydrogenated	-10.6158
sion	-10.6167
1.7	-10.6171
-[(	-10.6174
toluene	-10.6175
▁Leu	-10.618
ddd	-10.618
3).	-10.618
▁87	-10.6195
▁fresh	-10.6199
carbonate	-10.6202
▁employing	-10.6202
▁inhibited	-10.6203
▁renal	-10.6204
▁sulfoxide	-10.6205
▁Data	-10.6207
▁property	-10.6212
▁funnel	-10.6213
▁cytokines	-10.6219
▁near	-10.6222
16,	-10.6224
)-1-(	-10.6227
▁pM	-10.6228
LP	-10.6229
▁Ni	-10.6235
+1).	-10.6244
ably	-10.6248
▁syringe	-10.625
[1	-10.6253
▁cycles	-10.6264
▁diffraction	-10.6265
▁original	-10.6265
acetone	-10.6265
ian	-10.6275
arg	-10.6286
▁better	-10.629
▁name	-10.6293
▁Various	-10.6295
▁band	-10.6295
▁Glu	-10.6308
▁condensed	-10.6309
▁compatible	-10.6317
▁intact	-10.6319
▁fat	-10.632
▁stimulation	-10.6321
▁Wiley	-10.6322
FR	-10.6325
▁Gly	-10.6328
▁Representative	-10.6337
hept	-10.634
▁eight	-10.6341
▁Fmoc	-10.6342
fen	-10.6343
5.9	-10.6347
triazolo	-10.6348
▁transcript	-10.6349
▁intramuscular	-10.6351
pyr	-10.6354
▁endothelial	-10.6355
▁efficient	-10.6357
▁isolate	-10.6369
▁carbons	-10.6369
▁0.15	-10.6371
▁benefit	-10.6371
▁hard	-10.6372
tr	-10.6372
5.7	-10.6377
▁83	-10.6378
PI	-10.6382
▁myeloma	-10.6383
ino	-10.6385
rich	-10.639
dioxaborolan	-10.6394
▁CA	-10.6398
▁(1990)	-10.64
hydrate	-10.6404
cap	-10.6412
▁separately	-10.6412
▁1-(4-	-10.6417
▁last	-10.6419
▁silyl	-10.6423
su	-10.6429
▁9,	-10.6431
▁Use	-10.6439
-6-(	-10.6442
ren	-10.6449
-[2-(	-10.6456
▁replacement	-10.6457
▁seven	-10.6457
▁condenser	-10.6464
▁(1988)	-10.6465
▁resins	-10.6467
▁mutants	-10.6469
9.3	-10.647
▁DE	-10.6478
▁crystallized	-10.6488
eq	-10.6489
tal	-10.649
ani	-10.6494
ient	-10.6502
▁batch	-10.6508
Ab	-10.651
▁plus	-10.6511
▁azide	-10.6517
mg	-10.6519
▁conserved	-10.6521
▁106	-10.6524
The	-10.6524
▁HCV	-10.6531
▁stress	-10.654
▁digestion	-10.6542
▁ionic	-10.6546
▁cationic	-10.6548
▁spp	-10.6549
azo	-10.6552
1-8	-10.6552
=7.1	-10.6558
▁recombination	-10.6559
▁alkylthio	-10.6567
▁needed	-10.657
functional	-10.657
polymer	-10.657
▁Harbor	-10.6572
▁references	-10.6573
▁82	-10.6576
▁chromosome	-10.6579
▁penta	-10.658
▁SC	-10.6585
acrylate	-10.6585
▁16.	-10.659
12-	-10.6592
▁Prepared	-10.6592
▁Under	-10.6592
▁reactants	-10.6594
ack	-10.6597
-22	-10.6597
▁Next	-10.6599
▁rotary	-10.6599
▁10.0	-10.6602
low	-10.6605
▁oligo	-10.6605
▁situ	-10.6608
▁early	-10.6609
▁(1.1	-10.6614
▁cycloalkenyl	-10.6614
▁pore	-10.6615
▁maintaining	-10.6616
13,	-10.6617
▁Column	-10.6618
lation	-10.6619
Ser	-10.6624
▁regard	-10.6625
▁2-(2-	-10.663
▁ligated	-10.6632
Sigma	-10.6633
▁image	-10.6633
5##	-10.6635
▁essential	-10.6637
▁difficult	-10.664
alt	-10.664
butyric	-10.6641
▁TR	-10.6642
▁blue	-10.6642
▁steam	-10.6646
▁resonance	-10.6649
▁aryloxy	-10.6649
▁International	-10.6652
▁identifying	-10.6653
oct	-10.6655
▁4.6	-10.6656
▁rather	-10.666
▁cholesterol	-10.6664
0.4	-10.6666
▁locus	-10.6667
▁processed	-10.6668
-19	-10.6674
▁70%,	-10.6675
▁contacted	-10.6675
▁operably	-10.6676
penta	-10.6679
8.8	-10.668
▁illustrate	-10.6681
NHC	-10.6682
ME	-10.6685
▁Both	-10.6685
nt	-10.6689
-[2-	-10.6694
▁0.04	-10.6698
▁dihydro	-10.6699
▁meta	-10.67
▁(75	-10.6706
▁Acids	-10.6707
▁shift	-10.6709
▁conservative	-10.6713
▁hereby	-10.6713
▁melanoma	-10.6715
car	-10.6717
TL	-10.6719
▁Soc	-10.6725
▁BLAST	-10.673
▁Process	-10.673
blast	-10.6731
▁detailed	-10.6733
▁optimal	-10.6734
▁cat	-10.6738
▁agarose	-10.674
▁kb	-10.6742
methoxybenzyl	-10.6743
▁Upon	-10.6744
▁green	-10.6747
3/	-10.6756
fa	-10.6758
which	-10.6759
9.9	-10.6771
Invitrogen	-10.6776
quinazolin	-10.6778
hydr	-10.6784
OL	-10.6789
▁OR	-10.6792
AF	-10.6793
”)	-10.6796
▁NK	-10.6796
▁gamma	-10.6798
▁tail	-10.68
VL	-10.6801
▁panel	-10.6803
heptyl	-10.6807
pi	-10.6808
▁local	-10.6812
PR	-10.6813
4+	-10.6813
▁gives	-10.6813
▁quantitative	-10.6814
trop	-10.6816
▁Western	-10.682
▁stand	-10.6823
allyl	-10.6824
▁buffers	-10.6826
▁promote	-10.6828
▁pulmonary	-10.683
▁progression	-10.6833
▁Ba	-10.6834
▁gram	-10.6842
VA	-10.6845
▁algorithm	-10.6847
▁Arg	-10.6849
▁around	-10.685
TT	-10.685
▁motif	-10.6852
▁homogeneous	-10.6857
▁(5)	-10.6857
▁sensitivity	-10.6858
isation	-10.6858
▁continuously	-10.6861
▁avoid	-10.6861
▁polyvinyl	-10.6866
▁transgene	-10.6872
DM	-10.6875
▁become	-10.6886
▁revealed	-10.6893
-[4-(	-10.69
ert	-10.691
diamino	-10.6914
▁adult	-10.6919
▁olefins	-10.692
▁wet	-10.6923
▁plastic	-10.6924
preferably	-10.6925
▁im	-10.6927
▁man	-10.6937
▁La	-10.6937
ified	-10.6939
▁Peptide	-10.6939
▁rabbit	-10.694
▁recorded	-10.6941
▁10°	-10.6943
pyrrole	-10.6944
+):	-10.6947
Ig	-10.6947
DCM	-10.695
▁1-3	-10.6953
bo	-10.6953
▁dosages	-10.6956
▁view	-10.6963
▁85%,	-10.6965
▁Rb	-10.6974
▁AB	-10.6974
▁diphenyl	-10.6976
ogen	-10.6978
▁piperidine	-10.6979
▁deletions	-10.6979
▁oligomer	-10.6981
by	-10.6982
▁triturated	-10.6983
▁instant	-10.6987
▁Once	-10.6988
amycin	-10.6988
▁generating	-10.699
▁rapid	-10.6994
ll	-10.6999
▁3:	-10.6999
Boc	-10.7
BB	-10.7012
▁heteroalkyl	-10.7014
▁advantage	-10.7015
▁(18	-10.7015
▁180	-10.7021
▁dihydrochloride	-10.7023
hex	-10.7024
▁simple	-10.7025
▁Sch	-10.7025
▁(0.05	-10.7026
▁Ag	-10.7026
▁reactant	-10.7027
cal	-10.7031
▁(16	-10.7037
▁Biochem	-10.7037
▁genetically	-10.7039
▁acceptor	-10.7051
▁conjunction	-10.7053
▁biotin	-10.7057
▁1-(2-	-10.7063
▁wound	-10.7066
▁Briefly	-10.7074
▁PE	-10.7075
▁spacer	-10.7076
isoxazol	-10.7077
xi	-10.7077
carbamic	-10.7078
phosphine	-10.7079
OAc	-10.7081
▁appended	-10.7084
▁CHCl	-10.7087
▁%,	-10.7096
MB	-10.7105
off	-10.711
40,	-10.7115
▁Solvent	-10.7118
See	-10.7118
130	-10.7123
▁minimum	-10.7124
▁fetal	-10.7128
▁aerosol	-10.7144
▁extension	-10.7144
6##	-10.7147
▁mechanical	-10.7149
▁Ig	-10.715
▁hydrophilic	-10.7159
cr	-10.7167
▁definition	-10.7173
▁Subsequently	-10.7175
▁suspending	-10.7178
▁fact	-10.718
rap	-10.7184
▁hypo	-10.7188
af	-10.7188
▁conveniently	-10.7191
▁Culture	-10.7197
furo	-10.7201
8.7	-10.7206
▁supplied	-10.7207
boronic	-10.7207
Step	-10.7208
ull	-10.7208
▁PC	-10.721
▁Per	-10.7215
TS	-10.7216
▁tR	-10.7217
-1,3,2-	-10.7221
▁des	-10.7227
▁alter	-10.723
Glu	-10.7233
▁pad	-10.7234
▁homo	-10.7236
▁methane	-10.7237
brs	-10.7237
positive	-10.7242
cells	-10.7243
▁18.	-10.7244
▁Pre	-10.7244
▁activator	-10.7245
▁relevant	-10.7251
COOH	-10.7252
▁epi	-10.7266
sulph	-10.7267
▁7.40	-10.7267
clu	-10.7271
▁successively	-10.7273
▁PR	-10.7273
▁sulfonic	-10.7275
LL	-10.7276
▁incorporation	-10.7277
▁1991	-10.7281
-[4-	-10.7286
▁IX	-10.7289
▁linkages	-10.729
▁85%	-10.729
hen	-10.7294
▁mammals	-10.7294
▁75%	-10.7297
▁Celite	-10.7302
(5-	-10.7304
▁immunization	-10.7306
ik	-10.7308
ink	-10.731
oxid	-10.7322
)-8-	-10.7326
▁enter	-10.7328
▁released	-10.7329
haloalkyl	-10.733
kin	-10.7332
oxazolidin	-10.7332
▁pellet	-10.7333
▁involve	-10.7342
nic	-10.7343
▁2.3	-10.7346
▁5°	-10.7348
▁develop	-10.735
▁completed	-10.7351
▁sh	-10.7351
▁showing	-10.7353
▁Cold	-10.7357
▁carbamate	-10.7357
=2.0	-10.7358
3-6	-10.7358
ros	-10.7359
9.4	-10.736
rea	-10.7367
▁Ad	-10.7368
▁advantageously	-10.7369
▁effluent	-10.737
▁take	-10.738
clo	-10.7382
▁enantiomer	-10.7385
cl	-10.7389
▁independent	-10.7396
gamma	-10.7397
▁routes	-10.7401
▁illustrates	-10.7403
▁Research	-10.7404
▁changed	-10.7404
-2(1	-10.7408
▁1995	-10.741
ug	-10.7412
cur	-10.7413
also	-10.7414
8.9	-10.7415
PBS	-10.7423
dy	-10.7423
▁High	-10.7426
▁require	-10.7428
▁comp	-10.7432
▁dyes	-10.7433
atur	-10.7433
YL	-10.7434
-2-(4-	-10.7437
▁phenotype	-10.7438
▁ATP	-10.7444
ella	-10.7446
▁create	-10.7448
▁clo	-10.7449
▁transcriptional	-10.7453
▁individually	-10.7454
▁absorbance	-10.7454
▁cited	-10.7455
▁additionally	-10.7464
▁exhibited	-10.7464
drug	-10.7468
▁7.35	-10.7469
acetonitrile	-10.7472
ulation	-10.7473
▁mobile	-10.7473
=7.9	-10.7475
▁[(	-10.7477
▁stirrer	-10.7477
FP	-10.7478
▁Therapeutic	-10.7483
9.6	-10.7484
▁alanine	-10.7493
▁ed	-10.7497
▁boron	-10.7502
with	-10.7503
mercapto	-10.7511
▁employ	-10.7512
▁array	-10.7517
▁glycoprotein	-10.7521
▁exhibits	-10.7525
▁tests	-10.7526
▁cl	-10.753
▁organisms	-10.7531
▁mutated	-10.7532
10)	-10.7533
▁gels	-10.7535
▁Activity	-10.7536
▁129	-10.7539
▁might	-10.754
▁Chemistry	-10.7542
▁soft	-10.7544
pp	-10.7546
out	-10.7547
can	-10.755
▁terminus	-10.7551
ka	-10.7559
▁Val	-10.7565
tain	-10.7569
carbodiimide	-10.757
▁ends	-10.757
bu	-10.757
aminocarbonyl	-10.7571
▁y	-10.7572
▁emitting	-10.7576
duct	-10.7577
▁17.	-10.7581
9.7	-10.7582
▁(0.01	-10.7584
▁separating	-10.7584
15,	-10.7586
=6.6	-10.7589
▁4-(4-	-10.759
101	-10.7595
=9.0	-10.7595
▁7.20	-10.7597
butan	-10.7602
(3,5-	-10.7603
▁prodrugs	-10.7607
IG	-10.7608
▁1-4	-10.7609
▁autoclave	-10.7612
thr	-10.7616
▁prophylactic	-10.7618
▁histidine	-10.7621
▁read	-10.7621
▁substantial	-10.7622
▁pancreatic	-10.7623
sen	-10.7624
▁quaternary	-10.7625
▁3,5-	-10.7626
▁format	-10.7626
▁Ti	-10.7629
CG	-10.7631
▁voltage	-10.7644
=7.4	-10.7646
▁feedstock	-10.7649
▁others	-10.7653
ven	-10.7654
▁phosphatase	-10.7654
isobutyl	-10.7655
-50	-10.7655
expressing	-10.7655
▁describe	-10.7664
▁SA	-10.7665
EX	-10.7667
PV	-10.7668
▁rates	-10.7674
aqueous	-10.7675
▁sustained	-10.7676
▁developing	-10.7678
not	-10.7691
▁stained	-10.7692
▁unreacted	-10.7698
▁potency	-10.7702
idin	-10.7702
▁j	-10.7707
des	-10.7707
▁OC	-10.7708
palladium	-10.7709
▁Those	-10.771
▁cluster	-10.771
▁0.001	-10.7711
▁random	-10.7715
▁nor	-10.7717
7##	-10.7719
lar	-10.7722
ethynyl	-10.7726
▁calc	-10.7729
ano	-10.773
ata	-10.7731
▁Cloning	-10.7739
▁gap	-10.7741
▁replacing	-10.7746
▁predetermined	-10.7757
▁yielding	-10.7758
▁counter	-10.7763
pent	-10.7768
▁0.9	-10.7769
are	-10.7772
▁Dis	-10.7772
▁ratios	-10.7774
▁oxidized	-10.778
▁reached	-10.7784
▁tris	-10.7785
▁0.06	-10.7785
meter	-10.7785
▁1999	-10.7787
▁PK	-10.7795
step	-10.7798
ai	-10.7801
▁1992	-10.7802
▁ST	-10.7804
ock	-10.7806
rine	-10.7806
▁activate	-10.7806
▁immunized	-10.7806
emia	-10.7816
▁interact	-10.7816
▁analytical	-10.7818
product	-10.7819
▁1.25	-10.7824
-24	-10.7825
▁RP	-10.7827
▁wall	-10.7829
ign	-10.7831
▁108	-10.7831
rit	-10.7834
▁deuterium	-10.7838
▁database	-10.7854
▁activating	-10.7855
▁preservatives	-10.7857
▁already	-10.7857
her	-10.7862
=2.4	-10.7864
▁evaluation	-10.7865
DE	-10.7866
mit	-10.7869
▁adenovirus	-10.7869
vol	-10.787
▁pigment	-10.7874
▁inventive	-10.7875
19,	-10.7876
▁stop	-10.7885
▁smaller	-10.7889
▁7.25	-10.7893
▁nucleoside	-10.7895
▁HER	-10.7895
piperidinyl	-10.7899
▁confirm	-10.7901
▁5.1	-10.7901
▁location	-10.7904
▁1994	-10.7905
chemotherapeutic	-10.7906
▁little	-10.7907
lytic	-10.7907
ular	-10.7908
Ia	-10.791
▁physiologically	-10.7911
IM	-10.7912
▁1998	-10.7914
▁degassed	-10.7917
mmol	-10.7919
phenylamino	-10.7919
less	-10.7921
9.8	-10.7921
tetrahydrofuran	-10.7925
▁slightly	-10.7937
▁diastereomers	-10.7939
▁radio	-10.7941
▁(0.02	-10.7943
▁EGFR	-10.7947
chrom	-10.7947
:1,	-10.7947
▁neo	-10.7949
▁800	-10.795
-40	-10.7951
▁mix	-10.7956
gram	-10.7958
)—,	-10.7958
▁produces	-10.7963
▁ligation	-10.7967
acet	-10.7967
oli	-10.7974
4,5	-10.7975
1-5	-10.7978
▁atmospheric	-10.7979
land	-10.7982
len	-10.7989
methanone	-10.799
imide	-10.7992
ylene	-10.8
▁(3×	-10.8
▁Car	-10.8
▁transdermal	-10.8003
ward	-10.8006
-1.5	-10.8008
atic	-10.8009
▁104	-10.8009
▁oven	-10.8013
▁1993	-10.8022
piperazinyl	-10.8022
▁individuals	-10.8025
▁Kit	-10.8028
▁purchased	-10.8028
ero	-10.8028
▁labeling	-10.8028
▁His	-10.8031
-1,6-	-10.8034
ake	-10.8035
▁initially	-10.8039
▁capture	-10.804
mers	-10.8043
▁encompassed	-10.8056
▁extended	-10.8059
FA	-10.8062
▁involving	-10.8064
▁RA	-10.8066
▁direction	-10.8066
lip	-10.8068
▁7.3	-10.8072
▁upstream	-10.8075
▁fermentation	-10.8075
2)2	-10.8084
valent	-10.8087
-[3-(	-10.8087
yne	-10.8092
700	-10.8092
Co	-10.8093
▁linkers	-10.8099
▁luciferase	-10.81
ung	-10.81
8##	-10.81
▁rapidly	-10.8101
▁filled	-10.8101
▁Cy	-10.8102
▁arylalkyl	-10.8106
▁Ro	-10.8108
▁organo	-10.8119
tu	-10.8119
ger	-10.8121
▁inducing	-10.8123
▁joined	-10.8125
ylation	-10.8127
▁binder	-10.8127
sulfamoyl	-10.8128
Bio	-10.8129
IB	-10.8133
Bu	-10.8137
virus	-10.8138
▁proportion	-10.8139
▁transduction	-10.8139
▁blocked	-10.8141
VIII	-10.8142
ade	-10.8151
201	-10.8156
▁diagnosis	-10.8157
▁Biology	-10.8159
▁hydrazine	-10.8159
▁loading	-10.816
side	-10.8163
-2-(2-	-10.8172
▁PT	-10.8172
▁regimen	-10.8177
-4-(4-	-10.8179
ier	-10.8182
His	-10.8183
▁(1995)	-10.8184
Val	-10.8184
▁Invention	-10.8185
▁super	-10.8186
▁asymmetric	-10.8186
▁discloses	-10.8187
base	-10.8188
▁life	-10.8189
▁influence	-10.8189
ities	-10.819
▁convert	-10.8192
▁borohydride	-10.8199
▁Most	-10.8204
▁cover	-10.8204
▁0.0	-10.8204
▁Phase	-10.8209
▁exogenous	-10.821
▁minimal	-10.8211
nucleotide	-10.8217
▁spin	-10.8217
▁trimethyl	-10.8219
▁kits	-10.8225
▁(0.9	-10.8228
ud	-10.8232
from	-10.8232
MD	-10.8232
▁outlined	-10.8232
ations	-10.8233
dr	-10.8242
▁paper	-10.8245
▁65°	-10.8246
antibody	-10.8247
▁115	-10.8254
▁inlet	-10.8254
▁stereoisomers	-10.8256
-((	-10.8258
▁abnormal	-10.8259
flu	-10.8259
▁carbohydrate	-10.8272
-2,2-	-10.8274
ein	-10.8282
▁Flow	-10.8282
▁sufficiently	-10.8285
▁purged	-10.8285
ethylamino	-10.8286
▁titanium	-10.8286
propanoic	-10.8287
▁tract	-10.8289
wa	-10.8289
Ethyl	-10.8292
eth	-10.8295
▁measurements	-10.8298
▁rectal	-10.8298
▁carry	-10.83
▁yielded	-10.83
▁adjuvants	-10.8306
▁Product	-10.8309
sulf	-10.8312
▁prop	-10.8319
▁170	-10.8322
▁methionine	-10.8324
LT	-10.8325
▁asthma	-10.8325
▁enriched	-10.833
▁Because	-10.8331
▁220	-10.8338
▁cytotoxicity	-10.8343
▁350	-10.8351
▁external	-10.8352
▁spleen	-10.8352
▁9.5	-10.8354
▁soybean	-10.8355
=6.0	-10.8355
▁search	-10.8361
▁1997	-10.8364
",	-10.8366
phospho	-10.8376
▁effectively	-10.8376
▁enhancer	-10.8379
▁solvates	-10.8379
▁evaporator	-10.8385
-(3-(	-10.8388
▁4-(2-	-10.8388
ylidene	-10.8395
▁FGF	-10.8399
▁leader	-10.8402
▁agar	-10.8406
▁110°	-10.8412
▁encompass	-10.8413
(2,6-	-10.8413
▁labels	-10.8413
dibromo	-10.8414
▁ovarian	-10.8416
▁varying	-10.8417
CE	-10.8423
+]	-10.8424
800	-10.8427
▁sensitive	-10.8428
▁TA	-10.8429
▁Calc	-10.8433
▁1996	-10.8438
▁adhesion	-10.8439
293	-10.844
▁(70	-10.8444
▁female	-10.8449
▁7.45	-10.8449
▁ensure	-10.845
ham	-10.8451
trifluoroacetate	-10.8455
▁hinge	-10.8456
▁drops	-10.8461
SPC	-10.8462
SD	-10.8465
105	-10.847
▁nitrile	-10.8472
LE	-10.8475
▁(4-	-10.8475
▁absent	-10.8479
▁19.	-10.8484
RD	-10.8488
▁lysis	-10.8489
ich	-10.849
met	-10.8492
▁mesh	-10.8493
▁com	-10.8495
▁advantages	-10.8495
benzimidazol	-10.8495
30,	-10.8496
-2.5	-10.8502
▁close	-10.8502
ten	-10.8505
▁alkane	-10.8505
▁7.38	-10.851
▁San	-10.8512
▁lipids	-10.8513
▁(1996)	-10.8515
=6.9	-10.8516
▁duration	-10.8519
▁received	-10.8522
▁deposition	-10.8523
▁0.07	-10.8524
CONH	-10.8526
=6.4	-10.8527
▁lo	-10.8527
▁oxy	-10.8531
▁sulfide	-10.8531
9##	-10.8535
-5,6-	-10.8538
▁minor	-10.8538
▁HEK	-10.8539
▁1990	-10.8545
chloroform	-10.8545
forming	-10.8548
▁Da	-10.8556
▁2,5-	-10.8557
lut	-10.8564
▁converting	-10.8566
dose	-10.8566
▁psi	-10.8566
▁adduct	-10.8568
▁artificial	-10.8568
▁car	-10.8569
ons	-10.857
▁EL	-10.8573
▁DIPEA	-10.8573
▁buffered	-10.8574
acrylamide	-10.8575
▁cesium	-10.8576
▁cost	-10.8577
▁65%	-10.8579
-3-(3-	-10.8581
▁fibrosis	-10.8586
rac	-10.8588
▁dilute	-10.8589
oxazole	-10.859
▁92%	-10.8591
ept	-10.8591
▁Rev	-10.8596
▁cake	-10.86
ood	-10.8602
[4-(	-10.8603
sulfonate	-10.8605
▁rise	-10.8607
▁PG	-10.8608
com	-10.8609
(6	-10.861
▁NP	-10.8614
▁conformation	-10.8616
▁Mice	-10.8617
▁across	-10.8619
▁2.6	-10.862
cept	-10.8621
4,5-	-10.8626
products	-10.8627
▁97%,	-10.8629
▁optional	-10.863
-2′-	-10.8632
cit	-10.8639
▁Amino	-10.8648
(=	-10.8649
ves	-10.865
▁meanings	-10.8655
▁Particularly	-10.8655
▁107	-10.8655
ual	-10.8657
▁copolymers	-10.8657
:9	-10.866
where	-10.8661
▁Compositions	-10.8662
RE	-10.8663
▁celite	-10.8663
triazine	-10.8666
▁therapies	-10.8668
▁(1987)	-10.8669
▁antibiotic	-10.8673
▁background	-10.8675
▁Exp	-10.8676
▁combining	-10.8679
11-	-10.868
ever	-10.868
ones	-10.8683
▁flu	-10.8688
SG	-10.8691
25°	-10.8693
▁That	-10.8696
rate	-10.8701
▁conjugation	-10.8708
inter	-10.8711
▁0.10	-10.8714
rs	-10.8719
▁11,	-10.8722
▁Calculated	-10.8723
▁triple	-10.8728
▁brs	-10.873
dia	-10.873
ound	-10.873
▁right	-10.8731
▁clearly	-10.8732
azine	-10.8733
-(1	-10.8735
treatment	-10.8737
▁Iso	-10.8739
ber	-10.8744
-10-	-10.8744
▁frozen	-10.8746
pho	-10.8749
▁comparing	-10.8755
▁causes	-10.8756
3);	-10.876
▁reactivity	-10.8764
rib	-10.8766
)-1,3-	-10.8767
▁freeze	-10.8774
MT	-10.8775
mouse	-10.8776
1).	-10.8779
▁3%	-10.8783
▁2.7	-10.879
▁codons	-10.8792
▁deprotection	-10.8796
▁98%,	-10.8797
▁Samples	-10.8799
▁amides	-10.8803
▁sorbitol	-10.8804
▁years	-10.8811
▁(1.6	-10.8814
▁Alzheimer	-10.8824
▁capsule	-10.8826
3′-	-10.8831
▁similarity	-10.8833
▁rheumatoid	-10.8837
▁6.8	-10.8837
▁inhalation	-10.8843
sc	-10.8843
▁zero	-10.8845
▁sensor	-10.8853
thiol	-10.8853
▁Thereafter	-10.8853
▁beneficial	-10.8858
▁Tween	-10.8858
▁protocols	-10.8862
DR	-10.8862
▁hepatitis	-10.8868
bl	-10.8871
▁vegetable	-10.8873
▁similarly	-10.8875
▁quantities	-10.8879
▁connection	-10.8879
▁(3.0	-10.8883
▁aid	-10.889
pentane	-10.8893
▁lack	-10.8895
▁Buffer	-10.8895
ke	-10.8897
▁adsorption	-10.89
▁analyses	-10.8906
▁7.6	-10.8908
TB	-10.8908
▁thermo	-10.8909
prepared	-10.891
▁During	-10.8916
GF	-10.8917
king	-10.892
▁proton	-10.8922
▁Manual	-10.8928
HT	-10.8931
▁200°	-10.8938
▁separator	-10.894
70,	-10.8941
benzimidazole	-10.8942
▁construction	-10.8949
av	-10.8949
que	-10.8951
-[1,2,4]	-10.8955
▁bo	-10.8958
/10	-10.897
▁cobalt	-10.897
Ch	-10.8972
▁Be	-10.8972
▁differ	-10.8972
▁Tables	-10.8974
▁appropriately	-10.8974
cre	-10.8975
▁Se	-10.8981
butenyl	-10.8983
▁1-2	-10.8988
4).	-10.8991
▁recipient	-10.8991
▁First	-10.8993
carb	-10.8993
▁vehicles	-10.8998
▁5'	-10.9003
idene	-10.9004
▁complementarity	-10.9008
{	-10.9008
amin	-10.901
▁0.08	-10.9015
tt	-10.9019
▁treatments	-10.9024
′)	-10.903
▁bulk	-10.9031
statin	-10.9032
▁grade	-10.9034
▁9.1	-10.9036
oil	-10.9039
▁Proteins	-10.904
▁deposit	-10.9049
▁rest	-10.905
quin	-10.9052
▁wetting	-10.9053
tag	-10.9054
trichloro	-10.9054
▁7.33	-10.9061
▁2004	-10.9061
alkylamino	-10.9061
▁101	-10.9061
▁7.26	-10.9069
morph	-10.9069
protected	-10.907
▁phrase	-10.9072
polar	-10.9073
▁select	-10.9078
▁affected	-10.9082
▁disc	-10.9083
-2.4	-10.9085
ically	-10.9086
001	-10.9095
methanesulfonate	-10.91
chloromethyl	-10.9101
▁infectious	-10.9102
▁Fv	-10.9102
▁9.2	-10.9111
▁benzoyl	-10.9112
▁7.28	-10.9114
▁1.9	-10.9115
ency	-10.9122
▁Ga	-10.9132
▁immunogen	-10.9133
omer	-10.9134
▁Cys	-10.9135
▁rinsed	-10.9138
LV	-10.9139
▁epithelial	-10.9148
▁imp	-10.9148
▁epoxy	-10.9149
▁controlling	-10.915
cho	-10.915
▁analyte	-10.9151
eo	-10.9151
▁resolution	-10.9157
▁7.42	-10.9164
1/	-10.9166
▁spectrometry	-10.9167
▁graph	-10.9168
SiO	-10.9175
▁brought	-10.9179
del	-10.9182
pir	-10.9183
▁hydrocarbyl	-10.9187
IgG	-10.9188
)-3	-10.9189
-1,3,4-	-10.919
▁7.15	-10.9193
▁Figure	-10.9193
ases	-10.9197
▁Tyr	-10.9197
▁marrow	-10.9197
▁5-(	-10.9199
▁nitric	-10.92
ction	-10.9205
each	-10.9206
ime	-10.9207
ides	-10.9209
Intermediate	-10.921
▁radioactive	-10.921
tre	-10.9212
ey	-10.9212
cycl	-10.9215
naphtho	-10.9215
(+)	-10.9215
▁trace	-10.9215
▁111	-10.9215
▁3.2	-10.9217
▁7.34	-10.9218
▁vaccines	-10.922
▁intraperitoneal	-10.9222
▁93%	-10.9226
cer	-10.9228
▁acrylate	-10.9228
▁additive	-10.923
▁nasal	-10.9233
▁failure	-10.9235
▁Melting	-10.9243
modified	-10.9246
les	-10.9246
▁acrylic	-10.9256
-3-(4-	-10.9256
▁colonies	-10.9257
▁Finally	-10.9258
ori	-10.9259
▁pooled	-10.9262
BI	-10.9269
▁convenient	-10.9269
▁graft	-10.9272
-{	-10.9272
▁instrument	-10.9273
TG	-10.9275
▁artisan	-10.9276
activated	-10.9278
octahydro	-10.9279
SE	-10.928
▁highest	-10.9282
propanoate	-10.9284
cancer	-10.9286
Et	-10.9288
▁fuel	-10.9289
▁dispersed	-10.9291
▁3-(4-	-10.9294
▁2005	-10.9295
▁chromatographic	-10.9304
▁talc	-10.9312
▁2.8	-10.9316
ureido	-10.9325
qu	-10.9326
sulphonyl	-10.9328
cyclobutyl	-10.933
▁subcutaneously	-10.933
▁(1997)	-10.9331
lot	-10.9332
▁7.55	-10.9332
▁109	-10.9336
1/2	-10.9338
▁leucine	-10.9342
▁angiogenesis	-10.9343
receptor	-10.9346
▁Hu	-10.9353
benzenesulfonyl	-10.9355
▁assess	-10.9363
ogenic	-10.9373
▁isotonic	-10.9373
fu	-10.9379
▁industrial	-10.9381
Ca	-10.9384
yr	-10.9385
▁regulation	-10.9389
▁stimulate	-10.939
▁sugars	-10.9395
▁precursors	-10.9395
▁metabolism	-10.9395
▁event	-10.9397
glycine	-10.9398
▁System	-10.9401
▁126	-10.9404
syn	-10.9405
▁selectable	-10.9408
PL	-10.9408
-1,1-	-10.941
(5	-10.9414
ethanone	-10.9425
▁malignant	-10.9426
GP	-10.9426
▁60%,	-10.9426
▁Solution	-10.9427
▁0.05%	-10.9427
▁MO	-10.9431
▁goat	-10.9433
▁causing	-10.9436
ser	-10.9437
-5-(2-	-10.9438
▁.+-.	-10.9438
▁intron	-10.9438
▁MgCl	-10.9439
▁quality	-10.9442
▁sections	-10.9445
▁cartridge	-10.9446
▁Tumor	-10.9455
phosph	-10.9458
nor	-10.9462
tumor	-10.9462
▁onset	-10.9465
▁HVR	-10.9468
ject	-10.947
▁assigned	-10.9473
95%	-10.9474
▁raised	-10.9478
▁7.37	-10.9479
▁vitamin	-10.9485
enoic	-10.9485
▁iodo	-10.9491
▁formaldehyde	-10.9493
xyl	-10.9498
-[3-	-10.95
▁(35	-10.9501
▁arm	-10.9502
▁microorganisms	-10.9505
▁Un	-10.9508
[3	-10.951
oside	-10.9512
oxi	-10.9512
[2-(	-10.9513
▁Based	-10.9515
▁add	-10.9519
▁operating	-10.952
▁Bo	-10.9526
▁EQU	-10.9528
plasm	-10.9529
140	-10.9535
alanine	-10.9536
▁Met	-10.9537
▁Certain	-10.9538
450	-10.9541
BC	-10.9544
▁NOS	-10.9544
layer	-10.9547
▁bearing	-10.9547
sing	-10.9549
▁weak	-10.9549
▁103	-10.9552
▁7.22	-10.9553
FN	-10.9558
optionally	-10.956
▁shape	-10.956
last	-10.9563
▁correct	-10.9563
SSC	-10.9564
▁plated	-10.9569
▁145	-10.9569
)-6-(	-10.9569
▁PS	-10.957
▁Typical	-10.957
hexa	-10.9572
17,	-10.9575
ster	-10.9589
▁fashion	-10.9592
▁mannitol	-10.9594
=7.7	-10.9602
mono	-10.9603
▁9.3	-10.9604
▁tin	-10.9604
▁(1.4	-10.9611
▁giving	-10.9613
▁antibiotics	-10.9614
pre	-10.9615
▁Disease	-10.9624
▁1-(3-	-10.9627
▁124	-10.9628
60°	-10.9629
▁dissociation	-10.9629
▁collection	-10.9631
2—,	-10.9632
▁glyco	-10.9632
▁monohydrate	-10.9633
▁columns	-10.9633
THF	-10.9633
▁inside	-10.9634
GE	-10.9634
▁leads	-10.9635
mark	-10.9635
▁(1.8	-10.9636
▁ER	-10.9636
▁interfere	-10.9637
▁syn	-10.9638
propionyl	-10.9638
▁gp	-10.9642
▁Thr	-10.9642
▁liquor	-10.9642
125	-10.9644
▁ne	-10.9644
▁22.	-10.9647
▁2001	-10.9647
▁prokaryotic	-10.9647
▁sum	-10.9647
cellular	-10.965
ura	-10.9651
:20	-10.9653
▁Many	-10.9657
▁stranded	-10.9657
▁construed	-10.966
MI	-10.9662
▁isolating	-10.9666
SV	-10.9668
TI	-10.9669
chemical	-10.9671
▁varied	-10.9679
▁nervous	-10.9681
2).	-10.9683
sorb	-10.9686
sch	-10.9689
▁sclerosis	-10.969
▁supported	-10.9693
▁7.39	-10.9696
so	-10.9696
▁paraffin	-10.9697
▁decomposition	-10.9698
izer	-10.9703
▁phen	-10.9704
(6-	-10.9704
▁termination	-10.9711
cyto	-10.9711
▁Asp	-10.9713
▁7.30	-10.9714
meric	-10.9716
ach	-10.9717
▁allergic	-10.9718
▁pyrimidine	-10.9721
▁(1.3	-10.9723
dichloromethane	-10.973
triazole	-10.973
▁(600	-10.973
▁450	-10.9732
▁synthase	-10.9736
▁challenge	-10.9737
▁cardiac	-10.9738
▁7.48	-10.9742
dried	-10.9757
use	-10.976
NK	-10.9762
▁preceding	-10.9762
▁HP	-10.9764
dimensional	-10.9765
▁exon	-10.9768
▁Sons	-10.9769
▁John	-10.977
▁trypsin	-10.9771
▁fiber	-10.9773
(2,4-	-10.9779
▁center	-10.978
▁choice	-10.9782
▁7.24	-10.9785
▁7.18	-10.9791
▁untreated	-10.9792
(4-(	-10.9804
▁135	-10.9808
-(3,4-	-10.9808
▁assembly	-10.9811
ou	-10.9811
▁isotype	-10.9812
▁(17	-10.9814
▁(5.0	-10.9814
▁bu	-10.9814
▁7.31	-10.9817
fin	-10.9818
sodium	-10.982
▁proceed	-10.9822
▁7.10	-10.9826
▁estimated	-10.9826
-(2,6-	-10.9833
ami	-10.9835
-2.6	-10.9837
▁hybridize	-10.9837
dis	-10.9838
conjugated	-10.9841
coated	-10.9842
▁li	-10.9844
Asp	-10.9846
hereinafter	-10.9846
▁Optionally	-10.9847
106	-10.9851
-3.5	-10.9852
▁50%,	-10.9856
ful	-10.9858
▁113	-10.9866
pos	-10.9867
▁hair	-10.987
▁oxides	-10.987
▁trifluoro	-10.9875
▁Technologies	-10.9875
▁cycl	-10.9883
lysis	-10.9883
▁analogues	-10.9884
▁oligomers	-10.9886
carbazole	-10.9887
▁Phe	-10.9888
▁elicit	-10.9888
▁recycled	-10.9892
▁14,	-10.9894
▁Po	-10.9895
diazabicyclo	-10.9897
-[(1	-10.99
▁black	-10.99
▁dispersing	-10.9902
▁pri	-10.9908
pan	-10.991
▁Effect	-10.9911
▁epoxide	-10.9912
▁injections	-10.9913
-1,2,3-	-10.9914
rd	-10.9915
ulin	-10.9915
▁mmoles	-10.9923
▁oxidizing	-10.9923
▁cannot	-10.9924
150	-10.9928
ima	-10.9929
fi	-10.9931
qua	-10.9935
▁(−	-10.9936
▁gaseous	-10.9938
▁leading	-10.9943
(2)	-10.9954
ema	-10.9954
▁scaffold	-10.9955
▁DC	-10.9955
▁Vi	-10.9956
▁bladder	-10.9956
topic	-10.9957
▁NaH	-10.9958
▁halides	-10.9965
▁inclusion	-10.9966
▁7.29	-10.9967
▁oxime	-10.9968
▁3'	-10.9969
itol	-10.9969
▁Bi	-10.9974
succinimide	-10.9975
aga	-10.9977
dichloroethane	-10.9981
▁irradiation	-10.9981
▁Recombinant	-10.9983
ru	-10.9984
-3-(2-	-10.9984
▁performing	-10.9988
▁7.43	-10.999
pine	-10.9991
▁functionality	-10.9992
antigen	-10.9993
(2,2,2-	-10.9996
ret	-10.9997
▁Sigma	-11.0001
siloxane	-11.0003
ough	-11.0004
▁7.41	-11.0006
▁(11	-11.0007
90%	-11.0007
LD	-11.0013
▁96%,	-11.0013
solid	-11.0017
quinazoline	-11.0017
▁Administration	-11.0018
▁102	-11.0022
▁seeded	-11.0024
▁modulating	-11.0028
▁(0.03	-11.0028
▁IgE	-11.0029
▁classes	-11.003
▁depends	-11.0032
onium	-11.0034
▁routine	-11.0036
▁Zn	-11.0038
uridine	-11.0048
▁7.23	-11.005
halogen	-11.0053
ess	-11.0054
propionate	-11.0061
▁integrated	-11.0063
▁liter	-11.0063
▁prep	-11.0063
▁2×	-11.0067
▁glycols	-11.0071
▁isomerization	-11.0072
▁(1985)	-11.0075
mic	-11.0078
chloride	-11.0079
▁hexyl	-11.0079
NHR	-11.008
▁milk	-11.0082
▁platelet	-11.0084
[2,1-	-11.0086
ynyl	-11.0092
▁FACS	-11.0092
PPh	-11.0093
▁21.	-11.0093
▁114	-11.0095
▁appears	-11.0096
group	-11.0098
▁fine	-11.0098
▁allele	-11.0101
▁our	-11.0101
decan	-11.0102
sec	-11.0102
▁Blood	-11.0102
▁analogy	-11.0103
▁RPMI	-11.0104
ann	-11.0107
▁versus	-11.0107
▁cr	-11.0114
chol	-11.0115
▁list	-11.0115
▁health	-11.0115
▁constitute	-11.0116
▁7.32	-11.0117
GD	-11.0118
▁hereinafter	-11.0121
Aldrich	-11.0124
EF	-11.0125
ration	-11.0126
160	-11.0128
▁MeCN	-11.0129
▁applicable	-11.0131
▁share	-11.0132
indazole	-11.0133
▁carbocyclic	-11.0135
▁sieve	-11.0135
vir	-11.0136
▁partner	-11.0143
▁monitoring	-11.0146
▁bridge	-11.0147
▁held	-11.015
Li	-11.0155
har	-11.0155
▁binders	-11.0155
▁foreign	-11.016
oxazin	-11.0163
▁PM	-11.0164
oth	-11.0165
▁polyester	-11.0171
0.05	-11.0173
▁700	-11.0185
▁sarcoma	-11.0188
gastrointestinal	-11.0189
▁maleic	-11.019
▁perform	-11.0191
▁intravenously	-11.0191
▁neutralizing	-11.0195
-6,7-	-11.0199
cyclohex	-11.02
▁deleted	-11.0201
rom	-11.0202
diisopropyl	-11.0204
▁Experimental	-11.0206
▁exceed	-11.0214
ido	-11.0215
nitrile	-11.0218
▁cyclobutyl	-11.0222
methoxymethyl	-11.0223
▁4:	-11.0224
▁enhancing	-11.0224
mel	-11.023
▁vessels	-11.0236
wise	-11.0236
▁repeat	-11.0236
▁IGF	-11.0239
TC	-11.0244
▁spirit	-11.0245
▁flavoring	-11.0246
:15	-11.0246
▁1×	-11.025
▁tank	-11.0253
tetrahydropyran	-11.0254
nia	-11.0255
▁efficiently	-11.0257
▁123	-11.0259
solvent	-11.026
ook	-11.0265
▁ORF	-11.027
eal	-11.027
▁Neuro	-11.0285
▁dialkyl	-11.0286
mes	-11.029
term	-11.029
▁FL	-11.0292
bromophenyl	-11.0294
▁pathways	-11.0294
lated	-11.0296
5′	-11.0298
▁-(	-11.0299
ost	-11.03
VH	-11.03
▁chip	-11.0304
▁dec	-11.0309
ise	-11.031
▁observation	-11.031
▁7.52	-11.0311
▁reduces	-11.0312
dibenzo	-11.0312
RF	-11.0319
onate	-11.0321
▁severe	-11.0326
▁composite	-11.0336
▁thionyl	-11.034
110	-11.0342
×106	-11.035
▁supernatants	-11.0355
int	-11.0357
▁naphthalene	-11.0359
▁131	-11.0362
▁tolerance	-11.0365
▁enable	-11.0367
1-2	-11.037
domain	-11.0371
▁7.44	-11.0372
3′	-11.0372
▁orientation	-11.0374
▁tetrakis	-11.0376
▁HB	-11.0379
▁publications	-11.0379
▁[3	-11.0379
▁(90	-11.0382
pha	-11.0386
▁TEA	-11.0387
▁7.05	-11.0391
▁aggregation	-11.0392
▁7.65	-11.0393
▁Cat	-11.0396
ank	-11.0399
180	-11.0403
▁spot	-11.0403
▁9.6	-11.0405
▁fast	-11.0406
▁appear	-11.0421
3(	-11.0425
▁Catalyst	-11.0428
TF	-11.0432
va	-11.0433
▁7.21	-11.0439
AK	-11.044
led	-11.0441
▁monoxide	-11.0446
hel	-11.0452
GS	-11.0452
▁AA	-11.0457
▁surgery	-11.0458
▁1987	-11.0459
▁consecutive	-11.0463
▁stringency	-11.0468
crystallization	-11.0469
▁polycyclic	-11.0472
RB	-11.0473
methoxyethyl	-11.0478
▁undesirable	-11.0479
ening	-11.048
▁Control	-11.048
▁Inhibition	-11.0481
▁respiratory	-11.0482
▁3′-	-11.0483
▁3.3	-11.0484
▁retain	-11.0489
▁(%)	-11.0491
▁(1.7	-11.0497
▁stereoisomer	-11.05
▁strands	-11.0505
▁titled	-11.0506
▁contribute	-11.0507
▁3.1	-11.0507
fusion	-11.0508
3-10	-11.0508
PK	-11.0509
▁spectroscopy	-11.0511
▁118	-11.0512
▁adapted	-11.0512
▁alkanoyl	-11.0513
▁keto	-11.0516
▁organs	-11.0516
pore	-11.0517
▁culturing	-11.0519
▁numerous	-11.0519
▁Sa	-11.0522
▁hu	-11.0523
phenethyl	-11.0523
equ	-11.0524
▁Cap	-11.0527
ave	-11.0532
nitrobenzene	-11.0535
keto	-11.0537
ocytes	-11.0539
▁127	-11.0541
▁Accession	-11.0542
▁polymorph	-11.0542
6-10	-11.0543
▁Structure	-11.0545
▁glutamic	-11.0548
▁GM	-11.0551
▁35%	-11.0551
minute	-11.0551
para	-11.0552
mid	-11.0553
▁Current	-11.0554
▁symptom	-11.0555
TNF	-11.0555
▁7.19	-11.0556
▁pyr	-11.0557
(3,4-	-11.0558
▁MP	-11.056
ight	-11.0561
Tyr	-11.0561
▁utility	-11.0565
tech	-11.0575
Dichloro	-11.0579
OCF	-11.0581
▁112	-11.0581
▁7.8	-11.0583
bound	-11.0584
▁put	-11.0587
▁porous	-11.0587
▁carboxylate	-11.0588
▁stopped	-11.059
▁2.00	-11.0591
▁evaluate	-11.0595
-(2,4-	-11.0596
-3.0	-11.0596
▁Int	-11.0597
▁0.75	-11.06
▁tr	-11.0602
azido	-11.0602
)-2-(4-	-11.0605
▁hemi	-11.0605
▁Lo	-11.0607
RK	-11.0611
acceptable	-11.0614
▁7.47	-11.0615
▁(14	-11.0625
ze	-11.0626
inate	-11.0626
ida	-11.0629
▁healthy	-11.0633
morpholine	-11.0644
▁HEPES	-11.0645
▁surfaces	-11.0648
▁equation	-11.0651
▁hydroxypropyl	-11.0651
▁KD	-11.0651
▁240	-11.0656
▁find	-11.066
pyrimidinyl	-11.0663
▁events	-11.0663
▁stabilizers	-11.0665
▁definitions	-11.0669
▁suggest	-11.067
▁7.16	-11.0673
bodies	-11.0675
▁hydroxyalkyl	-11.0677
80,	-11.0679
▁Solid	-11.068
▁usual	-11.0681
▁PL	-11.0686
250	-11.0694
▁mild	-11.07
light	-11.0701
▁EST	-11.0705
▁1.50	-11.0705
▁reflect	-11.0707
▁duplex	-11.0707
▁becomes	-11.0708
▁4.2	-11.071
butoxide	-11.071
▁GA	-11.071
fac	-11.0714
▁gm	-11.0718
ecrystallization	-11.0719
1′	-11.072
osyl	-11.0721
▁fourth	-11.0727
old	-11.073
▁primarily	-11.0731
▁FBS	-11.0737
phenylene	-11.0738
▁4,4	-11.0738
▁passage	-11.0739
ifying	-11.0743
ulated	-11.0748
▁MC	-11.0749
)-3-(4-	-11.0751
▁0.09	-11.0755
manufactured	-11.0757
▁55°	-11.0757
▁subunits	-11.0758
▁seeds	-11.0759
▁therefrom	-11.0767
▁stringent	-11.0769
▁illustration	-11.0771
▁7.56	-11.0772
butyrate	-11.0775
▁116	-11.0778
▁selecting	-11.0779
CK	-11.0783
▁9.4	-11.0784
mato	-11.0786
▁formamide	-11.0788
[(	-11.0788
osome	-11.0789
▁aliquot	-11.0789
▁valve	-11.0791
▁spiro	-11.0791
rc	-11.0791
▁carbamoyl	-11.0792
▁3.80	-11.0794
GL	-11.0796
▁problem	-11.0798
▁progress	-11.0802
▁microorganism	-11.0804
amic	-11.0804
108	-11.0806
▁mechanisms	-11.0808
▁2006	-11.0812
app	-11.0813
triazin	-11.0818
▁Tr	-11.082
lumin	-11.082
▁4.7	-11.0822
ern	-11.0823
▁shaken	-11.0825
methylpropyl	-11.0825
nate	-11.0828
press	-11.0834
toluenesulfonic	-11.0835
▁memory	-11.0838
▁glutamine	-11.084
▁benzoic	-11.0841
)-3,4-	-11.0841
▁IN	-11.0841
▁fl	-11.0842
▁nuclease	-11.0844
3-7	-11.0846
tive	-11.0846
+1	-11.0847
▁stimulated	-11.0847
▁gl	-11.085
▁Rh	-11.0855
▁exp	-11.0856
octan	-11.0862
▁stages	-11.0863
▁root	-11.0865
▁dichloro	-11.0867
▁%)	-11.0868
▁finally	-11.087
▁suffering	-11.0872
-60	-11.0874
bromomethyl	-11.0874
▁trichloro	-11.0876
▁applying	-11.0877
▁relationship	-11.0881
107	-11.0887
Met	-11.0891
▁coatings	-11.0892
decane	-11.0893
▁23.	-11.0895
▁best	-11.0896
encoding	-11.0896
▁Monoclonal	-11.0898
▁diabetic	-11.09
epi	-11.0901
azol	-11.0903
benzotriazole	-11.0904
some	-11.0906
▁peroxidase	-11.0907
▁gastric	-11.0911
▁benz	-11.0913
▁TLR	-11.0913
▁75%,	-11.0915
ribo	-11.0915
▁intervals	-11.0916
▁3.6	-11.0921
▁45°	-11.0923
phenylmethyl	-11.0923
▁ribozyme	-11.0923
-2,3,4,5-	-11.0925
▁ul	-11.0926
▁phosphine	-11.0927
▁Corporation	-11.0927
▁proliferative	-11.0927
▁interchangeably	-11.0933
PM	-11.0939
▁neurons	-11.0939
▁7.53	-11.0942
▁NF	-11.0944
▁119	-11.0947
▁Mg	-11.0951
[2-	-11.0955
pyridazine	-11.0956
▁7.62	-11.0957
tern	-11.0957
▁objective	-11.0959
difluoromethyl	-11.096
▁Ia	-11.0961
▁widely	-11.0963
▁modulator	-11.0964
▁3.75	-11.0967
▁Dev	-11.0969
▁diet	-11.097
hydroxypropyl	-11.0973
▁HC	-11.0974
fused	-11.0975
▁far	-11.0978
▁formate	-11.0979
St	-11.098
rubicin	-11.0982
▁cytometry	-11.0986
proline	-11.0989
hydrogen	-11.099
shi	-11.099
▁outside	-11.099
pentan	-11.0991
▁28.	-11.0993
▁equilibrium	-11.0993
▁7.51	-11.0994
▁protect	-11.0995
carbaldehyde	-11.0996
)-2,3-	-11.0999
gluc	-11.1005
▁7.1	-11.101
protecting	-11.1011
phenylethyl	-11.1013
=4.8	-11.1014
my	-11.1015
▁138	-11.1016
negative	-11.102
104	-11.102
-5,6,7,8-	-11.1023
▁liposome	-11.1024
▁responsible	-11.1027
[4	-11.1029
%;	-11.1029
▁(1998)	-11.103
▁indirectly	-11.1032
eli	-11.1033
▁Systems	-11.1041
▁psig	-11.1043
▁amyloid	-11.1044
Ag	-11.1046
=16	-11.1047
▁supply	-11.1049
vis	-11.105
▁old	-11.1053
BT	-11.1053
,4′-	-11.1054
pin	-11.1054
fl	-11.1054
▁fungal	-11.1054
▁triethyl	-11.1055
dimethylphenyl	-11.1055
purin	-11.1055
▁baseline	-11.1056
▁feature	-11.1059
▁Day	-11.1062
ome	-11.1062
▁95°	-11.1063
-(3,5-	-11.1065
▁undergo	-11.1065
azepin	-11.1067
▁IgM	-11.1067
▁introduce	-11.1072
8+	-11.1076
▁paragraph	-11.1081
▁optimized	-11.1082
▁American	-11.1084
▁2002	-11.1084
▁Detection	-11.1085
osine	-11.1086
-4-(3-	-11.1086
]-6-	-11.1089
++	-11.1089
dimethoxyphenyl	-11.1093
viral	-11.1094
metric	-11.1096
▁gradually	-11.1096
▁HATU	-11.1099
▁DMEM	-11.11
▁differential	-11.1101
▁document	-11.1107
▁2-(3-	-11.1109
▁stably	-11.1109
▁hereinbefore	-11.1112
▁lymph	-11.1113
▁formulas	-11.1116
▁Ki	-11.1117
aging	-11.1121
somal	-11.1123
▁4%	-11.1124
hal	-11.1125
▁splice	-11.1127
▁CTL	-11.113
▁thienyl	-11.1131
▁accumulation	-11.1135
UC	-11.114
▁shaking	-11.114
▁7.17	-11.1144
▁Man	-11.1144
▁analogously	-11.1145
▁280	-11.1146
▁suction	-11.1152
▁{	-11.1153
hole	-11.1155
▁tend	-11.1156
phosphonate	-11.1156
emi	-11.1157
▁key	-11.116
etic	-11.117
▁sets	-11.1176
body	-11.1177
▁bonding	-11.1181
uff	-11.1183
OT	-11.1183
oy	-11.1185
▁SiO	-11.1186
▁alkylating	-11.119
XI	-11.1199
▁discovered	-11.12
▁phenoxy	-11.1202
▁0.12	-11.1205
RG	-11.1206
▁proper	-11.1206
▁succinic	-11.1208
▁minimize	-11.121
▁dissolution	-11.1212
▁patents	-11.1214
▁eliminate	-11.1215
▁detector	-11.1219
▁sulf	-11.122
▁modifying	-11.1221
reactive	-11.1224
methanesulfonyl	-11.1231
▁laboratory	-11.1232
▁exchanger	-11.1233
▁viability	-11.1235
aminoethyl	-11.1238
hetero	-11.1239
▁Lewis	-11.124
SL	-11.1244
-200	-11.125
▁sol	-11.125
▁7.54	-11.1253
▁remains	-11.1255
▁kPa	-11.1255
▁electroporation	-11.1257
▁nanoparticles	-11.1259
▁117	-11.1264
GR	-11.1264
▁thereafter	-11.127
▁dichloride	-11.1272
ker	-11.1274
▁Spectrum	-11.1274
▁research	-11.1274
▁myo	-11.1275
▁modulators	-11.128
109	-11.128
▁Groups	-11.1281
▁hold	-11.1281
berg	-11.1282
linking	-11.1284
▁7.75	-11.1285
21,	-11.1286
▁(—	-11.1287
▁Clin	-11.1291
phosphoryl	-11.1292
Tri	-11.1293
dex	-11.1298
▁Va	-11.13
▁bottle	-11.1303
▁extend	-11.1306
ama	-11.1306
▁ways	-11.1309
▁(1999)	-11.131
▁147	-11.1315
▁speed	-11.1318
▁hydrolyzed	-11.1321
fluorobenzyl	-11.1322
ek	-11.1322
▁7.27	-11.1323
▁7.59	-11.1323
▁Ester	-11.1324
KK	-11.1324
▁CTLA	-11.1325
▁1.45	-11.1325
▁5'-	-11.1326
▁regeneration	-11.1328
ological	-11.1332
▁Receptor	-11.1337
▁Mu	-11.1337
▁dissolve	-11.1337
expression	-11.1338
)-2	-11.134
amyl	-11.1341
▁ArH	-11.1349
▁IgA	-11.1355
▁196	-11.1357
▁evidence	-11.1357
▁133	-11.1358
▁8.4	-11.1359
▁PO	-11.1359
▁summarized	-11.136
{(	-11.1364
▁paste	-11.1368
▁melt	-11.1369
)-2-((	-11.137
atory	-11.1371
carboxamido	-11.1372
▁anionic	-11.1372
▁comparable	-11.1375
▁Target	-11.1376
table	-11.1379
▁modulation	-11.1379
▁adverse	-11.1379
17-	-11.1382
▁problems	-11.1382
cyclopentane	-11.1385
▁reach	-11.1387
▁7.14	-11.1392
▁tumour	-11.1394
▁Comp	-11.1397
Thr	-11.1398
solv	-11.1399
ces	-11.14
=1.8	-11.1405
▁cyanide	-11.1406
▁barrier	-11.1408
▁deliver	-11.1408
▁University	-11.141
%.	-11.141
imethylsulfoxide	-11.1412
▁flavor	-11.1414
ali	-11.142
▁136	-11.1421
2-4	-11.1427
▁vi	-11.1428
=1.5	-11.143
FL	-11.1431
▁subset	-11.1434
▁165	-11.1435
ACC	-11.1435
27,	-11.1444
▁aniline	-11.1444
cellulose	-11.1444
phy	-11.1446
12)	-11.1447
avi	-11.145
▁cal	-11.1453
▁extra	-11.1453
ok	-11.1454
-1,5-	-11.1456
199	-11.146
-1(2	-11.1461
▁polyoxyethylene	-11.1462
tron	-11.1463
▁Mono	-11.1466
heptan	-11.1467
▁Ste	-11.1468
osa	-11.147
▁version	-11.1472
▁real	-11.1476
exchange	-11.1477
rel	-11.1477
▁7.61	-11.1482
yo	-11.1482
▁(120	-11.1485
▁inclusive	-11.1487
thiazolyl	-11.1489
▁synthesizing	-11.1491
Phos	-11.1491
▁stimulating	-11.1492
▁149	-11.1494
time	-11.1498
▁quantified	-11.1499
RL	-11.1502
▁2:1	-11.1503
CAT	-11.1504
′)2	-11.1507
azetidine	-11.1507
▁copies	-11.1508
nyl	-11.1513
ute	-11.1514
▁2,2,2-	-11.1515
▁parenterally	-11.1516
▁SV	-11.1521
▁chloroformate	-11.1524
▁Mobile	-11.1532
▁numbering	-11.1534
28,	-11.1536
▁proviso	-11.1538
ote	-11.1538
▁module	-11.1543
▁rodent	-11.1544
ped	-11.1545
GC	-11.1546
py	-11.155
naphthyridin	-11.155
▁nerve	-11.1551
▁Protocols	-11.1552
▁towards	-11.1564
▁benzoate	-11.1566
▁-78°	-11.1567
▁clean	-11.1567
▁remainder	-11.1573
▁210	-11.1574
▁te	-11.1574
▁immunological	-11.1582
▁soil	-11.1583
▁(6)	-11.1583
propynyl	-11.1584
▁fall	-11.1585
ode	-11.1587
▁7.57	-11.1589
▁NS	-11.159
▁competitive	-11.1591
▁7.13	-11.1594
lig	-11.1594
▁visual	-11.1601
▁how	-11.1603
yrimidinediamine	-11.1604
▁endonuclease	-11.1604
▁3.85	-11.1606
▁12.5	-11.1606
+1)+	-11.1609
▁lactic	-11.1609
▁175	-11.1612
▁shock	-11.1612
▁bowel	-11.1614
ica	-11.1614
we	-11.1615
rain	-11.1616
oci	-11.1619
▁Org	-11.1626
▁GFP	-11.1627
▁Synthetic	-11.1631
▁rh	-11.1632
▁packed	-11.1632
▁(7)	-11.1633
plant	-11.1638
▁inner	-11.1642
=8.9	-11.1645
▁Model	-11.1648
agg	-11.1652
amo	-11.1657
ionic	-11.1658
eluent	-11.1658
▁7.63	-11.1659
verse	-11.1661
cent	-11.1662
▁(13	-11.1663
▁3.90	-11.1663
▁(45	-11.1667
cy	-11.1667
▁imidazolyl	-11.1669
▁7.00	-11.1679
sulfonamido	-11.1681
▁1.20	-11.1682
butyldimethylsil	-11.1684
RII	-11.1684
ense	-11.1684
ili	-11.1686
lac	-11.1686
▁Sambrook	-11.1688
0-100%	-11.1688
-[[	-11.1689
▁switch	-11.1697
40°	-11.1702
▁Sc	-11.1702
▁threonine	-11.1704
)-4	-11.1705
▁created	-11.1705
▁pseudo	-11.1707
▁7.64	-11.1707
}-2-	-11.1707
reg	-11.1708
▁syrup	-11.1709
sensitive	-11.1709
▁(2000)	-11.1711
▁almost	-11.1714
atin	-11.1716
▁rubber	-11.1716
Difluoro	-11.1716
▁55%	-11.1725
ature	-11.1725
▁necessarily	-11.1728
▁Germany	-11.173
fil	-11.1738
thi	-11.1742
▁parallel	-11.1745
▁retained	-11.1747
▁biphenyl	-11.1748
▁emulsifying	-11.175
5′-	-11.175
td	-11.1752
ylated	-11.1753
▁dilutions	-11.1754
ival	-11.1756
▁interleukin	-11.1756
▁cytoplasmic	-11.1756
▁wax	-11.1758
▁cardiovascular	-11.176
=5.6	-11.1761
▁pool	-11.1764
(((	-11.1766
▁inoculated	-11.1769
▁Nat	-11.1769
▁sera	-11.1771
▁acetal	-11.1774
▁(1986)	-11.1774
Cyano	-11.1778
▁details	-11.1783
▁144	-11.1784
3-8	-11.1784
▁Total	-11.1785
▁obesity	-11.1785
acrylic	-11.1786
illi	-11.1789
anth	-11.1792
▁CL	-11.1794
lysine	-11.1796
20°	-11.18
▁viscous	-11.1804
undec	-11.1804
butyryl	-11.1813
▁diamine	-11.1814
▁carb	-11.1814
▁Plasmid	-11.1816
anyl	-11.1817
▁0.22	-11.1825
▁inducible	-11.183
▁demonstrates	-11.1831
Benzo	-11.1831
sorption	-11.1832
ACE	-11.1833
▁behavior	-11.1842
▁7.50	-11.1844
▁Several	-11.185
ement	-11.1853
▁indication	-11.1854
▁134	-11.1856
pyrrolidinyl	-11.186
▁3.00	-11.1863
▁chromosomal	-11.1864
▁gold	-11.1866
▁3.8	-11.1867
hydrazine	-11.1869
(1,3-	-11.187
▁1.40	-11.1871
FIG	-11.1872
ope	-11.1872
5,000	-11.1873
sulfate	-11.1874
heterocyclyl	-11.1875
▁Str	-11.1876
▁0.45	-11.1877
▁chromium	-11.1878
▁(0.04	-11.188
▁migration	-11.1882
▁3-(2-	-11.1883
method	-11.1885
nucleic	-11.1887
naturally	-11.1892
-4(	-11.1894
▁strongly	-11.1895
▁BMP	-11.1897
▁ph	-11.1897
▁gland	-11.1902
OMe	-11.1903
▁mimic	-11.1907
▁ethane	-11.1908
▁pentyl	-11.1908
▁Mar	-11.1912
lipid	-11.1915
-4-(2-	-11.1916
▁na	-11.1919
▁fi	-11.192
▁230	-11.1923
▁modifier	-11.1925
furyl	-11.1925
▁though	-11.1925
▁10.5	-11.1926
▁3.4	-11.1928
▁sulfo	-11.1929
▁lysate	-11.1929
▁power	-11.1929
▁6.9	-11.193
▁Asn	-11.1931
▁immunoglobulins	-11.1931
▁transporter	-11.1934
]+=	-11.1941
NS	-11.1943
▁7.11	-11.1944
pentafluoro	-11.1944
che	-11.1944
▁methacrylate	-11.1949
▁truncated	-11.1949
▁3.95	-11.1953
▁psoriasis	-11.1953
▁(24	-11.1954
▁immunogenicity	-11.1958
TK	-11.1963
▁morpholine	-11.1967
▁colony	-11.1971
▁suppositories	-11.1972
▁log	-11.1979
▁macrophages	-11.1979
-11-	-11.1984
▁pharmacokinetic	-11.1984
▁Kabat	-11.1984
137	-11.1987
▁areas	-11.1987
ett	-11.1988
coding	-11.1988
imine	-11.1991
rr	-11.1992
▁patterns	-11.1992
picolin	-11.1996
▁proteolytic	-11.1996
▁45%	-11.1998
▁regulate	-11.1998
=6.5	-11.2
▁piperazine	-11.2002
[3.2.1]	-11.2002
▁4.00	-11.2005
▁theoretical	-11.2006
GG	-11.2007
▁Assays	-11.2008
=12	-11.2011
methylpyridin	-11.2014
magnesium	-11.2014
▁mother	-11.2016
▁special	-11.2017
▁tan	-11.2017
▁(10%	-11.2019
▁Journal	-11.2021
▁Sciences	-11.2023
▁cyto	-11.2026
▁XI	-11.2034
▁Virus	-11.2039
▁germline	-11.2039
▁biochemical	-11.204
▁force	-11.2042
▁superior	-11.2045
▁Ta	-11.205
emic	-11.2052
piperidino	-11.2054
▁Su	-11.2058
▁Hy	-11.2059
top	-11.2059
▁oxidative	-11.206
LY	-11.2061
▁nucleus	-11.2062
15-	-11.2062
▁thyroid	-11.2066
uro	-11.2074
ocyte	-11.2076
▁leaf	-11.2078
▁hypertension	-11.208
NF	-11.208
▁0.20	-11.208
cel	-11.2085
bottom	-11.2089
oster	-11.209
-(4-(	-11.2091
▁analogue	-11.2093
▁10,000	-11.2093
▁NA	-11.2098
▁fluids	-11.2104
▁chemotherapy	-11.2105
galact	-11.2105
80°	-11.2106
▁1,000	-11.2106
▁sheet	-11.2107
▁automated	-11.2109
▁148	-11.2112
cephem	-11.2114
target	-11.2115
alcohol	-11.212
pen	-11.212
▁sequenced	-11.212
▁outlet	-11.2121
4′	-11.2123
aminophenyl	-11.2127
▁7.68	-11.2129
▁recited	-11.2138
[1-(	-11.2142
▁137	-11.2145
▁Sub	-11.2147
phenylalanine	-11.215
▁thick	-11.2154
▁Escherichia	-11.2154
▁biotinylated	-11.2155
▁ketones	-11.2157
inal	-11.2157
▁254	-11.2163
▁enhancers	-11.2164
Acetyl	-11.2167
MM	-11.2168
DF	-11.2172
sia	-11.2178
▁SM	-11.218
ale	-11.2189
▁penicillin	-11.219
▁titer	-11.2192
aw	-11.2192
▁MD	-11.2192
cycle	-11.2192
crystal	-11.2193
▁diol	-11.2195
▁4,6	-11.2204
▁cerebral	-11.2206
▁implant	-11.2207
stimulatory	-11.2207
apped	-11.2219
metry	-11.222
phos	-11.222
CHCl	-11.222
▁decreasing	-11.2221
neu	-11.2222
▁6:	-11.2226
▁antibacterial	-11.2227
▁streptavidin	-11.2227
▁1.35	-11.2229
▁121	-11.223
▁97%	-11.2233
▁indole	-11.2235
▁tetrachloride	-11.2237
▁proline	-11.2237
-4,6-	-11.2239
▁detergent	-11.2239
▁play	-11.224
▁Bu	-11.224
▁7.73	-11.2244
anol	-11.2247
▁lacking	-11.2248
▁hematopoietic	-11.2248
way	-11.225
liquid	-11.225
▁predict	-11.225
▁populations	-11.2252
▁(0.25	-11.2253
butylammonium	-11.226
ethenyl	-11.2262
ively	-11.2262
▁studied	-11.2263
▁frequently	-11.2265
}-1	-11.2267
▁joint	-11.227
▁manganese	-11.2273
SI	-11.2273
▁pyrimidinyl	-11.2275
▁(2-	-11.2275
▁parental	-11.2278
piperidyl	-11.2283
▁takes	-11.2283
▁kinases	-11.2283
chem	-11.2286
▁Pt	-11.229
▁strategy	-11.2298
CV	-11.23
▁2003	-11.23
▁7.72	-11.2301
▁steel	-11.2303
3,5-	-11.2306
fluor	-11.2306
epsilon	-11.2307
▁integration	-11.2315
▁dialkylamino	-11.2319
▁7.78	-11.232
▁1.75	-11.2321
▁dys	-11.2322
▁replace	-11.2322
)2—	-11.2322
▁CLMS	-11.2323
▁distance	-11.2326
DV	-11.2326
▁gases	-11.233
▁balance	-11.2332
▁7.09	-11.2335
dithio	-11.2339
ski	-11.234
▁approaches	-11.2341
▁primate	-11.2341
▁3.70	-11.2342
16-	-11.2345
chromen	-11.2346
▁DETD	-11.2349
ions	-11.2352
▁dysfunction	-11.2352
eve	-11.2353
▁consideration	-11.2353
dro	-11.2353
▁4.1	-11.2354
ong	-11.2355
mar	-11.2356
▁manufacturing	-11.2358
▁trimethylsilyl	-11.236
hepta	-11.2363
tis	-11.2369
▁vigorously	-11.2374
▁blocks	-11.2377
▁Three	-11.2381
▁Edition	-11.2383
▁thiazolyl	-11.2384
▁microtiter	-11.2385
vent	-11.2385
▁Formulations	-11.2386
enol	-11.239
▁Lett	-11.2391
▁elimination	-11.2391
▁2.50	-11.2393
▁3.78	-11.2393
tetrafluoro	-11.2393
▁7.67	-11.2394
regulated	-11.2396
-(2-(	-11.2397
kine	-11.2397
▁Fractions	-11.2397
▁anchor	-11.2399
▁mini	-11.24
-35	-11.2403
▁biomass	-11.2404
loc	-11.2406
29,	-11.2408
70°	-11.2409
▁remain	-11.241
▁7.60	-11.2415
)-2,2-	-11.2416
▁carboxymethyl	-11.2417
▁Waters	-11.2422
-3-[	-11.2422
▁(1984)	-11.2424
▁suggests	-11.2424
▁vein	-11.2425
▁equipment	-11.2425
(0)	-11.2428
▁ug	-11.2434
▁admixture	-11.2434
▁growing	-11.2436
▁presently	-11.2436
▁broth	-11.2437
ory	-11.2437
▁counted	-11.2439
▁hydrobromic	-11.244
eta	-11.2444
Pr	-11.2444
▁si	-11.2446
▁2.25	-11.2448
▁STM	-11.2452
▁cations	-11.2453
▁7.85	-11.2454
erythro	-11.2454
▁fibers	-11.2457
▁CCR	-11.2458
▁stomach	-11.246
TX	-11.246
arr	-11.246
▁departing	-11.2462
static	-11.2462
▁colourless	-11.2464
cul	-11.2464
-3,3-	-11.2465
▁filters	-11.2469
▁effectiveness	-11.247
▁suppress	-11.247
▁metastasis	-11.2472
▁Mi	-11.2473
cu	-11.2475
(6-(	-11.2476
▁copy	-11.2479
CAM	-11.248
▁lubricants	-11.2481
31,	-11.2481
▁permit	-11.2486
▁9.7	-11.2486
ination	-11.2489
▁bring	-11.2492
▁Biosystems	-11.2496
BR	-11.2503
▁dendritic	-11.2505
▁displayed	-11.2505
▁working	-11.2505
▁kind	-11.2505
nitrobenzyl	-11.2506
▁expresses	-11.2511
▁op	-11.2511
▁lipo	-11.2511
▁just	-11.2513
CHO	-11.2514
vers	-11.2514
tinib	-11.2515
▁146	-11.2517
▁7.04	-11.2517
▁channels	-11.252
▁Company	-11.2522
▁Mn	-11.2528
▁improving	-11.253
▁retroviral	-11.2533
▁potentially	-11.2534
oxymethyl	-11.2538
▁Appl	-11.2538
occurring	-11.2539
▁(1:1)	-11.254
▁7.07	-11.2544
(9	-11.2545
▁7:	-11.2546
▁existing	-11.2549
▁aptamer	-11.2552
▁neutralization	-11.2555
evi	-11.2557
dioxide	-11.2562
▁modify	-11.2563
peptidase	-11.2567
▁TM	-11.2568
350	-11.257
▁6.95	-11.257
▁boronic	-11.2571
diethylamino	-11.2573
▁laser	-11.2574
aster	-11.2578
▁mill	-11.2578
-32	-11.2579
ola	-11.2581
▁7.66	-11.2581
=6.3	-11.2583
▁4.4	-11.2584
▁restricted	-11.2587
▁outer	-11.2589
▁initiator	-11.2589
▁spread	-11.2589
▁delay	-11.2591
26,	-11.2592
▁pipe	-11.2593
petroleum	-11.2594
▁7.71	-11.2594
▁7.74	-11.2595
▁preferentially	-11.2595
▁break	-11.2597
EV	-11.2598
900	-11.2598
▁And	-11.26
9,10-	-11.2601
ethan	-11.2601
isopropoxy	-11.2605
▁6.90	-11.2606
▁mediate	-11.2611
▁tartaric	-11.2615
▁assembled	-11.2617
ket	-11.262
dent	-11.2622
1,4	-11.2625
][1,3]	-11.2626
gr	-11.2627
▁6.6	-11.2628
▁−1	-11.263
▁9.8	-11.2631
▁132	-11.2633
ORa	-11.2634
▁account	-11.2634
▁139	-11.2635
(2,5-	-11.2637
pping	-11.264
▁EA	-11.2644
▁2.20	-11.2646
▁ruthenium	-11.2647
atch	-11.2648
▁rhodium	-11.2649
path	-11.2651
▁pellets	-11.2652
EG	-11.2652
▁styrene	-11.2652
▁European	-11.2653
▁pi	-11.2657
phosphorothioate	-11.2658
isoxazole	-11.2659
▁Laboratories	-11.266
▁proposed	-11.266
methylpiperazin	-11.2661
▁intestinal	-11.2662
▁poor	-11.2666
▁WT	-11.2667
▁dextran	-11.267
▁thrombin	-11.267
kinase	-11.2675
▁esterification	-11.2677
Bis	-11.2685
▁moisture	-11.2687
trifluoroethyl	-11.2691
▁Biotechnology	-11.2691
▁ischemia	-11.2695
▁aprotic	-11.2698
ture	-11.2698
▁chemokine	-11.27
▁fo	-11.27
▁1.30	-11.2704
VD	-11.2707
▁(28	-11.2707
)-1-(4-	-11.2709
▁RNAi	-11.2709
ele	-11.2711
directed	-11.2711
▁ED	-11.2714
nicotinic	-11.2714
:2)	-11.2714
▁stabilizing	-11.2719
propylene	-11.2722
▁antimicrobial	-11.2723
▁GLP	-11.2723
Benzyl	-11.2724
rating	-11.2724
ious	-11.2725
▁vs	-11.2727
sense	-11.2729
benzofuranyl	-11.273
▁8.3	-11.273
2);	-11.2731
▁mercapto	-11.2732
xylene	-11.2732
▁exact	-11.2734
▁Wis	-11.2736
▁Liquid	-11.2737
▁genotype	-11.2737
▁DI	-11.2739
▁122	-11.2744
tant	-11.2747
▁17,	-11.2748
▁Chromatography	-11.2748
▁makes	-11.2748
GAT	-11.2749
▁uniform	-11.2749
▁doublet	-11.2749
thiomethyl	-11.2749
▁130°	-11.275
5,6	-11.2752
ble	-11.2754
carbonyloxy	-11.2755
▁accession	-11.2756
▁silicate	-11.2756
[4.5]	-11.2757
▁MW	-11.2757
▁coat	-11.2761
SY	-11.2762
▁intranasal	-11.2768
▁(0.06	-11.2769
▁(0.10	-11.2772
▁oligosaccharide	-11.2772
▁pass	-11.2773
▁SR	-11.2774
GFP	-11.2777
Promega	-11.2779
▁2.9	-11.278
FU	-11.2781
ylamine	-11.2782
▁pills	-11.2783
+1]+	-11.2784
▁MMP	-11.2788
cro	-11.279
amidine	-11.2791
▁criteria	-11.2792
CMV	-11.2794
▁subjecting	-11.2795
ened	-11.2797
15°	-11.2799
▁adsorbent	-11.2799
De	-11.2801
▁macro	-11.2803
▁3.9	-11.2804
▁unmodified	-11.2807
▁3.60	-11.2808
▁Bacillus	-11.2812
▁AP	-11.2813
▁1985	-11.2814
ris	-11.2814
▁packaging	-11.2814
▁cathode	-11.2816
▁dehydrogenation	-11.2817
▁TMS	-11.2818
▁pulse	-11.2819
stabil	-11.282
ko	-11.2821
▁asparagine	-11.2824
tent	-11.2824
▁Ligand	-11.2832
▁GP	-11.2833
▁follow	-11.2833
▁integrin	-11.2835
▁get	-11.2839
ush	-11.284
ire	-11.284
▁−20°	-11.2841
▁care	-11.2844
▁states	-11.2847
▁bands	-11.2849
▁166	-11.2854
ju	-11.2856
▁oxalate	-11.2856
▁interface	-11.2861
cle	-11.2861
▁Add	-11.2867
▁metastatic	-11.2868
▁alterations	-11.287
liter	-11.287
▁anode	-11.287
▁programs	-11.2871
▁(0.15	-11.2872
▁SE	-11.2872
▁sometimes	-11.2874
22,	-11.2875
▁perfluoro	-11.2876
▁collect	-11.2881
▁chelating	-11.2881
▁Pr	-11.2881
5'-	-11.2882
▁replicate	-11.2882
▁reader	-11.2882
phosphono	-11.2884
▁1.05	-11.2885
▁AR	-11.2885
▁box	-11.2886
▁Prep	-11.2888
▁spinal	-11.2889
▁Similar	-11.2893
▁COS	-11.2893
▁methoxide	-11.2894
ophil	-11.2895
▁antioxidants	-11.29
(1,1-	-11.2901
▁containers	-11.2902
▁precise	-11.2903
Ib	-11.2903
▁incorporating	-11.2905
zyme	-11.2907
1000	-11.2911
▁7.76	-11.2912
▁1.65	-11.2913
SK	-11.2913
calc	-11.2919
▁shall	-11.2924
30°	-11.2925
▁stroke	-11.2925
fo	-11.2926
van	-11.2927
▁fluorinated	-11.2929
sensi	-11.2932
linker	-11.2933
HNMR	-11.2933
azole	-11.2934
▁dehydrogenase	-11.2934
ki	-11.2934
▁7.03	-11.2936
▁circulating	-11.2937
▁Pe	-11.2938
▁initiated	-11.2939
▁phosphonate	-11.2939
▁ter	-11.2941
▁eluate	-11.2941
▁(2.2	-11.2942
cip	-11.2943
[(4-	-11.2944
▁grow	-11.2944
▁maintenance	-11.2946
123	-11.2946
▁4.3	-11.2946
osin	-11.2947
▁ascorbic	-11.2948
gas	-11.295
▁7.36	-11.2954
▁define	-11.2957
azaspiro	-11.2957
necked	-11.2958
mat	-11.2967
ylmethoxy	-11.2968
▁comparative	-11.297
▁triphenyl	-11.2971
oxoethyl	-11.2972
und	-11.2975
▁tryptophan	-11.2976
▁inactive	-11.2977
▁monomeric	-11.298
▁heterodimer	-11.2984
▁pyrazolyl	-11.2984
▁evolution	-11.2988
▁Materials	-11.2991
[3-(	-11.2991
ING	-11.2993
rop	-11.2993
▁haloalkoxy	-11.2995
chlor	-11.2995
▁mu	-11.2995
▁Hg	-11.2997
▁Japanese	-11.2997
14-	-11.2999
▁determinant	-11.3
▁recycle	-11.3002
GTA	-11.3006
3+	-11.3007
tens	-11.3008
▁fungi	-11.3011
▁OX	-11.3011
cyte	-11.3012
ste	-11.3019
▁actual	-11.3019
Cys	-11.3024
filtration	-11.3025
aluminum	-11.3026
phosphonic	-11.3027
280	-11.3028
TCA	-11.3029
▁Peptides	-11.3031
aq	-11.3034
▁2008	-11.3037
▁transcribed	-11.3038
quinoxaline	-11.3038
▁Syn	-11.3039
{5-	-11.3041
▁thoroughly	-11.3044
▁occurred	-11.3044
▁split	-11.3046
att	-11.3046
▁polystyrene	-11.3047
▁0.14	-11.3048
LR	-11.3051
▁agitation	-11.3054
uk	-11.3055
▁3.65	-11.3055
▁7.77	-11.3058
▁eds	-11.3062
AGE	-11.3065
▁utilize	-11.3069
CoA	-11.307
(4,4,5,5-	-11.3071
▁heparin	-11.3072
▁multimer	-11.3073
2,4-	-11.3073
vastatin	-11.3076
-29	-11.3076
indan	-11.3076
AAA	-11.3078
VEGF	-11.3079
▁3.20	-11.3081
▁appreciate	-11.3083
▁polypropylene	-11.3084
natural	-11.3084
▁supplement	-11.3085
▁nine	-11.3086
FAB	-11.3087
characterization	-11.3092
▁hexafluoro	-11.3096
▁3.82	-11.3098
▁explained	-11.3099
ley	-11.31
▁2.10	-11.3107
▁7.69	-11.3108
thrombo	-11.3108
=1.2	-11.311
▁cream	-11.3113
▁polyol	-11.3117
broad	-11.3119
▁overhead	-11.3121
▁susceptible	-11.3122
▁168	-11.313
▁resist	-11.313
▁capsid	-11.3136
▁RNAs	-11.3139
▁exception	-11.3144
▁organics	-11.3148
VP	-11.3149
naphth	-11.3153
-1-(4-	-11.3154
EB	-11.3155
▁HPV	-11.3158
▁themselves	-11.3159
▁Isolation	-11.3159
CAR	-11.3159
cytidine	-11.3161
formation	-11.3162
-28	-11.3165
134	-11.3165
)-2-(2-	-11.3165
cyanophenyl	-11.3165
▁decreases	-11.3168
▁7.82	-11.3168
▁mo	-11.317
▁multiplet	-11.3172
▁engineering	-11.3177
▁suggested	-11.3177
tris	-11.318
▁atomic	-11.3181
-1-(2-	-11.3184
tide	-11.3187
▁19,	-11.319
▁lymphocyte	-11.3196
▁4-[	-11.3197
zo	-11.3198
▁physician	-11.3198
▁Oligonucleotide	-11.3201
CONR	-11.3202
▁cleave	-11.3203
wing	-11.3206
▁le	-11.3207
▁access	-11.321
▁rot	-11.3211
▁0%	-11.3215
GM	-11.3216
▁adjust	-11.3218
▁microbial	-11.3221
▁practical	-11.3225
▁rejection	-11.3232
▁0.88	-11.3233
▁antiviral	-11.3234
▁LB	-11.3236
▁neck	-11.3241
olate	-11.3242
▁safety	-11.3244
▁158	-11.3244
GCC	-11.3245
▁Cr	-11.3252
onyl	-11.3255
▁sorbitan	-11.3255
tus	-11.3258
=0	-11.3264
resistant	-11.3267
▁help	-11.3268
onitrile	-11.3272
▁u	-11.3274
uch	-11.3275
▁confer	-11.3277
▁induces	-11.3277
▁2.30	-11.3278
▁18,	-11.3282
=2.1	-11.3282
▁fitted	-11.3286
2'-	-11.3288
▁7.79	-11.3288
▁carefully	-11.329
culture	-11.3296
▁Rc	-11.3296
cine	-11.3297
benzodiazepine	-11.3297
=9.2	-11.3302
▁270	-11.3304
▁Gra	-11.3308
▁lesions	-11.3311
99%	-11.3312
▁Biological	-11.3312
▁stereo	-11.3313
▁ACN	-11.3319
amidino	-11.3319
phor	-11.3322
▁7.02	-11.3325
▁Xaa	-11.3332
ising	-11.3332
ketone	-11.3333
▁88%	-11.3338
vert	-11.334
vo	-11.334
[2.2.1]	-11.3346
/6	-11.3351
=1.6	-11.3351
▁3.88	-11.3352
isoindol	-11.3355
Ex	-11.3355
▁140°	-11.3356
COO	-11.3356
methylethyl	-11.3358
zy	-11.3361
▁impact	-11.3361
▁3.76	-11.3362
▁Depending	-11.3365
sulfonyloxy	-11.337
▁(21	-11.337
▁TE	-11.3372
▁ground	-11.3378
▁functionally	-11.3378
▁8.2	-11.3378
raw	-11.3379
quinolyl	-11.3379
▁plot	-11.3379
sulfide	-11.3381
▁3.7	-11.3381
▁190	-11.3384
▁(2001)	-11.3385
iod	-11.3385
▁aligned	-11.3386
▁Polymer	-11.3386
▁chlor	-11.3387
▁Corp	-11.3387
gi	-11.3389
▁neuronal	-11.339
▁spectrometer	-11.3391
▁pyridinyl	-11.3395
▁alkene	-11.3398
▁Into	-11.3399
▁6.98	-11.34
▁Lu	-11.3402
MG	-11.3407
▁[1	-11.3407
=5.5	-11.3408
immuno	-11.3409
▁142	-11.341
long	-11.341
▁establish	-11.3416
▁weighed	-11.3416
iti	-11.3427
▁prophylaxis	-11.3433
ras	-11.3433
amines	-11.3435
▁receive	-11.3435
▁smooth	-11.3435
iphenylphosphino	-11.3436
born	-11.3438
house	-11.3441
mine	-11.3441
▁0.18	-11.3448
-27	-11.3449
▁forward	-11.346
▁remained	-11.3462
▁named	-11.3463
rk	-11.3467
▁lane	-11.3467
▁passing	-11.3468
▁ampicillin	-11.3468
DB	-11.3469
197	-11.347
▁7.70	-11.3471
▁meso	-11.3472
▁saccharide	-11.3472
bac	-11.3477
▁flanking	-11.3477
▁compartment	-11.3478
▁report	-11.3484
enic	-11.3485
APCI	-11.3485
▁scanning	-11.3485
PRO	-11.3487
atom	-11.3488
▁entry	-11.3488
-2)	-11.3489
▁dodecyl	-11.349
▁0.35	-11.349
)-2,4-	-11.3492
unt	-11.3493
▁7.80	-11.3493
▁contemplates	-11.3494
tes	-11.35
▁germ	-11.3501
▁progeny	-11.3501
rum	-11.3502
Gibco	-11.3504
▁Standard	-11.3504
▁aspartic	-11.3512
▁0.95	-11.3512
▁Within	-11.3512
▁3.92	-11.3512
▁singlet	-11.3517
comb	-11.3518
▁(2.4	-11.352
▁pent	-11.3524
ivity	-11.3525
▁angle	-11.3526
▁prevented	-11.3526
▁leaves	-11.3527
▁pathological	-11.353
▁crosslinking	-11.3535
ected	-11.3536
▁package	-11.3539
▁biomarker	-11.3539
100%	-11.354
star	-11.354
platin	-11.3542
▁lysates	-11.3544
ux	-11.3544
▁KOH	-11.3546
▁dia	-11.3552
alkane	-11.3554
▁deionized	-11.3556
▁1.38	-11.3558
▁silane	-11.356
▁0.13	-11.356
own	-11.3561
-6-(4-	-11.3562
▁(3.5	-11.3562
▁consumption	-11.3563
EE	-11.3565
▁7.49	-11.3566
▁circulation	-11.3569
BE	-11.3569
▁Or	-11.3573
ries	-11.3576
▁PF	-11.3576
10°	-11.3578
▁imino	-11.3579
cooling	-11.358
▁investigated	-11.3582
▁2.05	-11.3582
▁(4.0	-11.3584
3-4	-11.3585
atter	-11.3586
▁MPa	-11.3587
▁7.88	-11.3588
▁3.30	-11.3588
▁Concentration	-11.359
▁3.84	-11.3594
▁atherosclerosis	-11.3594
▁Number	-11.3597
Mo	-11.3597
comp	-11.3599
▁killing	-11.3601
methylcellulose	-11.3604
▁6-(	-11.3605
▁7.46	-11.3607
80%	-11.3607
▁currently	-11.3609
DELTA	-11.3609
][	-11.361
▁formyl	-11.3611
endo	-11.3611
▁phenylalanine	-11.3616
▁curves	-11.3616
uracil	-11.362
▁charcoal	-11.362
▁7.90	-11.3621
-[(2	-11.3624
lis	-11.3624
=2.2	-11.3625
nucleo	-11.3625
=5.2	-11.3629
molecular	-11.3635
▁(8)	-11.3637
▁Growth	-11.364
▁4.05	-11.364
▁piperidinyl	-11.3641
▁7.95	-11.3641
▁incorporate	-11.3642
▁excessive	-11.3643
418	-11.3647
▁pyrrolidine	-11.3648
[(2-	-11.365
ari	-11.3652
▁insertions	-11.3652
▁0.16	-11.3655
▁valine	-11.3655
▁DIEA	-11.3655
▁1.15	-11.3655
▁reversed	-11.3655
▁2'-	-11.3656
▁receiving	-11.3659
▁pentane	-11.3659
▁7.58	-11.3661
▁Antigen	-11.3663
▁succinate	-11.3663
▁closed	-11.3664
×2	-11.3665
▁3.81	-11.3665
▁volatiles	-11.3666
▁lactone	-11.3666
conjugate	-11.3668
▁1.44	-11.3669
IFN	-11.3669
▁carbo	-11.3671
react	-11.3673
pyrid	-11.3674
▁TF	-11.3675
▁2.60	-11.3675
▁Gln	-11.3676
▁Free	-11.3678
▁EcoRI	-11.3683
ram	-11.3685
▁localization	-11.3686
▁motifs	-11.3686
▁repair	-11.369
cutaneous	-11.3692
Formula	-11.3695
▁1.48	-11.3695
ei	-11.3696
▁lauryl	-11.3698
▁render	-11.3698
6,7	-11.3698
▁(125	-11.37
▁dextrose	-11.37
aliphatic	-11.3701
butanoic	-11.3703
diaza	-11.3704
▁Ann	-11.3705
pyrrolidone	-11.3705
▁3.86	-11.3706
arch	-11.3707
▁2.35	-11.3707
spect	-11.3708
hu	-11.3709
regulation	-11.3709
▁heterogeneous	-11.371
▁LA	-11.3711
release	-11.3711
{4-[	-11.3712
ClN	-11.3713
▁trimer	-11.3714
=2.3	-11.3714
Phenyl	-11.3719
▁3.72	-11.3723
ff	-11.3723
▁0.90	-11.3726
▁exclusion	-11.3729
▁fewer	-11.373
▁blend	-11.3731
▁stabilized	-11.3735
ENT	-11.3736
▁propane	-11.3736
IIa	-11.3738
▁methanesulfonic	-11.3738
▁colorectal	-11.3741
▁unknown	-11.3742
▁alteration	-11.3742
GEN	-11.3744
▁35°	-11.3744
▁away	-11.3745
lus	-11.3746
▁7.83	-11.3746
▁micron	-11.3746
▁5:	-11.3748
-(7-	-11.3748
▁needle	-11.375
proliferative	-11.3751
MHz	-11.3751
▁Rat	-11.3752
▁Still	-11.3756
▁Here	-11.3757
:30	-11.3759
▁compete	-11.3759
▁transplantation	-11.3759
▁fluorophore	-11.3761
▁suggesting	-11.3763
▁su	-11.3764
▁PDGF	-11.3765
▁diazo	-11.3767
▁positioned	-11.3767
▁purifying	-11.377
vascular	-11.377
▁microscope	-11.3771
▁21,	-11.3771
nicotinamide	-11.3771
dioxa	-11.3775
▁acyloxy	-11.3777
Amersham	-11.3778
▁ti	-11.3778
▁tetrahydropyran	-11.378
inol	-11.378
▁electrolyte	-11.378
MEM	-11.378
borate	-11.3781
▁termed	-11.3783
▁propionic	-11.3784
TFA	-11.3785
▁SH	-11.3786
▁urine	-11.3788
NHCH	-11.3788
▁supports	-11.379
▁2.75	-11.3794
▁tau	-11.3795
dicarboxylic	-11.3796
▁GST	-11.3797
acetylamino	-11.3797
▁1.10	-11.3797
▁Parkinson	-11.3797
▁7.81	-11.3798
cot	-11.3804
▁8.1	-11.3804
▁2-((	-11.3806
▁10.4	-11.3808
▁2.40	-11.3808
▁BoNT	-11.381
phosphino	-11.3812
▁incubating	-11.3812
▁Formulae	-11.3821
=6.7	-11.3823
KD	-11.3823
▁glacial	-11.3824
[(3-	-11.3829
anthracene	-11.383
▁Starting	-11.3832
dimethoxyethane	-11.3834
▁isomeric	-11.3834
▁lys	-11.3835
▁synthesize	-11.3836
)-1-((	-11.3837
▁pyrazinyl	-11.3838
▁Ru	-11.3839
-33	-11.3841
=5.0	-11.3842
▁7.92	-11.3842
▁2009	-11.3842
hybrid	-11.3842
▁Pharm	-11.3843
▁1.28	-11.3844
KT	-11.3845
170	-11.3845
▁hereinabove	-11.3846
▁shorter	-11.3848
▁setting	-11.3852
▁155	-11.3852
▁--(	-11.3854
▁blotting	-11.3855
▁distillate	-11.3855
▁pyrrolidinyl	-11.386
-((1	-11.386
hour	-11.386
▁rotation	-11.3869
nine	-11.387
▁GPCR	-11.3871
▁HT	-11.3871
▁fumarate	-11.3872
fluorene	-11.3872
▁750	-11.3873
▁1-5	-11.3874
103	-11.3876
▁suppression	-11.3877
omb	-11.3879
▁(0.07	-11.3882
effective	-11.3883
▁cleavable	-11.3883
▁enough	-11.3884
▁error	-11.3886
▁eluant	-11.3888
UT	-11.3889
▁article	-11.389
acc	-11.3891
▁Embodiments	-11.3891
Rf	-11.3892
purine	-11.3894
▁3.87	-11.3895
▁Cas	-11.3896
▁rec	-11.3896
▁lactate	-11.3897
▁respond	-11.3898
homo	-11.3898
▁1.32	-11.3898
▁exhibiting	-11.39
▁monkey	-11.39
▁reactors	-11.39
▁variables	-11.3901
▁Likewise	-11.3901
▁manipulation	-11.3901
▁10:1	-11.3905
▁images	-11.3905
propene	-11.3906
istic	-11.3908
▁DR	-11.3909
[1,4]	-11.391
▁humidity	-11.3911
benzophenone	-11.3911
▁taste	-11.3911
▁FA	-11.3912
▁10.3	-11.3914
▁Lab	-11.3916
▁1.37	-11.3921
▁8.00	-11.3923
▁million	-11.3923
rus	-11.3925
▁transplant	-11.3928
▁143	-11.3929
FI	-11.3931
▁2-[	-11.3931
▁toxins	-11.3934
▁discarded	-11.3938
▁reductase	-11.3939
▁7.84	-11.3943
ift	-11.3945
2-(3-	-11.3945
▁1.26	-11.3946
dioxol	-11.3946
lie	-11.3947
site	-11.3948
Preparation	-11.3949
▁retard	-11.395
▁scan	-11.3952
aa	-11.3953
▁DO	-11.3953
lam	-11.3956
▁Gr	-11.3956
3-5	-11.3958
▁3.77	-11.3958
▁schemes	-11.3959
▁responsive	-11.396
▁dsRNA	-11.396
GAG	-11.396
oh	-11.3962
range	-11.3962
aceous	-11.3963
▁degeneration	-11.3963
▁1.42	-11.3964
▁3.25	-11.3965
acryloyl	-11.3965
basic	-11.3967
▁75°	-11.3971
▁egg	-11.3971
▁hamster	-11.3975
▁mainly	-11.3975
▁vials	-11.3979
▁simply	-11.398
▁recording	-11.398
▁0.85	-11.3981
▁acts	-11.3982
ark	-11.3984
flow	-11.3986
▁169	-11.3986
▁3.15	-11.3987
formed	-11.3989
▁month	-11.3989
▁hemo	-11.3991
▁racemate	-11.3992
▁3.79	-11.3993
▁FGFR	-11.3995
▁1.95	-11.3999
▁Dosage	-11.4
▁hydroxylamine	-11.4
▁7.86	-11.4
3,3,3-	-11.4002
▁embryonic	-11.4003
▁regulated	-11.4004
▁leukocyte	-11.4004
▁phosphorylated	-11.4004
ligand	-11.4005
▁2.15	-11.4006
▁coordinate	-11.4008
benzothiazol	-11.4008
▁Gel	-11.4011
▁circular	-11.4015
▁adenocarcinoma	-11.4016
chroman	-11.4016
▁ME	-11.4017
▁6.85	-11.4017
olytic	-11.4021
▁Immun	-11.4026
▁equilibrated	-11.4026
triphenyl	-11.4027
▁2010	-11.4028
▁purine	-11.4029
▁96%	-11.4029
tetrazole	-11.4029
▁0.30	-11.4031
▁Tissue	-11.4037
▁9.9	-11.4038
LI	-11.4039
▁review	-11.4039
GCG	-11.4041
itation	-11.4044
▁2.65	-11.4044
quinazolinyl	-11.4045
▁Hydrogen	-11.4045
▁dogs	-11.4047
▁what	-11.4052
▁recover	-11.4053
▁rice	-11.4053
▁promoting	-11.4054
▁7.12	-11.4054
▁publication	-11.4055
▁4-(3-	-11.4056
cum	-11.4056
▁shell	-11.4059
▁6.7	-11.406
▁character	-11.4061
▁VP	-11.4061
trityl	-11.4063
▁drive	-11.4067
▁10.2	-11.407
-80	-11.407
▁260	-11.4071
han	-11.4072
▁8:	-11.4073
▁exists	-11.4074
▁3.83	-11.4075
▁Single	-11.4078
▁EGF	-11.4079
▁became	-11.408
▁threshold	-11.4082
serine	-11.4084
▁stoichiometric	-11.4084
(4-(4-	-11.4085
-38	-11.4086
▁taking	-11.4088
enoate	-11.4088
▁safe	-11.4091
phosphonium	-11.4093
▁pyrrolyl	-11.4096
▁6.92	-11.4097
▁namely	-11.41
▁7.87	-11.4101
▁Gu	-11.4102
▁myocardial	-11.4103
Qu	-11.4109
oxetan	-11.4116
▁herpes	-11.4118
▁Diego	-11.4123
agi	-11.4123
oxadiazole	-11.4124
▁1.46	-11.4125
▁deficiency	-11.4128
▁carbocyclyl	-11.4129
globulin	-11.4132
▁Ko	-11.4132
selective	-11.4133
Hodgkin	-11.4135
▁173	-11.4137
▁([	-11.4137
▁overlap	-11.4138
bio	-11.414
▁Aldrich	-11.414
UTR	-11.4141
▁maleate	-11.4142
lane	-11.4142
▁hybridized	-11.4143
1,2-	-11.4143
translational	-11.4143
▁adsorbed	-11.4147
script	-11.4148
▁3.94	-11.4148
▁dehydration	-11.4148
(2,3-	-11.4149
▁1.36	-11.4154
▁fumaric	-11.4156
▁Mc	-11.4157
genesis	-11.4163
-4,5,6,7-	-11.4163
=2.5	-11.4164
idyl	-11.4164
▁Four	-11.4165
▁nucleosides	-11.4165
▁liquids	-11.4167
▁moderate	-11.4171
otropic	-11.4173
▁intestine	-11.4176
▁IM	-11.4177
otic	-11.4177
▁0.000	-11.418
▁(1:1	-11.4182
COR	-11.4182
▁horse	-11.4184
▁0.50	-11.4185
▁4.20	-11.4186
▁baculovirus	-11.4191
cross	-11.4195
▁uL	-11.4198
imidazolidin	-11.4198
(2-((	-11.4199
▁3.89	-11.4199
▁(2.3	-11.42
amb	-11.42
▁87%	-11.4204
▁velocity	-11.4209
▁6.96	-11.4211
▁stretch	-11.4211
▁late	-11.4212
126	-11.4213
lactone	-11.4215
color	-11.4216
▁GenBank	-11.4217
view	-11.4224
▁conformational	-11.4227
▁2.90	-11.4228
ulate	-11.4228
▁extremely	-11.4229
▁5-10	-11.423
▁diastereomeric	-11.4232
▁22,	-11.4233
▁CNS	-11.4233
▁LD	-11.4236
[2.2.2]	-11.4237
3)3	-11.4237
ace	-11.4245
phenylboronic	-11.4246
▁3.98	-11.4246
Gene	-11.4248
nes	-11.425
vinylpyrrolidone	-11.4251
133	-11.4251
▁his	-11.4253
ico	-11.4255
▁liters	-11.4262
iga	-11.4262
▁MAb	-11.4263
onal	-11.4263
▁159	-11.4263
▁(1983)	-11.4266
▁pig	-11.4266
▁ligase	-11.4268
▁3.73	-11.4269
▁900	-11.427
▁40%,	-11.4272
▁(22	-11.4273
▁disrupt	-11.4274
rub	-11.4274
▁Methanol	-11.4275
▁tautomer	-11.4277
▁indicator	-11.4278
▁LPS	-11.4279
▁machine	-11.428
▁7.08	-11.4281
▁delayed	-11.4284
VR	-11.4286
▁(0.08	-11.4286
rp	-11.4286
=5.4	-11.4287
anilide	-11.4287
▁pathogen	-11.4291
▁transcripts	-11.4293
▁cc	-11.4293
lib	-11.4297
3)2,	-11.4298
But	-11.4299
▁transient	-11.43
▁7.7	-11.43
▁sulfone	-11.43
▁Do	-11.4301
▁films	-11.4302
▁earlier	-11.4304
▁proteases	-11.4306
▁toward	-11.4307
-2'-	-11.4307
-31	-11.4308
Qiagen	-11.4309
▁dicyclohexyl	-11.4309
▁Animals	-11.4314
▁3.93	-11.4315
▁dual	-11.4315
▁4.25	-11.4317
▁amplify	-11.4321
▁electric	-11.4321
▁geometric	-11.4322
▁89%	-11.4323
bb	-11.4324
▁0.24	-11.4328
hist	-11.4328
▁4.10	-11.4333
ATP	-11.4335
GGG	-11.4336
▁Scientific	-11.434
ech	-11.434
▁derivatized	-11.4342
▁RSV	-11.4343
260	-11.4344
▁lupus	-11.4345
▁lysed	-11.4345
ential	-11.4346
▁6.97	-11.435
▁HSV	-11.4351
▁visible	-11.4355
145	-11.4356
▁enables	-11.4357
▁methotrexate	-11.4358
▁0.11	-11.4359
▁volatile	-11.436
▁possibility	-11.4363
▁alleles	-11.4363
▁Des	-11.4364
▁Ka	-11.4366
▁3.68	-11.4369
micro	-11.437
▁alkylsulfonyl	-11.4371
EQU	-11.4373
PY	-11.4373
▁living	-11.4373
Roche	-11.4374
▁technical	-11.4376
▁What	-11.4376
▁embryo	-11.4376
row	-11.4377
-26	-11.4377
▁3.96	-11.4379
KL	-11.4379
▁3.74	-11.438
▁6.99	-11.4381
▁cytosine	-11.4381
×105	-11.4384
▁Prot	-11.4387
▁clay	-11.4388
▁3.45	-11.4388
amid	-11.4389
▁waste	-11.439
▁regulator	-11.439
▁2007	-11.4391
▁Electro	-11.4397
▁ultraviolet	-11.4399
dimethylethyl	-11.44
▁CT	-11.4405
-[2	-11.4406
▁varies	-11.4409
▁Primer	-11.441
▁basal	-11.441
▁adhesive	-11.441
▁1.24	-11.441
▁Ring	-11.4414
3'	-11.4414
▁press	-11.4415
▁cyclization	-11.4416
▁Class	-11.4418
▁nitrite	-11.4422
▁cDNAs	-11.4423
diazepin	-11.4424
acetophenone	-11.4425
point	-11.4426
▁1.43	-11.4427
▁incubator	-11.4428
phthalic	-11.4428
olefin	-11.443
▁hydrates	-11.4431
[[(	-11.4432
▁repeating	-11.4443
▁alkoxide	-11.4444
▁2.28	-11.4444
▁8.05	-11.4445
high	-11.4445
▁72°	-11.4445
▁2011	-11.4447
▁86%	-11.445
▁1.85	-11.445
▁1.33	-11.445
▁7.89	-11.4452
▁calculation	-11.4454
▁1.23	-11.4458
127	-11.4459
▁3,3-	-11.4459
producing	-11.446
▁inactivated	-11.446
▁Hal	-11.4461
▁aberrant	-11.4462
▁fluorescein	-11.4462
▁bivalent	-11.4462
▁164	-11.4465
▁arrangement	-11.4467
▁regression	-11.4467
▁polyacrylamide	-11.4469
▁furan	-11.4469
▁glutamate	-11.447
▁coloring	-11.447
methylpiperidin	-11.4472
▁2.95	-11.4473
▁0.01%	-11.4478
▁depression	-11.4481
▁30%,	-11.4482
▁tobacco	-11.4485
▁capillary	-11.4488
▁-20°	-11.4488
▁oligomeric	-11.4494
LK	-11.4497
▁Elemental	-11.4498
▁vaginal	-11.4498
▁maximal	-11.45
-5-(4-	-11.45
▁agitated	-11.4503
▁methodology	-11.4504
GI	-11.4506
▁artery	-11.4507
-2-(1-	-11.4507
▁nutrient	-11.4509
aker	-11.4514
▁feeding	-11.4515
▁Japan	-11.4517
}-3-	-11.452
▁Without	-11.4525
-[(4-	-11.4526
▁ox	-11.4529
▁kinds	-11.4531
▁transformants	-11.4534
nitr	-11.4537
▁pigs	-11.4538
CX	-11.4538
ula	-11.454
2)3	-11.454
▁excitation	-11.4545
miscible	-11.4548
lit	-11.4552
TTC	-11.4554
EST	-11.4556
PEA	-11.456
epoxy	-11.4561
activation	-11.4562
sel	-11.4562
6%).	-11.4564
-36	-11.4564
▁XRPD	-11.4564
▁glycerin	-11.4564
▁aldehydes	-11.4564
▁Collection	-11.4564
▁packaged	-11.4565
▁operated	-11.4567
-1,3,5-	-11.4568
▁silicone	-11.4572
▁hydrobromide	-11.4572
▁hybridomas	-11.4573
▁borate	-11.4573
▁bead	-11.4573
▁85°	-11.4574
glycolic	-11.4577
▁1.27	-11.4577
▁0.005	-11.4578
▁isotopes	-11.4579
▁heterocyclo	-11.4579
▁Institute	-11.4583
▁alternate	-11.4583
▁3.10	-11.4587
▁profiles	-11.4588
)-5	-11.4592
▁#1	-11.4593
bR	-11.4594
▁153	-11.4594
▁translational	-11.4595
▁relation	-11.4595
▁3.91	-11.4599
glycol	-11.46
▁IT	-11.4601
{4-[(	-11.4601
▁6.80	-11.4604
▁Sequences	-11.4607
▁172	-11.461
▁actin	-11.4611
▁putative	-11.4612
▁overlapping	-11.4613
▁0.2%	-11.4615
▁enantiomeric	-11.4619
▁terminator	-11.4619
▁guide	-11.4619
▁3-(3-	-11.4621
cillin	-11.4623
▁classified	-11.4623
▁impart	-11.4629
▁eliminated	-11.4629
▁twenty	-11.463
LU	-11.463
uric	-11.4631
:40	-11.4631
▁154	-11.4632
▁boost	-11.4637
▁glutathione	-11.4638
▁reductive	-11.4638
▁4.15	-11.4639
▁transparent	-11.4641
-{3-	-11.4642
▁Ox	-11.4645
▁dementia	-11.4646
▁aureus	-11.4646
-5-(3-	-11.4648
graph	-11.4648
▁Cyto	-11.4651
butyllithium	-11.4653
BF	-11.4654
hydride	-11.4654
▁immunoassay	-11.4655
▁environmental	-11.4662
▁2.80	-11.4667
▁cord	-11.4669
eri	-11.467
COOR	-11.4676
▁transcriptase	-11.4678
▁7.01	-11.4682
AV	-11.469
▁KCl	-11.469
▁Techniques	-11.4694
▁1.47	-11.4696
▁sheep	-11.4697
vac	-11.4697
▁miRNA	-11.47
▁pan	-11.4701
▁PNA	-11.4704
Pharmaceutically	-11.4706
▁finger	-11.4708
other	-11.471
▁2.32	-11.4711
▁sequential	-11.4715
▁mAbs	-11.4716
metal	-11.4717
▁ocular	-11.4719
▁'	-11.4719
▁attack	-11.4723
▁1.22	-11.4725
▁4:1	-11.4727
-01	-11.4729
:25	-11.4731
▁clearance	-11.4731
▁stearic	-11.4731
ria	-11.4732
▁0.17	-11.4734
cort	-11.474
▁aluminium	-11.474
▁hosts	-11.4741
▁Biotech	-11.4743
wi	-11.4743
▁1500	-11.4744
itor	-11.4748
]+;	-11.4749
TLC	-11.4749
▁substitute	-11.4751
▁output	-11.4753
▁Mouse	-11.4754
▁sperm	-11.4754
-3-(1-	-11.4755
▁7.9	-11.4755
138	-11.4755
cytes	-11.4758
▁6.88	-11.4759
▁deprotected	-11.4761
▁2.70	-11.4762
▁helix	-11.4763
▁Formulation	-11.4766
[4-(2-	-11.4768
▁2.55	-11.4768
▁heteroaromatic	-11.4773
▁(2002)	-11.4775
▁representing	-11.4775
▁1.39	-11.4775
tan	-11.4776
▁oxalic	-11.4777
DMF	-11.478
▁NHC	-11.478
▁recovering	-11.4784
)-4,5-	-11.4786
▁250°	-11.4786
▁(60%	-11.4788
-34	-11.4794
▁hypervariable	-11.4796
▁7.93	-11.4796
▁7.06	-11.4798
▁affording	-11.48
▁aliquots	-11.4801
▁rabbits	-11.4801
uron	-11.4802
sulphonic	-11.4802
▁Note	-11.4802
ala	-11.4803
-2-(3-	-11.4804
traperitoneally	-11.4807
▁3.35	-11.481
▁ADCC	-11.4812
▁filtering	-11.4813
▁oxazolyl	-11.4814
▁coronary	-11.4815
▁180°	-11.4817
▁cognitive	-11.482
▁3:1	-11.4822
▁serves	-11.4823
▁indicative	-11.4823
succin	-11.4824
▁path	-11.4825
▁labelled	-11.4825
▁6.93	-11.4827
microcrystalline	-11.4828
▁indolyl	-11.483
▁triplet	-11.4831
▁Ge	-11.4831
-2(	-11.4833
▁pot	-11.4833
▁quin	-11.4833
▁homologue	-11.4837
▁resolved	-11.4837
sub	-11.4839
thy	-11.4844
4%).	-11.4847
▁operations	-11.4847
003	-11.485
indolyl	-11.485
spers	-11.4851
▁1-6	-11.4851
▁nanoparticle	-11.4853
▁Hep	-11.4853
Thi	-11.4854
▁concept	-11.4857
▁electronic	-11.4858
olic	-11.4859
=15	-11.4862
emo	-11.4863
▁Clone	-11.4863
ove	-11.4864
thiazolo	-11.4865
▁MT	-11.4866
-[(3	-11.4866
▁rare	-11.4866
succinimidyl	-11.4869
▁imidazo	-11.4871
▁ZSM	-11.4878
Nitro	-11.488
▁input	-11.4881
▁8.03	-11.4882
vin	-11.4882
▁words	-11.4883
▁oligopeptide	-11.4884
ECT	-11.4887
lum	-11.4888
▁infrared	-11.4889
▁aza	-11.4892
uck	-11.4892
imido	-11.4897
▁fibroblasts	-11.49
inden	-11.4901
▁viable	-11.4903
bromide	-11.4904
sum	-11.4906
sk	-11.4908
▁terminated	-11.4911
230	-11.4911
▁colitis	-11.4911
▁equimolar	-11.4913
▁ulcer	-11.4915
▁Pseudomonas	-11.4921
mM	-11.4922
▁23,	-11.4922
thal	-11.4922
dermal	-11.4923
198	-11.4924
▁PREPARATION	-11.4924
▁potato	-11.4924
▁Ir	-11.4926
1-7	-11.4927
oph	-11.4927
▁myeloid	-11.4928
▁FT	-11.493
▁trap	-11.4934
▁3.71	-11.4936
)+:	-11.4937
NRc	-11.4942
▁sex	-11.4944
▁7.98	-11.4947
▁closely	-11.4951
▁optimum	-11.4951
▁acylation	-11.4953
▁pancreas	-11.4954
▁1.34	-11.4954
[1-(2-	-11.4955
10%	-11.4956
▁NaBH	-11.496
▁newly	-11.496
▁majority	-11.4961
▁8.02	-11.4962
▁Enzyme	-11.4963
▁rac	-11.4963
▁bacterium	-11.4965
stream	-11.4965
mimetic	-11.497
▁pol	-11.497
▁161	-11.4971
▁immunity	-11.4973
FF	-11.4973
▁fibro	-11.4975
▁cosmetic	-11.4976
=5.7	-11.4977
▁Super	-11.4979
-3,6-	-11.498
▁def	-11.4982
leu	-11.4982
▁refluxing	-11.4983
▁12.0	-11.4987
▁delta	-11.4987
▁DMAP	-11.499
VE	-11.4998
▁4.03	-11.5
▁Said	-11.5003
▁ovary	-11.5003
cus	-11.5011
▁monocytes	-11.5013
115	-11.5015
▁0.92	-11.5015
ACA	-11.5015
cat	-11.5018
▁Louis	-11.5023
galactosidase	-11.5025
▁3.67	-11.5026
▁Triton	-11.5027
▁10.1	-11.5028
▁215	-11.5028
▁cavity	-11.5028
▁necrosis	-11.5028
▁Aqueous	-11.5034
catalyst	-11.504
=6.2	-11.5042
▁15°	-11.5043
ump	-11.5045
▁requirements	-11.5046
esters	-11.5046
▁glucagon	-11.5048
8%).	-11.5048
ectin	-11.5051
▁proportions	-11.5053
▁syrups	-11.5055
therapeutic	-11.5058
▁helper	-11.5058
▁4.02	-11.506
idium	-11.5061
▁calcined	-11.5061
(4,4-	-11.5062
▁MH	-11.5063
▁XII	-11.5063
▁Ile	-11.5064
▁3.97	-11.5064
▁assessment	-11.5065
sphere	-11.5066
▁Polypeptides	-11.5066
▁alkylated	-11.5068
▁trialkyl	-11.5073
▁propionate	-11.5073
neck	-11.5074
▁envelope	-11.5075
▁Biosciences	-11.5078
lithium	-11.5081
dioxan	-11.5082
izable	-11.5083
data	-11.5088
▁surgical	-11.5092
plex	-11.5093
▁Academic	-11.5094
)-9-	-11.5097
▁0.28	-11.5098
▁2.18	-11.5101
▁Dec	-11.5102
▁functionalized	-11.5103
▁2.33	-11.5103
▁kappa	-11.5106
MV	-11.5107
▁SUMMARY	-11.5109
▁molybdenum	-11.5109
▁polyadenylation	-11.5109
pril	-11.5109
▁0.23	-11.511
▁cAMP	-11.5111
▁diagnosed	-11.5111
190	-11.5112
ART	-11.5113
225	-11.5113
▁databases	-11.5113
▁rich	-11.5114
▁3.05	-11.5115
▁pages	-11.5116
-[5-	-11.5117
▁phosphatidyl	-11.5118
▁imine	-11.5118
▁microscopy	-11.512
UL	-11.5121
▁1.41	-11.5121
▁acacia	-11.5123
▁Design	-11.5123
▁branch	-11.5123
saccharide	-11.5125
=1.0	-11.5131
▁fabric	-11.5132
test	-11.5136
▁ADC	-11.5136
▁hormones	-11.5138
▁octyl	-11.5139
uring	-11.514
tau	-11.5143
▁Opti	-11.5148
)-4-(4-	-11.5149
▁adjusting	-11.5149
▁DTT	-11.515
▁beginning	-11.5151
tuzumab	-11.5151
▁3.58	-11.5151
-(2,3-	-11.5151
called	-11.5152
▁Modified	-11.5153
▁sweetening	-11.5153
▁225	-11.5154
diisopropylethyl	-11.5155
cold	-11.5155
▁0.98	-11.5155
▁splicing	-11.5156
▁link	-11.5157
▁CaCl	-11.5158
▁6.75	-11.5161
▁8.10	-11.5161
MW	-11.5163
▁monitor	-11.5165
3,4-	-11.5167
7%).	-11.517
((2-(	-11.5172
▁bile	-11.5173
135	-11.5175
(4)	-11.5178
2/0	-11.518
▁177	-11.518
nol	-11.5181
▁2.85	-11.5183
:21	-11.5184
propylamino	-11.5187
▁7.91	-11.5188
▁SK	-11.5189
235	-11.5191
)-3-(2-	-11.5192
▁tags	-11.5193
▁BD	-11.5193
▁progenitor	-11.5195
▁CCL	-11.5199
▁HBV	-11.5204
▁6.94	-11.5207
▁phosphodiester	-11.5207
▁appearance	-11.5207
▁buffering	-11.5208
:13	-11.5213
196	-11.5213
▁Md	-11.5214
trin	-11.5218
▁(5-	-11.5219
alumina	-11.5222
▁167	-11.5223
▁(2.6	-11.5228
pot	-11.5228
▁bicyclo	-11.5228
▁SNP	-11.523
▁ointments	-11.523
ACT	-11.5231
▁washes	-11.5232
▁Gen	-11.5232
90°	-11.5234
▁IP	-11.5235
pol	-11.5237
▁stainless	-11.5238
(4-((	-11.5241
CTG	-11.5242
▁163	-11.5242
▁methanesulfonyl	-11.5243
▁141	-11.5244
▁pyrazole	-11.5246
[1-(4-	-11.5249
▁Ib	-11.525
▁maize	-11.5255
▁preservative	-11.5255
▁anemia	-11.5255
▁0.89	-11.5255
▁2.38	-11.5257
FT	-11.526
glycerol	-11.5261
▁Tetrahedron	-11.5264
▁Green	-11.5266
▁merely	-11.5269
▁BamHI	-11.5273
▁3.63	-11.5274
▁hepta	-11.5275
/20	-11.5276
wt	-11.5278
▁started	-11.5279
▁flo	-11.5282
▁Publishing	-11.5283
angiogenic	-11.5283
▁retinal	-11.5284
▁map	-11.5284
▁thought	-11.5285
▁teachings	-11.5287
▁constitutive	-11.5288
▁powdered	-11.529
▁regulating	-11.529
▁interval	-11.5291
▁plug	-11.5291
▁0.26	-11.5294
▁fruit	-11.5294
▁Crystal	-11.5296
▁expansion	-11.5297
NV	-11.53
]−	-11.5302
4-(3,4-	-11.5302
bp	-11.5303
▁estrogen	-11.5304
▁ret	-11.5307
▁Cry	-11.5307
ocal	-11.5308
▁dispersions	-11.5308
tract	-11.531
×50	-11.5311
▁PDE	-11.5312
,6,7,8	-11.5313
▁opening	-11.5314
▁National	-11.5314
ara	-11.5314
lk	-11.5316
▁Hydro	-11.5317
▁7.94	-11.5318
▁normalized	-11.5318
▁tricyclic	-11.532
quinone	-11.5324
hydrazino	-11.5325
▁arranged	-11.5325
benzopyran	-11.5327
eurodegenerative	-11.5328
▁7.96	-11.533
small	-11.5331
▁undesired	-11.5331
▁Gal	-11.5331
165	-11.5337
bil	-11.5337
stitut	-11.5339
therapy	-11.5339
▁chemicals	-11.5344
▁homolog	-11.5344
[1,3]	-11.5347
▁junction	-11.5348
)-1-(2-	-11.535
▁IA	-11.5352
ovirus	-11.5353
Substituted	-11.5354
specifically	-11.5357
▁morpholinyl	-11.5358
▁162	-11.5359
▁PP	-11.5359
▁bacteriophage	-11.5362
▁lipophilic	-11.5363
▁hence	-11.5366
oids	-11.5367
▁returned	-11.5368
Dihydro	-11.5371
1,2,3	-11.5373
benzylamine	-11.5374
{[(	-11.5376
transfected	-11.5377
▁3.69	-11.5378
weight	-11.5381
=5.1	-11.5382
idone	-11.5384
▁(27	-11.5385
▁finely	-11.5386
128	-11.5387
▁compressed	-11.5389
exin	-11.5389
molar	-11.5391
▁serial	-11.5391
Benzyloxy	-11.5393
EK	-11.5393
▁Homo	-11.5393
ital	-11.5393
oxyethyl	-11.5393
▁acquired	-11.5395
AMP	-11.5396
▁hemoglobin	-11.5397
▁polymerizable	-11.5398
▁streams	-11.5401
▁lignin	-11.5403
▁3000	-11.5405
▁Evaluation	-11.5405
▁Wash	-11.5408
▁destroy	-11.5408
=1.7	-11.5411
▁2.08	-11.5413
▁strip	-11.5414
iff	-11.5414
solution	-11.5415
▁spectral	-11.5416
▁isoleucine	-11.5418
▁polymorphic	-11.5419
▁analysed	-11.542
▁3.99	-11.542
+/−	-11.542
▁transporting	-11.5421
▁3.66	-11.5421
set	-11.5422
▁Mixture	-11.5423
▁Illustrative	-11.5425
▁centers	-11.5428
▁oxidase	-11.5429
purified	-11.5433
ering	-11.5435
▁3.62	-11.5435
▁match	-11.5436
▁300°	-11.5436
Acet	-11.5444
AX	-11.5447
▁altering	-11.5448
▁parameter	-11.5448
▁2.22	-11.545
▁Fusion	-11.5451
▁(1.9	-11.5452
▁Even	-11.5456
▁2.36	-11.5457
▁94%,	-11.546
▁piperazinyl	-11.5462
▁sieves	-11.5463
difluoromethoxy	-11.5468
▁discovery	-11.5469
▁Construction	-11.5469
▁covered	-11.547
▁1.18	-11.547
elin	-11.547
▁stabilizer	-11.5471
▁10.6	-11.5471
:16	-11.5471
3%).	-11.5472
,5,6-	-11.5473
ges	-11.5483
ologic	-11.5484
using	-11.5484
omic	-11.5484
▁infarction	-11.5486
▁Fig	-11.5487
▁6.89	-11.5487
▁AG	-11.5487
bridge	-11.5488
▁height	-11.5489
▁157	-11.5491
▁(10.0	-11.5492
▁item	-11.5492
clone	-11.5494
▁recombinantly	-11.5496
▁osteo	-11.5496
▁0.33	-11.5499
To	-11.55
▁Eur	-11.55
240	-11.5501
organic	-11.5503
hexan	-11.5504
▁glycosylated	-11.5506
▁bioavailability	-11.5506
▁FAB	-11.5507
6′	-11.5508
▁transfect	-11.5508
methanamine	-11.551
BLAST	-11.5517
mustine	-11.5517
▁Section	-11.5518
▁adopt	-11.5518
-2,3	-11.5519
styrene	-11.552
▁synergistic	-11.5521
▁preference	-11.5522
▁Inter	-11.5524
▁Analytical	-11.5527
▁serotype	-11.5527
TAT	-11.553
dioxolan	-11.5531
▁ribosome	-11.5532
▁(0.12	-11.5535
▁load	-11.5536
ener	-11.5538
▁peri	-11.5538
▁admixed	-11.5538
▁cerevisiae	-11.5538
▁expanded	-11.5539
▁text	-11.5542
▁hydrogel	-11.5543
▁Sta	-11.5544
▁Formulas	-11.5547
▁4.12	-11.5548
rat	-11.5549
▁cer	-11.555
CAS	-11.5555
▁1.98	-11.5557
mission	-11.5558
▁numerical	-11.5559
▁LRMS	-11.5559
oxime	-11.5559
▁Northern	-11.5562
▁MM	-11.5564
▁usage	-11.5565
▁1.49	-11.5565
234	-11.5565
=5.8	-11.5566
▁Apo	-11.5569
ott	-11.557
▁steroid	-11.5571
PF	-11.5571
▁195	-11.5573
▁cotton	-11.5573
▁uracil	-11.5575
arginine	-11.5576
▁consumed	-11.5577
▁conventionally	-11.5579
isolated	-11.558
▁Genes	-11.5581
▁83%	-11.5581
▁auxiliary	-11.5582
anilino	-11.5583
′′-	-11.5584
plate	-11.5586
tur	-11.5586
▁statistically	-11.5587
RTM	-11.5593
][1,2,4]	-11.5594
-1-(3-	-11.5603
XVII	-11.5604
XIII	-11.5604
dien	-11.5605
▁lubricant	-11.5609
▁Jun	-11.561
▁ubiquitin	-11.5613
▁0.94	-11.5614
▁sta	-11.5615
▁lac	-11.5621
▁4.30	-11.5623
▁6.86	-11.5626
meta	-11.5628
▁1.56	-11.5631
▁1.29	-11.5633
▁creams	-11.5635
▁adenosine	-11.5637
▁384	-11.5638
▁RNase	-11.5638
idase	-11.564
▁mask	-11.564
▁thiophene	-11.5643
aria	-11.5644
▁thymidine	-11.5647
▁fillers	-11.5649
▁ear	-11.5651
anisole	-11.5652
▁flav	-11.5654
chlorobenzyl	-11.5655
worm	-11.5656
stage	-11.5656
▁3.64	-11.5657
▁standing	-11.5666
xanth	-11.5668
▁(11)	-11.5671
▁reveal	-11.5671
adamantyl	-11.5673
▁heteroarylalkyl	-11.5676
▁healing	-11.5676
▁Second	-11.5678
TTT	-11.568
octa	-11.5683
▁6.87	-11.5683
▁dialysis	-11.5685
▁simultaneous	-11.5685
TD	-11.569
▁curing	-11.5693
phosphoric	-11.5695
cla	-11.5696
-50%	-11.5699
An	-11.5701
▁ease	-11.5702
▁kill	-11.5703
▁harvest	-11.5704
enzyme	-11.5708
▁affecting	-11.5709
anion	-11.5711
▁localized	-11.5713
▁diastereomer	-11.572
▁competition	-11.572
▁diastereoisomer	-11.572
▁1.68	-11.5721
▁nucleophilic	-11.5726
▁CMV	-11.5727
-{2-	-11.5728
▁mitochondrial	-11.5729
▁Description	-11.5729
alo	-11.5735
▁1:2	-11.5736
ural	-11.5739
tub	-11.5739
-4'-	-11.574
▁Gram	-11.574
▁elsewhere	-11.5744
▁0.19	-11.5744
▁DSC	-11.5745
▁guanidine	-11.5747
9%).	-11.5747
sarcoma	-11.5748
4'-	-11.5749
bottomed	-11.575
▁appeared	-11.5751
▁seal	-11.5752
▁tautomers	-11.5753
▁alginate	-11.5753
▁4.08	-11.5753
▁exert	-11.5755
▁immunoprecipit	-11.5755
▁great	-11.5755
-1,3	-11.5756
▁Different	-11.5756
▁coagulation	-11.5756
▁intradermal	-11.5756
hydrochloride	-11.5757
▁1.78	-11.5757
▁2.17	-11.5759
▁3.18	-11.5763
▁alk	-11.5766
onin	-11.5767
▁82%	-11.5768
▁translated	-11.5768
imid	-11.5769
benzenesulfonate	-11.577
propanoyl	-11.5773
▁AIDS	-11.5774
′-(	-11.5774
▁vent	-11.5776
4-(3-	-11.5778
▁aceto	-11.5778
alkoxycarbonyl	-11.5778
▁6.91	-11.578
coagul	-11.578
▁prolonged	-11.5781
aminopropyl	-11.5781
175	-11.5781
▁Retention	-11.5783
▁160°	-11.5784
▁inactivation	-11.5784
▁scintillation	-11.5785
▁tragacanth	-11.5785
1.25	-11.5788
AAG	-11.5788
▁Gradient	-11.5788
▁microns	-11.5788
▁positively	-11.5789
▁live	-11.5791
70%	-11.5792
ova	-11.5793
▁medicine	-11.5794
[5,4-	-11.5797
▁dimethylamino	-11.5805
adin	-11.5809
▁6.84	-11.5809
▁discrete	-11.5809
▁PCSK	-11.581
▁chelate	-11.581
=1.9	-11.581
▁2.12	-11.5811
▁8.04	-11.5812
▁Ham	-11.5812
▁miR	-11.5814
pentenyl	-11.5814
azepine	-11.5814
▁7.99	-11.5815
arm	-11.5816
▁2.02	-11.5816
▁topically	-11.5816
▁8.08	-11.5818
Ile	-11.5818
▁2.16	-11.5818
(7-	-11.5819
propanamide	-11.5822
▁ethylenediamine	-11.5822
▁IB	-11.5822
▁crop	-11.5823
▁significance	-11.5824
002	-11.5827
▁evident	-11.5827
▁thermometer	-11.5831
trade	-11.5832
▁date	-11.5834
116	-11.5836
▁kD	-11.5836
▁HeLa	-11.5836
TCT	-11.5842
▁91%,	-11.5848
▁Oct	-11.5848
▁methylation	-11.5849
▁tRNA	-11.5851
▁proceeds	-11.5853
▁4,5-	-11.5854
▁coefficient	-11.5855
▁Salt	-11.5857
▁met	-11.5857
▁glyc	-11.5858
▁ii	-11.586
322	-11.586
▁withdrawn	-11.586
▁methylcellulose	-11.5861
▁Ausubel	-11.5863
ocyanin	-11.5868
▁carbohydrates	-11.587
▁Measurement	-11.5872
▁reason	-11.5874
▁vertebrate	-11.5875
peptides	-11.5877
0-6	-11.5879
254	-11.588
▁easy	-11.5881
ional	-11.5881
▁tetracycline	-11.5883
▁particulate	-11.5886
▁3.57	-11.5889
▁loci	-11.589
▁combinatorial	-11.589
▁condensing	-11.589
▁deoxy	-11.5891
▁Medium	-11.5891
▁(9)	-11.5893
{3-	-11.5893
KG	-11.5893
▁isothiocyanate	-11.5896
arin	-11.5898
245	-11.5898
▁23°	-11.5899
propylamine	-11.5903
▁2.34	-11.5903
-3-[(	-11.5905
pass	-11.5906
▁White	-11.5908
▁cyst	-11.5909
▁2.27	-11.5912
▁(1980)	-11.5912
▁routinely	-11.5913
decahydro	-11.5914
▁1.62	-11.5914
TRA	-11.5915
Rh	-11.5915
strom	-11.5919
119	-11.5921
▁mesylate	-11.5922
▁0.40	-11.5922
▁8.06	-11.5923
▁unwanted	-11.5924
ck	-11.5925
▁4.18	-11.5927
▁6.83	-11.5929
▁dermatitis	-11.593
▁0.96	-11.593
IIb	-11.5935
▁3.42	-11.5937
▁hybridizes	-11.5937
▁stain	-11.5938
IIIa	-11.5938
▁semiconductor	-11.5939
▁genus	-11.5939
▁Biophys	-11.5939
▁Dia	-11.594
thiadiazole	-11.5941
-[(2-	-11.5943
▁amido	-11.5946
Cell	-11.5946
7.40	-11.5948
▁regenerated	-11.5952
▁320	-11.5952
ethylenediamine	-11.5954
▁retains	-11.5954
HER	-11.5956
pentanoic	-11.5957
▁0.32	-11.5957
▁BP	-11.5957
version	-11.5958
▁Isomer	-11.5958
imate	-11.5959
▁1.21	-11.5959
▁successfully	-11.5965
sulfur	-11.5965
▁0.87	-11.5968
-4-(1-	-11.5969
methano	-11.5974
195	-11.5974
▁Ver	-11.5976
-[4-(2-	-11.5981
▁buccal	-11.5981
Stratagene	-11.5984
ATION	-11.5984
▁favor	-11.5986
▁fusions	-11.5987
oro	-11.5994
▁exo	-11.5995
dppf	-11.5996
urin	-11.5999
▁3.12	-11.6005
GlcNAc	-11.6005
▁irradiated	-11.6005
oul	-11.6009
▁experimentation	-11.6011
ethoxymethyl	-11.6011
▁cracking	-11.6012
▁0.27	-11.6013
hydroxyl	-11.6013
mount	-11.6013
lev	-11.6015
▁(0.20	-11.6015
▁2.23	-11.6016
▁8.01	-11.6016
▁1.31	-11.602
▁Combination	-11.6021
▁Wal	-11.6022
▁come	-11.6024
▁Determination	-11.6024
▁Serum	-11.6024
▁apply	-11.6025
stat	-11.6025
▁edition	-11.6027
total	-11.6028
rot	-11.6029
1%).	-11.6029
▁focus	-11.603
thiazolidin	-11.603
▁Therapy	-11.6036
▁0.93	-11.6036
▁330	-11.6037
▁LDL	-11.6037
aze	-11.6038
▁consisted	-11.6038
▁oxalyl	-11.6042
▁dust	-11.6044
▁isoforms	-11.6045
▁Screening	-11.6048
▁entity	-11.6048
pression	-11.6049
-[2-[	-11.605
prot	-11.605
-[2-(2-	-11.6053
naphthyridine	-11.6055
▁8.12	-11.6058
▁May	-11.6059
(5)	-11.606
serv	-11.6061
▁LT	-11.6062
▁2-(5-	-11.6062
nis	-11.6063
▁NRc	-11.6065
▁2.04	-11.6065
▁2.26	-11.6066
▁1.58	-11.6066
▁octa	-11.6066
▁night	-11.6067
▁circ	-11.6068
▁2.24	-11.6068
Cyclopropyl	-11.6068
0.01	-11.6071
▁burn	-11.6071
▁Grignard	-11.6073
actin	-11.6074
choline	-11.6075
▁differs	-11.6076
▁biology	-11.6077
▁cured	-11.6078
plast	-11.6078
▁2.14	-11.6081
etro	-11.6083
GGA	-11.6084
▁status	-11.6085
▁purify	-11.6086
,2′-	-11.609
▁8.15	-11.6091
[3-(2-	-11.6092
available	-11.6092
chloroethyl	-11.6094
▁7.97	-11.6095
▁3.38	-11.6099
▁par	-11.6099
rim	-11.6099
{1	-11.6101
ref	-11.6101
GGC	-11.6102
:17	-11.6102
Fv	-11.6104
▁ischemic	-11.6104
sulfonylamino	-11.6107
▁4.01	-11.6107
▁Blue	-11.6107
▁azido	-11.6108
▁attempt	-11.611
▁sterilized	-11.611
oic	-11.6111
XII	-11.6112
▁alicyclic	-11.6119
ethylenedioxy	-11.612
▁recently	-11.6121
▁2.62	-11.6123
▁transferase	-11.6123
2%).	-11.6123
005	-11.6124
▁3.52	-11.6124
▁zeolites	-11.6126
▁(65	-11.6127
▁Taq	-11.6127
nucleoside	-11.6129
−1)	-11.6129
▁possibly	-11.6131
▁5-6	-11.6134
▁tartrate	-11.6135
131	-11.6137
▁EPO	-11.6139
▁structurally	-11.6139
TGG	-11.614
▁Purified	-11.6141
▁1,2,4-	-11.6142
▁PBMC	-11.6146
▁freshly	-11.6146
▁Remington	-11.6149
▁milliliter	-11.615
▁1.17	-11.615
pregna	-11.615
▁0.86	-11.6151
▁2.07	-11.6151
)-3-(3-	-11.6152
Bi	-11.6154
omy	-11.6155
▁Pyr	-11.6155
fr	-11.6156
▁4.35	-11.6164
▁metallic	-11.6165
▁pertains	-11.6165
▁sulfonamide	-11.6166
▁weekly	-11.6168
▁174	-11.6168
▁REFERENCE	-11.6171
▁ameliorate	-11.6171
▁ob	-11.6173
▁8.07	-11.6177
▁Plates	-11.6178
▁combine	-11.6178
treating	-11.6178
▁articles	-11.6178
▁Life	-11.6178
dicarboxylate	-11.6181
GCT	-11.6186
state	-11.6186
▁lambda	-11.6187
▁mutein	-11.6187
phthalimide	-11.6188
fluoren	-11.6189
▁analgesic	-11.619
▁cervical	-11.619
▁Biochemistry	-11.619
▁4.04	-11.6196
▁microarray	-11.6196
{[2-(	-11.6198
▁Over	-11.6199
Dimethoxy	-11.62
480	-11.62
▁impurity	-11.6202
▁Alkyl	-11.6203
sulfo	-11.6203
▁GI	-11.6205
▁4,4'-	-11.6205
KA	-11.6207
▁count	-11.6209
▁XL	-11.621
▁6.82	-11.621
FGF	-11.621
▁polyamine	-11.6211
nonyl	-11.6211
▁Trp	-11.6212
net	-11.6215
▁correlation	-11.6215
35°	-11.6218
▁2.31	-11.6218
war	-11.6219
▁8.20	-11.6219
▁Prop	-11.6222
▁conditioned	-11.6226
▁recognizes	-11.6233
▁2.29	-11.6236
ferrocene	-11.6237
▁enhancement	-11.624
▁catalyzed	-11.624
TOF	-11.624
117	-11.624
▁Sn	-11.6242
alin	-11.6242
activity	-11.6247
▁permits	-11.6247
75°	-11.6249
▁address	-11.6249
rist	-11.6249
▁Low	-11.625
▁1640	-11.6253
leucine	-11.6253
▁progressive	-11.6254
phi	-11.6254
▁9:1	-11.6254
bit	-11.6266
▁84%	-11.6267
▁(4.5	-11.6267
UV	-11.627
▁2.67	-11.627
▁Evaporation	-11.6271
▁flexible	-11.6271
▁TG	-11.6273
▁square	-11.6274
Trp	-11.6274
back	-11.6275
ash	-11.6277
fur	-11.6279
dinitro	-11.628
▁spec	-11.628
AAT	-11.6281
stan	-11.6282
▁understanding	-11.6285
▁surrounding	-11.6287
Pa	-11.6291
▁176	-11.6291
▁Temperature	-11.6293
▁chicken	-11.6293
▁rep	-11.6293
▁aggregate	-11.6293
chy	-11.6297
comprising	-11.6299
-2-(5-	-11.6299
ny	-11.6299
ina	-11.6302
▁absorbed	-11.6305
▁mapping	-11.6305
3)4	-11.6306
oxazine	-11.6306
▁1.14	-11.6306
pentene	-11.6306
(2-(4-	-11.6309
▁transforming	-11.6312
▁4.06	-11.6315
cyclopentadienyl	-11.6315
-4-[(	-11.6322
Pierce	-11.6322
▁2.37	-11.6324
infected	-11.6324
750	-11.6327
▁axis	-11.6328
ibility	-11.6328
▁2.42	-11.633
▁Immunology	-11.6331
▁2.21	-11.6333
▁Smith	-11.6336
▁furyl	-11.6339
▁indirect	-11.6341
▁olefinic	-11.6341
▁4.40	-11.6341
ify	-11.6343
▁Removal	-11.6343
▁prostaglandin	-11.6343
▁(2003)	-11.6343
[4-[	-11.6343
disubstituted	-11.6344
▁1.82	-11.6346
▁wheat	-11.6347
Characterization	-11.6349
cyst	-11.6351
▁valuable	-11.6356
cysteine	-11.6356
tBu	-11.6356
▁Technology	-11.6357
▁distributed	-11.6359
=6.1	-11.6361
iva	-11.6365
149	-11.6365
pA	-11.6366
=5.9	-11.6367
▁negatively	-11.6368
▁silencing	-11.6368
▁Light	-11.637
affinity	-11.6372
obil	-11.6373
bar	-11.6374
▁81%	-11.6374
▁radioactivity	-11.6378
-[6-	-11.6379
ono	-11.6379
expressed	-11.638
control	-11.6381
HSV	-11.6383
▁denatured	-11.6384
7.35	-11.6387
▁schedule	-11.6387
amate	-11.6391
▁adequate	-11.6394
▁catalyze	-11.6395
▁5-(4-	-11.6396
▁matrices	-11.6397
▁gently	-11.6397
example	-11.6397
triaza	-11.6399
Spec	-11.6401
▁3.48	-11.6402
:22	-11.6403
▁vigorous	-11.6404
nonane	-11.6404
1,3-	-11.6405
7.30	-11.6405
▁LiOH	-11.6406
paraben	-11.6409
▁1.92	-11.6409
dioxin	-11.641
▁calf	-11.6412
▁(+)	-11.6412
▁quinoline	-11.6414
▁fractionation	-11.6414
▁exit	-11.6414
185	-11.6415
▁EDC	-11.6419
▁arrest	-11.6419
▁diagram	-11.6423
▁digest	-11.6428
androst	-11.6428
▁Ill	-11.6429
section	-11.6431
▁nt	-11.6433
×3).	-11.6436
▁2012	-11.6437
▁phosphorous	-11.6438
▁NMP	-11.6441
deca	-11.6445
▁trigger	-11.6445
144	-11.6447
trophic	-11.6451
▁polyols	-11.6451
▁modes	-11.6452
▁donors	-11.6454
▁always	-11.6454
▁polysaccharide	-11.6455
▁vaccination	-11.6457
▁11.0	-11.6458
▁phosphoryl	-11.6466
week	-11.6468
logical	-11.6469
CTC	-11.647
etal	-11.647
butanoyl	-11.6473
▁3.22	-11.6473
▁neutralize	-11.6474
▁periods	-11.6479
▁catheter	-11.648
oxin	-11.6481
▁palm	-11.6483
toxin	-11.6486
▁Para	-11.6487
tagged	-11.6488
ij	-11.6489
▁entitled	-11.6489
▁2.66	-11.6494
155	-11.6494
ophy	-11.6494
▁radioisotope	-11.6496
▁phosphite	-11.6497
▁barium	-11.6497
▁hybridizing	-11.6498
▁suppository	-11.6499
▁pen	-11.6501
▁pathogenic	-11.6502
XL	-11.6502
▁displacement	-11.6502
umab	-11.6503
etin	-11.6503
Hexane	-11.6504
▁235	-11.6504
TTG	-11.6505
diethoxy	-11.6506
administered	-11.6507
▁Time	-11.6507
sorbent	-11.6509
▁Chiral	-11.6509
lizumab	-11.6509
-4′-	-11.6511
▁signs	-11.6512
TGA	-11.6512
▁repeats	-11.6513
methylmorpholine	-11.6513
▁Vectors	-11.6514
▁4-((	-11.6515
▁Complex	-11.6518
▁stabilize	-11.6519
▁dimension	-11.6522
▁1.67	-11.6523
▁stereochemistry	-11.6524
▁185	-11.6525
lactic	-11.6527
]-7-	-11.653
▁(50%	-11.653
▁gain	-11.6531
throughput	-11.6532
▁predominantly	-11.6533
formate	-11.6536
▁2.68	-11.6539
▁2.78	-11.6539
▁Fla	-11.654
trate	-11.6545
GGT	-11.6548
▁3.28	-11.6549
dihydrobenzo	-11.655
▁biodegradable	-11.655
▁circumstances	-11.6551
-7,8-	-11.6552
camphor	-11.6553
▁1.84	-11.6556
▁compare	-11.6556
▁1.12	-11.6557
,6,6	-11.6558
▁EU	-11.656
amylase	-11.6561
▁1.54	-11.6562
▁allelic	-11.6564
-3'	-11.6565
▁1.16	-11.6567
Isopropyl	-11.6567
▁1.86	-11.6568
▁propoxy	-11.6569
▁squamous	-11.6573
▁drawn	-11.6573
▁centrifuge	-11.6573
DMA	-11.6575
obtained	-11.6575
▁10.7	-11.6575
allo	-11.6576
▁171	-11.6576
stein	-11.6577
▁0.21	-11.6579
▁340	-11.658
kel	-11.6582
▁embrace	-11.6582
ococcus	-11.6583
▁Hetero	-11.6583
▁0.97	-11.6585
▁accumulate	-11.6586
▁alkoxyalkyl	-11.6586
lat	-11.6587
alkanoyl	-11.6588
▁0.99	-11.6588
▁doxorubicin	-11.6589
▁skeleton	-11.6589
lysin	-11.659
▁(0.09	-11.6591
elli	-11.6592
rium	-11.6592
▁immunotherapy	-11.6593
▁alkanol	-11.6593
lect	-11.6595
▁Useful	-11.6596
▁pyridazinyl	-11.6597
butadiene	-11.6598
tation	-11.66
▁360	-11.6601
▁issued	-11.6604
▁homologs	-11.6604
▁xenograft	-11.6605
▁156	-11.6608
TCC	-11.6609
▁0.36	-11.661
▁1.88	-11.661
scFv	-11.6611
▁acting	-11.6611
▁greatly	-11.6611
136	-11.6612
▁elixirs	-11.6613
▁examination	-11.6615
try	-11.6616
lymph	-11.6617
-(1-(	-11.6618
▁amyl	-11.6619
▁Sep	-11.6619
020	-11.6621
butanoate	-11.6628
rig	-11.6629
Nujol	-11.6634
2,3,4	-11.6634
▁DP	-11.6635
dodecyl	-11.6635
Tetrahydro	-11.6635
▁lecithin	-11.6637
▁isoxazolyl	-11.6637
▁1.72	-11.6638
▁3.56	-11.6639
-[4-(4-	-11.664
▁diffusion	-11.6641
▁Meth	-11.6641
morpholinyl	-11.6642
GCA	-11.6643
▁alkylaryl	-11.6644
▁colloidal	-11.6644
otoxin	-11.6647
Gal	-11.6647
▁1.83	-11.6649
Gln	-11.6653
heterocyclic	-11.6654
▁(+)-	-11.6655
▁sizes	-11.6656
▁bubbled	-11.6656
▁administer	-11.6657
124	-11.666
▁3.02	-11.6662
phenylsulfonyl	-11.6662
viruses	-11.6664
TV	-11.6666
zol	-11.6666
phenylthio	-11.6671
[3.1.0]	-11.6676
▁Genet	-11.6677
▁approximate	-11.6681
▁6.78	-11.6681
acetal	-11.6681
▁Pharmacol	-11.6684
(2,2-	-11.6687
Iso	-11.6687
▁1-10	-11.6692
(4′-	-11.6692
▁2.58	-11.6696
▁neurological	-11.6696
▁Flash	-11.6696
▁94%	-11.6697
▁2.88	-11.6697
▁4.16	-11.6701
▁mediator	-11.6703
=2.7	-11.6704
DG	-11.6704
▁antitumor	-11.6706
▁importance	-11.6706
sterol	-11.6706
▁multispecific	-11.671
▁205	-11.6712
▁bolus	-11.6713
▁discussion	-11.6716
▁2.63	-11.6716
cyt	-11.6716
▁extensive	-11.6716
▁Biotechnol	-11.6719
▁lymphocytic	-11.6719
549	-11.6719
▁oleate	-11.6722
organ	-11.6723
)-1,2-	-11.6723
▁van	-11.6724
▁Alk	-11.6725
ition	-11.6726
▁3.33	-11.6727
▁hexamethyl	-11.6732
▁IG	-11.6734
acrylonitrile	-11.6735
uri	-11.6738
▁adenine	-11.6739
▁fit	-11.6743
▁embryos	-11.6744
▁4.13	-11.6747
▁Conjugate	-11.6748
▁obvious	-11.6748
▁2.82	-11.6751
ules	-11.6753
anger	-11.6754
fibril	-11.6754
methoxyimino	-11.6755
/100	-11.6756
▁3.37	-11.6761
UP	-11.6761
166	-11.6764
▁Signal	-11.6765
▁decompose	-11.6765
logy	-11.6773
dienyl	-11.6774
▁reacts	-11.6774
cular	-11.6775
▁flat	-11.6777
▁4.28	-11.6778
eck	-11.6781
ette	-11.6782
▁histone	-11.6788
▁0.38	-11.6791
▁0.65	-11.6791
▁5:1	-11.6791
▁bridged	-11.6792
▁Wnt	-11.6797
▁(1981)	-11.6798
▁nearly	-11.6801
▁conduit	-11.6801
▁subcloned	-11.6801
▁2.19	-11.6801
▁2.72	-11.6803
▁excluded	-11.6804
▁chlorinated	-11.6804
immune	-11.6805
▁8.18	-11.6808
▁3.59	-11.6812
hydrazide	-11.6812
▁mononuclear	-11.6812
▁8%	-11.6813
▁(55	-11.6815
▁4.07	-11.6816
TAG	-11.6816
▁referring	-11.682
▁choline	-11.682
▁4.50	-11.6822
▁plaque	-11.6822
GRP	-11.6822
▁1.53	-11.6826
▁Curr	-11.6826
▁Bar	-11.683
▁3.16	-11.6831
288	-11.6833
▁disadvantage	-11.6834
Molecular	-11.6839
Yield	-11.6839
heat	-11.6839
▁1.76	-11.6841
▁phenolic	-11.6842
▁trials	-11.6844
▁kilogram	-11.6844
{[4-(	-11.6846
iller	-11.6847
unsaturated	-11.6853
▁lowering	-11.6857
ethanolamine	-11.686
▁HSA	-11.686
▁Microbiol	-11.686
ventricular	-11.686
▁penetration	-11.686
▁mis	-11.6861
(3,3-	-11.6861
▁obtainable	-11.6861
▁3.32	-11.6861
▁8.25	-11.6863
-(2,2-	-11.6863
▁Southern	-11.6863
▁0.91	-11.6865
▁dimers	-11.6866
▁2.03	-11.6866
par	-11.6868
▁1.74	-11.6869
▁continue	-11.687
5-6	-11.6871
▁prevents	-11.6871
-70	-11.6875
▁Composition	-11.6876
▁GDF	-11.6877
▁hydroperoxide	-11.6877
▁Ang	-11.6878
▁2.13	-11.688
▁(36	-11.688
▁Conditions	-11.6881
▁1.87	-11.6885
▁pos	-11.6887
porphyrin	-11.6887
fluorophenoxy	-11.6887
vari	-11.6891
▁Instrument	-11.6894
▁(1.00	-11.6894
▁2.64	-11.6894
dioxolane	-11.6894
Chlorophenyl	-11.6895
▁dicarboxylic	-11.6895
▁1.63	-11.6896
▁1.08	-11.6898
vas	-11.6899
▁Applied	-11.6902
carbox	-11.6903
▁JAK	-11.6904
▁assist	-11.6907
▁dish	-11.6908
ada	-11.6909
▁3.14	-11.6909
▁Sample	-11.6909
▁crystallize	-11.691
▁1.97	-11.6911
▁Crohn	-11.6914
▁electrical	-11.6916
▁decanted	-11.6917
▁(1982)	-11.6918
▁1.19	-11.6918
▁10.8	-11.6919
▁annealing	-11.692
▁skeletal	-11.692
▁Tetra	-11.6922
imi	-11.6927
▁translocation	-11.6927
▁3.24	-11.6929
ility	-11.6931
▁net	-11.6933
▁2.48	-11.6933
=4.5	-11.6936
polypeptide	-11.6937
▁metabolite	-11.694
▁2.44	-11.6941
▁HDAC	-11.6941
▁strategies	-11.6947
▁Identification	-11.695
▁APC	-11.6951
]-2,4-	-11.6956
▁Health	-11.6957
▁homodimer	-11.6957
-45	-11.6958
330	-11.6961
▁3.54	-11.6963
▁8.09	-11.6965
PGF	-11.6965
▁Invitrogen	-11.6966
▁3.08	-11.6969
cher	-11.697
[4-(4-	-11.6971
▁opposite	-11.6971
▁Virol	-11.6971
▁0.34	-11.6973
Scheme	-11.6973
gal	-11.6973
▁recommended	-11.6973
fluorenyl	-11.6974
▁entirely	-11.6976
▁regarding	-11.6978
▁division	-11.698
▁phthalate	-11.6981
▁sprayed	-11.6983
grass	-11.6983
▁3.36	-11.6984
)-4-((	-11.6984
▁transduced	-11.6986
CCC	-11.6986
phys	-11.6988
▁2.73	-11.6992
▁fibroblast	-11.6994
▁symbols	-11.6995
▁-10°	-11.6997
▁Chrom	-11.6998
0-2	-11.7
approximately	-11.7004
▁MDA	-11.7007
▁monolayer	-11.7007
▁fractional	-11.7008
pic	-11.701
▁4.14	-11.7013
▁0.55	-11.7013
acting	-11.7014
Millipore	-11.7014
AZ	-11.7014
▁cyclohexanone	-11.7016
cooled	-11.7017
▁diethylene	-11.7017
▁reservoir	-11.7018
▁isoform	-11.7019
[2-(4-	-11.7019
oxygenase	-11.7025
▁3.61	-11.7028
▁surprisingly	-11.7028
En	-11.703
block	-11.7031
ifier	-11.7033
▁immunoassays	-11.7034
▁triplicate	-11.7035
▁worked	-11.7036
▁accordingly	-11.7036
▁esterified	-11.704
▁2.06	-11.704
▁3.13	-11.7041
cytosine	-11.7042
Ga	-11.7042
▁Agents	-11.7045
▁measures	-11.705
188	-11.7054
ipp	-11.7054
▁morpholino	-11.7055
ATA	-11.7057
▁duplicate	-11.7058
▁Functional	-11.7059
)-2-(3-	-11.706
phil	-11.7061
▁AcOH	-11.7061
▁GS	-11.7062
▁favorable	-11.7063
▁oligomerization	-11.7065
NRa	-11.7065
▁Nucl	-11.7073
▁marked	-11.7073
omega	-11.7075
▁4.22	-11.7076
lactam	-11.7076
▁chlorobenzene	-11.7077
read	-11.7078
▁secretory	-11.7079
column	-11.7079
▁olive	-11.7079
▁siRNAs	-11.708
▁zirconium	-11.7082
▁Modification	-11.7082
diazaspiro	-11.7084
▁8.11	-11.7084
▁maturation	-11.7085
132	-11.7088
▁pyrrole	-11.7089
▁Sur	-11.7089
▁requiring	-11.7089
▁flame	-11.7089
▁initiate	-11.7089
▁loops	-11.7089
▁Mark	-11.7093
ended	-11.7094
▁slight	-11.7095
GTC	-11.7097
raft	-11.7097
▁TBS	-11.7099
▁alkylcarbonyl	-11.71
▁2.98	-11.71
▁NGF	-11.71
▁1.66	-11.7102
uo	-11.7102
▁5000	-11.7104
itch	-11.7106
▁2.52	-11.7107
▁1.96	-11.7108
{2-	-11.7109
▁2.43	-11.711
×100	-11.7113
pair	-11.7114
▁1.94	-11.7114
460	-11.7115
▁guinea	-11.7116
▁3.39	-11.7119
▁Healthcare	-11.7119
burg	-11.7122
▁stripped	-11.7123
▁acetylene	-11.7124
▁Pi	-11.7124
▁3.53	-11.7124
ulo	-11.7125
▁blended	-11.7126
▁ethynyl	-11.7126
▁2,4,6-	-11.7127
lon	-11.7127
=5.3	-11.7127
▁3.17	-11.7128
TY	-11.7129
▁1.02	-11.7129
▁led	-11.7129
▁Comparison	-11.713
▁mortality	-11.713
▁network	-11.713
particle	-11.713
▁3.27	-11.713
▁keeping	-11.7132
{2-[(	-11.7134
▁3.50	-11.7138
:19	-11.7138
▁1.64	-11.7139
▁1.13	-11.7144
)+;	-11.7145
▁2.11	-11.7146
▁lotion	-11.7148
▁implanted	-11.7148
▁principle	-11.7154
▁1989,	-11.7155
▁Dr	-11.7155
-[4-(3-	-11.7158
carbazol	-11.7159
▁port	-11.716
▁reconstituted	-11.716
▁UPLC	-11.716
3.00	-11.7162
benzoxazin	-11.7164
▁2.01	-11.7165
▁organometallic	-11.7167
XXX	-11.7168
ffer	-11.7168
▁immediate	-11.7169
▁4.09	-11.717
▁angio	-11.717
▁consequence	-11.7171
▁1.79	-11.7171
tru	-11.7172
▁pI	-11.7172
-3(2	-11.7175
▁grain	-11.7175
▁6.81	-11.7176
▁deficient	-11.7177
▁electrons	-11.7177
▁injecting	-11.7178
▁transform	-11.718
prosta	-11.718
▁2.39	-11.7183
▁precipitates	-11.7183
umin	-11.7187
▁3.43	-11.7187
▁page	-11.7193
guanine	-11.7194
▁mismatch	-11.7195
structure	-11.7196
▁3.23	-11.7198
▁1.89	-11.7203
▁2.46	-11.7204
imidazolyl	-11.7204
▁1.04	-11.7206
ena	-11.7207
▁1,5-	-11.7207
air	-11.721
▁Stage	-11.7211
▁pyro	-11.7215
dicyclohexyl	-11.722
▁8.16	-11.7221
▁rearrangement	-11.7222
▁dopant	-11.7222
plication	-11.7223
oke	-11.7224
)-2-[(	-11.7225
▁94°	-11.7227
mole	-11.7228
▁hepatic	-11.7229
▁statistical	-11.723
▁bodies	-11.7235
oxazepin	-11.7236
▁dialyzed	-11.7236
▁FcRn	-11.7236
▁isotope	-11.7237
▁1.77	-11.7239
benzylidene	-11.7239
▁thi	-11.7243
▁belonging	-11.7243
▁colour	-11.7246
▁pack	-11.7248
-((4-	-11.7249
tosyl	-11.7249
▁bifunctional	-11.725
▁enhances	-11.7251
▁Merck	-11.7254
xa	-11.7254
▁4.17	-11.7255
▁2.92	-11.7258
▁radiolabeled	-11.7258
▁emit	-11.7259
▁Delivery	-11.726
▁permeability	-11.726
▁8.13	-11.7261
▁CRL	-11.7262
▁peptidomimetic	-11.7263
▁Prior	-11.7263
▁2.93	-11.7265
[6-(	-11.7266
▁changing	-11.7267
▁degenerate	-11.7267
▁pathology	-11.7267
-37	-11.7269
▁550	-11.7269
INE	-11.7276
▁United	-11.7276
▁SU	-11.7276
▁deep	-11.7277
ocin	-11.7278
▁285	-11.7281
2.5%	-11.7282
core	-11.7283
(2-(2-	-11.7283
▁Dry	-11.7284
phthalazin	-11.7284
-[2-(4-	-11.7286
▁Clinical	-11.729
▁Reactions	-11.7291
sequence	-11.7295
▁Multi	-11.7296
tyr	-11.7297
▁Probes	-11.7297
NHS	-11.7298
375	-11.7303
▁MTBE	-11.7305
propargyl	-11.7305
isoindoline	-11.7306
▁cup	-11.731
▁titers	-11.7311
idic	-11.7312
rey	-11.7314
-90	-11.7315
hydrin	-11.7317
▁3.44	-11.7318
www	-11.7319
▁milli	-11.7319
▁Genetics	-11.7323
▁interfering	-11.7326
lay	-11.7328
Chem	-11.7333
AGA	-11.7334
▁5-(2-	-11.7335
▁3.47	-11.7336
▁polyether	-11.7337
205	-11.7338
▁physically	-11.7338
Life	-11.7339
{4-	-11.734
isocyanate	-11.734
vision	-11.7341
neo	-11.7346
▁8.14	-11.7347
▁androgen	-11.7347
film	-11.7348
▁implicated	-11.735
004	-11.7351
thione	-11.7351
)-4-(2-	-11.7355
7.25	-11.7355
benzothiazole	-11.7361
▁regimens	-11.7363
▁3.34	-11.7364
▁visualized	-11.737
▁findings	-11.737
guanosine	-11.7371
▁hy	-11.7377
pher	-11.7378
▁Referring	-11.7378
tax	-11.7383
▁3.06	-11.7384
▁unbound	-11.7388
▁glycan	-11.7389
▁FIGS	-11.7395
coumarin	-11.7396
▁motor	-11.7396
benzylamino	-11.7396
▁3.51	-11.7397
▁3.03	-11.7401
▁sacrificed	-11.7404
▁captured	-11.7406
▁suspected	-11.7406
▁1.93	-11.7407
▁2.97	-11.7411
pept	-11.7411
indolizin	-11.7413
▁interacting	-11.7415
▁178	-11.7416
▁Cyclo	-11.7418
wash	-11.7419
▁propellant	-11.742
▁plural	-11.7422
▁cartilage	-11.7424
▁HindIII	-11.7424
▁biosynthesis	-11.7427
▁pathogens	-11.7428
▁2.09	-11.7429
▁building	-11.7429
▁describing	-11.7431
▁parasite	-11.7431
360	-11.7433
▁methylamine	-11.7433
▁knowledge	-11.7434
▁Her	-11.7434
▁3.26	-11.7436
▁move	-11.7436
▁limitations	-11.7436
1.90	-11.7438
▁Hybridization	-11.7441
▁cy	-11.7441
▁Salts	-11.7442
′′′	-11.7444
▁Vivo	-11.7446
▁complexed	-11.7446
benzotriazol	-11.7447
▁disposed	-11.7448
▁mobility	-11.7448
butylphenyl	-11.7449
▁0.29	-11.745
▁0.60	-11.7451
▁Domain	-11.7455
▁(3-	-11.7455
▁6.79	-11.7458
▁milligrams	-11.7459
butynyl	-11.7461
Carboxy	-11.7462
▁1.99	-11.7464
,13-	-11.7466
-55	-11.7466
▁ascertain	-11.7466
LG	-11.7466
▁tetrazolyl	-11.7467
indenyl	-11.7467
▁2.84	-11.7468
▁11.5	-11.7468
▁6%	-11.747
▁CDK	-11.7471
▁dosed	-11.7471
▁slides	-11.7474
▁2.96	-11.7475
▁Saccharomyces	-11.748
▁accelerate	-11.748
cyclobutane	-11.748
▁0.84	-11.7481
▁2.86	-11.7484
▁limits	-11.7486
▁0.37	-11.7489
▁−80°	-11.7491
ule	-11.7492
▁1.01	-11.7492
▁NY	-11.7493
strict	-11.7494
▁hundred	-11.7494
olin	-11.7496
2,3-	-11.7497
▁experience	-11.7498
▁colored	-11.7499
▁Hence	-11.7499
▁middle	-11.7501
▁3.46	-11.7504
guanidino	-11.7505
fluoropyridin	-11.7505
▁405	-11.7505
▁2.74	-11.7506
▁0.80	-11.7507
atable	-11.7507
Benz	-11.7508
▁scientific	-11.7508
=0.8	-11.7509
▁Particular	-11.7509
▁3.41	-11.751
▁XIII	-11.751
7.20	-11.751
▁encapsulated	-11.7511
▁DME	-11.7513
▁1.03	-11.7513
▁correlated	-11.7513
▁lowered	-11.7513
▁ethylbenzene	-11.7524
▁mbar	-11.7527
reactivity	-11.7527
benzoimidazol	-11.7527
ometer	-11.7528
methoxyethoxy	-11.7528
▁presentation	-11.7529
▁Pure	-11.7529
▁2.45	-11.753
och	-11.7533
▁thiazole	-11.7533
}-4-	-11.7536
ography	-11.7538
▁approx	-11.7539
▁sulphur	-11.7541
▁extracting	-11.7541
rhodamine	-11.7542
ben	-11.7542
▁2.89	-11.7543
▁Freund	-11.7544
moto	-11.7546
▁2.41	-11.7547
▁chimera	-11.7551
▁4.11	-11.7552
▁Structural	-11.7554
▁0.42	-11.7557
)-1-(3-	-11.7558
▁2.54	-11.7562
▁diisocyanate	-11.7565
▁complications	-11.7565
1,2,3,4	-11.7566
=9.6	-11.7567
▁cycloheptyl	-11.7567
▁azeotropic	-11.7569
▁herbicidal	-11.7569
147	-11.7569
▁kinetics	-11.7573
▁2.57	-11.7574
950	-11.7577
▁excised	-11.7579
▁deviation	-11.7579
▁Nov	-11.758
▁1.57	-11.7582
▁basified	-11.7583
▁2.56	-11.7584
▁lectin	-11.7584
▁Benzyl	-11.7584
permeable	-11.759
[5-(	-11.7592
365	-11.7594
▁(2004)	-11.7595
▁6,6	-11.76
148	-11.76
▁distinguish	-11.76
▁disodium	-11.7601
=4.9	-11.7602
methylpyrrolidin	-11.7603
▁5.00	-11.7608
▁Selection	-11.7608
second	-11.7613
▁azo	-11.7613
ethylthio	-11.7615
mass	-11.7619
ritis	-11.7621
▁1.90	-11.7623
substantially	-11.7624
▁tandem	-11.7626
carboxyl	-11.7629
ister	-11.763
ostatin	-11.7631
▁accurate	-11.7633
{1-[	-11.7634
ita	-11.7634
[2-(2-	-11.7635
corr	-11.7636
▁(0.14	-11.7638
▁2013	-11.7639
▁(0.11	-11.7642
▁pest	-11.7642
histidine	-11.7642
▁stabilization	-11.7644
▁CYP	-11.7646
methylenedioxy	-11.7646
▁3.01	-11.7647
-5′-	-11.7652
precipitation	-11.7652
▁quickly	-11.7653
▁der	-11.7655
hexanoic	-11.7656
▁6.76	-11.7656
▁0.31	-11.7657
▁2.47	-11.7657
▁successful	-11.766
▁pur	-11.766
▁overexpression	-11.7665
{2-[	-11.7665
▁EMBO	-11.7665
▁Lane	-11.7667
▁4.65	-11.7667
▁vesicles	-11.7667
izo	-11.767
philic	-11.767
▁abundance	-11.7672
sylate	-11.7673
▁fractionated	-11.7674
▁understand	-11.7682
▁2.94	-11.7682
LF	-11.7682
ethanamine	-11.7683
▁ATG	-11.7684
jo	-11.7686
▁Base	-11.7687
butylamine	-11.7688
▁lipoprotein	-11.7691
▁collecting	-11.7693
▁immunoconjugate	-11.7694
▁antifungal	-11.7694
-20%	-11.7695
1-12	-11.7695
▁1-(5-	-11.7696
)-2-[	-11.7697
▁1.51	-11.7698
alis	-11.77
▁1.61	-11.7702
2-8	-11.7703
▁1.73	-11.7704
▁azeotrope	-11.7705
▁kanamycin	-11.7708
▁vortex	-11.7708
inositol	-11.7709
hydroxyphosphin	-11.7713
▁subtype	-11.7714
▁Raney	-11.7716
▁Vitro	-11.7716
▁infect	-11.7716
[5-	-11.7718
{[(2	-11.7718
▁239	-11.7719
▁configured	-11.7719
▁matched	-11.7722
diazo	-11.7722
▁Gas	-11.7725
myc	-11.7729
BuLi	-11.7731
▁CpG	-11.7731
▁1.91	-11.7735
▁dehydro	-11.7736
▁Du	-11.7736
▁2.76	-11.7738
▁Approximately	-11.7741
▁2.77	-11.7742
isocyanato	-11.7745
▁inherent	-11.7745
▁muco	-11.7745
▁ultra	-11.7746
▁3.49	-11.7747
rie	-11.7751
▁(0.50	-11.7753
pending	-11.7753
▁COOH	-11.7753
WO	-11.7755
▁patch	-11.7756
=0.5	-11.7756
erman	-11.7761
Asn	-11.7763
glutamine	-11.7766
▁hapten	-11.7766
▁recent	-11.7768
▁capability	-11.7768
▁diverse	-11.7769
-5,5-	-11.777
linear	-11.7771
121	-11.7773
▁arylene	-11.7775
▁manual	-11.778
=4.4	-11.778
▁siNA	-11.7782
▁1.59	-11.7783
▁2.49	-11.7785
indoline	-11.7786
▁cef	-11.7786
▁Hel	-11.7787
▁abbreviations	-11.7789
▁UK	-11.7792
▁approved	-11.7792
pyrimido	-11.7795
▁furnish	-11.7796
▁pipette	-11.7796
▁scored	-11.7797
-6-(2-	-11.7799
sep	-11.7799
▁tautomeric	-11.78
988	-11.7802
▁window	-11.7803
▁Purity	-11.7804
1.20	-11.7805
thien	-11.7806
methylbenzyl	-11.7807
▁constituent	-11.7809
conservative	-11.781
▁DMA	-11.781
▁proximity	-11.781
▁hairpin	-11.781
6,8-	-11.7812
▁myelo	-11.7815
▁MET	-11.7815
▁question	-11.7817
▁dopamine	-11.7817
▁synthesizer	-11.7817
▁AND	-11.7817
▁somatic	-11.7819
XX	-11.782
▁1.69	-11.782
▁3.04	-11.7821
▁verified	-11.7821
▁2.61	-11.7823
alanyl	-11.7825
▁3.55	-11.7826
benzamido	-11.7827
▁triazolyl	-11.7827
lide	-11.7827
▁Active	-11.7829
▁4.19	-11.783
▁bright	-11.7831
▁clinically	-11.7831
tane	-11.7835
▁2.81	-11.7836
pur	-11.7839
glucose	-11.7839
▁8.21	-11.7839
▁dibutyl	-11.7843
benzoylamino	-11.7844
erry	-11.7845
▁4.45	-11.7849
▁aggregates	-11.785
addition	-11.785
nuclear	-11.7852
▁3'-	-11.7856
Dimethylamino	-11.7857
▁States	-11.7858
(6,7-	-11.7858
▁butter	-11.786
▁emulsifiers	-11.7861
▁saturation	-11.7861
referred	-11.7862
▁carcinomas	-11.7864
▁portionwise	-11.7865
▁2.71	-11.7868
▁concerns	-11.7872
▁stripping	-11.7872
luminescent	-11.7873
▁randomly	-11.7873
▁sweetener	-11.7876
:32	-11.7877
dynamic	-11.7877
amel	-11.7878
▁8.22	-11.7879
▁meter	-11.7882
▁correlate	-11.7882
▁pests	-11.7882
lite	-11.7883
▁possesses	-11.7884
▁conduct	-11.7884
dam	-11.7885
▁guanine	-11.7886
▁2.59	-11.7886
API	-11.7887
▁accompanying	-11.7889
▁enteric	-11.7891
▁mixer	-11.7894
▁1.06	-11.7896
▁phenols	-11.7897
▁lact	-11.7897
▁Acta	-11.7899
▁tetramer	-11.79
▁2.79	-11.7903
▁her	-11.7906
▁mast	-11.7908
▁8.30	-11.7908
▁3.21	-11.7909
▁Aspergillus	-11.7909
▁CXCR	-11.7909
▁Antisense	-11.791
Tech	-11.791
▁4.24	-11.7914
▁6.77	-11.7914
▁rule	-11.7919
▁0.46	-11.7923
▁BACKGROUND	-11.7928
MU	-11.7931
168	-11.7932
▁8.19	-11.7933
▁Multiple	-11.7933
deficient	-11.7936
▁1.71	-11.7939
used	-11.794
filled	-11.7943
▁fever	-11.7945
butylene	-11.7946
45°	-11.7947
▁butanol	-11.7947
▁4.38	-11.7948
▁tip	-11.7949
▁SL	-11.795
▁ethanolamine	-11.795
▁mut	-11.7951
▁subtilis	-11.7953
▁quantify	-11.7953
▁193	-11.7958
▁Oligo	-11.796
▁denote	-11.796
7.38	-11.7963
▁Cha	-11.7965
BSA	-11.7966
▁anticancer	-11.7967
▁pet	-11.7968
▁airway	-11.7969
▁3.19	-11.7969
▁hydroxymethyl	-11.7971
Pharmacia	-11.7973
▁234	-11.7973
▁(0.13	-11.7975
uction	-11.7977
▁tosylate	-11.7977
▁plaques	-11.7978
2,2-	-11.798
▁exchanged	-11.7981
▁ferment	-11.7983
▁4.23	-11.7984
233	-11.7987
▁paraffins	-11.7988
▁ver	-11.7988
▁Hydrochloride	-11.7991
▁subgroup	-11.7992
▁91%	-11.7994
▁contaminants	-11.7995
▁2.83	-11.7997
oxane	-11.7998
▁conductivity	-11.7998
▁GL	-11.7999
▁1:10	-11.8
▁macrophage	-11.8001
genetic	-11.8001
salt	-11.8006
▁waxes	-11.8006
cyclohexene	-11.8008
▁6.65	-11.8011
chloropyridin	-11.8012
▁flushed	-11.8013
▁platform	-11.8013
▁lateral	-11.8015
under	-11.8016
▁disruption	-11.8016
osi	-11.8016
▁versions	-11.8016
▁Full	-11.8017
complex	-11.802
▁phenethyl	-11.8022
7.50	-11.8023
▁222	-11.8023
▁275	-11.8024
▁alginic	-11.8024
▁2.87	-11.8029
▁Rep	-11.8029
aff	-11.8033
Anti	-11.8034
▁shaker	-11.8034
]-1,3-	-11.8035
▁unnatural	-11.8037
▁calculate	-11.8038
dideoxy	-11.8042
▁uni	-11.8043
▁running	-11.8044
nucleotides	-11.8045
▁Auto	-11.8045
▁Agrobacterium	-11.8046
▁acylamino	-11.8047
409	-11.8047
370	-11.8048
indolin	-11.8048
▁Volume	-11.8049
▁8.23	-11.8051
▁nylon	-11.8054
▁2.53	-11.8055
alkylthio	-11.8055
▁8.17	-11.8058
Synthesis	-11.8059
▁(2005)	-11.806
azepan	-11.8061
▁objects	-11.8061
▁outcome	-11.8061
▁So	-11.8062
▁own	-11.8062
genous	-11.8063
7.28	-11.8064
▁95:5	-11.8065
▁2.91	-11.8065
▁urinary	-11.8065
therapeutically	-11.8065
562	-11.8067
▁neoplastic	-11.8067
=17	-11.8067
▁3.07	-11.8069
▁metabolites	-11.807
=1.4	-11.8071
▁78%	-11.8071
labelled	-11.8072
▁leave	-11.8076
▁Invest	-11.8078
▁delivering	-11.8078
129	-11.808
sulfon	-11.808
▁4.60	-11.808
▁acylating	-11.8081
▁179	-11.8081
▁deoxyribo	-11.8083
▁antioxidant	-11.8086
idate	-11.8087
▁4.32	-11.8088
▁Physiol	-11.809
▁Notch	-11.8091
covalent	-11.8092
▁4.42	-11.8092
▁stands	-11.8096
▁3.40	-11.8099
ulating	-11.8102
ogy	-11.8104
even	-11.8104
▁caspase	-11.8106
rex	-11.8106
odin	-11.8107
244	-11.8108
010	-11.8109
▁tight	-11.811
piperid	-11.8111
▁1.80	-11.8113
▁4.33	-11.8114
erated	-11.8114
▁Ten	-11.8118
▁implantation	-11.8119
▁4.27	-11.8121
PHA	-11.8122
▁FOR	-11.8125
▁268	-11.8126
methylbenzene	-11.8126
▁diethylamine	-11.8126
▁ointment	-11.8127
▁6.70	-11.813
▁Mini	-11.8138
yx	-11.8144
matic	-11.8145
▁counts	-11.8149
itic	-11.815
143	-11.815
▁1.07	-11.8151
7.45	-11.8153
anic	-11.8154
GAC	-11.8154
▁IU	-11.8155
▁HRP	-11.8158
▁relax	-11.8159
▁blank	-11.8159
yellow	-11.8162
cyclohexanol	-11.8163
▁polyurethane	-11.8163
▁polymorphism	-11.8166
phenoxyphenyl	-11.8169
▁lowest	-11.817
thiopyran	-11.8173
▁3.11	-11.8177
▁3.29	-11.8178
pyridinium	-11.8179
▁phospholipids	-11.818
(1):	-11.818
008	-11.8181
=2.8	-11.8181
▁residence	-11.8182
print	-11.8182
▁furanyl	-11.8184
▁fifth	-11.8186
006	-11.8186
TAC	-11.8189
▁inoculation	-11.8189
▁Thio	-11.8192
=3.6	-11.8193
glycero	-11.8193
▁269	-11.8193
▁solubilized	-11.8194
▁3.31	-11.8194
stim	-11.8195
▁public	-11.8196
either	-11.8197
▁destruction	-11.8197
)-6,7-	-11.8198
▁Applications	-11.8199
▁lympho	-11.8199
dodeca	-11.82
exo	-11.82
▁pressurized	-11.8201
pathy	-11.8204
▁sulfhydryl	-11.8205
quinolinyl	-11.8205
▁Chart	-11.8206
1.50	-11.8208
stained	-11.8209
▁1.11	-11.8212
2000	-11.8212
▁nitrocellulose	-11.8214
deriv	-11.8215
1-20	-11.8217
thymidine	-11.8219
▁Preparative	-11.822
▁interference	-11.822
▁ophthalmic	-11.822
▁satisfactory	-11.822
▁4.36	-11.822
▁arterial	-11.8224
▁crops	-11.8225
▁multivalent	-11.8225
▁2.69	-11.8226
=0.9	-11.8227
▁lubricating	-11.8227
5.00	-11.8228
▁Consequently	-11.8231
▁1.09	-11.8233
dba	-11.8234
▁cancerous	-11.8234
▁0.48	-11.8235
icin	-11.8238
▁EMBODIMENTS	-11.8238
▁gluco	-11.8239
▁quenching	-11.8239
-((2-	-11.8242
▁hybrids	-11.8243
ational	-11.8246
▁mouth	-11.8247
▁epidermal	-11.8247
hydrazone	-11.825
▁cycloalkylalkyl	-11.825
▁alkyne	-11.825
EGFR	-11.8252
arw	-11.8254
isothiazol	-11.8254
▁(2×50	-11.8255
IDE	-11.8256
-4(3	-11.8259
▁bag	-11.8263
)-7-(	-11.8265
▁Injection	-11.8266
▁oleic	-11.8266
▁detergents	-11.8267
dehydro	-11.8268
100°	-11.827
inger	-11.8273
▁movement	-11.8274
globin	-11.8275
▁titration	-11.8277
YT	-11.8277
▁oxychloride	-11.8277
ford	-11.8281
▁0.83	-11.8283
▁FCS	-11.8283
lambda	-11.8288
▁HOBt	-11.8292
depleted	-11.8296
169	-11.8301
▁4.26	-11.8302
▁uniformly	-11.8302
▁MIC	-11.8302
▁Conversion	-11.8308
▁Oil	-11.8308
▁4.29	-11.831
780	-11.8311
2.15	-11.8313
produced	-11.8314
administration	-11.8315
▁SF	-11.8317
escent	-11.8319
▁dropping	-11.8319
▁4.21	-11.832
=9.3	-11.8322
,4,5,5	-11.8325
4-(4,4,5,5-	-11.8326
acryl	-11.8328
139	-11.833
▁Clones	-11.833
▁Mix	-11.8335
▁Elmer	-11.8337
×30	-11.8337
▁cocoa	-11.834
thiazin	-11.8341
▁Animal	-11.8342
▁0.39	-11.8348
▁driving	-11.8354
▁conducting	-11.8355
gregat	-11.8355
AST	-11.8356
▁galactose	-11.8361
=9.1	-11.8364
▁Carbon	-11.8365
▁Nucleotide	-11.8365
operative	-11.8366
▁concomitant	-11.8369
▁daltons	-11.8369
▁synthetase	-11.8369
octanoic	-11.8373
carboxaldehyde	-11.8373
TU	-11.8374
▁290	-11.8374
▁locations	-11.8374
▁differentiated	-11.8375
TMS	-11.8375
154	-11.8376
▁maleimide	-11.8376
hexanoate	-11.8377
194	-11.838
AGC	-11.8381
▁Ringer	-11.8382
177	-11.8382
ific	-11.8384
▁sleep	-11.8389
▁lost	-11.839
▁266	-11.8392
▁operate	-11.8392
7.26	-11.8393
ceph	-11.8399
lop	-11.8401
Rad	-11.8402
2-10	-11.8406
146	-11.8408
▁186	-11.8414
abbreviation	-11.8415
▁diester	-11.8415
▁Study	-11.8419
▁vaccinia	-11.8419
glycyl	-11.8421
▁relate	-11.8426
▁3×	-11.8426
bacter	-11.8426
▁Addition	-11.8426
▁1,8-	-11.8429
6-14	-11.8429
azi	-11.843
ocytic	-11.8433
▁partition	-11.8433
YY	-11.8435
▁2.99	-11.8435
▁4.55	-11.8436
▁fish	-11.8437
-[1,1′-	-11.8437
▁alloy	-11.8438
triol	-11.8438
▁nontoxic	-11.844
octadecyl	-11.8441
▁8.26	-11.8442
▁affinities	-11.8443
-3-(5-	-11.8446
[(5-	-11.8448
▁6.68	-11.845
▁wood	-11.8451
▁(0.1%	-11.8452
▁finding	-11.8454
▁quantification	-11.8454
▁catalytically	-11.8454
cycloalkenyl	-11.8456
▁trial	-11.8456
psi	-11.8457
▁Enzymology	-11.8458
angio	-11.8459
▁demonstrating	-11.8462
▁0.78	-11.8463
▁(0.16	-11.8465
▁dimerization	-11.8466
▁NIH	-11.8467
bearing	-11.8468
invasive	-11.8471
dio	-11.8472
fibro	-11.8476
dihydropyridin	-11.8476
olefins	-11.8476
▁veterinary	-11.8478
▁proto	-11.8479
▁row	-11.848
UG	-11.848
▁Stirring	-11.8482
zole	-11.8482
▁redissolved	-11.8483
▁fen	-11.8485
▁Studies	-11.8486
[1,2,4]	-11.8486
▁borane	-11.8488
aka	-11.8488
▁PPAR	-11.849
activating	-11.8491
▁impaired	-11.8493
▁77%	-11.8494
▁pUC	-11.8495
▁ordinarily	-11.8497
Fab	-11.8498
▁glycoside	-11.8498
ison	-11.8501
376	-11.8502
▁cage	-11.8503
▁Oral	-11.8504
▁operatively	-11.8509
▁packing	-11.8511
▁polysaccharides	-11.8511
▁FITC	-11.8512
▁facilitates	-11.8513
trimethoxy	-11.8513
▁Neu	-11.8514
igh	-11.8516
▁Madison	-11.8517
:27	-11.8518
XXII	-11.8518
Martin	-11.852
▁amplicon	-11.8521
olysis	-11.8522
▁thioether	-11.8524
▁lipase	-11.8525
▁267	-11.8528
glyceride	-11.853
007	-11.8533
▁cisplatin	-11.8533
▁monostearate	-11.8533
▁1.55	-11.8535
▁1.81	-11.8535
current	-11.8536
▁polyamide	-11.8539
▁phosphoramidite	-11.854
▁enzymatically	-11.8541
▁isolates	-11.8548
▁repertoire	-11.8548
▁biomolecule	-11.8549
▁triphosphate	-11.8549
▁(12)	-11.8551
aspartate	-11.8555
oper	-11.8557
=4.0	-11.8558
1.60	-11.8559
2.20	-11.8561
▁elemental	-11.8563
:33	-11.8566
▁blots	-11.8566
▁Thermo	-11.8569
▁3.09	-11.8569
▁ACT	-11.8571
▁GB	-11.8572
(3-(4-	-11.8572
▁tagged	-11.8574
▁pET	-11.8574
▁SFC	-11.8576
nap	-11.8577
▁sesame	-11.858
dihydropyridine	-11.858
▁pores	-11.8581
▁XX	-11.8582
-((5-	-11.8583
▁1989)	-11.8583
1.70	-11.8584
▁crosslinked	-11.8586
yno	-11.8586
237	-11.8587
158	-11.8588
▁relating	-11.8592
)-3-((	-11.8599
▁turned	-11.86
▁intramuscularly	-11.8603
=1.3	-11.8605
:31	-11.8606
▁sulphuric	-11.8608
▁suited	-11.8611
▁compression	-11.8612
▁chromosomes	-11.8612
trifluoroacetyl	-11.8612
187	-11.8615
▁Chinese	-11.8615
Clontech	-11.8615
▁disclose	-11.8618
▁interacts	-11.8623
Protective	-11.8623
quinoxalin	-11.8625
▁trait	-11.8626
▁650	-11.8627
▁traditional	-11.8627
{6-	-11.8628
▁electrodes	-11.8631
▁1.60	-11.8633
▁practiced	-11.8634
▁osmotic	-11.8635
head	-11.8636
▁kinetic	-11.8638
▁MUC	-11.8641
ask	-11.8641
▁plays	-11.8645
▁arrays	-11.8646
236	-11.8647
▁alkenylene	-11.8647
▁default	-11.8651
▁temp	-11.8657
▁mid	-11.8658
ATG	-11.8661
▁glu	-11.8661
diimidazole	-11.8667
▁eosinophil	-11.8667
▁bleach	-11.8671
▁disintegrating	-11.8671
▁true	-11.8672
▁affects	-11.8673
▁sort	-11.8674
65°	-11.8675
-(4-(2-	-11.8678
-3'-	-11.8678
pri	-11.8678
esterification	-11.8679
rant	-11.868
▁amination	-11.8681
▁Staphylococcus	-11.8683
ado	-11.8685
▁anxiety	-11.8687
▁sublingual	-11.8687
▁protons	-11.8687
▁Greene	-11.8688
▁triazole	-11.8689
▁regular	-11.8691
methoxypyridin	-11.8691
enter	-11.8694
▁medication	-11.8695
▁0.44	-11.8695
▁265	-11.8696
▁bioactive	-11.8697
▁7%	-11.8697
lacto	-11.8699
▁Opin	-11.87
{[(1	-11.87
▁About	-11.87
▁Lipo	-11.87
MALDI	-11.8703
▁Nu	-11.8704
▁pyruvate	-11.8704
▁herbicide	-11.8706
▁candidates	-11.8707
▁platelets	-11.8707
uit	-11.8707
▁FVIII	-11.8708
▁Endo	-11.871
Pyr	-11.871
▁Flu	-11.871
▁thrombosis	-11.8711
▁alcoholic	-11.8711
NHCO	-11.8714
▁Photo	-11.8718
▁analyzing	-11.8719
▁polysorbate	-11.8719
pregn	-11.872
▁Potassium	-11.8723
159	-11.8723
▁exclude	-11.8727
▁allergen	-11.8728
▁dog	-11.8729
470	-11.8729
enantiomer	-11.873
▁originally	-11.8731
indene	-11.8735
▁Pharmacia	-11.8742
297	-11.8742
▁neopentyl	-11.8743
▁glycosyl	-11.8744
▁4′-	-11.8745
267	-11.8746
▁carbodiimide	-11.8747
radio	-11.8748
▁wise	-11.8748
▁lymphoid	-11.8749
▁solubilizing	-11.8751
▁pcDNA	-11.8751
oxepin	-11.8751
tention	-11.8755
gradient	-11.8755
▁Normal	-11.8755
7.15	-11.8759
▁accessible	-11.8759
▁4.48	-11.876
▁tower	-11.876
=3.0	-11.8763
-1′	-11.8763
▁purge	-11.8765
DCI	-11.8765
1.35	-11.8769
halide	-11.877
▁dynamic	-11.877
arco	-11.877
▁2-[(	-11.8772
ethanesulfonic	-11.8774
▁microliters	-11.8775
−/−	-11.8775
cyanoborohydride	-11.8779
▁patches	-11.8781
)-5-(4-	-11.8787
response	-11.8787
▁cats	-11.8787
▁discharged	-11.8792
gag	-11.8794
▁sero	-11.8794
rank	-11.8796
▁trityl	-11.8798
▁33%	-11.8799
▁microspheres	-11.8799
▁return	-11.8804
▁counting	-11.8806
▁mmHg	-11.8807
▁attenuated	-11.8808
▁Yet	-11.8811
▁Indeed	-11.8811
▁Fluor	-11.8812
benzodioxol	-11.8813
▁expressly	-11.8814
▁herbicides	-11.8816
hit	-11.8817
75%	-11.8819
reperfusion	-11.8823
▁5×	-11.8823
▁arylthio	-11.8824
▁(3×50	-11.8824
▁conductive	-11.8824
▁yellowish	-11.8827
URE	-11.8829
▁exhaust	-11.8831
▁quinolinyl	-11.8831
▁myc	-11.8834
▁Ultra	-11.8835
270	-11.8835
▁schematic	-11.8838
▁prefer	-11.8839
carboxymethyl	-11.8839
▁Adv	-11.884
ylcarbamate	-11.8841
▁ionization	-11.8843
▁peanut	-11.8843
▁Isolated	-11.8844
▁Due	-11.8845
▁lens	-11.8845
▁monkeys	-11.8848
▁filler	-11.8849
▁APCI	-11.8853
▁mercaptan	-11.8855
▁denaturation	-11.8855
▁schizophrenia	-11.8855
fus	-11.8858
▁TAT	-11.8859
▁Treg	-11.8859
▁reasons	-11.886
▁dispersant	-11.8864
▁customary	-11.8864
▁untranslated	-11.8864
▁shear	-11.8865
thiazolidine	-11.8865
GTT	-11.8866
▁serotonin	-11.8868
▁lesion	-11.8869
▁likewise	-11.8872
2.25	-11.8873
chemiluminescent	-11.8876
cresol	-11.8876
▁4.39	-11.8877
▁examine	-11.8877
▁6.72	-11.8878
unit	-11.8879
268	-11.888
226	-11.8881
WT	-11.8883
abbreviated	-11.8884
▁mellitus	-11.8884
▁Transformation	-11.8884
propyloxy	-11.8887
dibenzyl	-11.8889
▁pairing	-11.8893
248	-11.8893
▁year	-11.8898
▁6.60	-11.89
▁opioid	-11.89
navir	-11.8901
▁Vector	-11.8901
▁mucosal	-11.8902
▁Analog	-11.8904
▁duplexes	-11.8905
-5,7-	-11.8906
▁(110	-11.8906
▁agricultural	-11.8908
580	-11.8908
▁paclitaxel	-11.8909
▁arise	-11.891
lock	-11.891
biotin	-11.8911
▁concurrently	-11.8911
▁(0.30	-11.8912
▁insecticidal	-11.8912
▁lyophilization	-11.8913
AGG	-11.8913
oda	-11.8915
▁osteoporosis	-11.8916
399	-11.8918
▁generic	-11.8918
▁lyophil	-11.8918
▁pneumoniae	-11.8918
▁circuit	-11.8921
1.40	-11.8926
lex	-11.8927
▁spraying	-11.8928
:42	-11.8929
▁placebo	-11.8931
hydroxybenzoate	-11.8931
oxan	-11.8932
=20	-11.8934
▁avidin	-11.8935
▁trauma	-11.8935
7.36	-11.8935
=2.6	-11.8941
▁trifluoride	-11.8942
phenylpropyl	-11.8945
oder	-11.8951
▁principles	-11.8952
156	-11.8955
azin	-11.8956
porous	-11.8957
▁cascade	-11.8961
Ethoxy	-11.8963
▁8.35	-11.8963
▁depicts	-11.8964
}-5-	-11.8964
▁insects	-11.8969
Cbz	-11.897
▁edema	-11.8975
Ti	-11.8975
neoplastic	-11.8976
volume	-11.8978
▁underlying	-11.8978
435	-11.8982
cyclophosphamide	-11.8986
▁4.58	-11.8987
field	-11.8988
GAP	-11.8993
▁distilling	-11.8994
▁Kinase	-11.8994
▁cure	-11.8996
▁acylated	-11.8996
aro	-11.8997
4.00	-11.8999
itt	-11.8999
▁0.70	-11.9002
▁4.37	-11.9002
▁(270	-11.9002
▁unbranched	-11.9003
▁Bis	-11.9003
▁fr	-11.9007
▁−10°	-11.9008
▁undergoing	-11.9008
tyrosine	-11.9009
▁pB	-11.9009
0.001	-11.9009
amidate	-11.9009
rh	-11.9013
▁8.28	-11.9015
7.29	-11.902
▁Color	-11.9021
▁#2	-11.9021
▁8.27	-11.9022
sym	-11.9023
390	-11.9024
▁dehydrated	-11.9027
▁suppressing	-11.9031
▁PBMCs	-11.9033
▁Pichia	-11.9035
▁partners	-11.9039
cf	-11.9041
▁alkoxyl	-11.9041
▁transformant	-11.9043
▁neither	-11.9044
▁hydrazide	-11.9046
▁summary	-11.9048
▁histamine	-11.9048
butyloxycarbonyl	-11.9056
profen	-11.9058
chlorination	-11.9061
▁termini	-11.9062
▁208	-11.9062
▁Only	-11.9064
50.0	-11.9065
▁Radio	-11.9066
through	-11.9068
hip	-11.9068
▁neuropathy	-11.9069
▁292	-11.9069
▁(0.18	-11.9071
239	-11.9072
change	-11.9074
BRL	-11.9075
▁dropped	-11.9077
▁characterize	-11.9079
179	-11.908
heterocycle	-11.908
▁Chain	-11.9082
▁8.24	-11.9082
▁dominant	-11.9082
▁luminescence	-11.9083
▁ready	-11.9084
/0.1%	-11.9085
bath	-11.9085
▁VEGFR	-11.9085
-1,1′-	-11.9086
▁pmol	-11.9087
mega	-11.9088
▁0.82	-11.9088
,21-	-11.9092
immunodeficiency	-11.9093
▁impairment	-11.9093
▁0.43	-11.9094
1.30	-11.9094
▁advance	-11.9095
iding	-11.9096
run	-11.9096
rrh	-11.9097
▁Express	-11.9097
▁tubular	-11.9097
▁antisera	-11.9097
▁wave	-11.9099
▁carbocycle	-11.9102
▁driven	-11.9103
50,000	-11.9105
▁enrichment	-11.9106
reaction	-11.911
▁overhang	-11.9114
▁calcination	-11.9114
▁utilizes	-11.9115
tail	-11.9116
▁needles	-11.9117
methylsulfanyl	-11.9117
eath	-11.9118
lith	-11.9121
KV	-11.9121
▁8.29	-11.9121
-[3-(4-	-11.9125
▁4.70	-11.9126
▁ampoule	-11.9126
=0.3	-11.9128
-2(3	-11.913
2,5-	-11.9132
ALL	-11.9132
▁advanced	-11.9133
▁England	-11.9135
▁regardless	-11.9135
receiver	-11.9139
▁cocktail	-11.9139
▁retinopathy	-11.9139
furfuryl	-11.9139
adrenergic	-11.9143
▁6.74	-11.9149
▁4.34	-11.9149
▁Inhibit	-11.9154
rator	-11.9155
fine	-11.9157
▁76%	-11.9159
-1,8-	-11.916
▁1,2,3-	-11.9166
ethano	-11.9167
▁11.6	-11.9167
pentamethyl	-11.9169
▁designation	-11.917
electro	-11.9172
▁taught	-11.9172
▁elute	-11.9176
▁naphtha	-11.9178
▁incomplete	-11.918
ira	-11.9184
▁silk	-11.9185
▁TRP	-11.9186
▁absorb	-11.9186
▁possessing	-11.9187
thyr	-11.9187
enoyl	-11.9188
▁viewpoint	-11.9189
▁ALK	-11.9191
phenylenediamine	-11.9196
▁ameliorating	-11.9197
uth	-11.9198
XXI	-11.9202
▁beam	-11.9203
furanyl	-11.9208
ware	-11.921
▁4'-	-11.9214
agent	-11.9214
▁neural	-11.9214
RED	-11.9219
luc	-11.9221
▁sold	-11.9222
▁Pur	-11.9223
▁gentle	-11.9223
▁promotes	-11.9224
▁nucleobase	-11.9226
▁dipeptide	-11.9226
▁Patients	-11.9227
itter	-11.9228
decanoyl	-11.923
decanoic	-11.9231
XVIII	-11.9231
▁oxidant	-11.9231
guan	-11.9233
▁7.4)	-11.9238
▁connecting	-11.9239
▁traits	-11.9241
▁intrinsic	-11.9244
▁macromolecule	-11.9244
-[5-(	-11.9244
▁meet	-11.9244
▁quench	-11.9247
▁79%	-11.9248
▁radionuclide	-11.9248
▁stack	-11.9249
anhydride	-11.9251
▁4.80	-11.9253
▁DPP	-11.9254
▁monomethyl	-11.9255
iodide	-11.926
366	-11.9262
▁narrow	-11.9265
Butoxycarbonyl	-11.9265
▁microplate	-11.9266
▁nonionic	-11.9267
▁6.67	-11.9267
▁0.66	-11.9268
▁Silica	-11.9269
adenosine	-11.9272
NHSO	-11.9276
▁intrathecal	-11.9277
▁AMP	-11.9278
toluenesulfonate	-11.9279
▁72%	-11.928
▁randomized	-11.9281
ISP	-11.9283
▁families	-11.9286
▁publicly	-11.9288
▁Genetic	-11.9288
ORF	-11.929
▁technologies	-11.929
▁Present	-11.929
▁siloxane	-11.9292
Quant	-11.9292
▁benign	-11.9294
▁dishes	-11.9297
50%	-11.9298
▁cytoplasm	-11.9299
▁butadiene	-11.93
▁hind	-11.93
ilin	-11.93
▁monosaccharide	-11.9301
=1.1	-11.9302
▁fibronectin	-11.9307
defined	-11.9308
▁Sepharose	-11.9318
nonan	-11.9318
▁node	-11.9319
009	-11.932
▁entireties	-11.932
▁weighing	-11.932
▁ErbB	-11.932
▁checkpoint	-11.932
▁retrovirus	-11.9322
▁folding	-11.9322
▁0.67	-11.9324
▁investigation	-11.9328
▁principal	-11.9328
▁Bcl	-11.9329
▁4.43	-11.9331
▁256	-11.9333
▁1.70	-11.9334
▁Phosphor	-11.9336
▁sandwich	-11.9341
290	-11.9343
uter	-11.9345
hydroformylation	-11.9345
targeting	-11.9347
▁diversity	-11.9349
▁glioma	-11.9349
7.27	-11.935
▁isothiazolyl	-11.9352
atase	-11.9352
▁flowing	-11.9356
ocytosis	-11.9356
▁furthermore	-11.9358
▁exothermic	-11.9358
▁transiently	-11.9359
=0.4	-11.9359
▁checked	-11.9364
▁triacetoxyboro	-11.9367
▁Mab	-11.9367
▁TNFR	-11.9369
saturated	-11.9369
GK	-11.937
▁236	-11.9371
pyrano	-11.9374
▁trichloride	-11.9375
sulphonate	-11.9376
▁adjustment	-11.9376
▁Salmonella	-11.9384
▁adversely	-11.9388
▁HMG	-11.9389
▁5.10	-11.9389
▁accompanied	-11.9392
▁glioblastoma	-11.9392
▁4.41	-11.9394
▁6.73	-11.9398
▁Reagent	-11.9398
▁Five	-11.94
▁inserting	-11.9402
Form	-11.9403
▁face	-11.9404
243	-11.9407
▁HGF	-11.9408
▁steric	-11.9409
anil	-11.9413
▁Heat	-11.9418
▁perfume	-11.9422
▁suppressed	-11.9424
▁user	-11.9424
▁(0.17	-11.9426
two	-11.9429
▁lineage	-11.9432
▁analyze	-11.9433
▁luminescent	-11.9434
▁intervening	-11.9435
▁(13)	-11.9437
▁neutrophils	-11.9442
▁Streptomyces	-11.9444
▁incidence	-11.9444
▁8.45	-11.9444
imidazolidine	-11.9444
chlorosilane	-11.945
016	-11.945
▁0.72	-11.9455
▁availability	-11.9456
▁Phenyl	-11.9457
▁placenta	-11.946
▁continuation	-11.9461
▁ketal	-11.9462
assay	-11.9462
▁00	-11.9462
▁(20%	-11.9464
▁phosgene	-11.9465
typic	-11.9466
▁constituents	-11.9466
▁vertical	-11.9466
▁macular	-11.9469
▁Percent	-11.947
▁1988,	-11.947
▁enol	-11.9471
▁4.52	-11.9472
▁plotted	-11.9475
▁unlabeled	-11.9475
▁4.46	-11.9475
299	-11.9478
scale	-11.9478
▁impregnated	-11.9478
▁4.75	-11.9478
ower	-11.9479
×250	-11.9482
▁lacks	-11.9486
▁Generation	-11.9488
▁MASP	-11.9493
1.10	-11.9498
▁276	-11.9499
▁dimethylamine	-11.9499
▁denaturing	-11.95
▁(2×20	-11.95
ortho	-11.95
309	-11.9506
▁sweet	-11.9508
▁adapt	-11.9508
▁Region	-11.9509
(1-(4-	-11.951
▁quite	-11.9513
▁cleaving	-11.9513
▁4.44	-11.9514
▁cleaning	-11.9514
1.45	-11.9515
▁coil	-11.9517
▁Organ	-11.9517
▁Primary	-11.9517
(10)	-11.9517
decomp	-11.9522
▁8.50	-11.9522
▁thereon	-11.9523
▁vir	-11.9525
▁0.47	-11.9525
▁immunizing	-11.9526
▁letter	-11.9526
▁ultrafiltration	-11.9526
▁(0.22	-11.9527
fluorescence	-11.9529
▁264	-11.9531
(4,6-	-11.9531
▁transmission	-11.9531
growth	-11.9533
ery	-11.9539
▁Blot	-11.954
▁streptomycin	-11.954
▁discharge	-11.9542
▁width	-11.9543
▁diluting	-11.9543
nectin	-11.9546
▁isopropoxy	-11.9547
▁capped	-11.9548
▁400°	-11.9548
viridae	-11.9548
▁generator	-11.9552
=0.1	-11.9553
7,8,9,10	-11.9554
▁Host	-11.9556
Cyclo	-11.9559
benzhydryl	-11.9561
TGF	-11.9561
prophylactically	-11.9567
synthetic	-11.9567
337	-11.9568
▁disintegrant	-11.9569
▁diffuse	-11.9569
▁Enzymol	-11.9569
▁37%	-11.957
▁diagnosing	-11.9573
butyro	-11.9574
value	-11.9574
flex	-11.9578
mmunosuppressive	-11.9582
▁homogenized	-11.9582
▁fructose	-11.9582
nicotinate	-11.9584
Water	-11.9586
380	-11.9587
▁propionyl	-11.9589
▁8.40	-11.959
▁8.38	-11.9592
▁magnitude	-11.9595
▁phospholipid	-11.9596
▁Block	-11.9596
TGT	-11.9596
ago	-11.9596
▁Tablets	-11.9598
▁MCP	-11.9601
▁equally	-11.9601
7.37	-11.9602
▁desirably	-11.9604
oxazolyl	-11.9604
157	-11.9607
▁Syndrome	-11.9608
▁transferring	-11.961
▁42°	-11.9618
189	-11.9619
▁malic	-11.9622
▁salicylic	-11.9623
7.18	-11.9628
dimethylsilyl	-11.9629
-3-[4-(	-11.963
▁confers	-11.9631
2.50	-11.9632
ASE	-11.9635
209	-11.9635
esophageal	-11.9639
▁nucleobases	-11.9639
×150	-11.9641
7.10	-11.9643
inium	-11.9643
▁polycarbonate	-11.9644
propen	-11.9644
phospha	-11.9644
activate	-11.9647
▁Usually	-11.9648
▁exons	-11.9649
yco	-11.9649
▁380	-11.9649
▁6,7-	-11.9652
▁phenylene	-11.9652
98%	-11.9653
)-4-[	-11.9654
azulen	-11.9654
methy	-11.9654
▁dividing	-11.9656
▁valence	-11.9656
psychotic	-11.9656
▁phenotypic	-11.9656
oxygen	-11.9657
0.2°	-11.9658
▁triglycerides	-11.9661
region	-11.9665
▁alia	-11.9667
most	-11.9669
4,5,6-	-11.967
centr	-11.967
=0.2	-11.967
stimulated	-11.9674
▁PNAS	-11.9675
PAR	-11.9678
EDTA	-11.9679
▁5.20	-11.9679
methylcarbamoyl	-11.968
▁297	-11.968
mRNA	-11.9681
▁Perkin	-11.9681
▁Coupling	-11.9683
▁metathesis	-11.9683
▁Nuclear	-11.9683
Trifluoro	-11.9685
▁Rho	-11.9685
▁0-2	-11.9686
▁triflate	-11.9687
perhydro	-11.969
▁displace	-11.9691
open	-11.9695
▁dNTP	-11.9696
▁median	-11.9697
indeno	-11.9698
dimethylpropyl	-11.97
434	-11.9701
▁PGE	-11.9702
parent	-11.9703
ribonucleotide	-11.9705
▁homozygous	-11.9705
▁representation	-11.9706
265	-11.9706
withdrawing	-11.9709
▁1980	-11.9709
▁ESIMS	-11.9711
camptothecin	-11.9714
▁(14)	-11.9715
Luc	-11.9723
▁1981	-11.9723
▁Formation	-11.9727
770	-11.973
▁disrupted	-11.9731
▁Diagnostic	-11.9731
1.15	-11.9732
▁steady	-11.9736
▁ethoxide	-11.9736
▁Male	-11.9737
▁Dose	-11.9738
EtOH	-11.9738
▁subclass	-11.9738
▁biopsy	-11.974
glycan	-11.974
responsive	-11.9741
graphic	-11.9742
)-4,4-	-11.9745
▁4.47	-11.9747
▁word	-11.9749
▁breeding	-11.9749
▁tungsten	-11.9749
▁creating	-11.9749
▁benzimidazolyl	-11.975
rative	-11.9753
▁Cross	-11.9755
1.98	-11.9756
▁chilled	-11.9758
▁automatic	-11.9758
Max	-11.9761
▁dissociate	-11.9762
Glo	-11.9763
▁past	-11.9764
▁thickening	-11.9767
process	-11.9767
Condition	-11.9771
=0.7	-11.9773
000×	-11.9774
▁printing	-11.9776
-10%	-11.978
▁298	-11.9782
tricyclo	-11.9785
490	-11.9786
▁Glyco	-11.9794
▁4.56	-11.9795
▁SEC	-11.9797
▁deleterious	-11.9798
[5-(4-	-11.9798
▁tolerated	-11.9798
7.39	-11.9799
▁sulfite	-11.9799
▁Suzuki	-11.9802
▁Especially	-11.9802
▁convenience	-11.9802
▁practitioner	-11.9802
3)—	-11.9803
nzyloxycarbonyl	-11.9805
▁endpoint	-11.9809
▁singly	-11.9812
▁8.32	-11.9815
▁amplifying	-11.9817
ku	-11.9821
-2,2,2-	-11.9822
▁deca	-11.9824
borane	-11.9829
ANG	-11.9829
RSV	-11.9831
▁maltose	-11.9833
▁alleviate	-11.9834
▁SNPs	-11.9834
▁subsequence	-11.9835
▁polymorphisms	-11.9835
[...]
