<unk>	0
<s>	0
</s>	0
,	-2.80136
.	-3.40264
▁the	-3.54266
▁of	-3.78342
▁and	-4.07832
-	-4.10017
▁(	-4.1343
▁a	-4.23091
)	-4.25507
▁to	-4.36352
▁in	-4.47019
H	-4.6607
▁or	-4.7452
▁is	-4.85301
),	-4.90697
▁	-4.95136
▁The	-5.0035
▁was	-5.00601
s	-5.12991
▁with	-5.14085
▁1	-5.17344
▁for	-5.18
▁as	-5.22564
▁by	-5.33791
▁be	-5.39585
2	-5.49624
▁at	-5.55512
▁are	-5.58525
▁C	-5.59501
▁an	-5.61985
:	-5.6591
/	-5.66596
;	-5.78022
▁from	-5.78078
▁acid	-5.80308
▁2	-5.82368
C	-5.85483
▁In	-5.91272
m	-5.93112
1	-5.93418
▁that	-5.93976
3	-6.02732
).	-6.05045
▁R	-6.05497
▁may	-6.07633
▁can	-6.09698
(	-6.1018
d	-6.11311
▁compound	-6.13822
▁J	-6.14173
▁which	-6.15233
▁were	-6.17562
▁g	-6.18024
▁invention	-6.20064
▁A	-6.20462
▁group	-6.20749
▁such	-6.21503
▁3	-6.25443
yl	-6.25894
g	-6.27043
▁one	-6.30095
▁mixture	-6.33608
▁reaction	-6.3593
e	-6.37729
4	-6.38158
▁Hz	-6.38865
▁used	-6.39269
▁solution	-6.40549
▁mg	-6.42377
▁mmol	-6.4383
▁mL	-6.48152
N	-6.4826
]	-6.48878
S	-6.4901
▁about	-6.52929
R	-6.56133
▁added	-6.56813
▁N	-6.58502
▁Example	-6.60265
▁example	-6.60939
O	-6.61086
▁on	-6.62
▁present	-6.62869
▁H	-6.63224
▁5	-6.6479
methyl	-6.6675
M	-6.68038
▁cells	-6.68441
-2-	-6.69655
▁4	-6.70292
▁m	-6.72164
a	-6.73654
▁using	-6.73953
▁more	-6.74094
▁sequence	-6.74506
▁described	-6.75392
▁amino	-6.79623
▁compounds	-6.81107
6	-6.81593
▁(1	-6.8441
5	-6.86036
▁not	-6.86206
▁temperature	-6.86841
▁ml	-6.87635
”	-6.87887
▁“	-6.88847
▁embodiments	-6.90001
▁include	-6.90321
▁cell	-6.91782
▁water	-6.93079
▁then	-6.93371
▁herein	-6.95079
or	-6.96933
▁10	-6.97223
▁protein	-6.98662
▁antibody	-6.98783
▁6	-6.98987
▁least	-7.00403
▁other	-7.00743
▁under	-7.0249
▁also	-7.02666
A	-7.03079
▁formula	-7.04872
-1	-7.04941
▁this	-7.05566
▁ID	-7.06024
-4-	-7.08166
▁embodiment	-7.08576
▁alkyl	-7.08705
▁—	-7.09159
▁wherein	-7.11503
-3-	-7.14487
▁substituted	-7.14638
-1-	-7.14856
▁NO	-7.14982
▁stirred	-7.15061
▁into	-7.15742
CH	-7.15946
▁above	-7.16534
▁preferably	-7.17612
t	-7.19115
▁al	-7.19118
);	-7.19765
▁product	-7.19847
)-	-7.20149
▁et	-7.20281
b	-7.205
phenyl	-7.21008
▁each	-7.21543
▁obtained	-7.21613
▁B	-7.22948
▁method	-7.24963
▁having	-7.2637
+	-7.26692
▁any	-7.27697
amino	-7.29472
7	-7.29597
▁sodium	-7.29975
▁(2	-7.30208
▁thereof	-7.31128
▁solid	-7.31631
▁prepared	-7.31716
L	-7.32918
8	-7.34719
▁μ	-7.35136
▁some	-7.35627
▁organic	-7.358
▁hours	-7.35861
▁selected	-7.36633
▁s	-7.37192
▁ethyl	-7.37771
▁it	-7.39464
▁M	-7.39634
▁form	-7.39708
▁than	-7.4014
▁have	-7.41486
▁e	-7.41623
▁dried	-7.42732
▁solvent	-7.43656
▁SEQ	-7.43822
▁washed	-7.43872
I	-7.44145
▁binding	-7.44516
▁containing	-7.45147
▁acetate	-7.45791
▁residue	-7.46448
▁I	-7.46461
▁has	-7.46715
▁over	-7.46944
▁NMR	-7.47
▁but	-7.47703
▁2-	-7.47919
▁concentrated	-7.48647
▁two	-7.48765
▁For	-7.49044
▁δ	-7.49176
▁groups	-7.49578
B	-7.49601
▁comprising	-7.49779
▁DNA	-7.49909
▁according	-7.50061
c	-7.50264
▁hydrogen	-7.5037
▁d	-7.51512
▁[	-7.51671
▁T	-7.51768
▁following	-7.52264
▁human	-7.52707
▁further	-7.5275
▁room	-7.52924
▁carbon	-7.53995
▁20	-7.54277
▁known	-7.54692
▁purified	-7.56274
D	-7.56836
▁S	-7.5784
▁expression	-7.57923
▁-	-7.5871
▁methods	-7.59393
▁activity	-7.59581
▁aqueous	-7.59697
▁another	-7.59779
ethyl	-7.59971
▁antibodies	-7.6001
1-	-7.60253
▁To	-7.60649
9	-7.60774
▁polypeptide	-7.61262
▁h	-7.61457
▁amount	-7.62213
z	-7.62499
▁same	-7.62755
▁non	-7.6355
▁After	-7.63566
p	-7.63631
▁acids	-7.64067
▁L	-7.64406
▁sequences	-7.64948
▁30	-7.66033
▁anti	-7.66248
▁chloride	-7.6664
▁gene	-7.6685
l	-7.67407
▁art	-7.68356
'	-7.68392
▁pressure	-7.68635
▁composition	-7.68824
▁MHz	-7.689
▁This	-7.69097
▁nucleic	-7.69169
▁use	-7.70607
-5-	-7.70846
▁chain	-7.70911
▁chromatography	-7.71357
▁between	-7.71439
▁D	-7.71553
▁min	-7.71588
▁column	-7.71654
▁addition	-7.7186
▁salt	-7.72079
▁will	-7.72093
▁give	-7.7234
▁agent	-7.74094
butyl	-7.74421
▁methyl	-7.7445
▁atoms	-7.74885
▁15	-7.75118
▁8	-7.75199
▁well	-7.75748
▁7	-7.76256
▁process	-7.76262
0	-7.76678
▁X	-7.76842
▁100	-7.7705
▁yield	-7.77148
▁minutes	-7.77398
▁those	-7.77483
▁p	-7.79235
▁layer	-7.79625
▁preferred	-7.79633
i	-7.79759
▁including	-7.79872
▁treatment	-7.79952
▁peptide	-7.80119
▁(3	-7.80355
▁been	-7.80649
▁filtered	-7.80907
▁these	-7.81163
▁As	-7.81379
▁weight	-7.81635
▁shown	-7.81693
▁title	-7.81811
▁optionally	-7.81957
▁reduced	-7.82137
▁agents	-7.83456
▁E	-7.83532
▁50	-7.83557
▁suitable	-7.83723
3,	-7.83867
n	-7.84219
):	-7.84592
▁like	-7.84865
▁PAC	-7.84982
F	-7.85465
▁resulting	-7.85778
▁4-	-7.86112
▁PA	-7.86499
▁CH	-7.87531
▁No	-7.87824
▁active	-7.88072
P	-7.88383
▁gel	-7.88455
▁conditions	-7.88653
▁after	-7.89016
▁comprises	-7.89411
chloro	-7.8994
E	-7.9036
▁material	-7.91012
▁P	-7.91498
▁catalyst	-7.92463
ing	-7.92579
2,	-7.92758
▁9	-7.92793
-2	-7.93011
▁when	-7.93747
▁Compound	-7.94366
▁term	-7.94394
▁Formula	-7.94503
▁n	-7.94547
alkyl	-7.94635
ed	-7.95595
▁step	-7.95699
▁dissolved	-7.96137
▁limited	-7.96338
hydroxy	-7.96391
10	-7.96844
▁ring	-7.9694
▁region	-7.97036
3)	-7.97436
▁oil	-7.9767
▁ether	-7.97717
▁through	-7.97921
▁proteins	-7.97969
▁specific	-7.98165
▁cancer	-7.98218
▁U	-7.98255
▁first	-7.98487
—	-7.98516
one	-7.98994
▁3-	-7.99029
▁certain	-7.99214
▁Examples	-7.99385
▁time	-7.9949
▁disease	-7.99531
▁F	-7.99557
▁ester	-7.99764
▁molecule	-8.00276
▁out	-8.00537
▁MS	-8.01254
▁all	-8.01565
▁O	-8.0167
▁EXAMPLE	-8.01916
▁administration	-8.01927
▁particular	-8.02535
"	-8.02762
▁phase	-8.02874
▁pH	-8.03166
▁light	-8.03269
▁extracted	-8.03292
▁presence	-8.04441
▁concentration	-8.04576
▁"	-8.05745
▁silica	-8.06003
▁mM	-8.06256
▁compositions	-8.06978
▁antigen	-8.07376
▁where	-8.08769
▁different	-8.08801
▁Step	-8.09057
ly	-8.09169
▁its	-8.09295
▁provided	-8.0961
▁It	-8.09718
▁desired	-8.09807
▁G	-8.10371
▁atom	-8.10437
▁high	-8.11213
▁CD	-8.11265
▁treated	-8.11276
▁acceptable	-8.11455
▁said	-8.11465
▁12	-8.1179
▁administered	-8.12317
▁liquid	-8.13035
dd	-8.13132
▁combined	-8.13243
▁system	-8.13738
methoxy	-8.1381
▁defined	-8.14026
▁domain	-8.14179
▁aryl	-8.14225
▁removed	-8.14718
▁target	-8.15777
▁within	-8.17107
▁refers	-8.17108
▁receptor	-8.17325
dimethyl	-8.17763
▁13	-8.17768
▁nitrogen	-8.17954
T	-8.18105
▁consisting	-8.18109
▁second	-8.18141
▁t	-8.18338
▁less	-8.18563
oxo	-8.18944
▁followed	-8.1919
▁independently	-8.19343
▁per	-8.19972
▁below	-8.20527
fluoro	-8.20703
▁found	-8.21676
▁5-	-8.21847
▁both	-8.22291
▁number	-8.2269
▁single	-8.23291
▁pharmaceutical	-8.23368
▁K	-8.23487
▁methanol	-8.23513
▁their	-8.23526
▁procedure	-8.2366
▁Table	-8.24269
▁metal	-8.24564
▁Preparation	-8.24682
▁includes	-8.24793
▁cooled	-8.2511
▁general	-8.25175
pharmaceutically	-8.25357
▁subject	-8.25404
▁control	-8.25755
▁salts	-8.25884
▁16	-8.26898
▁three	-8.2753
▁combination	-8.27541
in	-8.27693
dihydro	-8.27842
▁examples	-8.27846
▁molecules	-8.28179
▁base	-8.28244
▁heated	-8.28839
▁provides	-8.28932
▁saturated	-8.28975
▁lower	-8.29247
▁crude	-8.30296
SEQ	-8.30326
▁=	-8.30703
[	-8.30799
▁fragment	-8.30925
▁results	-8.31314
MS	-8.31338
-6-	-8.31822
▁sample	-8.31938
▁sulfate	-8.31954
▁structure	-8.32253
▁range	-8.32488
6)	-8.32512
G	-8.32925
▁comprise	-8.33158
▁being	-8.33209
▁without	-8.3375
▁means	-8.34459
▁performed	-8.3458
1,	-8.34683
▁vector	-8.34715
▁carried	-8.34749
▁##	-8.35115
▁determined	-8.3537
▁useful	-8.35477
▁encoding	-8.3579
▁reference	-8.35844
Cl	-8.36131
4,	-8.36137
▁--	-8.36628
)-2-	-8.37175
▁either	-8.38498
di	-8.38599
▁phenyl	-8.38806
▁medium	-8.38828
▁1-	-8.39232
pyridin	-8.3928
▁produced	-8.39322
▁evaporated	-8.39323
▁isolated	-8.39781
v	-8.39847
▁provide	-8.39993
▁manner	-8.4012
▁assay	-8.40604
▁various	-8.40651
▁25	-8.41078
▁effective	-8.41275
▁0	-8.41335
▁buffer	-8.41366
▁similar	-8.41379
▁unsubstituted	-8.41587
▁analysis	-8.41656
▁RNA	-8.42173
SO	-8.42332
▁no	-8.42551
▁IL	-8.42854
▁These	-8.43069
▁preparation	-8.43113
▁Y	-8.43367
▁di	-8.43521
▁white	-8.43771
▁corresponding	-8.43856
STR	-8.43951
X	-8.44388
▁(10	-8.44393
▁V	-8.44952
ml	-8.4512
▁An	-8.45549
▁residues	-8.45641
12	-8.45688
▁contain	-8.45721
▁diluted	-8.45911
▁mol	-8.46115
▁host	-8.46989
▁aspect	-8.47436
▁therapeutic	-8.47466
▁(5	-8.47807
▁disclosed	-8.47874
]-	-8.47956
▁test	-8.48073
▁24	-8.48439
oxy	-8.48474
▁(400	-8.48663
carboxylic	-8.48683
▁nucleotide	-8.49644
▁40	-8.4982
propyl	-8.50143
▁obtain	-8.50438
▁site	-8.50563
▁type	-8.50796
▁tumor	-8.50905
11	-8.5123
▁stirring	-8.51666
amine	-8.51925
V	-8.52136
K	-8.52224
NMR	-8.5238
▁surface	-8.52401
▁ethanol	-8.52477
▁14	-8.52588
▁fragments	-8.53081
▁only	-8.53116
▁appropriate	-8.53143
o	-8.53363
▁ppm	-8.53514
▁represented	-8.53999
bromo	-8.54113
▁particularly	-8.54268
▁anhydrous	-8.54341
▁DMSO	-8.54917
▁0.5	-8.5525
▁separated	-8.55362
▁11	-8.55475
▁Such	-8.55504
▁portion	-8.56075
▁additional	-8.56145
▁tert	-8.56234
▁0°	-8.56414
▁synthesis	-8.56452
▁modified	-8.56719
▁Synthesis	-8.56796
▁Pat	-8.57233
▁vacuo	-8.5726
▁tissue	-8.57558
▁etc	-8.5766
▁up	-8.57693
br	-8.57695
trifluoromethyl	-8.57735
2-	-8.57779
tert	-8.57838
α	-8.5805
▁growth	-8.58125
▁i	-8.58326
▁recombinant	-8.58461
ol	-8.58511
▁18	-8.58545
=	-8.58712
▁Z	-8.5918
▁brine	-8.59403
▁hour	-8.59943
ic	-8.59973
▁overnight	-8.59976
(1	-8.60142
▁production	-8.60153
carbonyl	-8.60269
▁halogen	-8.60296
▁dichloromethane	-8.60418
▁forms	-8.60478
▁%	-8.60579
20	-8.60623
▁mice	-8.60645
}	-8.60647
▁ratio	-8.60665
▁HPLC	-8.60818
▁II	-8.60841
▁if	-8.60956
▁represents	-8.61131
tetrahydro	-8.61264
▁polypeptides	-8.6142
▁starting	-8.61421
▁via	-8.61696
▁formed	-8.61702
NH	-8.61849
▁dose	-8.62072
▁complex	-8.62575
▁effect	-8.62797
▁yellow	-8.62875
▁gas	-8.62996
▁EtOAc	-8.6309
▁potassium	-8.63161
▁carbonate	-8.63435
▁times	-8.63703
▁aromatic	-8.63737
▁fusion	-8.63885
h	-8.64259
▁alcohol	-8.64386
al	-8.64495
▁so	-8.64614
▁0.1	-8.64675
▁employed	-8.64921
▁afford	-8.64927
50	-8.65014
▁THF	-8.65334
▁based	-8.65336
II	-8.65342
▁W	-8.65384
▁60	-8.65477
▁rate	-8.65889
2)	-8.65936
▁poly	-8.66221
▁Thus	-8.66382
carboxylate	-8.66459
▁moiety	-8.66486
▁NUM	-8.66643
f	-8.67021
▁generally	-8.6704
▁set	-8.67075
▁days	-8.67173
▁derivatives	-8.67207
▁derived	-8.67782
▁incorporated	-8.67972
▁molecular	-8.68012
▁purification	-8.68113
▁heavy	-8.68121
▁made	-8.68262
kg	-8.68308
CDCl	-8.6851
▁most	-8.68585
▁position	-8.68593
▁peptides	-8.6875
alpha	-8.68985
▁materials	-8.69273
▁heteroaryl	-8.69292
▁10%	-8.69352
▁patient	-8.69981
r	-8.70171
J	-8.70205
▁alkoxy	-8.70357
▁claim	-8.70468
▁200	-8.70653
▁CDCl	-8.70821
▁suspension	-8.71493
▁oligonucleotide	-8.7151
CO	-8.71671
▁vacuum	-8.71912
▁hydroxide	-8.72269
▁(4	-8.72288
-(	-8.72483
▁mixed	-8.72989
▁off	-8.72997
▁total	-8.73118
▁When	-8.73122
▁they	-8.73162
▁measured	-8.73189
▁dosage	-8.73216
18	-8.7329
▁standard	-8.73439
▁techniques	-8.73812
pyridine	-8.7386
)-3-	-8.73909
▁compared	-8.73966
▁virus	-8.74349
▁derivative	-8.74499
y	-8.74596
▁reactor	-8.74883
▁Na	-8.74912
▁culture	-8.75037
▁cycloalkyl	-8.75062
▁variable	-8.7507
▁promoter	-8.75349
er	-8.75367
NR	-8.75522
▁expressed	-8.7562
▁substituents	-8.76132
CD	-8.76168
▁response	-8.76431
▁respectively	-8.76648
▁hydrochloride	-8.76658
▁disclosure	-8.76735
3-	-8.76757
)-1	-8.768
1-6	-8.76849
▁enzyme	-8.77128
▁low	-8.7727
▁levels	-8.77507
Y	-8.77522
▁products	-8.77615
▁free	-8.77672
ESI	-8.77714
▁blood	-8.77801
▁PCR	-8.7795
▁level	-8.78496
▁collected	-8.78555
▁drug	-8.78575
▁chemical	-8.78701
▁magnesium	-8.78785
13	-8.78832
▁available	-8.78971
▁case	-8.79393
▁against	-8.79544
▁regions	-8.79886
▁carrier	-8.79941
▁(20	-8.80075
▁order	-8.80827
▁there	-8.80845
▁associated	-8.81064
▁(100	-8.81155
▁specifically	-8.81231
▁c	-8.81419
OH	-8.81511
▁nm	-8.81643
▁genes	-8.81778
-3	-8.81914
▁thus	-8.81971
▁volume	-8.82022
▁6-	-8.82139
▁skilled	-8.82166
▁while	-8.82176
▁together	-8.82328
▁produce	-8.82879
▁part	-8.83058
▁toluene	-8.84045
▁functional	-8.84262
▁allowed	-8.84457
14	-8.84499
en	-8.84555
▁HCl	-8.85323
▁bond	-8.85443
Z	-8.85445
▁contains	-8.85823
▁amine	-8.85831
▁(50	-8.85995
▁mass	-8.86281
benzyl	-8.86524
▁WO	-8.86729
▁during	-8.87203
x	-8.87304
▁greater	-8.87391
▁mm	-8.87705
▁polynucleotide	-8.87743
▁point	-8.8793
▁ligand	-8.87944
▁data	-8.88047
▁ice	-8.88609
▁treating	-8.88783
▁oxygen	-8.88834
▁filtration	-8.88866
▁identified	-8.88964
▁typically	-8.89013
see	-8.89412
beta	-8.89534
▁dropwise	-8.89616
▁IgG	-8.8966
________________	-8.89897
▁_______________	-8.90048
▁line	-8.90482
)-4-	-8.90539
ene	-8.90736
▁re	-8.91052
▁affinity	-8.91086
▁plant	-8.91202
▁result	-8.91455
▁hydroxy	-8.91569
▁cm	-8.91868
▁higher	-8.92009
▁length	-8.92133
▁incubated	-8.92297
▁synthesized	-8.92443
▁diseases	-8.92523
▁given	-8.92609
▁application	-8.92684
w	-8.92725
▁function	-8.92785
▁co	-8.92907
▁signal	-8.92966
▁cDNA	-8.93211
bis	-8.93266
▁condition	-8.93408
-5	-8.93699
▁substrate	-8.93837
▁stream	-8.939
▁animal	-8.93952
▁phosphate	-8.94219
▁Fc	-8.94242
-4	-8.94306
pyrimidin	-8.94411
▁1.5	-8.94541
▁small	-8.94674
▁17	-8.94736
▁value	-8.94797
16	-8.94801
▁increase	-8.94857
▁formation	-8.95022
▁flow	-8.95484
▁dry	-8.9561
-7-	-8.95665
▁samples	-8.95666
▁acetic	-8.9589
▁biological	-8.96016
▁vectors	-8.96116
▁filtrate	-8.96226
▁polymer	-8.96296
ation	-8.96464
W	-8.96704
▁conventional	-8.96815
▁tetrahydrofuran	-8.97082
▁percent	-8.9717
▁observed	-8.97247
▁serum	-8.97421
▁attached	-8.97477
▁inhibitors	-8.9757
▁increased	-8.97705
▁indicated	-8.9781
▁substantially	-8.97847
▁bind	-8.97982
▁unit	-8.98071
▁DMF	-8.98157
▁b	-8.98249
containing	-8.98259
▁DCM	-8.98422
▁capable	-8.98461
▁injection	-8.98508
15	-8.98632
q	-8.98659
▁hydrocarbon	-8.98697
▁tri	-8.99256
▁intermediate	-8.99342
▁immune	-8.99397
▁substituent	-8.99442
▁relates	-8.99453
▁membrane	-8.99528
6,	-8.9953
▁solvents	-8.99587
▁LC	-9.00155
▁before	-9.00458
▁inhibitor	-9.00581
▁day	-9.00782
▁500	-9.00805
▁mouse	-9.00865
▁properties	-9.00882
▁ammonium	-9.01296
▁components	-9.01433
▁synthetic	-9.0167
ethoxy	-9.02329
▁assays	-9.02554
▁glycol	-9.02635
▁acetonitrile	-9.02863
▁upon	-9.03006
6-	-9.03026
▁powder	-9.03133
▁eq	-9.03146
Hz	-9.0336
binding	-9.03372
▁(300	-9.03403
DMSO	-9.03741
▁5%	-9.04135
▁Q	-9.04196
▁end	-9.04395
▁disorder	-9.04667
▁NH	-9.04892
40	-9.04909
▁side	-9.0503
)-1-	-9.05331
▁alkenyl	-9.05775
carboxamide	-9.05968
▁oxide	-9.06144
▁linked	-9.06216
▁flask	-9.06355
▁species	-9.06409
▁had	-9.06454
▁α	-9.06549
▁CDR	-9.06584
▁relative	-9.07221
min	-9.07476
-6	-9.07533
▁prior	-9.07685
▁possible	-9.07716
▁Alternatively	-9.07842
▁component	-9.07994
▁resin	-9.08038
▁size	-9.08077
5,	-9.0839
▁wt	-9.08535
▁However	-9.08548
▁vivo	-9.08666
▁should	-9.08669
▁PAL	-9.08934
▁reflux	-9.09046
▁reacted	-9.0912
▁monoclonal	-9.0931
▁period	-9.09348
▁19	-9.09405
▁variety	-9.09508
▁introduced	-9.09516
▁directly	-9.09647
▁LCMS	-9.09694
▁mono	-9.09764
_______	-9.09853
▁approximately	-9.09905
▁individual	-9.09923
25	-9.10032
es	-9.10034
▁taken	-9.10067
▁1.0	-9.10295
▁final	-9.10425
▁layers	-9.10786
(2	-9.112
▁four	-9.11303
mL	-9.11329
17	-9.11462
▁sites	-9.11771
▁factor	-9.11894
▁methylene	-9.12042
▁procedures	-9.12223
▁ability	-9.12232
substituted	-9.12274
▁would	-9.12344
▁nucleotides	-9.12378
▁formulation	-9.12397
▁body	-9.12487
▁plasmid	-9.12661
▁animals	-9.12938
▁disorders	-9.13091
▁RT	-9.13093
19	-9.13184
TM	-9.13191
▁hydrochloric	-9.133
▁300	-9.1336
▁MeOH	-9.13445
▁intended	-9.13682
U	-9.13755
▁Chem	-9.13823
▁branched	-9.13939
specific	-9.14079
▁Preferably	-9.14094
▁mRNA	-9.14189
▁pre	-9.14313
)-5-	-9.14323
▁mole	-9.14333
▁identity	-9.14825
▁variant	-9.14827
▁(6	-9.15012
▁until	-9.15033
▁plate	-9.15356
▁constant	-9.15365
▁Cl	-9.15569
▁normal	-9.15716
▁parts	-9.1624
▁Compounds	-9.16475
▁atmosphere	-9.16539
▁identical	-9.16892
▁bound	-9.16917
▁effects	-9.16956
▁solutions	-9.17038
▁otherwise	-9.17062
▁tested	-9.17512
▁de	-9.17593
▁calcium	-9.17782
▁PRO	-9.17827
▁150	-9.17966
▁mixtures	-9.18179
▁(1)	-9.18199
▁steps	-9.18651
▁esters	-9.18672
▁calculated	-9.18692
▁concentrations	-9.18908
▁required	-9.18926
▁inhibition	-9.19101
▁content	-9.19297
acetyl	-9.19449
▁Other	-9.19644
▁radical	-9.19791
▁One	-9.20277
▁domains	-9.20377
4-	-9.20747
▁several	-9.20805
▁double	-9.20878
▁45	-9.2091
benzo	-9.21102
tri	-9.21429
▁shows	-9.21457
Q	-9.21481
thio	-9.21483
ate	-9.21611
▁III	-9.21614
▁terms	-9.21695
▁values	-9.2189
▁referred	-9.21908
piperidin	-9.21952
hexane	-9.21974
▁complete	-9.2208
▁therapy	-9.22519
1-4	-9.22683
▁does	-9.2275
▁ion	-9.22897
▁Suitable	-9.23058
▁35	-9.2316
delta	-9.23313
▁diethyl	-9.23416
▁binds	-9.23517
▁benzyl	-9.23561
▁primary	-9.23766
▁80	-9.2383
▁nM	-9.23849
▁reduction	-9.24136
′	-9.24172
▁linker	-9.24184
▁r	-9.24567
▁cooling	-9.24588
▁subjected	-9.24671
4)	-9.24728
▁multiple	-9.25194
▁All	-9.2524
▁variants	-9.25319
▁48	-9.25361
terminal	-9.25366
21	-9.25619
on	-9.25681
OR	-9.25719
▁400	-9.25763
▁flash	-9.25801
▁accordance	-9.2593
▁vitro	-9.25945
▁50%	-9.2598
▁reagent	-9.2599
▁release	-9.26082
▁scope	-9.26268
▁pure	-9.26301
▁heterocyclic	-9.26318
▁except	-9.26368
▁understood	-9.26386
▁hydroxyl	-9.26432
▁forth	-9.26682
▁could	-9.26934
pyrazol	-9.2696
▁included	-9.27105
▁halo	-9.27225
for	-9.27277
▁applied	-9.27288
▁dd	-9.27315
▁systems	-9.27447
▁coding	-9.27621
▁placed	-9.27944
▁chloroform	-9.27982
▁formulations	-9.28002
▁separation	-9.28074
sulfonyl	-9.282
▁Further	-9.28283
III	-9.28644
▁Cell	-9.28674
▁CO	-9.28959
▁determine	-9.28977
▁purity	-9.2915
▁Ar	-9.29221
▁oral	-9.29267
▁interest	-9.29483
▁conversion	-9.29498
▁previously	-9.29504
nitro	-9.29823
▁reactions	-9.29861
▁Methods	-9.30038
▁follows	-9.30079
▁hexane	-9.30165
amide	-9.3041
▁ingredient	-9.30427
type	-9.30508
▁viral	-9.30544
▁probe	-9.30628
▁skill	-9.30745
▁patients	-9.30825
an	-9.30895
▁2.5	-9.3108
well	-9.31213
▁37°	-9.31279
▁detection	-9.31427
▁Then	-9.31684
30	-9.31876
▁plates	-9.31879
24	-9.3189
▁showed	-9.31899
▁analyzed	-9.31911
▁precipitate	-9.31983
pyrimidine	-9.32459
▁media	-9.32787
▁pyridine	-9.3296
▁triethylamine	-9.33168
▁positive	-9.33201
fluorophenyl	-9.33433
▁administering	-9.33732
▁detected	-9.33791
▁Intermediate	-9.33795
7,	-9.33873
▁gradient	-9.33951
▁producing	-9.34013
▁generated	-9.34248
▁distillation	-9.34467
th	-9.34768
▁amounts	-9.34921
▁reacting	-9.34944
▁converted	-9.34944
cyclopropyl	-9.35194
▁even	-9.35197
▁contained	-9.35269
▁thereby	-9.3528
▁immunoglobulin	-9.35643
▁By	-9.3573
▁long	-9.35804
▁(30	-9.36099
▁distilled	-9.36153
[2,3-	-9.36353
ES	-9.36356
▁infection	-9.3636
▁According	-9.36397
CF	-9.36406
▁thereto	-9.36781
▁70	-9.36786
▁way	-9.37247
:1	-9.37409
▁equivalent	-9.37568
▁plants	-9.3777
▁activation	-9.37801
▁related	-9.37967
methanol	-9.38061
▁90	-9.38068
▁necessary	-9.38123
▁fused	-9.38245
▁lines	-9.383
benzene	-9.38301
▁usually	-9.38328
▁bath	-9.38379
▁charged	-9.38624
phenoxy	-9.38979
▁linear	-9.39074
▁dimethyl	-9.39109
▁large	-9.39123
▁support	-9.39385
3):	-9.3941
▁acetone	-9.39571
▁inert	-9.39611
▁carboxylic	-9.39742
▁primer	-9.39853
▁inhibit	-9.39938
▁natural	-9.39999
▁epitope	-9.40047
▁novel	-9.40072
▁100%	-9.40176
membered	-9.40188
▁benzene	-9.4019
▁replaced	-9.40294
▁crystals	-9.40327
▁device	-9.40418
▁processes	-9.40491
▁full	-9.40498
▁fatty	-9.40753
▁substance	-9.40827
▁ethylene	-9.40891
▁need	-9.40958
▁If	-9.4099
▁transcription	-9.41042
▁spectrum	-9.41145
▁hr	-9.41384
▁crystalline	-9.41481
CN	-9.41522
▁(500	-9.41531
▁fraction	-9.41672
▁alkali	-9.42252
▁positions	-9.42284
▁cyclic	-9.42309
%	-9.42387
▁primers	-9.42487
▁particles	-9.42492
▁soluble	-9.42663
▁modifications	-9.4268
water	-9.42719
▁coli	-9.42882
▁alkynyl	-9.42886
-8-	-9.43078
▁excess	-9.43125
▁sufficient	-9.43127
k	-9.43212
▁remove	-9.4325
-1,3-	-9.43253
based	-9.43634
▁bromide	-9.43771
▁0.2	-9.43783
▁characterized	-9.4388
8,	-9.43932
acetic	-9.43966
as	-9.43977
such	-9.43998
▁due	-9.44585
imethylformamide	-9.44635
▁VH	-9.44742
mu	-9.44748
▁conducted	-9.44783
▁receptors	-9.44821
able	-9.44899
▁heat	-9.44909
pyrrolo	-9.4496
▁expressing	-9.45007
▁delivery	-9.45013
▁do	-9.4539
▁250	-9.45699
▁7-	-9.46123
▁PBS	-9.46177
▁21	-9.46187
▁substitution	-9.46193
▁cases	-9.46673
▁labeled	-9.46828
▁hybridization	-9.46917
dimethylamino	-9.46983
▁significant	-9.47026
▁cleavage	-9.47098
▁gave	-9.47294
▁feed	-9.47323
▁fractions	-9.47561
▁construct	-9.47623
▁equiv	-9.47643
▁lithium	-9.4765
▁chains	-9.47671
▁cyano	-9.47825
▁Scheme	-9.47854
▁especially	-9.48045
piperidine	-9.48096
▁ambient	-9.4838
▁Found	-9.48461
▁state	-9.48546
▁adding	-9.48551
▁kinase	-9.48554
28	-9.48668
fold	-9.48791
▁TFA	-9.48864
▁aliphatic	-9.48891
▁At	-9.48922
▁mammalian	-9.48967
Chloro	-9.48987
▁activated	-9.49142
▁reducing	-9.49337
▁protecting	-9.4944
▁reagents	-9.49473
▁poured	-9.49493
▁still	-9.49713
IV	-9.50049
aryl	-9.50177
▁alone	-9.50352
▁stability	-9.50444
▁mentioned	-9.50472
−	-9.5061
▁x	-9.5061
▁trans	-9.50851
▁Method	-9.51122
▁therefore	-9.51169
▁Inc	-9.51263
▁library	-9.51278
▁filter	-9.51577
ine	-9.51906
▁sterile	-9.5201
dichloro	-9.52041
at	-9.52113
OD	-9.5215
▁alpha	-9.5225
▁factors	-9.52267
cyano	-9.52284
Compound	-9.52456
▁encoded	-9.52498
]+	-9.52511
▁tube	-9.5253
▁(200	-9.52532
▁combinations	-9.52709
mol	-9.5273
▁molar	-9.52742
▁Co	-9.52747
▁extract	-9.52767
difluoro	-9.52776
▁nitro	-9.52796
)—	-9.52805
▁many	-9.52853
▁heating	-9.52864
▁chimeric	-9.52994
▁readily	-9.53005
▁bis	-9.53051
▁twice	-9.53076
▁naturally	-9.5328
▁amide	-9.53486
▁sulfur	-9.53527
human	-9.53635
▁tissues	-9.53662
ase	-9.53691
▁heterocyclyl	-9.53715
▁adjusted	-9.53747
▁resistance	-9.53802
cyclohexyl	-9.53983
▁50°	-9.54131
-7	-9.54154
▁reverse	-9.54302
▁bases	-9.54378
▁bicarbonate	-9.54427
-(2-	-9.54464
▁crystal	-9.545
▁(15	-9.54539
▁maintained	-9.54597
▁depending	-9.54656
Na	-9.54845
▁°	-9.54863
▁IV	-9.54901
▁v	-9.54919
▁USA	-9.5497
▁units	-9.55001
▁eluting	-9.5505
▁preparing	-9.55119
to	-9.55132
▁stable	-9.55259
▁cellulose	-9.55413
9,	-9.55512
us	-9.55586
▁plasma	-9.55697
▁coupling	-9.55797
▁un	-9.56061
▁colorless	-9.56143
▁OF	-9.56173
alkoxy	-9.56341
▁—(	-9.56379
▁onto	-9.56633
the	-9.56655
▁quenched	-9.56694
▁post	-9.567
▁Rf	-9.56786
isopropyl	-9.56829
▁22	-9.56865
▁source	-9.56977
▁isopropyl	-9.56996
▁0.01	-9.56999
like	-9.57094
▁polynucleotides	-9.57242
▁Another	-9.57289
▁Yield	-9.57401
▁model	-9.57437
▁Using	-9.57443
▁very	-9.57497
▁75	-9.57569
yloxy	-9.57615
▁+	-9.57838
chlorophenyl	-9.57918
▁membered	-9.5804
_	-9.58064
▁types	-9.58205
▁(2)	-9.58209
▁carriers	-9.58236
▁weeks	-9.58253
▁film	-9.58303
▁structural	-9.58416
▁Cells	-9.58487
▁place	-9.58519
▁antisense	-9.58573
2—	-9.58786
22	-9.58855
▁moieties	-9.58908
▁NaCl	-9.58974
▁br	-9.59013
▁100°	-9.59026
▁secondary	-9.59054
▁kit	-9.59064
▁five	-9.59269
▁Also	-9.59278
▁anhydride	-9.59283
▁Biol	-9.59332
acetate	-9.5948
▁Sci	-9.59502
▁substitutions	-9.59639
▁extraction	-9.5966
▁elements	-9.59799
▁structures	-9.59968
▁palladium	-9.60079
biphenyl	-9.60237
▁mutant	-9.60304
▁amplification	-9.60423
▁strain	-9.60463
cell	-9.60626
▁new	-9.60727
and	-9.60806
▁inorganic	-9.60808
▁absence	-9.60825
▁formulated	-9.60898
▁cellular	-9.60946
IL	-9.61021
▁See	-9.61265
▁2.0	-9.61453
▁aspects	-9.61544
▁exemplary	-9.61665
▁25°	-9.61698
▁basic	-9.61707
▁Following	-9.61753
▁enzymes	-9.61947
▁cross	-9.61972
▁Analysis	-9.6201
▁IR	-9.62017
dione	-9.62031
▁glucose	-9.62082
▁extracts	-9.62123
▁Patent	-9.62247
]+.	-9.62358
ylmethyl	-9.62467
imidazol	-9.62522
▁commercially	-9.62784
▁dryness	-9.62861
acetamide	-9.62863
▁separate	-9.63227
▁Reference	-9.6334
▁potential	-9.63499
23	-9.63797
▁bacterial	-9.63819
▁Accordingly	-9.63843
▁selection	-9.64037
▁1%	-9.6413
▁yeast	-9.64255
methoxyphenyl	-9.64301
▁resultant	-9.64424
times	-9.64477
imidazo	-9.64486
▁VL	-9.64508
▁native	-9.6463
▁complementary	-9.64681
ated	-9.64793
▁fluid	-9.64811
▁screening	-9.64902
▁l	-9.64904
▁tetra	-9.65072
▁class	-9.6512
▁because	-9.65264
ppm	-9.65265
▁yet	-9.65434
▁vessel	-9.65451
▁portions	-9.65582
▁complexes	-9.65839
▁therapeutically	-9.65965
▁slowly	-9.66081
▁90%	-9.66197
▁instance	-9.66349
▁unsaturated	-9.66361
▁occurring	-9.66514
benzyloxy	-9.66521
▁60°	-9.66551
▁washing	-9.66617
▁80°	-9.66632
▁NaHCO	-9.66747
[1,2-	-9.66821
+)	-9.66903
▁equal	-9.66937
]-2-	-9.66994
▁conjugate	-9.67003
▁polymers	-9.67012
▁TLC	-9.67037
▁sub	-9.67112
▁32	-9.6712
▁show	-9.67126
indol	-9.67195
▁Pd	-9.67197
pyrrolidin	-9.67237
▁0.1%	-9.67302
▁polyethylene	-9.6749
▁lung	-9.67608
▁isomers	-9.6763
▁wild	-9.67639
▁marker	-9.67735
▁1,4-	-9.67828
thiazol	-9.67923
▁Fab	-9.68172
▁oxidation	-9.68257
including	-9.68303
▁glass	-9.68473
▁Each	-9.68648
▁changes	-9.68669
▁catalysts	-9.68707
▁Furthermore	-9.68797
▁achieved	-9.68862
▁incubation	-9.68874
(3	-9.68892
▁directed	-9.69006
}-	-9.69022
▁removal	-9.69042
▁whether	-9.69071
▁study	-9.69231
▁represent	-9.69277
▁once	-9.69398
▁forming	-9.69428
▁lipid	-9.69498
▁tablets	-9.69563
▁alkylene	-9.69629
▁28	-9.69651
▁tumors	-9.69692
▁eluted	-9.69753
▁carcinoma	-9.70273
ii	-9.70302
pyridyl	-9.7031
▁transformed	-9.70325
60	-9.70356
carbamate	-9.70591
▁recovered	-9.70593
▁20%	-9.70638
27	-9.70761
▁direct	-9.70772
▁acyl	-9.70818
▁however	-9.70883
▁skin	-9.70896
butoxycarbonyl	-9.70945
▁instead	-9.70984
chain	-9.71105
▁Acid	-9.71237
▁95%	-9.71241
▁next	-9.71272
▁catalytic	-9.71437
▁w	-9.71478
▁experiments	-9.7159
▁5′	-9.716
▁hydride	-9.71686
▁element	-9.7176
▁restriction	-9.71772
▁genetic	-9.71854
▁reported	-9.71897
▁reduce	-9.71962
▁Preferred	-9.72232
▁mutations	-9.7246
▁analogous	-9.72502
▁highly	-9.72538
▁straight	-9.72594
▁proliferation	-9.73048
▁respect	-9.7305
▁reactive	-9.73065
▁transfer	-9.7307
▁studies	-9.73092
NO	-9.731
▁aluminum	-9.73107
▁saline	-9.73206
▁transferred	-9.73246
▁average	-9.73329
▁temperatures	-9.73332
▁half	-9.73415
▁development	-9.7377
26	-9.7378
-(4-	-9.73829
▁alternatively	-9.739
5-	-9.73936
▁equivalents	-9.74121
▁36	-9.7422
ally	-9.74465
▁iodide	-9.74474
carbamoyl	-9.74501
▁express	-9.74513
▁chloro	-9.74611
▁bone	-9.74653
Amino	-9.74719
ating	-9.74726
▁Protein	-9.74732
▁mutation	-9.74811
▁brain	-9.74818
▁THE	-9.74834
ization	-9.75021
▁ELISA	-9.75097
▁modification	-9.75261
▁inflammatory	-9.75376
▁precursor	-9.75429
▁ingredients	-9.7547
▁zone	-9.75496
▁insulin	-9.75502
▁repeated	-9.75567
▁prevent	-9.75619
▁MgSO	-9.75647
OC	-9.75679
▁dioxane	-9.75699
▁protected	-9.75717
▁suspended	-9.7574
▁refer	-9.75801
▁120	-9.75811
▁induced	-9.75873
▁improved	-9.75884
▁strand	-9.75997
▁doses	-9.7606
indole	-9.76075
▁ng	-9.76175
▁(25	-9.76234
-9	-9.76427
▁air	-9.76505
▁(8	-9.76652
-8	-9.76748
▁polymerase	-9.7689
▁pro	-9.76904
pyrazolo	-9.76955
▁probes	-9.76969
▁Nos	-9.76975
▁argon	-9.76999
▁Mass	-9.77028
▁change	-9.77083
▁utilized	-9.77099
▁More	-9.77291
▁hydrocarbons	-9.77292
▁specificity	-9.77315
▁mean	-9.77353
-1,2-	-9.77495
▁pain	-9.77605
▁rt	-9.77635
▁fluorescence	-9.77649
▁inhibiting	-9.77952
▁electron	-9.77953
▁treat	-9.77972
▁significantly	-9.78121
▁alkaline	-9.78158
▁purposes	-9.78268
▁drying	-9.7828
▁interaction	-9.78343
▁NaOH	-9.78404
▁beta	-9.78405
▁31	-9.78644
▁characteristics	-9.78691
▁(9	-9.78762
ar	-9.7878
▁completion	-9.78798
▁26	-9.78872
▁supernatant	-9.78894
▁q	-9.78914
▁1.2	-9.78978
▁fluorescent	-9.79009
▁area	-9.79025
▁conjugated	-9.7904
▁chlorine	-9.79053
▁liver	-9.79068
▁family	-9.79088
piperazin	-9.79216
▁absorption	-9.79237
▁six	-9.79258
▁23	-9.79281
▁expected	-9.79513
▁negative	-9.79664
▁sugar	-9.79697
6):	-9.79798
limiting	-9.79811
u	-9.79906
▁immuno	-9.79949
ab	-9.80125
100	-9.80134
▁carboxy	-9.80139
▁isomer	-9.80163
▁:	-9.80189
sulfonamide	-9.80222
▁Acad	-9.80329
▁27	-9.80377
▁ammonia	-9.80469
▁drugs	-9.80553
▁Human	-9.80561
▁particle	-9.80624
▁preferable	-9.80646
▁3′	-9.80791
cycloalkyl	-9.80875
▁55	-9.80894
▁antigens	-9.80903
▁designed	-9.80998
▁humanized	-9.8108
▁Therefore	-9.81186
▁substances	-9.81347
▁propylene	-9.81424
▁o	-9.81431
▁essentially	-9.81759
▁exchange	-9.81782
▁clones	-9.8183
tetramethyl	-9.81847
[3,4-	-9.81935
Example	-9.81969
▁symptoms	-9.82005
▁indicates	-9.82031
▁route	-9.82067
▁see	-9.82092
▁HIV	-9.82153
▁0.05	-9.82184
▁stage	-9.82267
heterocycloalkyl	-9.82288
▁peak	-9.82326
▁integer	-9.82369
benzamide	-9.82431
▁illustrated	-9.82488
▁bacteria	-9.82641
▁PD	-9.82744
▁Proc	-9.82829
▁subsequent	-9.82892
▁1,2-	-9.82906
29	-9.82968
▁allow	-9.82992
▁carboxyl	-9.83106
=8	-9.83227
▁bonds	-9.83255
▁preparations	-9.83273
trans	-9.83289
▁important	-9.83429
-1,4-	-9.83586
▁specification	-9.83599
▁2-(	-9.83752
▁considered	-9.8382
▁Br	-9.83824
▁mammal	-9.83862
▁determining	-9.83901
▁presented	-9.83917
▁kg	-9.83967
)-6-	-9.83972
▁OH	-9.84131
▁mixing	-9.84132
)+.	-9.84184
▁grams	-9.84227
▁Form	-9.84387
ED	-9.84452
benzoic	-9.84457
▁Ser	-9.84606
▁population	-9.84615
▁starch	-9.84715
▁mp	-9.84807
▁f	-9.84912
▁TBL	-9.84914
Br	-9.84929
▁comparison	-9.84987
▁(1.0	-9.84997
-9-	-9.85033
▁genomic	-9.85082
▁IC	-9.8516
re	-9.85239
co	-9.85308
▁chronic	-9.85417
▁(0.5	-9.85478
▁contacting	-9.85537
38	-9.85539
▁Exemplary	-9.85583
▁syndrome	-9.85628
▁targeting	-9.85685
▁description	-9.85717
▁halide	-9.85753
Methyl	-9.85758
▁ordinary	-9.85796
terminus	-9.85925
▁micro	-9.85946
▁partially	-9.85975
▁decrease	-9.86038
▁generate	-9.86131
▁prepare	-9.86132
▁72	-9.86153
-10	-9.86271
▁applications	-9.86281
▁evaporation	-9.86318
▁cultured	-9.8647
benzoyl	-9.8649
ion	-9.86535
▁7,	-9.86586
▁ESI	-9.86619
dimethoxy	-9.8667
▁iso	-9.86799
▁vary	-9.86889
Me	-9.87079
▁confirmed	-9.87095
▁brown	-9.87239
▁degree	-9.87242
▁genome	-9.87265
31	-9.87288
▁radicals	-9.87367
▁refluxed	-9.87432
▁promoters	-9.87434
)(	-9.87441
is	-9.87447
▁1000	-9.87474
▁identify	-9.87544
▁desirable	-9.87575
-2,3-	-9.87616
▁protease	-9.87779
▁fluorine	-9.87802
▁SO	-9.87811
-15	-9.87845
ity	-9.87934
OCH	-9.87971
▁loss	-9.87983
▁preparative	-9.88045
pyran	-9.88106
▁coating	-9.88155
▁clone	-9.88227
▁subsequently	-9.88272
▁34	-9.88281
▁third	-9.88291
▁ligands	-9.88396
▁injected	-9.88628
▁action	-9.88718
35	-9.88778
▁occur	-9.88785
quinolin	-9.89034
▁pattern	-9.89121
▁acidic	-9.89292
▁contact	-9.89446
▁clear	-9.89503
▁matrix	-9.89507
▁transfected	-9.89739
▁29	-9.89759
▁Calif	-9.89762
▁(40	-9.89788
______________	-9.89789
il	-9.89892
▁TNF	-9.90106
▁clinical	-9.90171
▁albumin	-9.90239
▁codon	-9.90288
▁among	-9.90322
▁listed	-9.904
ized	-9.90492
▁parent	-9.90743
▁analogs	-9.90792
▁density	-9.90817
▁PEG	-9.90835
▁hydrolysis	-9.90871
▁haloalkyl	-9.90893
▁Tris	-9.90997
▁initial	-9.91169
▁involved	-9.91226
▁rings	-9.91325
piperazine	-9.91394
▁rat	-9.9145
▁1:1	-9.91496
-(3-	-9.91546
▁increasing	-9.91952
▁melting	-9.91977
▁claims	-9.92092
▁alternative	-9.92137
▁internal	-9.92144
▁nature	-9.92144
▁transgenic	-9.92145
▁selective	-9.92212
▁CF	-9.92234
▁Natl	-9.92344
▁remaining	-9.92363
▁125	-9.92538
▁Chemical	-9.92539
▁short	-9.92564
▁Antibodies	-9.9262
▁80%	-9.92628
methylphenyl	-9.92842
(4-	-9.9295
▁unless	-9.92975
3;	-9.93026
%)	-9.93068
▁0.3	-9.93071
bs	-9.93092
▁round	-9.93098
▁37	-9.93101
▁terminal	-9.93126
▁phage	-9.93171
mediated	-9.93224
▁Res	-9.93377
▁context	-9.9338
▁monomer	-9.93458
▁specified	-9.93639
pyrazole	-9.93672
▁1,3-	-9.93687
▁again	-9.93706
el	-9.93747
▁coated	-9.94216
▁alcohols	-9.94443
▁Molecular	-9.94468
▁zinc	-9.94469
▁capsules	-9.94477
▁precipitated	-9.94483
▁antagonist	-9.94532
iodo	-9.9458
▁99%	-9.94591
▁vaccine	-9.94593
up	-9.946
vinyl	-9.94685
▁4°	-9.94807
HCl	-9.94823
▁General	-9.94831
▁96	-9.94944
-17	-9.94986
▁UV	-9.95135
▁libraries	-9.95136
um	-9.95245
7-	-9.95304
oxa	-9.95304
▁SDS	-9.95405
▁8-	-9.95415
▁bottom	-9.9546
▁vehicle	-9.95468
)+	-9.95486
▁preventing	-9.95542
▁common	-9.95572
▁often	-9.95648
▁ketone	-9.95699
=7.2	-9.95803
le	-9.9582
▁dye	-9.95967
▁40°	-9.95992
′-	-9.96041
▁down	-9.96113
▁Purification	-9.96189
▁chosen	-9.96322
▁excipients	-9.96451
ul	-9.96505
▁evaluated	-9.96523
▁whole	-9.96641
MH	-9.96703
▁signaling	-9.96708
▁polymerization	-9.96806
length	-9.96836
▁extracellular	-9.96945
▁demonstrated	-9.97018
=8.4	-9.97056
▁NR	-9.97102
▁phenol	-9.97119
et	-9.97248
pyrrolidine	-9.97254
▁controlled	-9.97266
▁inserted	-9.97284
▁Nature	-9.9738
2;	-9.97456
ur	-9.97488
▁regulatory	-9.97489
▁copper	-9.97506
▁detectable	-9.97552
▁constructs	-9.97724
▁Reaction	-9.97756
▁33	-9.97927
id	-9.9807
▁every	-9.98094
lower	-9.98126
▁detail	-9.98198
(2-	-9.98351
▁apparent	-9.98473
▁coupled	-9.98477
▁Science	-9.98497
▁engineered	-9.98566
▁FIG	-9.98578
▁multi	-9.98722
▁experiment	-9.98831
wherein	-9.98832
▁suspensions	-9.99057
methylene	-9.991
▁noted	-9.99193
▁efficiency	-9.99218
▁cloned	-9.99313
▁(1.5	-9.99342
▁purpose	-9.99357
▁65	-9.99362
de	-9.99403
▁propyl	-9.99434
▁INVENTION	-9.9946
▁stem	-9.99479
▁pathway	-9.99637
free	-9.99655
▁left	-9.99775
▁since	-9.99991
▁Non	-10.0019
ide	-10.003
▁On	-10.0054
▁inhibitory	-10.0063
2),	-10.0094
phosphate	-10.0104
▁homologous	-10.0105
▁hydrogenation	-10.0109
▁partial	-10.0111
pentyl	-10.0114
▁56	-10.0126
▁designated	-10.0127
▁grown	-10.0128
▁rats	-10.0132
▁cold	-10.0133
▁amines	-10.0135
▁patent	-10.0136
▁38	-10.0151
ive	-10.0154
▁Expression	-10.0163
▁homology	-10.0166
▁relatively	-10.0186
=8.0	-10.019
▁There	-10.019
▁moles	-10.0191
st	-10.0199
ac	-10.02
▁carbonyl	-10.021
▁fluoro	-10.0232
▁Mol	-10.0232
=4	-10.0245
▁providing	-10.0251
▁cysteine	-10.0255
▁trifluoroacetic	-10.026
▁pale	-10.026
dioxo	-10.0262
▁New	-10.0264
▁Press	-10.0267
▁series	-10.0268
▁limitation	-10.0268
=2	-10.0272
▁phases	-10.0273
▁antagonists	-10.0275
PD	-10.0283
▁entirety	-10.0286
trifluoro	-10.0292
alkenyl	-10.0298
▁color	-10.0299
▁energy	-10.0306
▁chiral	-10.0315
▁physical	-10.0315
PO	-10.0336
ray	-10.0337
▁(3)	-10.034
▁continued	-10.0352
▁intravenous	-10.0367
-11	-10.0367
▁heteroatoms	-10.0367
▁caused	-10.037
▁amplified	-10.0374
32	-10.0376
▁commonly	-10.0379
▁leukemia	-10.0386
10,	-10.039
▁cis	-10.0394
]-3-	-10.0398
un	-10.0414
▁Bio	-10.0423
▁breast	-10.0431
CR	-10.0442
▁processing	-10.0442
▁contemplated	-10.0443
▁eluent	-10.0444
hydroxymethyl	-10.0448
▁calcd	-10.0478
▁exhibit	-10.049
position	-10.0493
cm	-10.0513
▁substituting	-10.0516
▁methoxy	-10.0518
pH	-10.0535
▁encodes	-10.0537
▁Gene	-10.0549
▁42	-10.055
▁IFN	-10.0561
about	-10.0566
▁slurry	-10.0566
▁framework	-10.0567
Fc	-10.0567
33	-10.057
▁vinyl	-10.0585
triazol	-10.059
34	-10.0593
butoxy	-10.0602
×	-10.0607
▁DESCRIPTION	-10.061
▁30%	-10.0615
▁make	-10.0629
▁(7	-10.063
▁optical	-10.0635
2°	-10.064
▁butyl	-10.0648
MeOH	-10.065
diamine	-10.0663
▁cycle	-10.0667
▁20°	-10.0669
PA	-10.0677
▁technique	-10.0682
ium	-10.0692
▁Et	-10.0694
▁course	-10.0707
▁sulfuric	-10.0709
▁located	-10.0721
▁accomplished	-10.073
▁we	-10.0738
▁Rt	-10.0738
▁gelatin	-10.0739
=5	-10.0742
▁boiling	-10.0746
▁able	-10.0749
quinoline	-10.0753
▁thio	-10.0763
▁stored	-10.0764
▁solubility	-10.0767
ethanol	-10.0768
▁diluent	-10.0769
▁wells	-10.0771
▁detecting	-10.0776
enyl	-10.0777
▁diameter	-10.0779
▁44	-10.0779
▁must	-10.0798
▁efficacy	-10.0802
57	-10.081
▁making	-10.083
▁While	-10.0837
▁daily	-10.0837
▁charge	-10.0843
▁discussed	-10.0845
▁major	-10.0851
propan	-10.0852
45	-10.0857
▁39	-10.0865
▁95	-10.0869
▁1.1	-10.0869
▁sec	-10.0876
▁Moreover	-10.0884
▁Although	-10.0902
▁complement	-10.0903
[1,5-	-10.0909
3),	-10.0914
▁Methyl	-10.0917
-4-(	-10.0919
[3,2-	-10.0929
▁fully	-10.0947
▁parenteral	-10.0952
▁cause	-10.0953
▁Pharmaceutical	-10.0962
▁bonded	-10.0963
▁replication	-10.0967
▁aralkyl	-10.0982
▁monitored	-10.0984
▁heterologous	-10.1002
▁7.5	-10.1008
▁continuous	-10.1022
▁solids	-10.1024
j	-10.1027
-3-(	-10.1028
▁effector	-10.1036
▁label	-10.104
▁activities	-10.1059
▁achieve	-10.1059
▁acute	-10.106
▁selectivity	-10.1066
▁member	-10.1066
11,	-10.1067
▁bromine	-10.1069
Butyl	-10.1082
▁pair	-10.1093
-1,2,4-	-10.1094
▁intermediates	-10.1098
▁apparatus	-10.11
-20	-10.1103
dependent	-10.1105
▁template	-10.111
▁Anti	-10.1114
Bromo	-10.112
▁strong	-10.1133
▁centrifugation	-10.1138
RS	-10.1141
▁Any	-10.1144
stranded	-10.1145
▁display	-10.1148
▁transport	-10.1161
ylamino	-10.1169
▁did	-10.1176
▁cloning	-10.1185
▁49	-10.1186
▁strains	-10.1205
aR	-10.1206
cyclohexane	-10.1206
-2-(	-10.1218
▁agonist	-10.1223
)-2-(	-10.1224
▁4-(	-10.1227
▁Water	-10.1234
▁parameters	-10.1242
▁51	-10.1249
▁Group	-10.1251
propoxy	-10.1256
▁consists	-10.1275
▁58	-10.1283
1-3	-10.1291
▁developed	-10.1316
▁47	-10.1323
′,	-10.1329
▁transfection	-10.1332
▁Ethyl	-10.1338
▁cyclohexyl	-10.1344
▁members	-10.1349
4),	-10.1349
▁warm	-10.1352
▁(150	-10.1364
▁object	-10.1374
▁magnetic	-10.1374
▁react	-10.1374
▁maximum	-10.138
▁Ra	-10.1385
=7.5	-10.1392
▁59	-10.1393
▁supra	-10.1394
▁enhanced	-10.1395
▁7.	-10.1396
▁intracellular	-10.141
▁dilution	-10.1412
▁3.0	-10.1413
▁partitioned	-10.1417
9-	-10.1417
▁aldehyde	-10.1418
▁section	-10.1423
+).	-10.1428
▁endogenous	-10.1437
▁diagnostic	-10.1441
▁54	-10.1444
carboxy	-10.1445
▁now	-10.1472
▁46	-10.1476
linked	-10.1478
pyrido	-10.148
▁3.5	-10.148
▁57	-10.1491
▁murine	-10.1497
▁block	-10.1503
▁red	-10.151
▁hydrophobic	-10.1514
▁protocol	-10.1515
▁Production	-10.1518
PE	-10.152
▁foregoing	-10.1522
▁mode	-10.1528
▁crystallization	-10.1529
▁occurs	-10.1537
▁Typically	-10.1537
▁instances	-10.1556
▁although	-10.1569
▁recrystallized	-10.1583
▁8,	-10.1587
▁disulfide	-10.159
▁wash	-10.1594
▁Additionally	-10.1602
▁hrs	-10.1607
▁wide	-10.1609
▁induce	-10.1612
▁hexanes	-10.1613
▁fixed	-10.1628
▁entire	-10.1629
trimethyl	-10.163
200	-10.1633
▁acetyl	-10.1645
carbon	-10.1648
EtOAc	-10.1649
[4,5-	-10.165
▁targeted	-10.1651
dihydroxy	-10.1655
induced	-10.1658
=8.8	-10.1662
▁information	-10.1671
-18	-10.1673
silica	-10.168
▁NOs	-10.1681
-2,4-	-10.1684
▁(“	-10.1685
▁tertiary	-10.1689
▁olefin	-10.1689
=7	-10.169
▁seen	-10.1692
▁translation	-10.17
μ	-10.1707
propane	-10.1713
▁percentage	-10.1729
▁measuring	-10.1742
—,	-10.1748
▁oils	-10.1753
Method	-10.1755
▁epitopes	-10.1755
▁Re	-10.1766
▁humans	-10.1771
▁We	-10.1774
8-	-10.1776
▁Assay	-10.1779
▁0.4	-10.1781
▁99	-10.1784
▁siRNA	-10.1786
▁enzymatic	-10.1787
▁functions	-10.1796
▁5.0	-10.1805
▁respective	-10.181
phenol	-10.1813
▁glycerol	-10.1828
=7.6	-10.1837
▁EP	-10.1838
▁approach	-10.1838
▁monocyclic	-10.1839
mentioned	-10.1846
▁US	-10.1848
▁Generally	-10.1851
▁52	-10.1853
▁measurement	-10.1867
▁transformation	-10.1867
man	-10.1873
naphthyl	-10.1873
▁dioxide	-10.1875
▁pp	-10.188
▁beads	-10.1893
▁allows	-10.1898
iso	-10.1901
▁configuration	-10.1922
▁adjacent	-10.1927
▁electrode	-10.1929
▁age	-10.1937
▁hetero	-10.1939
▁polar	-10.1953
mer	-10.1965
▁segment	-10.1965
▁equipped	-10.1967
ra	-10.1969
▁limit	-10.1975
▁bar	-10.1976
▁completely	-10.198
▁viruses	-10.1982
it	-10.1986
▁indicate	-10.1992
▁features	-10.1996
▁decreased	-10.1997
▁Cancer	-10.2001
70	-10.2005
▁prevention	-10.2008
▁organism	-10.2014
▁contrast	-10.2019
▁Publication	-10.2022
▁elution	-10.2028
-12	-10.2031
▁chemically	-10.2037
HPLC	-10.2038
▁30°	-10.2039
▁basis	-10.2041
▁detect	-10.2044
▁70°	-10.2046
▁mediated	-10.2046
▁HLA	-10.2059
▁enhance	-10.2059
hexyl	-10.2061
▁0.25	-10.2064
ia	-10.2068
▁assessed	-10.2088
▁afforded	-10.209
ous	-10.2092
▁70%	-10.2097
▁storage	-10.2097
▁easily	-10.2107
▁41	-10.2112
90	-10.2117
▁43	-10.2121
53	-10.2153
▁blocking	-10.2158
4°	-10.2161
▁2,6-	-10.2162
▁meant	-10.2163
▁Pro	-10.2164
▁minute	-10.2164
▁run	-10.2166
▁kidney	-10.2167
▁heart	-10.2169
▁formulae	-10.2174
▁Di	-10.2178
▁analog	-10.2182
▁sequencing	-10.2183
▁aforementioned	-10.2201
dioxane	-10.2206
▁warmed	-10.2218
▁altered	-10.222
80	-10.2223
▁responses	-10.2228
▁lysine	-10.2246
▁sucrose	-10.2247
thiophene	-10.2254
▁Immunol	-10.2255
▁sealed	-10.2267
▁emission	-10.2269
▁toxin	-10.2271
▁markers	-10.2271
▁vapor	-10.2274
related	-10.2278
▁Procedure	-10.2279
▁Specific	-10.2283
▁therein	-10.2284
▁inflammation	-10.2285
▁encode	-10.2294
2(	-10.2304
▁90%,	-10.2307
▁prostate	-10.2308
▁muscle	-10.2318
VI	-10.2323
ne	-10.2335
▁good	-10.2339
tetra	-10.2341
▁60%	-10.2341
▁immobilized	-10.2359
▁Additional	-10.236
▁urea	-10.2394
3°	-10.2396
▁donor	-10.2399
-3,4-	-10.24
▁yields	-10.2402
=1	-10.2404
nitrophenyl	-10.2408
▁tag	-10.2409
]-4-	-10.2413
oxide	-10.2423
hydroxyphenyl	-10.2425
urea	-10.2433
▁Med	-10.2439
▁phosphorus	-10.2443
44	-10.2447
protein	-10.2449
▁arthritis	-10.2458
▁along	-10.2462
▁variations	-10.2475
▁plurality	-10.2481
▁extent	-10.2484
▁theory	-10.2485
▁1:	-10.2494
2+	-10.2496
▁5′-	-10.2503
6°	-10.2505
prop	-10.2522
bi	-10.2529
▁solvate	-10.253
iv	-10.2534
▁With	-10.2534
▁stir	-10.2542
▁passed	-10.2542
per	-10.2544
▁program	-10.2546
▁vial	-10.255
▁immediately	-10.2552
▁retention	-10.256
▁fluoride	-10.2561
▁(0.1	-10.2563
▁risk	-10.2564
hydroxyethyl	-10.2568
▁Some	-10.2574
▁Similarly	-10.2574
▁exposure	-10.2578
▁CDRs	-10.2588
▁role	-10.2588
methylamino	-10.2592
Ra	-10.2593
▁Ab	-10.2597
▁mature	-10.2598
▁bovine	-10.2606
▁isolation	-10.2608
▁64	-10.2613
▁tyrosine	-10.2614
day	-10.2616
derived	-10.2621
▁transition	-10.263
Fluoro	-10.2634
im	-10.2635
▁chromatographed	-10.2644
imidazole	-10.2645
▁2,4-	-10.2646
▁residual	-10.2652
▁secretion	-10.2654
▁reporter	-10.2667
5%	-10.2669
000	-10.2669
▁cultures	-10.2673
▁ranging	-10.2677
▁earth	-10.2685
▁(60	-10.2693
▁69	-10.2705
▁diabetes	-10.2707
▁scheme	-10.2715
▁7.0	-10.2718
8.0	-10.272
▁2%	-10.2727
▁involves	-10.2728
▁experimental	-10.273
▁thin	-10.2732
phase	-10.2734
Table	-10.2746
▁Anal	-10.2748
▁85	-10.2749
▁68	-10.2756
▁(4)	-10.2766
▁Nucleic	-10.2771
▁physiological	-10.2771
▁week	-10.2774
▁bispecific	-10.2774
▁powders	-10.2775
▁heterocycle	-10.2776
▁stearate	-10.2791
halo	-10.2793
47	-10.2797
▁iron	-10.28
▁110	-10.2801
▁centrifuged	-10.281
▁peroxide	-10.281
▁cyclopropyl	-10.2812
▁fed	-10.2813
▁Laboratory	-10.2814
▁Me	-10.2816
▁container	-10.2818
▁Al	-10.2831
ca	-10.2849
▁prodrug	-10.2849
▁acidified	-10.2854
propionic	-10.2858
▁Embodiment	-10.2867
▁mineral	-10.2878
described	-10.2882
naphthalene	-10.2893
41	-10.2893
▁1.6	-10.2896
▁subcutaneous	-10.2904
▁distribution	-10.2907
▁toxicity	-10.2908
▁3-(	-10.2908
]-1	-10.2911
▁seconds	-10.2913
carbonitrile	-10.2922
▁operation	-10.2926
▁67	-10.2926
▁Application	-10.2929
CSF	-10.2946
associated	-10.2948
phenylphosphine	-10.2954
▁lactose	-10.2956
-13	-10.2956
1°	-10.296
▁degradation	-10.2961
▁cytotoxic	-10.2973
▁improve	-10.2985
▁ranges	-10.2985
ex	-10.2985
▁staining	-10.2991
▁lymphoma	-10.3
2/	-10.3005
MgSO	-10.3005
▁divided	-10.3005
=7.8	-10.301
▁open	-10.3022
▁constructed	-10.3023
▁quantity	-10.3028
ir	-10.3032
1;	-10.3032
−1	-10.3036
▁bi	-10.3065
but	-10.3066
▁bicyclic	-10.3067
▁From	-10.3067
▁rpm	-10.3073
▁radiation	-10.308
▁62	-10.3087
▁VI	-10.3088
▁(2.0	-10.3091
▁conjugates	-10.3114
▁recognized	-10.3123
hexahydro	-10.3149
▁neutral	-10.315
▁kDa	-10.316
line	-10.3161
▁cation	-10.3164
▁removing	-10.3172
▁software	-10.3193
▁attachment	-10.3194
▁infected	-10.3204
▁cancers	-10.3206
36	-10.3212
▁dispersion	-10.3213
▁CAR	-10.3223
▁uses	-10.3224
▁66	-10.3225
▁foam	-10.3227
▁0.8	-10.3228
▁electrophoresis	-10.3231
▁para	-10.324
)-3-(	-10.3246
▁table	-10.3247
▁trifluoromethyl	-10.3253
▁stated	-10.3264
▁recovery	-10.3268
▁VEGF	-10.3275
▁strength	-10.3283
▁difference	-10.3285
0.2	-10.3285
methylsulfonyl	-10.3286
▁normally	-10.3288
cis	-10.3289
▁Ca	-10.3291
▁current	-10.3291
▁dependent	-10.3294
▁−78°	-10.3294
▁claimed	-10.3296
)-7-	-10.3296
▁linkage	-10.3297
▁2,3-	-10.3306
▁later	-10.3312
▁0.6	-10.3319
1.0	-10.3322
▁loaded	-10.3325
ant	-10.3325
▁exposed	-10.3327
37	-10.3332
▁facilitate	-10.3343
▁Si	-10.3346
▁manufacture	-10.3354
▁encompasses	-10.3356
▁carrying	-10.3358
Gly	-10.3364
▁CHO	-10.3369
peptide	-10.3372
▁core	-10.3376
▁inter	-10.3379
2-6	-10.3387
▁exemplified	-10.339
▁eukaryotic	-10.3396
▁bp	-10.3399
benzoate	-10.3407
-5-(	-10.3409
spiro	-10.341
▁generation	-10.3417
▁4.0	-10.342
▁back	-10.3421
▁membranes	-10.3421
yield	-10.3424
meth	-10.3426
▁increases	-10.3427
▁commercial	-10.3431
Pro	-10.3434
aza	-10.3434
▁EDTA	-10.3436
▁Results	-10.3436
▁oily	-10.3438
▁sense	-10.3439
▁itself	-10.345
izing	-10.3452
▁cyclo	-10.3453
▁hole	-10.3454
▁scale	-10.346
▁agonists	-10.3464
▁bio	-10.3466
▁photo	-10.3467
▁Test	-10.3468
▁80%,	-10.3471
▁intensity	-10.3474
▁subjects	-10.3475
▁adjuvant	-10.3475
▁longer	-10.3476
▁90°	-10.3478
▁silicon	-10.3479
▁association	-10.3483
▁VIII	-10.3486
▁mutagenesis	-10.3492
ose	-10.3508
propanol	-10.3509
'-	-10.3518
75	-10.3519
pro	-10.3527
▁selectively	-10.3535
SR	-10.3539
▁condensation	-10.3541
▁orally	-10.3548
▁elevated	-10.355
▁hormone	-10.3555
-(1-	-10.356
▁CR	-10.3571
▁seed	-10.3572
▁hybrid	-10.3579
PCR	-10.3585
▁thiol	-10.3587
4.0	-10.3588
▁autoimmune	-10.359
▁typical	-10.3597
▁1.3	-10.3602
▁candidate	-10.3605
DNA	-10.3619
▁insoluble	-10.362
▁fold	-10.3624
ter	-10.3626
ite	-10.3629
▁Organic	-10.363
▁600	-10.3631
▁ethers	-10.364
▁topical	-10.3641
▁contents	-10.3644
RA	-10.3647
▁affect	-10.3651
▁Calcd	-10.3653
▁resulted	-10.3667
▁2:	-10.3668
AD	-10.3671
▁EtOH	-10.3678
▁exist	-10.3686
▁kept	-10.3686
79	-10.3687
Arg	-10.3693
diphenyl	-10.3694
▁Antibody	-10.3696
furan	-10.3698
▁glycine	-10.3704
▁4.5	-10.3709
dbd	-10.371
max	-10.3713
▁metals	-10.3715
AP	-10.3715
▁bed	-10.3728
▁interactions	-10.3732
▁De	-10.3735
heteroaryl	-10.3739
▁pairs	-10.3743
▁0,	-10.3744
▁hydrate	-10.3749
▁8.0	-10.375
▁deletion	-10.3751
▁survival	-10.3761
▁plasmids	-10.3765
▁mechanism	-10.3767
▁120°	-10.3769
▁whereas	-10.3782
▁composed	-10.3786
▁York	-10.3791
▁They	-10.3795
▁racemic	-10.3799
▁zeolite	-10.3803
▁signals	-10.3805
▁alignment	-10.3807
▁recognition	-10.3809
Ph	-10.3813
▁inventors	-10.3816
▁meaning	-10.3821
oxycarbonyl	-10.3821
▁covalently	-10.3822
▁devices	-10.3824
▁citrate	-10.3825
▁hydro	-10.3826
▁Where	-10.3827
=7.0	-10.3834
▁precipitation	-10.3835
▁40%	-10.3837
▁mAb	-10.3839
ent	-10.3846
▁63	-10.385
▁anion	-10.3858
▁literature	-10.3858
imino	-10.3859
3)2	-10.3867
▁Two	-10.3872
▁optically	-10.3874
=3	-10.3877
▁imaging	-10.3878
▁monomers	-10.3884
[4,3-	-10.3884
12,	-10.3893
▁Mo	-10.3898
=8.5	-10.3901
▁hybridoma	-10.3908
▁Of	-10.3911
▁introducing	-10.3911
▁controls	-10.3912
▁serine	-10.3912
▁peripheral	-10.3916
=6	-10.3919
ethylamine	-10.393
▁broad	-10.3931
▁95%,	-10.3936
▁hyper	-10.3938
aromatic	-10.3938
▁act	-10.3938
▁intra	-10.3944
trimethylsilyl	-10.3945
▁performance	-10.395
▁connected	-10.395
▁simultaneously	-10.3955
▁Since	-10.3961
▁cool	-10.3962
▁oxo	-10.3975
0.1	-10.398
Hydroxy	-10.3982
)2,	-10.3987
▁61	-10.3991
▁peaks	-10.3991
▁origin	-10.3991
life	-10.3996
▁person	-10.4002
methoxycarbonyl	-10.4003
▁months	-10.4006
white	-10.4009
benzonitrile	-10.4023
AB	-10.4023
▁naphthyl	-10.4024
▁screened	-10.4025
▁thermal	-10.4029
▁biologically	-10.4031
▁iodine	-10.4034
iii	-10.4035
▁testing	-10.4036
ton	-10.4036
▁cleaved	-10.4037
▁cytokine	-10.4049
▁amorphous	-10.4056
▁9.	-10.4059
ting	-10.4064
▁microwave	-10.4072
▁PCT	-10.4085
▁overall	-10.4089
▁alkylation	-10.409
▁53	-10.4091
▁(2.5	-10.4095
end	-10.4095
)-(	-10.4096
▁aq	-10.4104
▁EXAMPLES	-10.4108
lo	-10.4113
2.0	-10.4114
age	-10.4116
▁excipient	-10.4121
▁suitably	-10.4122
pyridinyl	-10.4122
▁death	-10.413
▁diisopropyl	-10.4131
▁corn	-10.4135
▁done	-10.414
hexanes	-10.4145
ox	-10.4146
▁whose	-10.4148
▁describes	-10.415
▁technology	-10.4161
▁depicted	-10.4162
▁infusion	-10.4167
alkylene	-10.4185
Phe	-10.4189
▁1.4	-10.4194
cyclopentyl	-10.4199
▁DETAIL	-10.4202
▁injectable	-10.4218
Ala	-10.4223
▁whereby	-10.4229
▁lead	-10.4233
▁1.8	-10.4238
=9	-10.4239
IR	-10.4239
▁isobutyl	-10.4244
Lys	-10.4244
▁ATCC	-10.4257
acetamido	-10.4262
▁ions	-10.4267
▁identification	-10.4277
BP	-10.4282
▁140	-10.4286
▁deposited	-10.4296
▁1,1-	-10.431
▁examined	-10.4319
▁practice	-10.4321
▁supplemented	-10.4321
▁isopropanol	-10.4327
▁occurrence	-10.4329
▁dark	-10.4335
▁protective	-10.4337
benzaldehyde	-10.4338
In	-10.4339
anti	-10.4344
▁Li	-10.4347
▁larger	-10.4348
▁1.00	-10.4351
no	-10.4358
▁digested	-10.436
▁medical	-10.4367
▁(12	-10.437
KBr	-10.4371
▁phosphoric	-10.4372
heptane	-10.4373
aniline	-10.4377
▁CN	-10.4377
▁immunogenic	-10.4378
1.1	-10.438
▁injury	-10.4382
▁characteristic	-10.4392
▁mmole	-10.4397
▁design	-10.4405
▁recognize	-10.4413
▁harvested	-10.4416
▁channel	-10.4417
▁linking	-10.4424
▁believed	-10.4431
▁96-	-10.4431
7.0	-10.4434
azabicyclo	-10.4434
▁heteroatom	-10.4453
▁numbers	-10.4457
▁protection	-10.4465
▁depend	-10.4466
▁likely	-10.447
▁reading	-10.4472
3.1	-10.4475
=8.1	-10.4479
benzofuran	-10.448
▁obtaining	-10.449
▁degrees	-10.4495
8°	-10.4502
▁bromo	-10.4506
▁ex	-10.4513
ether	-10.4515
▁k	-10.4528
7.8	-10.4536
CA	-10.454
▁98	-10.4543
-[	-10.4546
▁76	-10.4548
-1)	-10.4553
▁requires	-10.4559
42	-10.456
8)	-10.4572
▁emulsion	-10.4581
▁lyophilized	-10.4582
▁78	-10.4584
▁comprised	-10.4587
▁nitrate	-10.4587
▁sources	-10.4589
δ	-10.4595
=6.8	-10.46
▁citric	-10.46
▁appreciated	-10.4607
14,	-10.4608
7.9	-10.461
1.5	-10.4613
methane	-10.4623
▁instructions	-10.4624
▁97	-10.4651
▁8.	-10.4659
▁capacity	-10.4661
▁Comparative	-10.4663
=8.7	-10.4682
°	-10.4689
em	-10.469
▁scFv	-10.4692
▁tetrahydro	-10.4696
▁induction	-10.4702
▁measure	-10.4702
▁delivered	-10.4704
▁inhibits	-10.4705
▁systemic	-10.4706
non	-10.4708
▁vascular	-10.4721
trifluoromethoxy	-10.473
▁MHC	-10.473
39	-10.4734
SP	-10.4737
▁introduction	-10.4738
▁hand	-10.474
known	-10.4747
ta	-10.4754
=8.3	-10.4758
▁sulphate	-10.4766
▁insertion	-10.4768
▁severity	-10.4769
][1,4]	-10.477
aS	-10.4771
▁absolute	-10.4777
▁curve	-10.4777
-100	-10.4781
▁Boc	-10.4782
▁Pa	-10.4782
difluorophenyl	-10.4783
▁77	-10.479
▁polymeric	-10.48
Ar	-10.4803
2.1	-10.4813
Si	-10.4815
95	-10.4822
▁central	-10.4822
▁(250	-10.4827
Leu	-10.4828
▁covalent	-10.4829
▁1.7	-10.4833
▁liposomes	-10.4833
▁surfactant	-10.4836
ester	-10.484
▁resuspended	-10.4841
diyl	-10.4853
▁computer	-10.4855
▁demonstrate	-10.4864
▁allowing	-10.4867
4.5	-10.4867
▁Binding	-10.4876
▁profile	-10.4877
=7.3	-10.4885
▁much	-10.4888
▁0.5%	-10.4891
%,	-10.4893
9.0	-10.4899
▁OCH	-10.4905
—(	-10.491
▁#	-10.4911
▁sequentially	-10.4912
▁collagen	-10.4919
▁limiting	-10.492
▁spray	-10.4921
▁150°	-10.4922
-16	-10.4926
▁ES	-10.4927
▁diluents	-10.493
▁Sodium	-10.4931
▁160	-10.4932
naphthalen	-10.4934
▁2′-	-10.4943
▁VII	-10.4943
▁glycosylation	-10.4944
▁top	-10.4946
▁advantageous	-10.4946
▁substrates	-10.4949
▁25%	-10.4952
▁thickness	-10.4955
:1)	-10.4955
▁74	-10.4957
▁self	-10.4967
′′	-10.4968
▁105	-10.4971
hr	-10.4982
Ac	-10.4983
form	-10.4988
▁silver	-10.4988
▁73	-10.4994
=8.2	-10.4998
ro	-10.4998
▁AAV	-10.5005
lin	-10.5006
▁insect	-10.5013
▁130	-10.5016
▁colon	-10.5022
▁TABLE	-10.503
2.3	-10.5033
dt	-10.5034
pyrazin	-10.5039
▁raw	-10.504
7.6	-10.5048
ment	-10.5048
▁organ	-10.505
▁gum	-10.5057
▁assayed	-10.5067
1.8	-10.5069
os	-10.5069
8.5	-10.5074
alkynyl	-10.5074
_______________	-10.5074
1.4	-10.508
labeled	-10.508
▁manufactured	-10.5086
▁initiation	-10.509
▁indicating	-10.509
▁Factor	-10.5102
emitting	-10.5105
▁environment	-10.5108
toxic	-10.5112
▁allyl	-10.5119
▁enantiomers	-10.5121
▁loop	-10.5122
tin	-10.5124
▁2.4	-10.5127
▁granules	-10.5134
▁spectra	-10.5135
▁platinum	-10.5136
compound	-10.5138
deoxy	-10.514
formyl	-10.5149
▁predicted	-10.5151
▁pyridyl	-10.5155
▁manufacturer	-10.5159
TA	-10.5162
▁ten	-10.5168
▁chamber	-10.5173
▁HRMS	-10.5175
500	-10.5176
▁vol	-10.5188
▁alkoxycarbonyl	-10.5189
(4	-10.519
ph	-10.5195
▁Vol	-10.5196
▁corresponds	-10.5196
▁apoptosis	-10.5201
▁consist	-10.5201
nd	-10.5202
▁segments	-10.5203
▁alumina	-10.5206
▁TGF	-10.5209
▁formic	-10.5211
▁tablet	-10.5216
▁orange	-10.5217
▁emulsions	-10.5217
▁2-(4-	-10.5223
▁94	-10.5223
▁pharmacological	-10.5225
2.5	-10.5227
▁(0.2	-10.523
▁Sequence	-10.5232
▁screen	-10.5233
▁10-	-10.5236
▁throughout	-10.5237
▁phosphorylation	-10.5247
51	-10.5248
▁polyclonal	-10.5255
▁differentiation	-10.5256
▁targets	-10.5257
▁sp	-10.5261
18,	-10.5269
87	-10.5274
▁impurities	-10.5274
▁Unless	-10.5274
▁backbone	-10.528
▁nuclear	-10.5284
▁hot	-10.5295
▁neutralized	-10.5308
▁leaving	-10.5312
▁2,2-	-10.5326
▁Type	-10.533
▁models	-10.5339
▁1-(	-10.5342
▁published	-10.5344
▁6.0	-10.5345
EP	-10.5353
dichlorophenyl	-10.5355
▁unique	-10.5355
▁variation	-10.5357
▁contiguous	-10.5364
▁petroleum	-10.5367
▁Treatment	-10.537
▁79	-10.5374
▁monovalent	-10.5383
▁−	-10.5384
aminomethyl	-10.5384
2.2	-10.5386
▁Ph	-10.5397
46	-10.5402
▁Specifically	-10.5402
▁matter	-10.5404
▁halogenated	-10.5407
▁dosing	-10.5409
▁start	-10.5409
▁volumes	-10.5412
▁nickel	-10.5413
morpholino	-10.5414
▁carbons	-10.5414
]-1-	-10.5414
▁called	-10.5417
▁infections	-10.5421
ethane	-10.5426
▁index	-10.543
bicyclo	-10.5439
▁utilizing	-10.5441
▁field	-10.5443
ethylene	-10.5454
6.0	-10.5455
▁transmembrane	-10.5457
▁AD	-10.5464
▁latter	-10.5473
▁representative	-10.5473
▁Among	-10.5476
▁viscosity	-10.5481
▁frequency	-10.5483
▁effected	-10.5484
5.0	-10.5485
all	-10.549
▁antigenic	-10.5493
silyl	-10.5501
▁tubes	-10.5502
Di	-10.5504
▁uptake	-10.5509
▁additives	-10.551
▁FR	-10.5511
▁Am	-10.5514
▁points	-10.5522
▁resistant	-10.5536
▁9-	-10.5536
▁7.4	-10.5542
cyclopropane	-10.5545
▁subunit	-10.5546
▁determination	-10.5547
▁semi	-10.5547
]-5-	-10.5548
▁71	-10.5552
▁GC	-10.5553
▁filed	-10.5553
▁excellent	-10.5553
▁drop	-10.5556
▁3,4-	-10.5558
▁Lys	-10.5559
thiophen	-10.556
▁7.2	-10.5562
▁cyclopentyl	-10.5564
▁damage	-10.5567
▁lymphocytes	-10.5574
▁surfactants	-10.5585
▁HA	-10.5588
▁divalent	-10.559
▁Ltd	-10.559
▁secreted	-10.5592
▁previous	-10.5594
▁chemistry	-10.5596
▁established	-10.5602
morpholin	-10.5603
PEG	-10.5604
48	-10.5622
ap	-10.5624
▁xylene	-10.5625
diethyl	-10.5627
▁illustrative	-10.5634
3.0	-10.5639
1.2	-10.5643
2.8	-10.5646
mg	-10.5649
7°	-10.5651
▁11.	-10.5652
▁few	-10.5653
▁main	-10.5662
▁98%	-10.5663
▁cyclohexane	-10.5668
▁imidazole	-10.5671
▁maintain	-10.5673
▁influenza	-10.5676
ness	-10.5678
PAGE	-10.5679
▁differences	-10.568
▁upper	-10.5692
▁consensus	-10.5692
▁downstream	-10.5694
-3.	-10.5696
▁potent	-10.5696
cyclo	-10.5708
▁arginine	-10.5709
▁hydrogenated	-10.5717
▁BSA	-10.5718
▁critical	-10.5718
soluble	-10.5719
▁denotes	-10.5721
ve	-10.5722
▁293	-10.5723
▁alkylamino	-10.5724
▁2000	-10.5725
▁dissolving	-10.5727
1.3	-10.5732
▁turn	-10.5757
poly	-10.5758
ary	-10.5762
▁cytokines	-10.5762
43	-10.5764
treated	-10.5767
▁wavelength	-10.5768
▁inhibited	-10.5769
▁employing	-10.5776
1.6	-10.5776
8.2	-10.5781
▁fresh	-10.5785
▁renal	-10.5785
ability	-10.5788
▁sulfoxide	-10.579
▁property	-10.5791
▁funnel	-10.5792
▁cycles	-10.5794
▁blot	-10.5796
▁Part	-10.58
▁frame	-10.5812
▁(80	-10.5817
65	-10.5819
thiazole	-10.583
4.2	-10.5831
▁106	-10.5837
▁diffraction	-10.5843
▁original	-10.5844
son	-10.585
▁0.15	-10.5854
▁copolymer	-10.5857
49	-10.5859
acetone	-10.5861
carbonylamino	-10.5864
▁better	-10.5869
▁EC	-10.5871
▁Various	-10.5873
▁benzo	-10.5873
est	-10.5876
nu	-10.5877
▁ed	-10.588
4;	-10.5882
▁condensed	-10.5888
▁5.5	-10.5888
ch	-10.5889
▁references	-10.5892
▁compatible	-10.5893
▁84	-10.5894
▁(5)	-10.5896
▁intact	-10.5898
▁stimulation	-10.5898
▁band	-10.5898
▁Wiley	-10.5905
indazol	-10.5915
▁Representative	-10.5916
▁Fmoc	-10.5917
triazolo	-10.5923
▁consistent	-10.5927
▁resins	-10.5929
▁endothelial	-10.5932
▁intramuscular	-10.5933
AA	-10.5933
▁efficient	-10.5937
▁gives	-10.594
▁insert	-10.5952
▁isolate	-10.5953
inflammatory	-10.5954
▁transcript	-10.5955
▁myeloma	-10.5961
▁2.2	-10.5963
▁mutants	-10.5978
▁separately	-10.5983
)-4-(	-10.5987
6;	-10.5988
▁OD	-10.5994
▁Ni	-10.6
▁distinct	-10.6011
▁0.03	-10.6041
▁condenser	-10.6043
▁cut	-10.6048
▁crystallized	-10.6055
▁2.1	-10.6055
IC	-10.6061
5;	-10.6062
ty	-10.6079
▁ionic	-10.608
diol	-10.6083
▁azide	-10.6092
AT	-10.6095
▁plus	-10.6096
Ser	-10.6097
▁1-(4-	-10.6097
▁conserved	-10.6099
6.8	-10.6102
▁Spring	-10.6104
ATCC	-10.6107
▁cationic	-10.611
▁HCV	-10.6113
▁spp	-10.6117
thieno	-10.6117
▁digestion	-10.612
▁needed	-10.6134
-25	-10.6134
▁alkylthio	-10.6135
=7.1	-10.6137
▁recombination	-10.6138
8.3	-10.6146
▁reactants	-10.6148
▁Harbor	-10.6151
▁6.5	-10.6152
▁metabolic	-10.6162
IP	-10.6165
butanol	-10.6169
▁Under	-10.6171
▁buffers	-10.6171
▁Prepared	-10.6172
▁pore	-10.6175
▁Next	-10.6178
▁rotary	-10.6178
▁processed	-10.6185
▁chromosome	-10.6186
▁maintaining	-10.6189
▁cycloalkenyl	-10.6191
6.5	-10.6192
▁early	-10.6192
▁Column	-10.6194
▁heptane	-10.6201
-21	-10.6205
▁regard	-10.6212
▁92	-10.6213
▁essential	-10.6215
▁ligated	-10.6215
▁identifying	-10.6221
▁Acids	-10.6222
▁steam	-10.6224
▁blue	-10.6227
▁resonance	-10.6228
Sigma	-10.6229
▁International	-10.6229
▁rather	-10.6239
▁cholesterol	-10.624
▁(1.2	-10.6245
▁contacted	-10.6245
▁locus	-10.6246
▁operably	-10.6252
methylthio	-10.6257
▁Both	-10.626
PP	-10.6263
▁eye	-10.628
Al	-10.6281
▁others	-10.6282
▁0.02	-10.6286
▁Soc	-10.6286
▁70%,	-10.6287
ted	-10.629
▁illustrate	-10.6291
▁hereby	-10.6292
▁9,	-10.6292
2.9	-10.6293
▁melanoma	-10.6298
▁detailed	-10.6304
▁interferon	-10.6305
ethoxycarbonyl	-10.6313
▁86	-10.6317
▁Rb	-10.632
carbonate	-10.6323
▁Upon	-10.6323
LC	-10.6324
▁agarose	-10.6324
▁serve	-10.6325
▁St	-10.6332
which	-10.6355
▁gamma	-10.636
▁dosages	-10.6362
▁medicament	-10.6367
-(5-	-10.6369
quinazolin	-10.637
Invitrogen	-10.6372
ecrystallization	-10.6374
isoquinolin	-10.6377
▁Ed	-10.6378
CI	-10.6382
octyl	-10.6385
▁quantitative	-10.6394
▁Western	-10.6399
▁pulmonary	-10.64
▁1-3	-10.6403
59	-10.6403
5)	-10.6404
ak	-10.6409
▁progression	-10.6412
AR	-10.6412
▁stand	-10.6413
(3-	-10.6416
▁around	-10.642
NHC	-10.6422
▁2-(2-	-10.643
▁isocyanate	-10.643
▁continuously	-10.6435
▁0.7	-10.6435
▁food	-10.6441
▁sensitivity	-10.6443
▁%,	-10.6448
oxadiazol	-10.645
4.9	-10.6451
▁olefins	-10.6452
+):	-10.6459
2.7	-10.6459
▁motif	-10.6461
1.7	-10.6469
▁revealed	-10.6469
▁piperidine	-10.6473
▁10°	-10.6478
78	-10.648
▁gram	-10.6481
ddd	-10.6484
▁tail	-10.6484
▁become	-10.6491
1-10	-10.6497
▁Data	-10.6507
▁recorded	-10.6519
preferably	-10.6521
▁deletions	-10.6524
pyrrole	-10.6527
-3,5-	-10.653
methoxybenzyl	-10.6531
▁rabbit	-10.6541
▁Peptide	-10.6551
DCM	-10.6551
▁who	-10.6554
tolyl	-10.6556
brs	-10.6559
-14	-10.6559
▁triturated	-10.6562
▁85%,	-10.6566
▁Once	-10.6567
thienyl	-10.6567
▁space	-10.6569
tetrazol	-10.657
▁generating	-10.6573
▁rapid	-10.6575
-4,5-	-10.6576
ers	-10.6582
▁ethoxy	-10.6583
▁oligomer	-10.6585
Boc	-10.6592
▁dihydrochloride	-10.6601
▁simple	-10.6604
tic	-10.6606
▁sulfonyl	-10.6606
▁pM	-10.6607
pyrrol	-10.6612
▁Ig	-10.6615
▁Biochem	-10.6616
▁genetically	-10.6617
▁advantage	-10.6619
▁TCR	-10.6623
▁180	-10.6625
▁concentrate	-10.6627
▁acceptor	-10.6628
▁conjunction	-10.6632
▁reactant	-10.6634
▁88	-10.6638
0.5	-10.6644
▁(75	-10.665
▁CHCl	-10.6652
▁Briefly	-10.6653
isoquinoline	-10.6658
VL	-10.6658
pyrazine	-10.6658
AL	-10.666
▁Cu	-10.6662
6.2	-10.6663
▁appended	-10.6663
7.7	-10.6671
Rb	-10.6674
oc	-10.6681
RNA	-10.6681
Re	-10.6688
▁head	-10.669
▁Gly	-10.6692
▁gels	-10.6693
▁PI	-10.6698
▁minimum	-10.6705
▁fetal	-10.6707
See	-10.671
8.6	-10.6723
▁extension	-10.6726
▁dimer	-10.6728
▁stress	-10.6735
Glu	-10.6738
▁hydrophilic	-10.6739
▁possess	-10.6745
▁Subsequently	-10.6753
cells	-10.6756
▁suspending	-10.6757
▁slow	-10.6757
gene	-10.6759
▁OR	-10.6761
▁fact	-10.6762
8.4	-10.6765
▁conveniently	-10.6768
▁stock	-10.6773
▁definition	-10.6777
88	-10.6779
con	-10.6786
▁work	-10.6787
7.5	-10.6788
▁supplied	-10.6788
▁5°	-10.6789
▁IX	-10.6791
-1,3,2-	-10.68
ot	-10.68
▁sulfonic	-10.6801
4.3	-10.6804
▁75%	-10.6807
Step	-10.6809
▁mammals	-10.6813
▁85%	-10.6813
EC	-10.6821
ID	-10.6826
▁linkages	-10.6832
▁relevant	-10.6832
▁1-(2-	-10.6832
▁last	-10.6836
▁male	-10.6837
positive	-10.6838
COOH	-10.684
oct	-10.6842
BD	-10.6843
▁Ala	-10.685
▁successively	-10.6851
▁green	-10.6852
▁tests	-10.6855
▁incorporation	-10.6856
acetoxy	-10.6857
sp	-10.6861
▁15%	-10.6861
CL	-10.6864
▁Poly	-10.6873
▁Leu	-10.6876
li	-10.688
▁Celite	-10.6881
▁released	-10.6887
2%	-10.6887
▁immunization	-10.6888
▁batch	-10.6892
61	-10.6906
▁completed	-10.6907
▁near	-10.6908
butane	-10.6912
▁showing	-10.6918
▁routes	-10.6918
6.9	-10.6934
-2,5-	-10.6935
VII	-10.6936
▁Cold	-10.6937
▁pellet	-10.6942
=2.0	-10.6943
▁advantageously	-10.6945
▁91	-10.6948
▁effluent	-10.6949
▁dyes	-10.695
▁involve	-10.6952
-23	-10.6952
▁polyvinyl	-10.6954
▁illustrates	-10.6954
01	-10.6957
toluene	-10.6966
ial	-10.6966
-2(1	-10.6969
▁changed	-10.697
▁aryloxy	-10.6972
▁independent	-10.6973
▁tR	-10.6979
▁instant	-10.6979
▁Research	-10.6982
▁take	-10.6984
RP	-10.6985
▁ends	-10.6985
gamma	-10.6993
▁enantiomer	-10.6993
amido	-10.7001
na	-10.7003
PBS	-10.7011
▁additionally	-10.7012
also	-10.7014
▁individually	-10.7019
ry	-10.702
▁2.3	-10.7021
oxazol	-10.703
▁create	-10.7032
▁absorbance	-10.7033
▁cited	-10.7034
▁exhibited	-10.7036
4+	-10.7036
▁require	-10.7038
▁transcriptional	-10.7042
of	-10.7045
▁mobile	-10.7049
▁rates	-10.705
▁exhibits	-10.7054
▁alanine	-10.7055
▁stirrer	-10.7056
ST	-10.7063
▁organisms	-10.7067
▁ca	-10.7068
=7.9	-10.7069
acetonitrile	-10.7069
73	-10.7069
▁BLAST	-10.7073
▁tris	-10.7076
dec	-10.7078
acyl	-10.7086
▁terminus	-10.7089
be	-10.709
octane	-10.7093
eg	-10.7094
▁Drug	-10.7096
600	-10.7096
56	-10.71
▁wet	-10.7101
▁mutated	-10.7108
▁improvement	-10.7108
EI	-10.711
)-1-(	-10.7112
▁Activity	-10.7115
▁might	-10.7115
▁pump	-10.7117
▁PC	-10.7119
▁Ex	-10.712
▁Chemistry	-10.7123
▁array	-10.7126
▁89	-10.713
▁emitting	-10.7133
▁situ	-10.7136
▁0.06	-10.714
▁ratios	-10.7143
▁prodrugs	-10.7146
63	-10.7156
▁conservative	-10.7162
300	-10.7162
▁separating	-10.7163
▁10.0	-10.7164
▁3,5-	-10.7166
carbodiimide	-10.7166
▁Con	-10.7169
3.5	-10.7174
=9.0	-10.7177
02	-10.7178
=6.6	-10.7181
▁histidine	-10.7189
▁y	-10.719
▁autoclave	-10.7191
▁kb	-10.7197
▁pancreatic	-10.7201
▁substantial	-10.7203
=7.4	-10.7207
▁quaternary	-10.7207
7;	-10.721
▁prophylactic	-10.7222
▁voltage	-10.7226
▁replacement	-10.7227
-30	-10.723
▁93	-10.7232
▁phosphatase	-10.7238
▁81	-10.7239
▁yielding	-10.7244
▁developing	-10.7249
▁stained	-10.7253
▁sustained	-10.7254
120	-10.7262
The	-10.7263
vi	-10.7263
op	-10.7266
palladium	-10.7267
▁describe	-10.7274
▁0.04	-10.7274
Ia	-10.7275
▁unreacted	-10.7277
7)	-10.7279
▁potency	-10.7281
NA	-10.7281
▁Those	-10.7288
CDR	-10.7305
ner	-10.7305
▁1-4	-10.7308
▁Cloning	-10.7318
=8.6	-10.7321
▁replacing	-10.7325
▁predetermined	-10.7335
3.2	-10.7337
▁biotin	-10.7338
64	-10.7341
▁(1993)	-10.7343
3.4	-10.7349
▁electro	-10.735
71	-10.7353
His	-10.7353
▁homogeneous	-10.7356
▁produces	-10.7358
▁reached	-10.736
▁1.25	-10.736
6.6	-10.7362
0.8	-10.7364
▁oxidized	-10.7364
▁sat	-10.7374
MA	-10.7376
step	-10.7379
▁immunized	-10.7382
Methoxy	-10.7386
cyclopenta	-10.7397
▁pad	-10.7399
68	-10.7411
yn	-10.7416
▁activating	-10.7418
▁deuterium	-10.742
6.7	-10.7423
▁preservatives	-10.7423
▁already	-10.7436
▁108	-10.7437
▁con	-10.7441
▁evaluation	-10.7444
▁correspond	-10.7451
▁inventive	-10.7453
▁smaller	-10.7455
▁database	-10.7458
=2.4	-10.7459
▁104	-10.7467
▁local	-10.7469
▁score	-10.7469
▁individuals	-10.747
62	-10.7473
▁nucleoside	-10.7481
chemotherapeutic	-10.7485
▁physiologically	-10.7485
▁little	-10.7486
active	-10.749
▁degassed	-10.7495
9;	-10.7496
55	-10.7502
▁diastereomers	-10.7506
+1).	-10.7512
98	-10.7513
▁location	-10.7514
▁slightly	-10.7514
▁EGFR	-10.7519
tetrahydrofuran	-10.752
▁(4-	-10.752
▁0.9	-10.7522
▁3:	-10.7522
ce	-10.7539
84	-10.7541
▁ligation	-10.7546
▁atmospheric	-10.7553
-22	-10.7555
piperidinyl	-10.7557
▁toxic	-10.7558
58	-10.756
▁linkers	-10.756
3.8	-10.7564
83	-10.7568
methanone	-10.7571
99	-10.7576
04	-10.7577
ip	-10.7577
▁oven	-10.7591
▁Arg	-10.7597
ix	-10.7604
▁labeling	-10.7604
▁purchased	-10.7605
▁initially	-10.7612
▁eight	-10.7613
▁view	-10.7617
▁oligo	-10.7618
Dimethyl	-10.7623
▁heteroalkyl	-10.7625
-6-(	-10.7627
▁capture	-10.7628
▁encompassed	-10.7631
IN	-10.7632
▁extended	-10.7636
piperazinyl	-10.7637
▁methane	-10.7639
▁involving	-10.7643
▁83	-10.7646
1-8	-10.7653
▁fermentation	-10.7653
▁upstream	-10.7653
▁Val	-10.7653
ler	-10.7654
”)	-10.7659
▁filled	-10.7674
▁rapidly	-10.7677
▁luciferase	-10.7677
▁HER	-10.7694
PS	-10.7695
AS	-10.7697
▁inducing	-10.7698
itis	-10.7701
▁joined	-10.7703
8.8	-10.7704
▁11,	-10.7711
▁Glu	-10.7711
OS	-10.7712
▁blocked	-10.7718
-1,2,3,4-	-10.7719
▁binder	-10.7719
▁kits	-10.772
▁transduction	-10.772
▁inlet	-10.7721
▁Plant	-10.7723
▁hydrazine	-10.7726
IA	-10.7727
silane	-10.7728
▁proportion	-10.773
▁Biology	-10.7737
▁diagnosis	-10.7737
-1-(	-10.7739
▁7.3	-10.7741
▁loading	-10.7741
▁cassette	-10.7743
▁RA	-10.7744
▁discloses	-10.7756
▁(1989)	-10.7758
▁stop	-10.7759
▁Invention	-10.7764
▁seven	-10.7765
",	-10.7767
▁modulate	-10.7774
7.2	-10.7777
▁Most	-10.7778
gen	-10.7781
▁regimen	-10.7781
▁borohydride	-10.7783
acrylate	-10.7786
allyl	-10.7786
▁arylalkyl	-10.7787
▁65°	-10.7793
13,	-10.7794
69	-10.7794
uc	-10.7795
oma	-10.7795
Val	-10.7796
mercapto	-10.7796
▁yielded	-10.78
▁syringe	-10.7805
▁ortho	-10.7806
)—,	-10.781
▁outlined	-10.7811
io	-10.7813
▁stereoisomers	-10.7815
dioxaborolan	-10.7817
from	-10.7822
▁paper	-10.7824
ell	-10.7824
-50	-10.7826
▁His	-10.7826
▁measurements	-10.783
▁NK	-10.7833
IS	-10.7842
▁adjuvants	-10.7845
▁tract	-10.7846
54	-10.7846
0.9	-10.7847
▁220	-10.7848
phenylamino	-10.7851
-2-(2-	-10.7851
▁sufficiently	-10.7854
▁9.5	-10.7859
▁800	-10.7859
▁titanium	-10.7863
▁purged	-10.7865
sulfonic	-10.787
▁carbohydrate	-10.7879
▁rectal	-10.788
▁carry	-10.7884
ure	-10.7886
Ethyl	-10.7888
mmol	-10.7892
▁dihydro	-10.7893
▁101	-10.7894
▁solvates	-10.7899
▁methionine	-10.7899
▁interact	-10.7903
▁enriched	-10.7904
▁asthma	-10.7904
▁8.5	-10.7905
▁[(	-10.7906
▁Because	-10.7909
▁name	-10.791
▁115	-10.7916
▁Tri	-10.7917
▁cytotoxicity	-10.792
8.1	-10.7921
▁effectively	-10.7926
▁82	-10.7926
▁dis	-10.7931
▁se	-10.7932
▁random	-10.7933
▁soybean	-10.7934
=6.0	-10.7939
AC	-10.794
▁labels	-10.7941
▁spacer	-10.7944
la	-10.7953
▁FGF	-10.7956
boronic	-10.7957
▁(1991)	-10.7959
2)2	-10.7959
12-	-10.7962
▁evaporator	-10.7963
9.2	-10.7967
oid	-10.7971
▁107	-10.7975
▁leader	-10.7975
▁enhancer	-10.7979
▁350	-10.7982
▁varying	-10.7984
SPC	-10.7985
▁Micro	-10.7986
1.9	-10.7987
aldehyde	-10.7989
▁sensitive	-10.799
▁ovarian	-10.7995
3.3	-10.7998
▁plastic	-10.7998
▁Phase	-10.8
NP	-10.8002
74	-10.8005
▁drops	-10.8008
▁lipids	-10.8012
▁PE	-10.8014
-2,6-	-10.8014
10-	-10.8017
96	-10.8017
▁adhesion	-10.802
MP	-10.8022
▁RP	-10.8023
▁agar	-10.8024
▁lysis	-10.8026
▁ensure	-10.803
▁3%	-10.8034
▁hinge	-10.8038
trifluoroacetate	-10.8039
▁image	-10.804
▁advantages	-10.8044
▁absent	-10.8058
▁87	-10.8058
)-5-(	-10.8068
▁mesh	-10.8072
azetidin	-10.8072
▁minor	-10.8074
▁sulfide	-10.808
▁treatments	-10.8084
▁received	-10.8093
pyridazin	-10.8097
▁duration	-10.8099
▁(1988)	-10.8099
▁deposition	-10.8099
4.4	-10.8101
400	-10.8102
=6.4	-10.8103
▁buffered	-10.8104
ylidene	-10.8107
=6.9	-10.8112
▁65%	-10.8115
▁2,5-	-10.8116
▁110°	-10.8121
▁HEK	-10.8123
thia	-10.8127
HT	-10.8129
4.6	-10.813
forming	-10.8133
▁92%	-10.8133
▁Rev	-10.8135
Ig	-10.8141
▁4-(4-	-10.8141
▁converting	-10.8142
-2-(4-	-10.8146
dose	-10.815
▁SP	-10.8152
-40	-10.8152
▁cesium	-10.8154
▁psi	-10.8156
▁DIPEA	-10.8156
▁across	-10.8158
▁brs	-10.8159
▁calc	-10.8161
▁fibrosis	-10.8164
ised	-10.8169
▁dilute	-10.8173
carbamic	-10.8175
4.8	-10.8176
▁cake	-10.8177
▁benefit	-10.8181
▁Amino	-10.8186
▁Mice	-10.8188
▁meanings	-10.8189
▁copolymers	-10.8195
(=	-10.8196
▁optimal	-10.8213
▁Tables	-10.8214
▁optional	-10.8214
diamino	-10.8217
by	-10.8217
9°	-10.8218
▁analytical	-10.8219
▁97%,	-10.8226
▁Compositions	-10.823
▁Particularly	-10.8233
0-	-10.8234
▁2.6	-10.824
▁4-(2-	-10.8241
▁celite	-10.8242
hept	-10.8243
▁therapies	-10.8245
RT	-10.8245
▁transgene	-10.8248
▁background	-10.8257
-3-(3-	-10.8258
▁mix	-10.8259
▁combining	-10.8262
SS	-10.8266
ize	-10.8273
OX	-10.8273
▁That	-10.8273
▁mechanical	-10.8274
▁antibiotic	-10.8278
▁causes	-10.8281
▁conjugation	-10.829
▁Flow	-10.8297
▁amides	-10.8301
▁clearly	-10.8302
▁170	-10.8304
6.1	-10.8305
▁right	-10.8305
▁codons	-10.8305
▁Calculated	-10.8307
4.7	-10.831
20,	-10.8318
7.4	-10.8322
▁adult	-10.8322
▁frozen	-10.8323
▁reactivity	-10.8327
)-1,3-	-10.8331
treatment	-10.8333
▁comparing	-10.8334
ut	-10.8344
▁meta	-10.8347
▁0.08	-10.8348
▁2.7	-10.8348
▁Ba	-10.8353
3).	-10.8362
▁Samples	-10.8366
▁here	-10.837
mouse	-10.8372
▁deprotection	-10.8379
▁boron	-10.8381
▁years	-10.8381
ative	-10.8381
▁HF	-10.8385
▁0.10	-10.8385
▁sorbitol	-10.8387
▁protocols	-10.8389
▁panel	-10.8392
-3′	-10.8398
▁similarity	-10.8404
▁Alzheimer	-10.8404
▁98%,	-10.8407
▁capsule	-10.8413
▁asymmetric	-10.8414
transferase	-10.8415
▁rheumatoid	-10.8417
▁109	-10.8418
▁promote	-10.842
▁inhalation	-10.8422
▁Fe	-10.8422
▁zero	-10.8423
▁similarly	-10.8423
66	-10.8426
▁Thereafter	-10.8431
▁Tween	-10.8434
▁beneficial	-10.8436
PT	-10.8439
▁ATP	-10.8449
▁hepatitis	-10.8449
▁vegetable	-10.8451
▁7.20	-10.8456
▁quantities	-10.8457
▁connection	-10.8458
▁AB	-10.8466
▁Cy	-10.8467
acid	-10.8469
off	-10.8478
▁adsorption	-10.8478
▁Buffer	-10.8479
▁analyses	-10.8487
3.7	-10.849
▁During	-10.8493
▁lack	-10.8503
prepared	-10.8507
▁Manual	-10.8507
▁vehicles	-10.8513
▁200°	-10.8518
▁construction	-10.8523
▁appropriately	-10.8526
antibody	-10.8529
7.1	-10.8534
te	-10.8536
ha	-10.8537
6.4	-10.8539
▁Proteins	-10.8541
52	-10.8543
5.9	-10.8549
▁silyl	-10.8551
▁5'	-10.8552
SA	-10.8553
▁cobalt	-10.8555
▁minimal	-10.8563
▁benzoyl	-10.8573
5.5	-10.8574
▁First	-10.8574
▁Process	-10.8574
▁0.001	-10.8579
▁complementarity	-10.8592
▁(1990)	-10.8594
ling	-10.8596
▁grade	-10.8607
with	-10.8609
▁columns	-10.8618
▁soft	-10.8618
▁alter	-10.8624
▁carbamate	-10.8626
▁Fv	-10.8627
▁wetting	-10.8631
PG	-10.8636
▁feedstock	-10.8642
ato	-10.8646
BA	-10.8649
▁affected	-10.8655
3.9	-10.8655
7.3	-10.8681
▁infectious	-10.8686
▁exogenous	-10.8689
▁7.25	-10.8693
-3-(4-	-10.8694
EA	-10.8703
1%	-10.8704
▁nor	-10.8708
methanesulfonate	-10.871
3-6	-10.8711
▁rinsed	-10.8716
ane	-10.8717
▁epoxy	-10.8717
▁14,	-10.8721
ran	-10.8726
▁epithelial	-10.8726
▁controlling	-10.8726
ethynyl	-10.8727
▁1-2	-10.8729
▁vaccines	-10.8733
propenyl	-10.8738
▁resolution	-10.8743
▁spectrometry	-10.8745
00	-10.875
▁brought	-10.8758
▁hydrocarbyl	-10.8761
▁93%	-10.8762
SiO	-10.8768
▁marrow	-10.8778
▁nitric	-10.878
IgG	-10.8782
PC	-10.8798
▁radioactive	-10.8799
▁external	-10.8801
▁(1.1	-10.8804
Intermediate	-10.8806
8.9	-10.8806
-4-(4-	-10.8808
▁acrylic	-10.881
▁1.9	-10.8812
▁failure	-10.8813
▁life	-10.8813
▁Melting	-10.882
ies	-10.8824
aminocarbonyl	-10.8825
ET	-10.8826
ates	-10.8832
▁additive	-10.8835
▁colonies	-10.8835
▁Finally	-10.8836
▁pooled	-10.8838
propanoic	-10.8839
▁6.8	-10.8839
modified	-10.8843
▁NP	-10.8844
▁convenient	-10.885
▁artisan	-10.8855
▁highest	-10.8856
mp	-10.886
85	-10.8862
8.7	-10.8862
osis	-10.8866
propanoate	-10.8867
▁2.8	-10.8868
▁dispersed	-10.8869
▁chromatographic	-10.8875
3.6	-10.8878
▁111	-10.8885
▁103	-10.8886
▁sugars	-10.8892
▁precursors	-10.8893
▁(1994)	-10.8897
8;	-10.8899
▁leucine	-10.8901
ER	-10.8901
▁subcutaneously	-10.8904
ethylamino	-10.8908
▁(1.8	-10.8912
pr	-10.8916
▁transdermal	-10.8924
isobutyl	-10.8926
▁angiogenesis	-10.8929
▁La	-10.893
▁(70	-10.893
▁regulation	-10.8934
rich	-10.8942
▁Culture	-10.8943
expressing	-10.8945
cyclobutyl	-10.895
▁assess	-10.895
16,	-10.8954
▁7.40	-10.8964
▁sections	-10.8966
0.3	-10.8967
▁gp	-10.897
IX	-10.897
9.3	-10.8972
▁metabolism	-10.8974
=10	-10.8976
97	-10.898
▁San	-10.8981
ard	-10.8984
▁selectable	-10.8986
3);	-10.8998
101	-10.9
ethanone	-10.9001
▁malignant	-10.9002
▁0.05%	-10.9007
▁.+-.	-10.9008
9.9	-10.9008
ole	-10.9008
▁causing	-10.9019
67	-10.902
▁MgCl	-10.9022
EL	-10.9024
▁quality	-10.9024
▁Calc	-10.9031
▁Immuno	-10.9033
▁(35	-10.9035
▁CA	-10.9043
NT	-10.9044
▁7.35	-10.9044
▁onset	-10.9045
▁60%,	-10.9048
▁intraperitoneal	-10.9049
▁NOS	-10.9049
▁assigned	-10.9053
▁Solvent	-10.9056
▁raised	-10.9056
tumor	-10.9059
▁microorganisms	-10.9062
ti	-10.9075
▁formaldehyde	-10.9081
▁adenovirus	-10.9085
▁DE	-10.9096
76	-10.9096
▁(0.01	-10.9097
▁operating	-10.9099
▁Based	-10.9102
▁diphenyl	-10.9102
▁Use	-10.9106
▁plated	-10.9111
▁Certain	-10.9116
▁bearing	-10.9119
▁(0.3	-10.912
-5.	-10.912
ance	-10.9124
▁avoid	-10.9129
gel	-10.9133
-[2-	-10.9141
▁inside	-10.9148
▁Typical	-10.9152
▁HVR	-10.9155
▁12,	-10.9156
optionally	-10.9156
▁triple	-10.9161
▁antibiotics	-10.9165
tr	-10.9166
benzenesulfonyl	-10.9167
▁(0.05	-10.9171
▁fashion	-10.9171
▁leads	-10.9171
Bu	-10.9172
▁7.6	-10.9175
)-8-	-10.9178
▁rise	-10.9179
▁mannitol	-10.918
▁stranded	-10.9184
=7.7	-10.9188
rin	-10.9191
▁giving	-10.9194
US	-10.9195
▁124	-10.9197
-2.0	-10.9198
3/	-10.9198
▁collection	-10.9208
▁dissociation	-10.921
▁monohydrate	-10.921
▁Asp	-10.9215
▁450	-10.9218
VIII	-10.922
haloalkyl	-10.9222
▁fat	-10.9224
▁phenotype	-10.9225
▁prokaryotic	-10.9226
▁(600	-10.9227
THF	-10.9232
ring	-10.9233
▁Many	-10.9234
▁construed	-10.9238
▁isolating	-10.9245
▁0.07	-10.9246
SF	-10.9249
▁Ac	-10.9249
benzimidazol	-10.9252
▁1-(3-	-10.9253
▁Per	-10.9256
▁varied	-10.9258
▁nervous	-10.926
▁spleen	-10.926
▁102	-10.9262
▁supported	-10.9264
▁sclerosis	-10.9269
▁select	-10.9272
▁nano	-10.9273
10)	-10.9275
(2)	-10.9279
▁EL	-10.9283
▁wound	-10.9283
▁decomposition	-10.9286
▁termination	-10.9289
CT	-10.9291
▁12.	-10.93
▁oxides	-10.9302
▁allergic	-10.9305
▁injections	-10.9311
▁difficult	-10.9311
triazole	-10.9314
▁synthase	-10.9315
▁cardiac	-10.9316
-1.5	-10.9321
dichloromethane	-10.9325
-1,6-	-10.9331
-24	-10.9332
-19	-10.9336
▁preceding	-10.9341
▁Sons	-10.9342
▁John	-10.9343
▁exon	-10.9346
▁Sp	-10.935
dried	-10.9354
▁choice	-10.936
▁mmoles	-10.936
ano	-10.9368
▁untreated	-10.937
▁hexa	-10.9376
▁fiber	-10.9382
▁7.31	-10.9384
▁center	-10.9384
BB	-10.9385
▁assembly	-10.9387
▁(1.6	-10.9389
03	-10.9389
▁(3.0	-10.9397
if	-10.9402
▁estimated	-10.9403
▁3.2	-10.941
butene	-10.9419
▁formulas	-10.9422
▁Optionally	-10.9426
phosphine	-10.9428
▁oligomers	-10.943
▁analogues	-10.9442
▁glycols	-10.9442
hereinafter	-10.9443
aqueous	-10.9453
▁Technologies	-10.9454
▁hybridize	-10.9456
BL	-10.946
▁(16	-10.9464
Bio	-10.9465
▁recycled	-10.9467
▁halides	-10.9467
diazabicyclo	-10.9468
▁EQU	-10.9469
▁dispersing	-10.9481
▁135	-10.9481
▁differ	-10.9482
▁black	-10.9485
PV	-10.949
-1,2,3-	-10.9492
▁cannot	-10.9493
benz	-10.9504
72	-10.9504
▁oxidizing	-10.9507
ax	-10.9508
▁leading	-10.9513
2##	-10.9514
pentane	-10.9516
▁gaseous	-10.9517
VH	-10.9523
▁talc	-10.9525
▁algorithm	-10.9528
▁add	-10.9528
▁oxime	-10.953
▁bladder	-10.9535
▁(18	-10.9539
▁depends	-10.954
▁inclusion	-10.9545
▁event	-10.9546
▁50%,	-10.9547
Asp	-10.9549
▁Thr	-10.9553
▁-(	-10.9554
▁Sigma	-10.9555
▁Ch	-10.9558
▁Cys	-10.9559
▁performing	-10.9562
▁functionality	-10.9564
▁irradiation	-10.9565
▁Recombinant	-10.9565
▁(1.3	-10.9565
isomer	-10.957
chloride	-10.957
▁High	-10.9576
▁female	-10.9587
▁our	-10.959
▁seeded	-10.9593
106	-10.9594
▁modulating	-10.9598
▁Administration	-10.9598
▁classes	-10.9605
2.6	-10.9606
▁96%,	-10.9611
cancer	-10.9611
▁IgE	-10.9613
▁routine	-10.9617
▁Th	-10.9621
product	-10.9621
▁tin	-10.9635
▁fine	-10.9636
▁liter	-10.9637
9.5	-10.9638
chloroform	-10.9639
▁appears	-10.9642
▁(1995)	-10.9644
▁integrated	-10.9644
sulfanyl	-10.9646
▁isomerization	-10.9649
sis	-10.9663
[2,1-	-10.9665
130	-10.9667
-3-(2-	-10.9668
▁FACS	-10.9668
4.1	-10.967
▁analogy	-10.9678
▁Blood	-10.9681
▁hereinafter	-10.9682
▁3-(4-	-10.9687
▁OC	-10.9692
▁RPMI	-10.9694
▁versus	-10.9694
3##	-10.9696
▁platelet	-10.9697
▁hard	-10.9698
CP	-10.9699
▁binders	-10.9701
functional	-10.9702
▁allele	-10.9705
▁trifluoro	-10.9705
▁freeze	-10.9708
▁applicable	-10.971
▁encompass	-10.971
▁counter	-10.9711
▁vessels	-10.9718
▁Exp	-10.9719
▁7.45	-10.9719
▁carbocyclic	-10.9719
Aldrich	-10.972
▁MeCN	-10.9722
▁monitoring	-10.9722
DI	-10.9728
▁held	-10.9728
▁Sch	-10.9731
▁en	-10.9733
▁foreign	-10.9739
▁partner	-10.9746
▁radio	-10.9746
-[2-(	-10.9747
▁direction	-10.975
0.4	-10.9755
▁maleic	-10.9763
▁intravenously	-10.9763
gastrointestinal	-10.9768
alanine	-10.977
-6,7-	-10.9771
▁7.38	-10.9772
▁cyclobutyl	-10.9774
ber	-10.9776
▁isotonic	-10.9779
▁neutralizing	-10.9781
▁homo	-10.9782
▁113	-10.9782
▁4:	-10.9784
▁Experimental	-10.9785
▁deleted	-10.9786
▁separator	-10.9789
2.4	-10.979
ef	-10.9791
-10-	-10.9794
▁reduces	-10.9799
▁enhancing	-10.98
ill	-10.9801
▁oxy	-10.9804
▁pathways	-10.9804
▁read	-10.9805
▁(1987)	-10.9807
MB	-10.9811
▁nasal	-10.9813
293	-10.9813
▁flavoring	-10.9819
▁spirit	-10.9824
DA	-10.9825
▁cat	-10.9828
thiadiazol	-10.9829
▁tank	-10.9829
▁efficiently	-10.9832
▁(5.0	-10.9836
▁perform	-10.9837
91	-10.9838
▁repeat	-10.9847
▁supernatants	-10.9849
▁hexyl	-10.9849
-[(	-10.985
▁endo	-10.9852
GA	-10.9863
5.3	-10.9864
▁131	-10.9868
tetrahydropyran	-10.9881
sulfonate	-10.9882
6.3	-10.9883
mono	-10.9893
▁conformation	-10.9899
▁3'	-10.99
▁naphthalene	-10.9902
pa	-10.9903
act	-10.9906
▁145	-10.9909
9.4	-10.991
▁PG	-10.9917
▁9.6	-10.9917
▁composite	-10.9918
▁thionyl	-10.9919
where	-10.9921
▁4.6	-10.9921
▁surfaces	-10.9924
po	-10.9926
drug	-10.994
▁publications	-10.994
▁tolerance	-10.9942
▁carboxylate	-10.9942
▁Pre	-10.9947
▁tetrakis	-10.9952
▁orientation	-10.9953
▁TEA	-10.9954
15,	-10.9958
YL	-10.9962
syn	-10.9962
▁titled	-10.9962
bromophenyl	-10.9971
▁artificial	-10.9972
ang	-10.9974
▁aggregation	-10.9975
▁7.65	-10.9981
▁Trans	-10.9984
▁114	-10.9992
▁strands	-10.9995
▁123	-11.0004
▁35%	-11.0014
lic	-11.0018
▁0.09	-11.0023
▁monoxide	-11.0024
▁(1992)	-11.0025
▁organs	-11.0033
▁surgery	-11.004
▁polycyclic	-11.0047
▁stringency	-11.005
0.6	-11.0052
▁Control	-11.0057
▁undesirable	-11.0058
▁dialkyl	-11.006
mann	-11.0061
▁respiratory	-11.0061
▁Inhibition	-11.0062
▁0.75	-11.0066
▁700	-11.0071
▁Kit	-11.0077
4##	-11.0079
RI	-11.0081
▁develop	-11.0088
▁abnormal	-11.0089
▁spectroscopy	-11.0089
TT	-11.0091
▁adapted	-11.0093
▁5-(	-11.0096
▁numerous	-11.0098
9.6	-11.0099
▁retain	-11.01
▁culturing	-11.0101
▁activator	-11.0105
▁ul	-11.0107
▁stereoisomer	-11.0111
▁(1.4	-11.0111
▁Accession	-11.0118
(1-	-11.0123
▁sulfonate	-11.0129
DR	-11.0138
▁porous	-11.0139
▁240	-11.0144
▁utility	-11.0144
▁7.43	-11.0146
▁aerosol	-11.0153
Tyr	-11.0155
ins	-11.0157
part	-11.0157
▁stopped	-11.0169
IT	-11.0173
▁evaluate	-11.0179
▁proton	-11.0182
▁Phe	-11.0189
▁(0.02	-11.0191
▁prep	-11.0191
▁acrylate	-11.0196
azido	-11.0198
OAc	-11.0202
▁events	-11.0209
▁definitions	-11.0211
▁healthy	-11.0212
SC	-11.0213
dibromo	-11.0221
hydro	-11.0226
▁HEPES	-11.0228
▁stabilizers	-11.0228
▁equation	-11.0229
▁carbamoyl	-11.0232
▁TR	-11.0237
▁super	-11.0237
▁find	-11.024
86	-11.0241
ella	-11.0241
▁(11	-11.0245
19,	-11.0249
▁becomes	-11.0249
methoxyethyl	-11.0249
▁Solid	-11.0258
▁seeds	-11.0259
out	-11.0259
▁3′-	-11.026
▁usual	-11.0262
▁benzoic	-11.0262
butoxide	-11.0271
Dichloro	-11.0272
fer	-11.0275
▁TA	-11.0277
▁112	-11.0278
▁suggest	-11.0283
pent	-11.0285
107	-11.0287
▁duplex	-11.0291
▁Tyr	-11.0291
▁format	-11.0292
▁health	-11.0294
▁subunits	-11.0295
▁7.8	-11.0299
▁hydroxyalkyl	-11.0301
▁fourth	-11.0302
Met	-11.0305
▁primarily	-11.031
▁55°	-11.031
tag	-11.0314
▁Ia	-11.0319
hex	-11.0325
▁FBS	-11.0327
protected	-11.0327
▁wall	-11.0328
▁4%	-11.033
▁2×	-11.0332
▁mechanisms	-11.0337
▁aid	-11.0341
sulfamoyl	-11.0342
0.00	-11.0345
▁therefrom	-11.0346
▁formamide	-11.0346
▁5,6	-11.0349
▁illustration	-11.0349
▁selecting	-11.0352
manufactured	-11.0353
▁stages	-11.0355
▁stringent	-11.0355
2—,	-11.036
▁PR	-11.0375
cr	-11.0378
▁best	-11.0378
diisopropyl	-11.0386
▁[3	-11.0387
▁coatings	-11.0389
less	-11.0393
ow	-11.0394
)-3,4-	-11.0399
▁stimulated	-11.0402
▁shaken	-11.0403
▁microorganism	-11.0408
▁penta	-11.0409
▁glutamine	-11.041
toluenesulfonic	-11.041
▁System	-11.0414
▁recipient	-11.0416
▁memory	-11.0416
-(6-	-11.042
▁activate	-11.0429
▁finally	-11.043
▁formate	-11.0434
▁1×	-11.0434
-2,2-	-11.0441
▁3.6	-11.0447
▁suffering	-11.0448
▁confirm	-11.0448
▁milk	-11.0449
▁45°	-11.0452
▁applying	-11.0453
▁phosphine	-11.0457
▁118	-11.0457
butenyl	-11.0464
▁close	-11.0466
▁diabetic	-11.0468
om	-11.0472
▁7.15	-11.0473
▁sets	-11.0478
▁intervals	-11.0478
▁17.	-11.048
▁Monoclonal	-11.0481
1-5	-11.0481
▁peroxidase	-11.0483
▁119	-11.0483
▁7.23	-11.0484
▁(6)	-11.0487
pyrimidinyl	-11.0491
encoding	-11.0491
▁proliferative	-11.0493
8+	-11.0494
▁gastric	-11.0496
▁TLR	-11.0505
▁Corporation	-11.0506
mal	-11.0507
▁neurons	-11.0509
▁interchangeably	-11.0511
-60	-11.0515
▁glycoprotein	-11.0516
▁75%,	-11.0527
cyclic	-11.0529
▁trimethyl	-11.053
▁objective	-11.0531
▁widely	-11.0535
methylpropyl	-11.0536
▁280	-11.0537
7##	-11.0538
▁iodo	-11.0547
▁7.42	-11.0555
DE	-11.0559
ence	-11.056
IF	-11.0563
▁cytometry	-11.0565
▁equilibrium	-11.0566
▁outside	-11.0567
▁7.32	-11.0568
bromomethyl	-11.0569
▁trypsin	-11.057
carbaldehyde	-11.0574
AM	-11.0574
)-2,3-	-11.0576
▁Systems	-11.058
▁Cat	-11.059
▁Int	-11.0591
82	-11.0591
▁(7)	-11.06
▁responsible	-11.0605
negative	-11.0613
▁psig	-11.0618
▁indirectly	-11.0619
coated	-11.062
=4.8	-11.0621
isoxazol	-11.0624
▁hair	-11.0626
▁116	-11.0629
▁baseline	-11.0632
propionate	-11.0637
▁liposome	-11.0638
MT	-11.0639
▁fungal	-11.064
td	-11.064
▁shape	-11.0641
▁Ro	-11.0643
car	-11.0649
▁Day	-11.065
▁pyrimidine	-11.0651
ay	-11.0652
▁95°	-11.0653
▁IgM	-11.0654
▁optimized	-11.0654
▁introduce	-11.0656
▁fuel	-11.0656
▁z	-11.0659
▁American	-11.066
tion	-11.0661
▁feature	-11.0663
▁Detection	-11.0666
▁Therapeutic	-11.0668
▁thienyl	-11.0671
▁DMEM	-11.0671
▁gradually	-11.0675
▁differential	-11.0675
▁(—	-11.0676
▁code	-11.0677
▁Le	-11.0679
▁HATU	-11.0684
▁stably	-11.0687
▁hereinbefore	-11.0691
▁phrase	-11.0693
minute	-11.0695
dimethoxyphenyl	-11.0696
▁7.28	-11.0697
ens	-11.0703
▁7.10	-11.0703
phenylethyl	-11.0707
red	-11.0708
▁ch	-11.0709
1##	-11.0709
▁3.3	-11.071
▁accumulation	-11.0713
▁analogously	-11.0714
▁7.1	-11.0715
▁patents	-11.0719
▁shaking	-11.0719
▁(14	-11.0719
▁bonding	-11.0721
▁phospho	-11.0722
▁7.18	-11.0723
land	-11.0723
dimethylphenyl	-11.0726
▁SiO	-11.0726
▁suction	-11.0727
▁cartridge	-11.0729
▁7.37	-11.0735
ba	-11.0737
ino	-11.0742
▁influence	-11.0743
▁alkylating	-11.0745
104	-11.0745
▁7.26	-11.0745
▁ways	-11.0746
81	-11.0746
▁employ	-11.0753
▁Figure	-11.0761
5##	-11.0766
-(2,6-	-11.0776
▁correct	-11.0777
▁paraffin	-11.0779
ov	-11.0779
▁discovered	-11.078
▁proper	-11.078
3-10	-11.078
▁2:1	-11.0787
▁138	-11.0788
▁dissolution	-11.079
-[4-	-11.079
▁7.34	-11.0791
▁Groups	-11.0793
PI	-11.0797
▁detector	-11.0799
products	-11.08
▁succinic	-11.0801
▁modifying	-11.0804
▁remains	-11.081
▁laboratory	-11.0811
▁viability	-11.0813
▁nanoparticles	-11.082
(3,5-	-11.0823
▁Lewis	-11.0824
▁modulators	-11.0826
▁7.30	-11.0832
▁kPa	-11.0834
▁electroporation	-11.0836
ator	-11.084
▁3.1	-11.0843
glycine	-11.0843
▁ArH	-11.0843
▁7.48	-11.0844
▁thereafter	-11.0848
▁dichloride	-11.085
▁Spectrum	-11.0853
▁5'-	-11.086
6-10	-11.0875
▁interfere	-11.0876
linking	-11.0878
▁4.8	-11.0881
0°	-11.0888
▁(1999)	-11.089
▁1.45	-11.0894
▁CTLA	-11.0894
▁hydrolyzed	-11.0898
▁Ester	-11.0899
▁210	-11.0902
▁speed	-11.0903
▁121	-11.0905
▁regeneration	-11.0906
purin	-11.091
]-6-	-11.0915
1/	-11.0915
=1.8	-11.0921
▁aniline	-11.0922
▁problems	-11.0927
=1.5	-11.093
▁IgA	-11.0932
5.8	-11.0936
▁7.21	-11.0936
▁anionic	-11.0937
▁summarized	-11.094
▁evidence	-11.0941
-[4-(	-11.0943
butyldimethylsil	-11.0944
▁2-(3-	-11.0945
bound	-11.095
pi	-11.095
▁IGF	-11.095
▁(120	-11.0953
▁comparable	-11.0954
phenylene	-11.0956
OP	-11.0956
solvent	-11.0959
triazine	-11.0959
▁adverse	-11.096
▁136	-11.0961
▁modulation	-11.0963
ob	-11.0973
▁GM	-11.0973
105	-11.0975
carboxamido	-11.0977
▁Mg	-11.0978
AF	-11.098
▁Ag	-11.0981
▁1.50	-11.0982
▁cyanide	-11.0985
▁barrier	-11.0987
▁(0.4	-11.0988
TP	-11.0988
time	-11.0992
▁University	-11.0992
▁sieve	-11.0992
eno	-11.0995
▁117	-11.0995
▁deliver	-11.0997
Thr	-11.1007
▁glutamic	-11.1007
tt	-11.1014
89	-11.1021
▁numbering	-11.1024
▁analyte	-11.1024
▁Tumor	-11.1026
▁8.4	-11.1032
penta	-11.1033
▁liquor	-11.104
▁Clin	-11.1041
▁benzoate	-11.1041
▁nitrile	-11.1042
rate	-11.1042
▁industrial	-11.1043
▁polyoxyethylene	-11.1047
▁version	-11.105
▁lymph	-11.1062
▁SV	-11.1063
▁stimulating	-11.1066
▁synthesizing	-11.107
▁inclusive	-11.107
fluorobenzyl	-11.1071
▁quantified	-11.1077
▁NaH	-11.1079
each	-11.1081
)-3	-11.1083
▁9.0	-11.1086
▁copies	-11.1087
▁parenterally	-11.1088
▁2,2,2-	-11.1094
ish	-11.11
GS	-11.1101
▁chloroformate	-11.1105
▁SA	-11.1112
▁Mobile	-11.1115
▁proviso	-11.1116
▁9.4	-11.112
▁towards	-11.1123
▁Protocols	-11.1123
▁inner	-11.1125
▁nerve	-11.113
base	-11.1134
ile	-11.1141
▁-78°	-11.1146
▁soil	-11.1148
▁(90	-11.1149
▁9.8	-11.1149
▁lactic	-11.115
▁remainder	-11.1151
▁147	-11.1153
▁Zn	-11.1162
▁hydroxypropyl	-11.1165
▁immunological	-11.1167
▁175	-11.1169
-5,6-	-11.1176
cin	-11.1178
▁phenoxy	-11.1181
ME	-11.1181
▁how	-11.1182
3%	-11.1183
▁GFP	-11.1185
phenylmethyl	-11.1189
▁bowel	-11.1193
Ca	-11.1194
▁17,	-11.1195
ci	-11.1196
▁shock	-11.1197
ho	-11.1205
▁hu	-11.1208
▁0.22	-11.1213
imethylsulfoxide	-11.1214
▁Synthetic	-11.1215
▁shift	-11.1217
▁packed	-11.1219
ka	-11.1219
=8.9	-11.122
mon	-11.1222
▁55%	-11.1222
▁put	-11.1226
▁7.55	-11.1227
ie	-11.1229
▁imidazolyl	-11.1232
▁7.22	-11.1237
▁Model	-11.1238
▁goat	-11.1239
-11-	-11.124
aminoethyl	-11.124
▁mild	-11.1242
▁conc	-11.1242
PPh	-11.1247
domain	-11.1249
eluent	-11.1254
-(2,4-	-11.1255
3′	-11.1255
sulfinyl	-11.1259
▁12.5	-11.126
#	-11.1261
▁Sambrook	-11.1263
▁dilutions	-11.1263
▁AA	-11.1264
hydroxypropyl	-11.1266
6##	-11.1271
▁created	-11.1276
▁threonine	-11.1276
ian	-11.1276
▁0.20	-11.1278
▁(1996)	-11.128
▁details	-11.1281
▁7.41	-11.1281
▁4.2	-11.1282
▁(2000)	-11.1287
▁sequenced	-11.1289
9.8	-11.1292
▁almost	-11.1292
▁rubber	-11.1295
▁14.	-11.1296
)-2-(4-	-11.1301
▁areas	-11.1302
can	-11.1304
▁instrument	-11.1304
5.4	-11.1305
2′	-11.1306
let	-11.1307
▁necessarily	-11.1307
▁Germany	-11.1308
▁severe	-11.1308
epi	-11.1311
+1	-11.1312
Cyano	-11.1313
▁syrup	-11.1314
40,	-11.1315
-1(2	-11.1315
1/2	-11.1315
▁retained	-11.1321
▁parallel	-11.1321
▁0.45	-11.1323
▁pentyl	-11.1324
▁(2-	-11.1326
▁10.5	-11.1329
▁emulsifying	-11.1333
▁interleukin	-11.1335
▁cytoplasmic	-11.1338
=5.6	-11.1338
▁cardiovascular	-11.1339
ri	-11.134
▁(1.7	-11.1341
▁0.12	-11.1341
indazole	-11.1341
93	-11.1345
▁PS	-11.1346
▁inoculated	-11.1347
DS	-11.1347
reactive	-11.1353
▁sera	-11.1354
antigen	-11.1357
▁gap	-11.1357
▁immunoglobulins	-11.1357
alkylamino	-11.1358
▁sarcoma	-11.1359
▁demonstrates	-11.136
▁obesity	-11.1361
omycin	-11.1363
TF	-11.1363
▁Total	-11.1364
▁7.50	-11.1365
▁3.4	-11.1368
▁Org	-11.1368
5°	-11.1376
▁pool	-11.138
▁viscous	-11.1383
methanesulfonyl	-11.1385
▁Nat	-11.1386
▁progress	-11.1387
▁Current	-11.1389
den	-11.139
▁3.80	-11.1392
▁inducible	-11.1395
▁PO	-11.1399
▁ORF	-11.1408
▁165	-11.1409
▁7.39	-11.1412
DL	-11.1415
▁ER	-11.142
▁1.40	-11.142
solid	-11.1421
:1,	-11.1422
GE	-11.1426
′)	-11.1428
▁Several	-11.1429
-(3,5-	-11.1429
▁3.8	-11.143
▁7.16	-11.1432
▁Asn	-11.1434
SSC	-11.1439
ogen	-11.1445
05	-11.1447
▁chromosomal	-11.145
▁149	-11.1452
}-2-	-11.1454
FIG	-11.1457
▁chromium	-11.1463
▁biphenyl	-11.1465
▁7.17	-11.1465
hydrazine	-11.1465
▁migration	-11.1465
▁strongly	-11.1466
0.7	-11.1466
heterocyclyl	-11.1471
+1)	-11.1477
137	-11.1477
▁patterns	-11.1481
▁BMP	-11.1482
naturally	-11.1486
▁adduct	-11.1486
method	-11.1487
92	-11.1493
▁appear	-11.1494
▁problem	-11.1499
morpholine	-11.1504
▁power	-11.1506
▁though	-11.1506
nt	-11.1507
▁7.51	-11.1508
▁methacrylate	-11.151
chloromethyl	-11.1514
heptyl	-11.1515
▁morpholine	-11.1516
ata	-11.1516
pyrrolidinyl	-11.1517
▁Assays	-11.1518
▁Sciences	-11.1519
▁piperazine	-11.152
▁truncated	-11.1528
▁lysate	-11.153
▁Bi	-11.1532
▁psoriasis	-11.1532
▁immunogenicity	-11.1535
9##	-11.1542
▁macrophages	-11.1544
▁colony	-11.1545
ice	-11.1547
▁j	-11.1549
▁9.3	-11.155
▁fluids	-11.155
▁suppositories	-11.155
IB	-11.1552
▁epoxide	-11.1554
rs	-11.1556
▁Kabat	-11.156
▁4.00	-11.1561
▁pharmacokinetic	-11.1563
▁7.19	-11.1565
▁254	-11.1567
=6.5	-11.1572
77	-11.1576
ynyl	-11.1578
[3.2.1]	-11.1581
ammonium	-11.1584
bu	-11.1585
▁{	-11.1586
▁Product	-11.1589
▁mother	-11.1589
octahydro	-11.1591
conjugated	-11.1591
▁organics	-11.1592
Et	-11.1598
our	-11.16
▁Journal	-11.1605
TE	-11.1609
sil	-11.1611
▁gm	-11.1612
▁biochemical	-11.1618
▁germline	-11.1618
▁Structure	-11.162
NS	-11.1621
▁superior	-11.1624
NHR	-11.1626
▁(19	-11.1627
▁7.29	-11.1629
hydrogen	-11.163
▁133	-11.1633
ou	-11.1634
▁oxidative	-11.1638
▁enable	-11.1642
▁nucleus	-11.1643
▁ketones	-11.1649
▁alkane	-11.1652
furo	-11.1653
▁bulk	-11.1656
-[1,2,4]	-11.1657
▁hypertension	-11.1659
▁126	-11.1661
▁NS	-11.1662
:10	-11.1665
TS	-11.1666
▁old	-11.1666
▁7.33	-11.1666
▁modulator	-11.1666
SG	-11.1677
▁chemotherapy	-11.1684
layer	-11.1685
%;	-11.1686
-2′-	-11.1686
▁automated	-11.1688
bottom	-11.1688
▁(0.25	-11.1691
cephem	-11.1694
▁outlet	-11.1695
▁%)	-11.1697
5.6	-11.1697
▁analogue	-11.1697
▁1,000	-11.1698
▁indole	-11.1699
light	-11.17
▁convert	-11.17
ema	-11.1703
▁undergo	-11.1703
)-2	-11.1705
▁enhancers	-11.1706
succinimide	-11.1708
9.1	-11.1709
PL	-11.1713
=16	-11.1715
▁recited	-11.1717
target	-11.172
]+=	-11.1721
▁cap	-11.1722
▁pigment	-11.1723
▁kinases	-11.1723
▁196	-11.1728
▁populations	-11.1734
▁97%	-11.1734
▁Escherichia	-11.1735
benzimidazole	-11.1736
▁NF	-11.1736
▁biotinylated	-11.1738
▁thick	-11.1742
▁EST	-11.1745
-4-(2-	-11.1746
▁122	-11.1746
▁2.00	-11.1751
▁stimulate	-11.1752
▁3-(2-	-11.1752
RE	-11.1762
▁presently	-11.1763
▁penicillin	-11.1776
▁proline	-11.1778
phenylalanine	-11.178
▁7.44	-11.1784
PR	-11.1786
▁cerebral	-11.1787
xi	-11.1788
▁vitamin	-11.1791
17,	-11.1792
▁spiro	-11.1793
acceptable	-11.1795
▁immunogen	-11.1795
RB	-11.1797
▁decreasing	-11.18
▁consecutive	-11.1803
▁titer	-11.1803
▁antibacterial	-11.1805
pre	-11.1812
▁streptavidin	-11.1813
▁tetrachloride	-11.1815
-4,6-	-11.1818
▁lacking	-11.1819
▁takes	-11.182
CHCl	-11.182
9)	-11.1822
▁9.7	-11.1823
(5	-11.1825
▁hematopoietic	-11.1829
-1,1-	-11.183
▁pyrimidinyl	-11.183
alk	-11.1832
▁19,	-11.1835
FA	-11.1841
▁studied	-11.1842
butylammonium	-11.1842
▁frequently	-11.1842
▁detergent	-11.1843
liquid	-11.1846
phosphonate	-11.1848
▁play	-11.185
▁blocks	-11.1853
▁3.90	-11.1854
▁cost	-11.1854
▁ST	-11.1854
▁manganese	-11.1855
do	-11.1857
▁parental	-11.1857
▁(1997)	-11.1861
piperidyl	-11.1862
tra	-11.187
▁(0.03	-11.1871
isation	-11.1872
▁strategy	-11.1877
▁gases	-11.1879
▁steel	-11.1882
DP	-11.189
met	-11.1893
amp	-11.1894
▁integration	-11.1897
▁CLMS	-11.1901
▁0.14	-11.1903
▁trimethylsilyl	-11.1903
▁distance	-11.1905
-2.5	-11.1909
quinazoline	-11.191
▁dialkylamino	-11.1912
3-7	-11.1912
▁filters	-11.1913
▁144	-11.1913
▁approaches	-11.1916
▁1.20	-11.1918
▁challenge	-11.1919
▁dysfunction	-11.192
▁ug	-11.1922
▁DETD	-11.1928
▁137	-11.193
(2,4-	-11.1931
▁134	-11.1935
▁thiazolyl	-11.1936
▁manufacturing	-11.1936
▁Rh	-11.1939
▁Met	-11.1944
▁Formulations	-11.1945
▁isotype	-11.1951
▁vigorously	-11.1951
triazin	-11.1952
▁Waters	-11.1952
not	-11.1953
▁10,000	-11.1953
5.7	-11.1956
inyl	-11.1958
▁Three	-11.196
▁7.60	-11.196
▁Edition	-11.1962
▁microtiter	-11.1964
▁Fractions	-11.1965
▁cations	-11.1967
polar	-11.197
)-2,2-	-11.1971
▁suggests	-11.1972
dimensional	-11.1974
fa	-11.1974
▁elimination	-11.1974
1′	-11.1977
▁Disease	-11.1977
▁(1:1)	-11.1978
4%	-11.1978
▁9.2	-11.1982
▁biomass	-11.1983
▁139	-11.1989
Ch	-11.199
▁7.05	-11.1991
sodium	-11.1995
cc	-11.1997
▁CCR	-11.2001
▁vein	-11.2003
▁weak	-11.2003
▁equipment	-11.2004
▁fibers	-11.2004
▁STM	-11.2006
▁admixture	-11.2013
▁growing	-11.2013
▁broth	-11.2014
▁counted	-11.2015
activated	-11.2015
▁Ki	-11.2016
EN	-11.2016
▁hydrobromic	-11.2019
▁Da	-11.2021
▁hypo	-11.2022
▁Lett	-11.2023
▁vs	-11.2023
▁remain	-11.2024
expression	-11.2024
▁(45	-11.2029
)-3-(4-	-11.2029
▁Hg	-11.2029
▁5.2	-11.2037
▁bring	-11.2037
▁stomach	-11.2038
1-2	-11.2039
thiazolyl	-11.204
▁departing	-11.204
▁lubricants	-11.2041
cl	-11.2041
propionyl	-11.2043
▁colourless	-11.2043
▁channels	-11.2043
▁effectiveness	-11.2045
EF	-11.2049
▁metastasis	-11.2051
▁4.1	-11.2052
150	-11.2056
▁search	-11.206
CONH	-11.2064
rd	-11.2065
▁copy	-11.2066
▁displayed	-11.2068
1).	-11.2071
▁working	-11.2072
▁146	-11.2072
▁Biosystems	-11.2075
FN	-11.2081
▁leaf	-11.2081
CHO	-11.2083
▁dendritic	-11.2083
▁expresses	-11.2084
▁KD	-11.2088
▁permit	-11.2088
▁Solution	-11.2089
▁just	-11.2092
nitrobenzyl	-11.2092
▁potentially	-11.21
▁Company	-11.21
▁boronic	-11.2103
sensitive	-11.2105
▁kind	-11.2109
▁retroviral	-11.2109
▁existing	-11.2111
▁improving	-11.2113
▁outer	-11.2116
aminophenyl	-11.2123
▁18,	-11.2123
▁(1985)	-11.2124
8%	-11.2127
▁Ad	-11.2131
▁neutralization	-11.2132
occurring	-11.2135
▁(13	-11.2138
▁modify	-11.2146
▁Ti	-11.2151
▁laser	-11.2152
(6	-11.2154
dioxide	-11.2155
▁des	-11.2156
▁restricted	-11.2159
=6.3	-11.2163
sec	-11.2164
▁SC	-11.2166
▁0.18	-11.2166
▁scaffold	-11.2167
▁MP	-11.2171
methylpyridin	-11.2172
▁Pt	-11.2174
▁preferentially	-11.2175
▁delay	-11.2178
ast	-11.2185
▁Catalyst	-11.2186
▁pellets	-11.2187
▁tartaric	-11.2187
petroleum	-11.219
▁WT	-11.2191
▁styrene	-11.2202
▁sum	-11.2204
▁SR	-11.2206
▁assembled	-11.2209
][1,3]	-11.2209
EM	-11.221
Benzyl	-11.2212
▁account	-11.2213
pt	-11.2213
(2,6-	-11.2215
Bis	-11.2217
110	-11.2218
TNF	-11.2219
▁ruthenium	-11.2223
▁13.	-11.2231
▁European	-11.2231
▁rhodium	-11.2234
▁thrombin	-11.2235
▁intestinal	-11.2235
phosphorothioate	-11.2237
▁Laboratories	-11.2239
▁proposed	-11.2241
▁esterification	-11.2242
▁dextran	-11.2244
▁makes	-11.2244
▁poor	-11.225
06	-11.2257
omer	-11.2262
▁RNAi	-11.2263
2).	-11.2264
▁moisture	-11.2265
▁states	-11.2265
LV	-11.2266
azo	-11.2267
MD	-11.2269
▁Biotechnology	-11.227
▁mercapto	-11.2271
are	-11.2274
▁ischemia	-11.2274
▁aprotic	-11.2276
▁subjecting	-11.2279
▁2.9	-11.228
trifluoroethyl	-11.2285
▁GLP	-11.2285
▁3.85	-11.2291
▁real	-11.2295
ification	-11.2296
▁stabilizing	-11.2298
▁antimicrobial	-11.2301
directed	-11.2305
94	-11.2309
▁1.35	-11.231
6%	-11.2311
ect	-11.2313
▁exact	-11.2314
▁Mar	-11.2317
▁amyloid	-11.2319
▁Liquid	-11.2319
AG	-11.232
▁Chromatography	-11.2327
▁132	-11.2328
xylene	-11.233
ever	-11.2332
▁CL	-11.2334
[4.5]	-11.2335
▁21,	-11.2336
▁230	-11.2336
▁accession	-11.234
enoic	-11.234
9.7	-11.234
450	-11.2343
ier	-11.2348
▁TMS	-11.2349
8##	-11.235
▁cluster	-11.235
▁coat	-11.235
▁oligosaccharide	-11.2359
108	-11.236
▁1.05	-11.2363
▁8.3	-11.2364
ureido	-11.2366
▁MMP	-11.2366
▁COS	-11.2368
▁criteria	-11.2371
▁pills	-11.2375
▁adsorbent	-11.2378
▁148	-11.2379
idine	-11.238
▁programs	-11.238
▁protect	-11.2382
FR	-11.2385
▁unmodified	-11.2385
▁get	-11.2386
tris	-11.2386
▁ethane	-11.2387
BI	-11.2389
ist	-11.2389
▁gold	-11.239
▁Bacillus	-11.2391
▁bands	-11.2392
methylcellulose	-11.2392
▁packaging	-11.2393
so	-11.2394
▁dehydrogenation	-11.2395
▁4.4	-11.2395
▁cathode	-11.2399
▁9.9	-11.24
low	-11.24
▁asparagine	-11.24
▁neuro	-11.2402
▁AR	-11.2402
Ab	-11.2405
term	-11.2406
▁(1998)	-11.2406
▁far	-11.2408
▁containers	-11.2409
▁auto	-11.2411
)-1-(4-	-11.2411
▁7.52	-11.2418
▁−20°	-11.242
▁2008	-11.2423
▁alterations	-11.2425
/10	-11.243
▁0.16	-11.2435
▁interface	-11.2439
▁128	-11.2442
▁oxalate	-11.2442
▁130°	-11.2444
log	-11.2445
receptor	-11.2446
▁follow	-11.2447
▁0.13	-11.2449
LP	-11.2453
▁6.6	-11.2454
▁reader	-11.2456
▁metastatic	-11.2456
▁organo	-11.2457
▁symptom	-11.2459
▁chelating	-11.2459
▁sometimes	-11.246
▁tend	-11.2461
▁spinal	-11.2462
▁antioxidants	-11.2464
▁aliquot	-11.2466
▁methoxide	-11.2473
▁5.1	-11.2473
▁Similar	-11.2474
LE	-11.2476
oil	-11.2478
▁SH	-11.2478
GL	-11.2478
▁Rc	-11.2482
▁incorporating	-11.2484
▁list	-11.2485
ning	-11.2485
▁7.36	-11.2487
▁fluorinated	-11.249
)-6-(	-11.2493
▁inactive	-11.2496
▁anode	-11.2497
necked	-11.2498
-2.6	-11.2498
▁stroke	-11.2504
decane	-11.2505
▁(0.04	-11.2509
▁dehydrogenase	-11.2513
▁initiated	-11.2517
▁eluate	-11.252
▁grow	-11.2521
▁circulating	-11.2522
▁maintenance	-11.2524
▁ascorbic	-11.2525
fusion	-11.2532
▁7.54	-11.2533
lan	-11.2534
=0	-11.2538
▁key	-11.2545
=1.2	-11.2549
▁monomeric	-11.255
▁tryptophan	-11.2551
▁MA	-11.2552
▁shall	-11.2554
▁7.75	-11.2554
3+	-11.2554
▁relationship	-11.2555
mo	-11.2555
▁Receptor	-11.2558
▁research	-11.2558
▁Materials	-11.2558
▁(8)	-11.2561
▁Peptides	-11.2562
▁Va	-11.2569
IG	-11.2571
▁LB	-11.2572
▁Japanese	-11.2573
▁haloalkoxy	-11.2575
val	-11.2576
▁recycle	-11.2584
oxoethyl	-11.2587
▁fungi	-11.259
▁pyrazolyl	-11.2592
▁sensor	-11.2594
▁eds	-11.2596
halogen	-11.2599
-1-(4-	-11.26
▁actual	-11.26
GFP	-11.2608
characterization	-11.2612
▁transcribed	-11.2616
sh	-11.2619
methoxymethyl	-11.2619
▁2.25	-11.2622
▁occurred	-11.2622
▁thoroughly	-11.2622
▁XI	-11.2622
phenethyl	-11.2623
▁3.95	-11.2624
▁AP	-11.2624
DM	-11.2625
▁8.8	-11.2626
▁polystyrene	-11.263
▁agitation	-11.2633
▁decreases	-11.2641
FAB	-11.2642
▁3.75	-11.2644
)-4	-11.2648
LA	-11.265
VEGF	-11.2653
25°	-11.2655
▁polypropylene	-11.2661
over	-11.2663
Li	-11.2666
▁car	-11.2666
08	-11.2667
▁appreciate	-11.2667
▁6.95	-11.2671
oxazin	-11.2672
ron	-11.2676
▁explained	-11.2677
▁utilize	-11.2679
▁hexafluoro	-11.2683
▁Iso	-11.2683
▁0.88	-11.2683
natural	-11.2683
▁7.62	-11.2685
▁polyol	-11.2687
hu	-11.269
▁diet	-11.269
▁log	-11.2691
ero	-11.2693
▁overhead	-11.2699
▁atomic	-11.2702
▁susceptible	-11.2705
▁0%	-11.2706
ue	-11.2709
▁resist	-11.2711
▁dichloro	-11.2714
▁exception	-11.2714
▁capsid	-11.2715
++	-11.2716
▁cream	-11.2718
-[3-	-11.2725
4).	-11.2726
▁7.53	-11.2726
▁HPV	-11.2727
)-2-((	-11.2727
▁7.56	-11.2728
broad	-11.2729
yne	-11.2729
▁7.24	-11.2733
▁themselves	-11.2737
▁Isolation	-11.2738
▁270	-11.2738
group	-11.2743
ylmethoxy	-11.2745
▁multiplet	-11.2745
7%	-11.2749
▁OX	-11.2751
▁suggested	-11.2751
▁7.59	-11.2754
▁7.61	-11.2757
▁hold	-11.2759
▁2.50	-11.276
▁engineering	-11.2761
cyanophenyl	-11.2763
0.0	-11.2765
▁Ma	-11.2767
▁4.3	-11.2768
RG	-11.2769
▁3.00	-11.277
▁bridge	-11.2773
▁7.07	-11.2775
▁physician	-11.2777
▁induces	-11.2777
▁2.20	-11.2781
▁Oligonucleotide	-11.2784
keto	-11.2785
▁microbial	-11.2787
▁MC	-11.2791
▁carboxymethyl	-11.2794
▁adjust	-11.2805
▁158	-11.2806
benzotriazole	-11.2806
▁lymphocyte	-11.281
-1-(2-	-11.2811
▁antiviral	-11.2811
▁rejection	-11.2811
▁1.30	-11.2812
▁dissolve	-11.2813
▁safety	-11.2823
butan	-11.2829
cal	-11.2832
▁(0.15	-11.2834
▁(2×	-11.2834
▁sorbitan	-11.2834
carbonyloxy	-11.2837
▁neck	-11.2837
Ib	-11.2838
▁nine	-11.2843
Cys	-11.2844
coding	-11.2847
▁Into	-11.285
▁22,	-11.2853
eq	-11.2855
=1.6	-11.286
resistant	-11.2863
=2.1	-11.2863
▁theoretical	-11.2864
▁fitted	-11.2864
benzodiazepine	-11.2869
▁carefully	-11.287
▁tan	-11.2874
=9.2	-11.2875
▁lesions	-11.2875
)-2-(2-	-11.2876
chi	-11.288
▁Biological	-11.289
▁ACN	-11.2894
proline	-11.2894
(+)	-11.2897
▁0.35	-11.2904
▁[1	-11.2904
▁rest	-11.2904
ogenic	-11.2909
▁graft	-11.2911
phen	-11.2913
▁Xaa	-11.2919
▁proteolytic	-11.292
▁functionally	-11.2922
yrimidinediamine	-11.2923
▁3.7	-11.2924
lysine	-11.2924
[2.2.1]	-11.2925
XI	-11.2932
▁impact	-11.2937
ake	-11.2942
▁Depending	-11.2944
pyrrolidone	-11.2944
-35	-11.2948
▁7.47	-11.2948
▁140°	-11.2949
heptan	-11.295
▁−1	-11.295
▁190	-11.2953
▁pyridinyl	-11.2953
70,	-11.2953
▁valve	-11.2955
ome	-11.2961
▁(2001)	-11.2961
▁aligned	-11.2965
-2,3,4,5-	-11.2966
▁keto	-11.2966
▁neuronal	-11.2968
▁IN	-11.2969
genic	-11.2969
▁spectrometer	-11.2969
21,	-11.2971
▁Corp	-11.2973
▁Ring	-11.2974
exchange	-11.2978
GP	-11.2979
109	-11.2979
▁triethyl	-11.2982
=5.5	-11.2984
▁8.2	-11.2991
▁weighed	-11.3002
▁forward	-11.3005
▁prophylaxis	-11.3012
ten	-11.3012
▁1.65	-11.3012
iphenylphosphino	-11.3016
Co	-11.3022
▁7.70	-11.3023
FP	-11.3025
▁0.95	-11.3028
▁spin	-11.3029
▁168	-11.303
▁named	-11.3032
naphthyridin	-11.3032
▁eliminate	-11.3037
▁remained	-11.3037
qui	-11.3038
▁3.9	-11.304
▁passing	-11.3041
OL	-11.3042
▁Se	-11.3045
res	-11.3052
▁ampicillin	-11.3052
▁flanking	-11.3057
▁scanning	-11.3064
▁DC	-11.3065
▁singlet	-11.3065
GT	-11.3066
▁CTL	-11.3066
▁entry	-11.3066
pin	-11.3067
oyl	-11.3069
▁7.49	-11.3075
▁7.80	-11.3075
▁germ	-11.3077
▁contemplates	-11.308
Difluoro	-11.308
▁progeny	-11.308
APCI	-11.3081
▁3.60	-11.3081
)-2,4-	-11.3082
▁Within	-11.3083
▁Hu	-11.3084
▁prevented	-11.3085
▁(125	-11.3085
▁Standard	-11.3086
▁aspartic	-11.3086
protecting	-11.3087
▁23.	-11.3088
▁leaves	-11.3089
▁lysates	-11.3092
sulfonyloxy	-11.3097
▁1.38	-11.3097
▁Virus	-11.3098
lu	-11.3104
▁competitive	-11.3108
▁crosslinking	-11.311
▁diamine	-11.3111
▁7.46	-11.3112
▁7.27	-11.3119
ric	-11.3121
▁pathological	-11.3122
▁package	-11.3122
ley	-11.3123
▁liquids	-11.3129
▁formyl	-11.3129
▁curves	-11.3135
▁deionized	-11.3135
ica	-11.3136
▁circulation	-11.3136
ham	-11.314
kin	-11.3141
▁consumption	-11.3142
700	-11.3143
▁KOH	-11.3144
▁reactors	-11.3145
▁variables	-11.3146
SE	-11.3147
tal	-11.3152
▁pyrrolidine	-11.3153
▁MPa	-11.3154
=2.2	-11.3156
NK	-11.3157
▁investigated	-11.3158
▁supports	-11.3158
-1,3,4-	-11.3161
▁129	-11.3163
▁1.15	-11.3167
azine	-11.317
▁chip	-11.3171
▁insertions	-11.3171
▁phenylalanine	-11.3174
▁atherosclerosis	-11.3175
▁Number	-11.3175
▁pass	-11.3177
cooling	-11.3177
propynyl	-11.3178
▁currently	-11.3179
▁killing	-11.318
▁3.78	-11.3182
▁3.84	-11.3187
DELTA	-11.3187
125	-11.3188
[(	-11.3192
quin	-11.3192
11-	-11.3194
001	-11.3195
▁charcoal	-11.3196
Formula	-11.3198
EX	-11.3199
160	-11.3202
▁0.50	-11.3202
▁7.58	-11.3202
▁reversed	-11.3203
▁piperidinyl	-11.3206
▁nuclease	-11.3206
▁motifs	-11.3214
{	-11.3216
▁Growth	-11.3219
▁volatiles	-11.3221
methylethyl	-11.3223
▁valine	-11.3225
▁succinate	-11.3229
▁7.73	-11.323
IFN	-11.3231
molecular	-11.3232
▁closed	-11.3233
▁HP	-11.3234
=5.2	-11.3235
▁7.95	-11.3237
▁35°	-11.3238
▁127	-11.3241
▁DIEA	-11.3241
0.05	-11.3242
▁Gln	-11.3242
▁2'-	-11.3243
▁receiving	-11.3243
▁contribute	-11.3244
▁([	-11.3248
▁0.90	-11.325
▁termed	-11.3254
▁2009	-11.3255
▁7.68	-11.3256
▁7.78	-11.3258
eth	-11.3259
▁1.48	-11.3265
▁8.6	-11.3268
▁EcoRI	-11.3269
▁1.44	-11.3272
▁localization	-11.3273
▁7.63	-11.3273
▁Formulae	-11.3276
SD	-11.3279
▁dextrose	-11.3279
▁away	-11.3282
(2,3-	-11.3282
▁750	-11.3283
▁propane	-11.3284
▁pentane	-11.3284
▁heterogeneous	-11.3289
▁positioned	-11.329
▁lauryl	-11.329
0%	-11.3298
▁supply	-11.33
-2)	-11.3304
▁fewer	-11.3304
▁exclusion	-11.3305
▁methanesulfonic	-11.3305
release	-11.3308
▁3.72	-11.3309
▁propionic	-11.3312
▁1.10	-11.3313
▁man	-11.3313
▁6.9	-11.3314
▁acetal	-11.3317
▁stabilized	-11.3318
▁unknown	-11.3319
Phenyl	-11.332
▁colorectal	-11.332
5.2	-11.332
GM	-11.3321
▁3.82	-11.3322
▁(0.8	-11.3327
-5-(2-	-11.3327
MHz	-11.333
▁(10%	-11.3331
▁tetrahydropyran	-11.3334
▁suggesting	-11.3335
=2.3	-11.3335
OCF	-11.3336
▁Still	-11.3336
▁transplantation	-11.3336
▁repair	-11.334
▁sulfo	-11.334
▁melt	-11.3343
▁alteration	-11.3344
▁purifying	-11.3345
▁wax	-11.3347
furyl	-11.3349
▁microscope	-11.3349
▁7.00	-11.3358
80,	-11.3358
▁needle	-11.3358
▁electrolyte	-11.3359
▁1.28	-11.336
9%	-11.336
proliferative	-11.336
RL	-11.3362
(0)	-11.3362
▁GST	-11.3362
▁2.30	-11.3363
thiol	-11.3363
▁0.17	-11.3364
ear	-11.3365
▁acyloxy	-11.3366
▁urine	-11.3367
▁8.1	-11.3368
▁2.40	-11.3369
dicarboxylic	-11.3372
▁splice	-11.3373
▁7.85	-11.3374
▁Parkinson	-11.3376
▁0.30	-11.3377
af	-11.3382
▁isomeric	-11.3389
▁7.72	-11.3392
▁incubating	-11.3393
▁BoNT	-11.3395
ami	-11.3396
▁Embodiments	-11.3396
▁7.67	-11.34
dioxol	-11.34
▁glacial	-11.3403
▁1-5	-11.3404
-28	-11.3405
▁images	-11.3411
▁Starting	-11.3411
▁--(	-11.3413
▁3.65	-11.3415
▁pyrrolidinyl	-11.3416
▁shorter	-11.3417
▁6:	-11.3418
▁synthesize	-11.3422
▁166	-11.3422
▁0.85	-11.3425
▁hereinabove	-11.3427
▁distillate	-11.3432
▁blotting	-11.3433
▁10:1	-11.3434
▁toxins	-11.3434
=5.0	-11.3434
4′	-11.344
5.1	-11.3441
▁fumarate	-11.3442
▁pyrazinyl	-11.3447
BC	-11.3448
HNMR	-11.3448
3)3	-11.3449
last	-11.345
hour	-11.345
▁(0.06	-11.3451
▁'	-11.3452
▁1.37	-11.3456
▁cleavable	-11.3457
▁1.32	-11.3458
▁155	-11.3459
Pharmaceutically	-11.346
▁exhibiting	-11.3461
▁96%	-11.3461
GC	-11.3461
▁enough	-11.3462
▁schemes	-11.3462
=6.7	-11.3464
▁taste	-11.3467
▁1.26	-11.3468
-1,5-	-11.3468
▁suppression	-11.3471
▁phen	-11.3473
▁lactate	-11.3474
▁eluant	-11.3476
-[(1	-11.3477
effective	-11.3478
▁Likewise	-11.3479
▁8.00	-11.348
▁vials	-11.3481
▁3.87	-11.3485
▁acts	-11.3488
▁(0.6	-11.3488
▁7.64	-11.3489
▁humidity	-11.3489
wise	-11.3492
▁reductase	-11.3492
▁0.24	-11.3493
(5-	-11.3494
▁VP	-11.3494
▁article	-11.3494
▁million	-11.3498
▁7.74	-11.3503
▁monkey	-11.3504
▁5.6	-11.3506
2);	-11.3507
▁5:	-11.3508
▁regulated	-11.351
▁discarded	-11.3516
▁intron	-11.3517
▁late	-11.3518
▁Mono	-11.3521
▁transplant	-11.3523
ylamine	-11.3523
pyridazine	-11.3528
▁260	-11.3531
▁1.42	-11.3534
3(	-11.3537
RD	-11.3538
▁degeneration	-11.3542
▁7.57	-11.3543
Preparation	-11.3545
▁dsRNA	-11.3546
LL	-11.3546
▁mainly	-11.3548
▁2010	-11.3548
propylene	-11.3552
▁hamster	-11.3554
▁deposit	-11.3554
acetylamino	-11.3555
▁polyester	-11.3556
▁recording	-11.3557
▁simply	-11.3559
imine	-11.3561
▁hydroxylamine	-11.3564
▁75°	-11.3565
▁phosphorylated	-11.3566
123	-11.3567
07	-11.3571
diaza	-11.3572
▁Dosage	-11.3579
▁embryonic	-11.3581
▁exists	-11.3583
▁FGFR	-11.3584
▁transporter	-11.3585
▁7.04	-11.3588
▁7.14	-11.3592
▁adenocarcinoma	-11.3592
ligand	-11.3598
▁6.3	-11.3599
▁exchanger	-11.36
▁equilibrated	-11.3601
-32	-11.3606
▁minimize	-11.3606
-3.5	-11.3608
▁dogs	-11.3609
▁(17	-11.3612
▁7.12	-11.3612
▁7.71	-11.3621
▁169	-11.3624
▁promoting	-11.3629
▁rice	-11.363
▁23,	-11.3635
▁recover	-11.3642
▁MW	-11.3643
▁PM	-11.3644
rel	-11.3647
▁Ru	-11.3651
▁10.2	-11.3652
ise	-11.3652
▁replace	-11.3655
▁heparin	-11.3656
▁publication	-11.3658
▁became	-11.3659
▁stoichiometric	-11.3661
▁threshold	-11.3664
ical	-11.3665
▁28.	-11.3665
▁Single	-11.3665
▁pyrrolyl	-11.3665
▁taking	-11.3666
▁arm	-11.3667
azetidine	-11.3668
difluoromethyl	-11.367
▁0.11	-11.3673
▁1.46	-11.3673
▁3.76	-11.3673
sen	-11.3674
methylpiperazin	-11.3676
▁namely	-11.3677
▁87%	-11.3678
▁elicit	-11.3678
▁myocardial	-11.3682
butyric	-11.3684
▁EA	-11.3684
)-1-((	-11.3684
viral	-11.3687
▁18.	-11.369
▁1.36	-11.369
▁7.09	-11.3691
TFA	-11.3692
▁Aldrich	-11.3693
3)2,	-11.3695
▁nucleosides	-11.3696
nitrobenzene	-11.3696
ana	-11.3701
▁Diego	-11.3701
CoA	-11.3702
▁carbocyclyl	-11.3703
▁142	-11.3703
▁7.11	-11.3705
▁deficiency	-11.3707
▁cDNAs	-11.3708
▁hybridized	-11.3712
3-8	-11.3712
Pr	-11.3714
▁maleate	-11.3716
app	-11.3717
▁waste	-11.3718
▁3.92	-11.3719
▁films	-11.3726
▁dehydration	-11.3727
sulfonamido	-11.3727
oxazole	-11.3731
%.	-11.3731
▁adsorbed	-11.3732
▁fumaric	-11.3734
▁thyroid	-11.3736
▁mini	-11.3739
▁3.94	-11.3741
▁DR	-11.3746
▁(%)	-11.3749
ClN	-11.3749
×106	-11.3752
▁intestine	-11.3755
EG	-11.3757
=2.5	-11.3758
▁st	-11.3759
▁moderate	-11.376
▁900	-11.3765
▁proteases	-11.377
▁baculovirus	-11.377
NHCH	-11.3771
▁7.13	-11.3772
▁uL	-11.3774
▁alkanoyl	-11.3779
▁cc	-11.3779
diene	-11.378
borate	-11.3781
GF	-11.3783
▁6.96	-11.3785
▁diastereomeric	-11.3785
▁GenBank	-11.3787
▁velocity	-11.3788
▁6.4	-11.379
▁10.4	-11.379
:15	-11.3796
acrylic	-11.38
▁toward	-11.3801
▁liters	-11.3801
▁CNS	-11.3806
▁extremely	-11.3807
sc	-11.3807
▁transcripts	-11.3815
[2.2.2]	-11.3816
carb	-11.3821
-2'-	-11.3823
▁ED	-11.3825
▁(24	-11.3827
▁im	-11.3835
BS	-11.3837
▁3.98	-11.3837
▁7.08	-11.3842
IM	-11.3843
▁pathogen	-11.3844
▁(1983)	-11.3844
▁ligase	-11.3846
▁hosts	-11.3847
▁Methanol	-11.385
▁5-10	-11.385
▁(0.08	-11.385
▁3.73	-11.3852
▁3.70	-11.3857
▁delayed	-11.3858
▁5.4	-11.3859
▁machine	-11.3859
▁sulfone	-11.3859
imide	-11.3859
▁7.88	-11.3859
▁7.76	-11.3861
▁2.35	-11.3862
=5.4	-11.3863
▁pig	-11.3866
▁3.81	-11.3866
▁LPS	-11.3866
DV	-11.3867
hydrate	-11.3869
he	-11.3872
▁Animals	-11.3875
▁HSV	-11.3879
▁transient	-11.388
dichloroethane	-11.3881
▁earlier	-11.3882
▁enables	-11.3884
magnesium	-11.3885
▁RSV	-11.3886
▁6.2	-11.3886
flu	-11.3887
▁evolution	-11.3887
PK	-11.3889
/6	-11.389
▁dual	-11.3892
▁86%	-11.3896
▁4.10	-11.3896
▁root	-11.3901
ject	-11.3902
▁alleles	-11.3903
▁4-(3-	-11.3904
▁amplify	-11.3904
▁4.05	-11.3905
ORa	-11.3906
▁7.90	-11.3906
PRO	-11.3907
▁40%,	-11.3909
▁7.77	-11.3916
▁derivatized	-11.3917
30,	-11.3917
▁PL	-11.3919
▁diol	-11.392
▁Scientific	-11.3921
▁lysed	-11.3921
▁3.86	-11.3923
▁lupus	-11.3923
▁cytosine	-11.3924
▁EGF	-11.3926
av	-11.3932
▁2.60	-11.3934
▁methotrexate	-11.3936
▁sc	-11.3937
▁hydrates	-11.3938
▁1.24	-11.3938
▁7.7	-11.3941
▁possibility	-11.3942
▁visible	-11.3944
azaspiro	-11.3948
▁imino	-11.3952
▁living	-11.3952
▁technical	-11.3954
▁ground	-11.3956
▁4:1	-11.3958
aa	-11.3959
▁volatile	-11.3961
traperitoneally	-11.3966
▁proceed	-11.3966
▁Cas	-11.3971
bR	-11.3976
▁ultraviolet	-11.3978
dia	-11.3978
▁2.28	-11.3979
dimethylethyl	-11.3983
▁10.3	-11.3986
▁varies	-11.3988
127	-11.399
tro	-11.3991
▁comparative	-11.3992
▁1.43	-11.3994
▁cyclization	-11.3994
▁ne	-11.3994
▁Class	-11.3997
▁1.33	-11.3998
phosphonium	-11.3999
▁basal	-11.4001
ther	-11.4005
22,	-11.4005
▁incubator	-11.4006
▁nitrite	-11.4008
diethylamino	-11.4009
▁repeating	-11.4014
▁Be	-11.4017
▁alkylsulfonyl	-11.4017
▁subset	-11.4018
▁inactivated	-11.402
▁1.23	-11.402
▁coloring	-11.4023
▁PP	-11.4026
▁flu	-11.4029
▁behavior	-11.4029
▁3,3-	-11.4033
▁fluorescein	-11.4034
Rd	-11.4035
▁And	-11.4036
high	-11.4036
LT	-11.4039
▁aberrant	-11.404
▁bivalent	-11.4041
▁72°	-11.4041
▁glutamate	-11.4042
▁8.05	-11.4043
▁(1986)	-11.4044
▁1-6	-11.4044
▁regression	-11.4045
▁3:1	-11.4049
-5-(4-	-11.405
olefin	-11.405
▁aldehydes	-11.4051
▁feeding	-11.4052
▁0.01%	-11.4054
ker	-11.4054
producing	-11.4056
EQU	-11.4059
▁depression	-11.4059
TG	-11.406
▁polyacrylamide	-11.406
▁-20°	-11.4064
▁tobacco	-11.4064
▁6.7	-11.4067
▁oligomeric	-11.4068
ick	-11.4069
▁capillary	-11.407
▁methodology	-11.4072
▁PF	-11.4074
▁21.	-11.4074
▁HC	-11.4075
▁maximal	-11.4076
-3.0	-11.4076
osin	-11.4078
▁kinds	-11.4078
▁hybridomas	-11.408
▁1.27	-11.4081
▁dodecyl	-11.4081
▁agitated	-11.4082
▁Elemental	-11.4082
▁artery	-11.4084
▁pigs	-11.409
pyr	-11.4092
▁Md	-11.4094
mers	-11.4094
▁Japan	-11.4095
")	-11.4096
▁transformants	-11.4096
▁extra	-11.4097
▁0.28	-11.4098
mM	-11.41
▁profiles	-11.4102
trityl	-11.4102
▁Without	-11.4104
EV	-11.4105
▁conformational	-11.4106
-38	-11.4106
▁silicone	-11.4108
▁reach	-11.4111
▁7.82	-11.4115
ein	-11.4119
etic	-11.412
▁Sequences	-11.4123
2-4	-11.4124
▁Ga	-11.4127
▁borate	-11.4129
▁excitation	-11.4134
▁isotopes	-11.4138
▁packaged	-11.4138
▁30%,	-11.414
▁Collection	-11.4143
-31	-11.4143
▁operated	-11.4144
Acetyl	-11.4145
▁bead	-11.4147
▁observation	-11.4152
▁XRPD	-11.4154
▁hydrobromide	-11.4156
epoxy	-11.4157
mit	-11.4161
ze	-11.4161
▁20%,	-11.4162
▁furan	-11.4164
▁#1	-11.4164
▁85°	-11.4168
▁relation	-11.417
▁2.75	-11.417
▁1500	-11.4176
418	-11.4178
-2(	-11.4179
▁help	-11.4185
▁7.79	-11.4188
tu	-11.4189
▁overlapping	-11.4189
▁review	-11.419
▁putative	-11.419
▁eliminated	-11.4194
▁0.23	-11.42
▁classified	-11.4201
▁Wis	-11.4202
▁0.2%	-11.4206
ient	-11.4206
▁26,	-11.4207
▁twenty	-11.4209
▁Gen	-11.4213
▁7.66	-11.4215
-[3-(	-11.4216
TL	-11.4217
▁enantiomeric	-11.4219
▁pipe	-11.4219
▁transparent	-11.422
▁(4.0	-11.422
▁glutathione	-11.422
▁reductive	-11.4221
ants	-11.4222
vinylpyrrolidone	-11.4223
▁mins	-11.4223
▁dementia	-11.4225
▁aureus	-11.4225
▁mAbs	-11.4225
12)	-11.4229
▁3.79	-11.4231
butyllithium	-11.4231
▁4.15	-11.4232
▁(0.10	-11.4233
▁2.10	-11.4233
▁KCl	-11.4234
▁cord	-11.4234
▁2.15	-11.4235
▁154	-11.4235
▁7.84	-11.424
▁1.47	-11.4246
▁(1984)	-11.425
▁transcriptase	-11.4254
▁initiator	-11.4256
TLC	-11.4256
▁doublet	-11.4257
▁immunoassay	-11.4259
▁161	-11.4265
▁16.	-11.4268
TC	-11.427
pp	-11.427
▁sheep	-11.4275
body	-11.4277
▁164	-11.4277
]+;	-11.4278
▁translational	-11.4279
-[(4-	-11.4279
▁Techniques	-11.428
▁3.88	-11.428
▁7.86	-11.4281
▁143	-11.4287
▁6.85	-11.4289
▁affording	-11.4293
nucleotide	-11.4294
▁Formulas	-11.4294
▁serves	-11.4296
▁7.69	-11.4297
▁250°	-11.4299
▁PNA	-11.4299
▁sequential	-11.43
▁Appl	-11.4301
▁6.92	-11.4305
▁ocular	-11.4306
▁1.39	-11.4306
▁clearance	-11.4308
99%	-11.4312
hi	-11.4314
IIa	-11.4314
▁aluminium	-11.4315
ified	-11.4317
▁stearic	-11.4318
▁3.83	-11.4318
▁RNAs	-11.432
▁rabbits	-11.4323
▁aliquots	-11.4325
▁representing	-11.4326
)-4,5-	-11.4331
ven	-11.4331
▁operations	-11.4331
FT	-11.4331
▁helix	-11.4335
▁Plasmid	-11.4337
▁Un	-11.4338
▁deprotected	-11.4339
eal	-11.434
side	-11.434
▁endonuclease	-11.4343
▁Mouse	-11.4343
▁0.19	-11.4344
▁7.93	-11.4345
▁7.9	-11.4345
▁(2002)	-11.4346
}-3-	-11.435
CAR	-11.4353
▁8.03	-11.4353
▁oxalic	-11.4356
-2-(3-	-11.4357
▁recovering	-11.4357
▁1.75	-11.4359
▁filtering	-11.4359
▁heteroaromatic	-11.4359
▁159	-11.436
▁Formulation	-11.4362
▁(5-	-11.4363
▁7.87	-11.4363
▁what	-11.4364
▁7.06	-11.4366
▁(60%	-11.4368
▁output	-11.4371
▁u	-11.4371
▁Note	-11.4372
DMF	-11.4372
▁3-(3-	-11.4373
▁oxazolyl	-11.4373
▁15°	-11.4374
▁labelled	-11.4374
140	-11.4379
▁hypervariable	-11.4382
oxazolidin	-11.4383
TI	-11.4386
95%	-11.4387
thiazolo	-11.4388
▁special	-11.4389
▁4.20	-11.4389
▁indolyl	-11.439
▁coronary	-11.4394
microcrystalline	-11.4397
▁Here	-11.4398
onic	-11.44
▁triplet	-11.4401
▁indicative	-11.4402
▁0.26	-11.4403
▁(2.2	-11.4403
▁cognitive	-11.4403
▁7.03	-11.4404
old	-11.4404
isoindol	-11.4404
▁ADCC	-11.4407
▁delta	-11.4408
inden	-11.4409
▁resolved	-11.4409
▁3.89	-11.4413
▁balance	-11.4414
press	-11.4416
▁4.7	-11.442
ult	-11.4423
▁integrin	-11.4425
ably	-11.4426
▁2.90	-11.4427
165	-11.4435
▁27,	-11.4438
▁spread	-11.4439
▁words	-11.444
TB	-11.444
BR	-11.4444
-4,	-11.4447
aluminum	-11.445
▁ZSM	-11.4452
▁nanoparticle	-11.4457
▁fibroblasts	-11.4457
′)2	-11.4463
ger	-11.4463
▁infrared	-11.4465
▁8.02	-11.447
)+:	-11.447
▁180°	-11.4474
▁Sub	-11.4475
-4-(3-	-11.4477
▁viable	-11.448
▁terminated	-11.4481
indolyl	-11.4483
rac	-11.4486
ll	-11.4489
▁colitis	-11.449
▁1.34	-11.449
▁equimolar	-11.4492
-(1	-11.4493
-((	-11.4494
-2.4	-11.4495
▁Pseudomonas	-11.45
ret	-11.4502
▁PREPARATION	-11.4502
▁potato	-11.4503
Rf	-11.4505
▁myeloid	-11.4506
▁162	-11.4509
▁box	-11.4509
▁IP	-11.4511
▁refluxing	-11.4511
▁polymorph	-11.4511
▁225	-11.4514
▁smooth	-11.4516
RF	-11.4519
▁newly	-11.4522
▁closely	-11.4523
▁optimum	-11.453
▁Cr	-11.453
▁pancreas	-11.4533
▁7.98	-11.4533
▁acylation	-11.4533
▁majority	-11.4537
purine	-11.4537
▁NaBH	-11.4539
▁3.93	-11.454
▁4.03	-11.4541
alcohol	-11.4548
▁(3.5	-11.4549
▁bacterium	-11.4551
▁immunity	-11.4552
▁3.71	-11.4552
▁chemicals	-11.4552
▁5.3	-11.4556
103	-11.4557
=5.7	-11.4557
azepin	-11.4562
sch	-11.4564
▁0.92	-11.4569
▁7.83	-11.4573
▁flavor	-11.4574
4-(3,4-	-11.4578
▁monocytes	-11.458
▁proportions	-11.4581
▁Said	-11.4582
▁ovary	-11.4582
▁excessive	-11.4582
▁4.25	-11.4582
art	-11.4584
▁DMAP	-11.4586
▁Ile	-11.4586
phosphino	-11.4588
des	-11.4594
▁2.65	-11.4595
▁4.02	-11.4597
▁syrups	-11.4598
▁Louis	-11.4601
galactosidase	-11.4604
▁Triton	-11.4605
▁rich	-11.4605
▁access	-11.4606
metal	-11.4606
cept	-11.4606
▁cavity	-11.4607
▁necrosis	-11.4607
▁alkylated	-11.4608
-200	-11.4609
▁requirements	-11.4609
▁3.74	-11.461
carbazole	-11.4611
▁XII	-11.4611
▁Aqueous	-11.4612
▁propionate	-11.4613
LR	-11.4621
ING	-11.4621
=6.2	-11.4625
COO	-11.4629
▁Polypeptides	-11.4632
▁glucagon	-11.4633
▁NHC	-11.4636
(2,2,2-	-11.4636
▁Effect	-11.4638
▁hormones	-11.4639
▁databases	-11.4639
▁rodent	-11.4639
▁calcined	-11.464
point	-11.4641
▁helper	-11.4642
▁bottle	-11.4642
▁assessment	-11.4645
data	-11.4647
ign	-11.4647
▁Biosciences	-11.4649
OMe	-11.4651
▁imine	-11.4653
octan	-11.4653
▁dicyclohexyl	-11.4654
▁guide	-11.4657
▁envelope	-11.4658
▁streams	-11.4659
LD	-11.4659
▁6.90	-11.4661
▁trace	-11.4661
-(7-	-11.4666
▁tags	-11.4667
197	-11.4669
▁0.98	-11.467
▁Academic	-11.467
=1.0	-11.4671
▁LD	-11.4673
▁pages	-11.4674
bio	-11.4677
▁phosphatidyl	-11.4678
▁28,	-11.4679
▁kappa	-11.4681
▁3.96	-11.4682
▁buffering	-11.4683
▁3.30	-11.4687
▁diagnosed	-11.4687
▁SUMMARY	-11.4687
▁polyadenylation	-11.4687
▁1.41	-11.4688
▁molybdenum	-11.4692
▁functionalized	-11.4695
cold	-11.4696
GR	-11.4696
▁microscopy	-11.4698
▁TM	-11.4699
▁cAMP	-11.47
▁acacia	-11.4701
▁7.92	-11.4702
▁(0.12	-11.4704
▁HT	-11.4709
▁Design	-11.471
▁7.89	-11.4716
▁0.89	-11.4719
▁bicyclo	-11.4719
▁input	-11.4722
ind	-11.4726
▁6.75	-11.4729
▁beginning	-11.4729
▁splicing	-11.4731
▁adjusting	-11.4731
▁CaCl	-11.4732
▁sweetening	-11.4732
▁3.58	-11.4737
▁DTT	-11.4738
▁Modified	-11.4739
ach	-11.474
▁CCL	-11.4741
itol	-11.4742
▁pyrazole	-11.4742
▁8.10	-11.4742
▁bile	-11.4744
ward	-11.4748
▁2.95	-11.4748
called	-11.4748
▁care	-11.4749
▁3.20	-11.475
wt	-11.4751
-((1	-11.4752
▁perfluoro	-11.4752
▁monitor	-11.4753
les	-11.4754
▁0.33	-11.4764
▁Gel	-11.4768
isopropoxy	-11.4772
my	-11.4772
MG	-11.4773
▁45%	-11.4774
31,	-11.4776
▁Dis	-11.4783
▁too	-11.4784
▁RB	-11.4786
▁2.38	-11.4788
▁appearance	-11.4789
▁HBV	-11.4789
▁ointments	-11.479
▁anemia	-11.479
▁sex	-11.4794
▁12.0	-11.4796
▁153	-11.4801
▁dispersions	-11.4804
▁3.68	-11.4805
cho	-11.4808
▁myo	-11.4808
ke	-11.4809
Rh	-11.4809
▁tautomer	-11.4812
nucleic	-11.4812
▁22.	-11.4814
▁6.80	-11.4814
▁fall	-11.4815
80%	-11.4816
▁stainless	-11.4816
▁methanesulfonyl	-11.4818
▁powdered	-11.482
]−	-11.4824
enic	-11.4828
▁washes	-11.4832
128	-11.4832
▁SM	-11.4833
▁maize	-11.4833
diisopropylethyl	-11.4837
▁3000	-11.4837
=1.7	-11.4838
butanoic	-11.4838
▁graph	-11.484
▁Tetrahedron	-11.4841
linker	-11.4843
▁MH	-11.4844
▁SNP	-11.4845
▁started	-11.4845
▁(2.4	-11.4846
▁Green	-11.4846
▁merely	-11.4847
}-1	-11.4847
▁BamHI	-11.4848
▁tumour	-11.4849
▁3.77	-11.485
emb	-11.4852
▁teachings	-11.4857
▁preservative	-11.4859
▁thought	-11.4861
tau	-11.4861
▁Publishing	-11.4861
▁regulating	-11.4864
ionic	-11.4865
inate	-11.4869
▁plug	-11.487
▁constitutive	-11.4874
▁Ib	-11.4876
▁expansion	-11.4876
▁retinal	-11.4877
▁estrogen	-11.4878
▁3.63	-11.488
▁CT	-11.4881
▁0.27	-11.4883
▁HB	-11.4885
▁94%,	-11.4885
nor	-11.4885
▁opening	-11.4887
▁PDE	-11.4888
▁National	-11.489
▁LA	-11.4892
▁normalized	-11.4892
▁Even	-11.4892
▁interval	-11.4894
▁tricyclic	-11.4895
lysis	-11.4897
▁7.96	-11.4898
-27	-11.4901
▁rh	-11.4903
▁3.91	-11.4904
▁173	-11.4904
▁arranged	-11.4904
eurodegenerative	-11.4907
▁undesired	-11.491
▁morpholinyl	-11.4913
800	-11.4918
ung	-11.4919
▁electric	-11.4921
tetrafluoro	-11.4922
small	-11.4926
NF	-11.4927
-80	-11.4927
phos	-11.4928
aq	-11.4929
crystal	-11.4931
fi	-11.4932
(3,4-	-11.4933
▁hence	-11.4935
SV	-11.4936
▁uniform	-11.4937
her	-11.4941
▁bacteriophage	-11.4941
▁6-(	-11.4942
▁returned	-11.4943
▁additions	-11.4945
VP	-11.4947
chemical	-11.4947
epsilon	-11.4948
15-	-11.4948
MI	-11.4953
▁7.02	-11.4957
ull	-11.4959
▁finely	-11.4961
▁intranasal	-11.4961
▁centers	-11.4961
▁6.91	-11.4962
▁Mc	-11.4964
▁transporting	-11.4966
▁2.80	-11.4967
▁compressed	-11.4968
▁(10.0	-11.4968
▁overlap	-11.4969
▁3.69	-11.4972
hetero	-11.4973
transfected	-11.4974
▁Bo	-11.4974
▁serial	-11.4975
decan	-11.4975
▁polymerizable	-11.4976
weight	-11.4977
▁phosphonate	-11.4978
▁polymorphic	-11.4981
ism	-11.4981
▁lignin	-11.4981
▁Evaluation	-11.4982
▁hemoglobin	-11.4982
▁1.22	-11.4983
▁octyl	-11.4983
▁sieves	-11.4986
▁acquired	-11.4987
▁1.18	-11.4989
=5.1	-11.499
▁spectral	-11.4991
▁electronic	-11.4992
▁141	-11.4993
134	-11.4998
▁analysed	-11.5
acrylamide	-11.5001
▁piperazinyl	-11.5004
▁Illustrative	-11.5004
▁6.93	-11.5006
▁oxidase	-11.5007
▁isoleucine	-11.501
▁3.99	-11.5012
14-	-11.5014
▁altering	-11.5014
▁2.70	-11.5016
▁Genes	-11.5016
ough	-11.5022
mes	-11.5022
▁300°	-11.5022
▁6.98	-11.5023
▁2.22	-11.5024
late	-11.5025
▁recombinantly	-11.5026
▁3.25	-11.5027
:9	-11.5027
AK	-11.5028
▁3.62	-11.5028
▁Fusion	-11.503
med	-11.5034
▁2.32	-11.5036
-[5-	-11.5037
▁(0.07	-11.5038
▁2.05	-11.5038
▁FAB	-11.5043
▁Construction	-11.5048
20)	-11.5048
▁discovery	-11.5048
900	-11.5048
▁covered	-11.5049
difluoromethoxy	-11.5052
lytic	-11.5052
▁Fig	-11.5054
▁Biotech	-11.5055
▁10.1	-11.5058
▁(9)	-11.5062
▁break	-11.5064
▁parameter	-11.5064
▁infarction	-11.5065
▁syn	-11.5066
▁height	-11.5067
▁IA	-11.5067
-[(2	-11.5072
methylpiperidin	-11.5072
▁stabilizer	-11.5074
▁glycosylated	-11.5074
201	-11.5074
003	-11.5074
▁silane	-11.5077
Dihydro	-11.5078
sulfate	-11.5079
▁module	-11.5081
▁172	-11.5084
▁bioavailability	-11.5085
▁BP	-11.5087
▁tau	-11.5091
▁6.1	-11.5092
▁Ann	-11.5096
BT	-11.5096
methanamine	-11.5097
▁preference	-11.5098
▁aza	-11.5099
quinoxaline	-11.51
-29	-11.5103
▁rotation	-11.5105
▁load	-11.5107
▁6.88	-11.5108
Benzyloxy	-11.511
way	-11.511
▁ribosome	-11.5111
BLAST	-11.5112
▁Analytical	-11.5113
▁fusions	-11.5113
ight	-11.5115
▁expanded	-11.5115
▁uracil	-11.5116
▁cerevisiae	-11.5117
▁admixed	-11.5117
▁thiophene	-11.5117
CONR	-11.5119
▁conventionally	-11.5124
we	-11.5127
▁date	-11.5127
oy	-11.5127
▁regulate	-11.5128
▁pseudo	-11.5133
ko	-11.5134
-1-(3-	-11.5136
▁LRMS	-11.5138
▁19.	-11.514
▁Northern	-11.514
▁1.29	-11.5141
▁usage	-11.5143
▁numerical	-11.5143
▁Clone	-11.5145
isoxazole	-11.5145
ug	-11.5147
=5.8	-11.5148
▁consumed	-11.515
▁cotton	-11.5152
▁1.49	-11.5153
-33	-11.5156
▁auxiliary	-11.5161
anilino	-11.5162
▁statistically	-11.5163
][1,2,4]	-11.5171
▁0.94	-11.5172
arginine	-11.5172
isolated	-11.5175
▁creams	-11.5181
)-3-(2-	-11.5187
test	-11.5187
▁adenosine	-11.519
▁4.9	-11.519
▁bu	-11.519
su	-11.5191
▁PK	-11.5192
pe	-11.5192
SK	-11.5195
119	-11.5197
▁thymidine	-11.5202
▁(2.3	-11.5204
▁standing	-11.5206
09	-11.5209
▁fillers	-11.5209
185	-11.5212
▁lubricant	-11.5213
▁steroid	-11.5216
▁RNase	-11.5217
▁29,	-11.5217
fac	-11.5217
nyl	-11.522
▁weights	-11.522
▁ease	-11.5222
col	-11.5222
▁Concentration	-11.5225
▁confer	-11.5225
(4)	-11.5226
specifically	-11.5228
=1.9	-11.5229
▁visual	-11.5233
TX	-11.5234
▁320	-11.5237
CK	-11.5238
▁CMV	-11.5239
{[	-11.5242
▁lactone	-11.5243
▁91%,	-11.5245
▁(11)	-11.525
▁pressures	-11.5253
▁Gram	-11.5255
▁0.40	-11.5256
▁healing	-11.5256
ACT	-11.5257
▁Second	-11.5263
▁dialysis	-11.5263
▁2.17	-11.5268
AV	-11.5269
▁NA	-11.5269
▁simultaneous	-11.5269
vol	-11.5271
▁curing	-11.5272
▁affecting	-11.5272
)-1-(2-	-11.5273
▁195	-11.5279
▁Antigen	-11.5285
▁heteroarylalkyl	-11.5287
▁kill	-11.529
▁inactivation	-11.5291
▁localized	-11.5292
▁safe	-11.5292
▁3.67	-11.5293
:2)	-11.5294
-26	-11.5295
▁tautomers	-11.5296
▁neo	-11.5296
▁competition	-11.5299
▁7.81	-11.5299
▁diastereoisomer	-11.53
▁sh	-11.5304
Ag	-11.5306
▁practical	-11.5308
▁mitochondrial	-11.5309
▁Description	-11.5311
▁nucleophilic	-11.5312
▁guanidine	-11.5315
(2,2-	-11.5316
▁2.12	-11.5317
▁microns	-11.532
▁appeared	-11.5322
▁elsewhere	-11.5323
▁3.97	-11.5328
-4'-	-11.5328
▁coagulation	-11.5334
▁translated	-11.5336
▁great	-11.5339
▁positively	-11.5344
▁2.55	-11.5344
▁proceeds	-11.5346
▁DSC	-11.5348
▁0.32	-11.5349
▁methylation	-11.5349
ylene	-11.535
fen	-11.535
▁diastereomer	-11.535
▁160°	-11.5352
▁27.	-11.5353
▁amido	-11.5354
▁2.33	-11.5356
▁prolonged	-11.5357
▁Retention	-11.5361
×10	-11.5362
EE	-11.5363
yo	-11.5363
▁scintillation	-11.5364
▁tragacanth	-11.5364
▁AIDS	-11.5366
▁ethylenediamine	-11.5366
Ile	-11.5366
▁4,5-	-11.5366
▁163	-11.5366
▁2.18	-11.5368
▁8.04	-11.5368
PEA	-11.5373
16-	-11.5373
▁medicine	-11.5373
▁paragraph	-11.5374
▁Gradient	-11.5375
▁8.08	-11.5376
[5,4-	-11.5376
uro	-11.538
▁ribozyme	-11.538
SY	-11.5382
▁6.84	-11.5383
chlorobenzyl	-11.5385
▁7.99	-11.5386
▁topically	-11.5386
propanoyl	-11.5387
▁vaginal	-11.5387
▁discrete	-11.5388
atic	-11.5389
▁kD	-11.5389
▁paste	-11.5392
▁ii	-11.5393
250	-11.5393
▁carbohydrates	-11.5394
▁157	-11.5395
▁environmental	-11.5396
▁PCSK	-11.5402
▁significance	-11.5403
piperidino	-11.5404
ases	-11.5405
▁evident	-11.5406
▁Ligand	-11.5408
▁thermometer	-11.5409
▁miR	-11.541
▁HeLa	-11.5415
▁0.87	-11.5417
gas	-11.5417
clo	-11.542
diazepin	-11.5421
▁crop	-11.5422
▁methylcellulose	-11.5425
▁3.35	-11.5429
27,	-11.5431
uracil	-11.5432
▁concept	-11.5433
Gibco	-11.5434
▁8:	-11.5435
▁2.27	-11.5438
▁withdrawn	-11.5439
-[4-(2-	-11.544
Cell	-11.5442
neck	-11.5443
▁Ausubel	-11.545
▁167	-11.5452
-5,6,7,8-	-11.5453
ru	-11.5454
▁tRNA	-11.5454
▁genotype	-11.5455
▁Salt	-11.5457
▁tetracycline	-11.5457
▁7.91	-11.5461
▁particulate	-11.5461
▁80,	-11.5462
▁0.96	-11.5464
RTM	-11.5465
▁8.06	-11.5466
▁loci	-11.5467
▁Medium	-11.5468
▁23°	-11.5468
▁hybridizes	-11.5468
▁combinatorial	-11.5469
▁condensing	-11.5469
▁easy	-11.5471
▁isothiocyanate	-11.5471
▁4.01	-11.5472
▁3.57	-11.5474
flow	-11.5475
KK	-11.5478
▁Mn	-11.5479
▁gland	-11.5481
▁215	-11.5482
ili	-11.5484
cyclohex	-11.5484
▁8.01	-11.5486
▁routinely	-11.5487
▁retains	-11.5489
propanamide	-11.5489
pyrid	-11.549
acet	-11.549
▁(1980)	-11.5491
▁White	-11.5493
ening	-11.5493
▁(65	-11.5493
199	-11.5493
▁152	-11.5499
002	-11.55
▁unwanted	-11.5502
▁stain	-11.5504
];	-11.5508
280	-11.5508
▁dermatitis	-11.5508
▁mesylate	-11.5509
▁5-6	-11.5511
▁genus	-11.5517
▁semiconductor	-11.5517
+2	-11.5518
▁4.18	-11.5518
CAT	-11.5521
▁Oct	-11.5524
ura	-11.5529
▁330	-11.5529
▁regenerated	-11.5529
▁99%,	-11.553
-3-[	-11.5532
PF	-11.5533
pentanoic	-11.5536
▁successfully	-11.5541
propene	-11.5541
235	-11.5542
▁Isomer	-11.5544
▁7.01	-11.5548
▁5.8	-11.5552
MM	-11.5556
ai	-11.5557
cer	-11.5558
▁buccal	-11.556
dis	-11.5561
▁passage	-11.5564
)-5	-11.5567
▁1.21	-11.5567
▁0.93	-11.5572
-36	-11.5573
dppf	-11.5575
til	-11.5577
methano	-11.5577
▁Target	-11.5578
▁1.95	-11.5579
▁7.94	-11.5579
▁experimentation	-11.5582
▁GPCR	-11.5587
▁2.23	-11.5587
▁irradiated	-11.559
ik	-11.559
▁cracking	-11.5591
▁differs	-11.5592
▁sheet	-11.5593
▁0.86	-11.5596
▁8.12	-11.5596
▁1.31	-11.5597
tech	-11.5597
rus	-11.5598
▁Serum	-11.5599
▁isoforms	-11.5601
▁Determination	-11.5602
▁consisted	-11.5603
×105	-11.5603
▁sperm	-11.5605
▁edition	-11.5606
▁apply	-11.5608
▁Car	-11.5611
▁Therapy	-11.5615
▁2.24	-11.5616
▁6.82	-11.5619
▁zeolites	-11.5621
naphthyridine	-11.5621
total	-11.5622
−1.	-11.5624
NRc	-11.5624
▁185	-11.5625
▁340	-11.5626
▁entity	-11.5627
▁Screening	-11.5628
▁affords	-11.5632
▁trap	-11.5633
▁sulfonamide	-11.5634
▁2.26	-11.5635
▁oxalyl	-11.5638
Dimethoxy	-11.564
HER	-11.564
▁night	-11.5643
translational	-11.5646
Cyclopropyl	-11.5647
pentan	-11.5647
▁2007	-11.565
▁Grignard	-11.5651
lipid	-11.5653
▁6.99	-11.5655
aw	-11.5655
▁azido	-11.5657
138	-11.5657
▁1.17	-11.566
BF	-11.5661
▁live	-11.5663
′′,	-11.5663
▁status	-11.5664
▁biology	-11.5666
▁cured	-11.5666
▁DI	-11.5667
▁purify	-11.5669
aminopropyl	-11.567
-4(	-11.567
▁XL	-11.5672
(5)	-11.5673
▁84%	-11.5673
cy	-11.5674
▁cr	-11.5675
▁Blue	-11.5678
▁finger	-11.5679
▁7.97	-11.568
▁NRc	-11.5684
▁GH	-11.5684
ethan	-11.5684
ock	-11.5685
lar	-11.5686
▁8.15	-11.5688
GG	-11.5689
▁ischemic	-11.569
▁periods	-11.569
▁2.62	-11.5691
▁Tm	-11.5691
▁3.45	-11.5692
benzothiazol	-11.5692
▁sterilized	-11.5694
▁Sh	-11.5695
▁recently	-11.5697
▁tartrate	-11.5698
▁structurally	-11.5698
▁8.7	-11.5701
TR	-11.5702
▁heterocyclo	-11.5704
tain	-11.5705
va	-11.5706
rine	-11.5707
nic	-11.5709
▁alicyclic	-11.5709
▁possibly	-11.571
cit	-11.5712
▁indication	-11.5716
▁circular	-11.5717
▁metallic	-11.5718
▁freshly	-11.5718
▁1,2,4-	-11.5719
▁Purified	-11.5719
▁cover	-11.572
▁171	-11.5721
▁Remington	-11.5724
145	-11.5725
▁articles	-11.5725
225	-11.5725
▁(3-	-11.5726
▁8.07	-11.5726
▁Tissue	-11.5729
▁2.36	-11.5729
ological	-11.5732
▁recognizes	-11.5732
eo	-11.5734
cap	-11.5735
▁weekly	-11.5736
3)4	-11.5737
▁(2.1	-11.5737
▁En	-11.5738
benzenesulfonate	-11.5739
valent	-11.5743
▁geometric	-11.5743
▁EPO	-11.5743
▁PBMC	-11.5744
198	-11.5748
▁lambda	-11.5751
▁heterodimer	-11.5752
hydride	-11.5752
▁AG	-11.5753
▁nt	-11.5753
▁(+)	-11.5753
▁MM	-11.5754
ethenyl	-11.5754
▁fl	-11.5755
▁pertains	-11.5758
▁5.7	-11.5759
▁conditioned	-11.576
▁Trp	-11.576
▁combine	-11.5762
▁2-(5-	-11.5765
thiomethyl	-11.5765
▁2.31	-11.5766
FL	-11.5768
▁cervical	-11.5769
▁Biochemistry	-11.5769
▁(2.6	-11.577
idene	-11.5772
▁Sc	-11.5774
KD	-11.5776
▁impurity	-11.5781
▁Plates	-11.5782
▁4,4'-	-11.5783
▁4.04	-11.5783
▁360	-11.5785
▁drive	-11.5786
▁ear	-11.5787
▁dimethylamino	-11.5787
▁6.97	-11.5788
▁1.14	-11.5788
▁permits	-11.5789
▁2.08	-11.5789
26,	-11.579
dicarboxylate	-11.5791
▁correlation	-11.5794
der	-11.5794
▁catalyzed	-11.5795
nicotinamide	-11.5797
▁3.66	-11.5798
rad	-11.5803
▁2.29	-11.5804
ub	-11.5806
▁Ir	-11.5808
que	-11.581
▁Gal	-11.5812
▁Pr	-11.5813
ferrocene	-11.5815
▁enhancement	-11.5818
▁propoxy	-11.5825
cyclopentane	-11.5828
▁quinoline	-11.5828
▁1640	-11.583
▁6.89	-11.5832
len	-11.5833
use	-11.5834
▁7:	-11.5834
▁incorporate	-11.5834
cycle	-11.5835
3′-	-11.5848
▁Life	-11.5849
(6-	-11.5849
▁Evaporation	-11.585
▁flexible	-11.585
▁comp	-11.5851
▁micron	-11.5852
▁understanding	-11.5857
▁surrounding	-11.5866
▁joint	-11.5867
ong	-11.5867
▁Prep	-11.5869
Trp	-11.5872
▁0.36	-11.5873
▁SK	-11.5873
▁Temperature	-11.5876
)-9-	-11.5876
▁olefinic	-11.5878
bb	-11.5881
▁2.21	-11.5882
nonane	-11.5883
▁8%	-11.5883
▁mapping	-11.5884
549	-11.5885
▁transforming	-11.5886
▁axis	-11.5887
▁absorbed	-11.5888
▁furyl	-11.5891
▁sizes	-11.5892
▁transferase	-11.5894
comprising	-11.5895
cyclopentadienyl	-11.5898
▁force	-11.5898
▁2.42	-11.5898
▁2.37	-11.5903
ities	-11.5904
▁indirect	-11.5908
▁GP	-11.5909
▁Immunology	-11.5909
▁fast	-11.591
▁vi	-11.5912
▁(2003)	-11.5913
und	-11.5915
hydroxyl	-11.5916
▁6.86	-11.5918
str	-11.5921
▁Removal	-11.5922
▁precise	-11.5925
▁wheat	-11.5925
▁Technology	-11.5926
Characterization	-11.5928
▁negatively	-11.5931
▁0.21	-11.5931
▁donors	-11.5933
▁valuable	-11.5934
=5.9	-11.5936
▁4.40	-11.5936
=6.1	-11.5938
▁distributed	-11.5938
133	-11.5939
▁Sep	-11.5942
TOF	-11.5945
▁(0.9	-11.5946
▁silencing	-11.5947
17-	-11.5948
mel	-11.595
amin	-11.5953
(2,5-	-11.5956
▁radioactivity	-11.5957
117	-11.5957
therapeutic	-11.5957
SI	-11.5963
VA	-11.5967
qu	-11.5967
▁0.38	-11.5969
expressed	-11.5973
▁denatured	-11.5973
▁matrices	-11.5976
▁gently	-11.5976
control	-11.5978
▁fractionation	-11.5979
ink	-11.5979
▁LiOH	-11.5981
136	-11.5984
▁EDC	-11.5984
▁1.98	-11.5985
▁vigorous	-11.5985
▁calf	-11.5987
qua	-11.599
▁purine	-11.599
phospho	-11.5992
▁(50%	-11.5993
example	-11.5994
▁polyols	-11.5994
▁mediate	-11.5995
▁3.48	-11.5995
-(3,4-	-11.6
▁NMP	-11.6002
▁dec	-11.6006
4-(3-	-11.6009
▁0.55	-11.601
ime	-11.6012
ible	-11.6012
▁6.87	-11.6012
LK	-11.6013
nonyl	-11.6013
ans	-11.6014
▁1.56	-11.6015
decyl	-11.6019
▁rare	-11.6022
▁4.12	-11.6024
▁phosphorous	-11.6028
bp	-11.603
0-100%	-11.6031
▁0.0	-11.6033
▁always	-11.6033
chroman	-11.6033
com	-11.6035
-34	-11.6035
▁vaccination	-11.6036
ey	-11.6037
▁3.64	-11.6043
▁repeats	-11.6044
▁Add	-11.6044
1-7	-11.6046
▁catheter	-11.6058
PM	-11.6059
pentenyl	-11.606
260	-11.606
▁Pharm	-11.6061
▁0.99	-11.6061
▁suppress	-11.6062
ology	-11.6064
▁5-(4-	-11.6064
week	-11.6064
▁phosphite	-11.6065
Nitro	-11.6066
▁entitled	-11.6068
▁polysaccharide	-11.607
▁Vectors	-11.6073
▁barium	-11.6073
▁1.16	-11.6073
▁Time	-11.6075
▁hybridizing	-11.6075
▁suppository	-11.6077
▁displacement	-11.6081
ale	-11.6082
pos	-11.6082
2)3	-11.6085
ides	-11.6086
▁1.68	-11.6088
▁GS	-11.6088
▁0.97	-11.6093
tagged	-11.6093
Ex	-11.6095
▁stereochemistry	-11.6103
ethylenedioxy	-11.6103
administered	-11.6103
▁235	-11.6104
=12	-11.6104
▁stabilize	-11.6105
▁EU	-11.611
▁predominantly	-11.6111
195	-11.6111
pentafluoro	-11.6112
▁signs	-11.6113
▁2.16	-11.6115
▁1.12	-11.6116
▁neutralize	-11.6118
▁4.08	-11.6119
▁2.78	-11.6121
methylmorpholine	-11.6121
▁circumstances	-11.6125
▁acting	-11.6126
▁biodegradable	-11.6129
-7,8-	-11.613
ketone	-11.6132
▁split	-11.6135
hexa	-11.6135
▁centrifuge	-11.6136
-(2,3-	-11.6137
ani	-11.614
▁homologs	-11.614
245	-11.6141
▁5:1	-11.6143
▁allelic	-11.6144
phenylsulfonyl	-11.6144
322	-11.6145
70°	-11.6145
tBu	-11.6147
▁6.83	-11.6148
COR	-11.6148
ert	-11.6149
▁(0.09	-11.615
▁drawn	-11.6152
▁(55	-11.6154
28,	-11.6155
▁compare	-11.6155
liter	-11.6156
▁squamous	-11.6159
▁pathogenic	-11.6161
▁skeleton	-11.6167
:25	-11.6168
▁month	-11.617
eri	-11.617
triphenyl	-11.617
▁immunotherapy	-11.6171
obtained	-11.6171
▁0.34	-11.6174
▁Useful	-11.6174
▁doxorubicin	-11.6175
▁arrangement	-11.6176
▁indicator	-11.618
▁issued	-11.618
▁isoxazolyl	-11.6182
▁IB	-11.6182
▁elixirs	-11.6186
▁greatly	-11.6187
▁0.65	-11.6188
▁3.18	-11.6191
naphtho	-11.6193
×3).	-11.6193
▁2.58	-11.6193
▁2.34	-11.6193
lum	-11.6193
▁examination	-11.6193
ons	-11.6199
▁1.85	-11.6203
▁pyridazinyl	-11.6205
scFv	-11.6207
▁chemokine	-11.6208
dibenzo	-11.6209
pha	-11.6209
+]	-11.6209
005	-11.621
▁Neuro	-11.6213
▁lecithin	-11.6216
meric	-11.6217
▁diffusion	-11.6219
▁colloidal	-11.6223
▁bubbled	-11.6223
▁CB	-11.6228
▁reacts	-11.623
att	-11.6235
dr	-11.6237
trichloro	-11.6239
inter	-11.624
DC	-11.6242
▁177	-11.6244
▁epi	-11.6246
▁adhesive	-11.6248
▁clean	-11.6249
Gln	-11.6249
izer	-11.625
heterocyclic	-11.625
▁administer	-11.6251
▁Smith	-11.6251
Gal	-11.6252
▁gl	-11.6252
[3.1.0]	-11.6255
gal	-11.6256
▁(0.7	-11.6258
▁alkoxyalkyl	-11.6258
▁prevents	-11.626
▁6.81	-11.626
▁approximate	-11.6262
XII	-11.6264
▁embryos	-11.6267
▁fit	-11.627
▁neurological	-11.6277
▁carbonates	-11.628
▁pg	-11.6282
▁antitumor	-11.6284
▁importance	-11.6284
▁Flash	-11.6285
▁2.63	-11.6286
▁surgical	-11.6286
▁1.08	-11.6287
▁(36	-11.6288
▁respond	-11.6289
▁2.88	-11.629
▁imidazo	-11.6291
▁bolus	-11.6291
▁4.16	-11.6291
▁6.94	-11.6292
▁modifier	-11.6294
▁discussion	-11.6294
▁Mi	-11.6295
▁extensive	-11.6298
▁herpes	-11.6299
▁adenine	-11.63
virus	-11.6301
▁net	-11.6302
40°	-11.6302
▁lymphocytic	-11.6304
▁Pharmacol	-11.6306
)-4-(4-	-11.6306
▁lowering	-11.6309
▁Biotechnol	-11.6309
▁consideration	-11.6311
▁multispecific	-11.6313
▁(5%	-11.6318
tes	-11.6318
▁1-10	-11.632
▁3.12	-11.6321
=2.7	-11.6325
▁oleate	-11.6326
ost	-11.633
▁2.19	-11.6332
sub	-11.6339
)-1,2-	-11.6342
149	-11.6343
▁receive	-11.6345
MEM	-11.6345
▁bridged	-11.6349
▁dimers	-11.6349
▁flat	-11.635
▁alternate	-11.635
Promega	-11.6352
▁standards	-11.6352
▁pI	-11.6354
-3'	-11.6355
hal	-11.6356
▁(1.00	-11.6357
▁4.28	-11.6357
ros	-11.6358
▁SS	-11.6361
▁AF	-11.6362
▁1985	-11.6363
▁disc	-11.6364
ris	-11.6366
▁0.29	-11.6366
▁histone	-11.6367
▁6%	-11.6368
▁174	-11.6369
▁2.72	-11.637
▁nearly	-11.6372
▁176	-11.6372
▁Wnt	-11.6373
eli	-11.6375
ct	-11.6375
▁(1981)	-11.6377
▁excluded	-11.6378
▁TE	-11.6379
▁conduit	-11.638
▁subcloned	-11.638
bo	-11.6381
▁diagram	-11.6384
11)	-11.6384
▁2.13	-11.6385
ethoxymethyl	-11.6387
▁8.18	-11.6388
▁mononuclear	-11.639
▁Cry	-11.6391
▁3.59	-11.6392
▁chlorinated	-11.6394
▁referring	-11.6397
▁trials	-11.64
(3)	-11.6401
▁0.005	-11.6401
▁4.07	-11.6402
int	-11.6402
▁Curr	-11.6404
▁2-3	-11.6404
polymer	-11.6407
▁spot	-11.6407
▁silicate	-11.6408
▁4.50	-11.6408
alumina	-11.6408
▁phenolic	-11.6409
▁SU	-11.641
para	-11.641
SL	-11.6414
nate	-11.6417
toxin	-11.6419
10°	-11.6422
▁dicarboxylic	-11.6424
purified	-11.6424
▁1.19	-11.6426
▁plaque	-11.6427
▁kilogram	-11.6428
▁obtainable	-11.6433
▁1.58	-11.6433
Molecular	-11.6435
Yield	-11.6435
cyan	-11.6435
▁3.42	-11.6436
330	-11.6438
▁penetration	-11.6439
▁Southern	-11.6439
1,4	-11.6441
▁0.91	-11.6445
▁Biophys	-11.6448
▁accordingly	-11.6449
▁ink	-11.645
od	-11.6452
▁thermo	-11.6453
crystallization	-11.6454
▁2.14	-11.6454
▁198	-11.6455
dioxolane	-11.6458
▁dish	-11.6461
kinase	-11.6464
▁hydroperoxide	-11.6465
idin	-11.6465
▁8.25	-11.6467
▁JAK	-11.6468
▁Applied	-11.6468
▁2.64	-11.6468
▁GDF	-11.647
▁156	-11.6471
▁Ta	-11.6472
▁alkene	-11.6475
sulfonylamino	-11.6475
▁2.48	-11.6476
▁2.85	-11.6476
▁phosphodiester	-11.6477
▁3.15	-11.6478
using	-11.6479
▁Composition	-11.6486
▁HSA	-11.6487
stage	-11.6489
▁Conditions	-11.649
▁Crohn	-11.6492
▁electrical	-11.6495
▁decanted	-11.6496
▁(1982)	-11.6496
▁Invitrogen	-11.6497
▁annealing	-11.6497
▁precipitates	-11.6498
▁skeletal	-11.6499
▁Genet	-11.65
▁Light	-11.6505
▁translocation	-11.6506
▁2.44	-11.6506
-[4-(4-	-11.6507
amycin	-11.651
▁PT	-11.6511
Chlorophenyl	-11.6512
TK	-11.6514
2000	-11.6515
[4	-11.6515
(4,4-	-11.6517
▁HDAC	-11.6519
20°	-11.652
▁define	-11.6522
▁Sample	-11.6523
dodecyl	-11.6524
FU	-11.6525
▁strategies	-11.6526
▁(2.7	-11.6527
▁1992,	-11.6528
propylamino	-11.6529
polypeptide	-11.6529
▁Dec	-11.6531
▁8.09	-11.6531
]-2,4-	-11.6531
▁led	-11.6533
▁0.37	-11.6533
▁Identification	-11.6534
▁Health	-11.6536
han	-11.6537
▁anchor	-11.6538
▁metabolite	-11.6539
▁4-[	-11.654
▁regarding	-11.6543
▁entirely	-11.6543
▁sprayed	-11.6544
▁measures	-11.6544
▁siRNAs	-11.6546
phenylboronic	-11.6549
▁opposite	-11.6549
▁Virol	-11.655
▁recommended	-11.655
▁symbols	-11.6555
go	-11.6556
▁division	-11.6556
▁5000	-11.6559
aliphatic	-11.6562
=4.5	-11.6562
▁alkylaryl	-11.6564
cat	-11.6569
Scheme	-11.6569
▁transduced	-11.6571
▁2.73	-11.6571
▁-10°	-11.6573
▁immunoprecipit	-11.6573
▁phthalate	-11.6578
▁immunoassays	-11.658
▁(+)-	-11.658
▁electrons	-11.6582
205	-11.6583
▁cyclohexanone	-11.6586
▁loops	-11.6587
azepine	-11.6589
amyl	-11.6591
ically	-11.6593
-(3-(	-11.6593
▁fractional	-11.6593
lated	-11.6594
▁2.07	-11.6594
166	-11.6595
▁reservoir	-11.6596
▁4.14	-11.6598
▁worked	-11.6599
▁1:2	-11.6599
approximately	-11.66
ara	-11.66
▁fibroblast	-11.6601
▁BL	-11.6601
▁8.11	-11.6602
▁2.52	-11.6602
▁constitute	-11.6603
▁surprisingly	-11.6605
{4-[(	-11.661
-01	-11.661
▁1.62	-11.661
DF	-11.661
cooled	-11.6614
▁triplicate	-11.6614
▁May	-11.6614
triaza	-11.6615
▁assist	-11.6616
chloroethyl	-11.6617
▁10.6	-11.6618
▁pyrrole	-11.6619
▁isoform	-11.662
glycerol	-11.6625
▁esterified	-11.6629
121	-11.6632
▁Institute	-11.6632
▁3.52	-11.6634
)-9	-11.6636
▁2.67	-11.6637
▁duplicate	-11.6637
▁ethynyl	-11.6637
-[1	-11.664
▁favorable	-11.6641
▁oligomerization	-11.6642
(1,1-	-11.6642
Ro	-11.6642
▁1.02	-11.6645
▁Functional	-11.6648
▁Agents	-11.6648
▁error	-11.6649
▁AcOH	-11.6652
berg	-11.6654
▁marked	-11.6656
▁olive	-11.6658
diazaspiro	-11.6659
▁3.61	-11.666
▁(0.14	-11.6662
▁maturation	-11.6664
▁benz	-11.6664
▁PDGF	-11.6665
▁secretory	-11.6665
▁3.50	-11.6666
(1,3-	-11.6667
▁JP	-11.6667
▁requiring	-11.6667
▁flame	-11.6667
▁2.43	-11.6668
▁slight	-11.6672
▁initiate	-11.6673
emia	-11.6673
lactam	-11.6674
column	-11.6675
▁NM	-11.6681
lus	-11.6682
▁zirconium	-11.6683
oth	-11.6685
▁Tr	-11.6688
▁151	-11.6689
benzylidene	-11.669
▁2.11	-11.669
▁2.98	-11.6692
×100	-11.6693
dien	-11.6693
▁guinea	-11.6695
▁saccharide	-11.6696
▁chlorobenzene	-11.6697
▁blended	-11.6698
▁Healthcare	-11.6698
)+;	-11.6699
▁stripped	-11.6701
▁NGF	-11.6702
fl	-11.6705
▁2,4,6-	-11.6705
▁1.04	-11.6706
▁bodies	-11.6706
▁keeping	-11.6707
▁mortality	-11.6708
▁network	-11.6708
▁MDA	-11.6712
▁therapeutics	-11.6712
▁morpholino	-11.6714
▁Comparison	-11.6715
▁glycerin	-11.6715
▁11.5	-11.6715
▁205	-11.6717
▁implanted	-11.6718
▁enhances	-11.6718
▁1.13	-11.6719
ser	-11.6721
▁MD	-11.6723
=5.3	-11.6727
▁alkylcarbonyl	-11.6727
▁Reactions	-11.6729
▁deficient	-11.673
▁acetylene	-11.6732
▁DNAs	-11.6738
alo	-11.6741
▁reconstituted	-11.6741
cul	-11.6742
▁organometallic	-11.6746
▁UPLC	-11.6749
▁immediate	-11.675
▁4.09	-11.675
▁(4.5	-11.6752
-[(3	-11.6753
▁2.39	-11.6754
90%	-11.6756
lig	-11.6756
hen	-11.6757
▁principle	-11.6759
acetophenone	-11.6764
144	-11.6765
AGE	-11.6766
▁0.60	-11.6766
▁injecting	-11.6769
▁1,5-	-11.6771
▁transform	-11.6771
▁405	-11.6773
▁la	-11.6775
▁chlor	-11.6775
{[(	-11.6779
148	-11.6781
▁page	-11.6785
▁pan	-11.6785
▁attack	-11.6786
▁Stage	-11.6788
▁8.13	-11.6788
▁share	-11.6788
▁88%	-11.6791
129	-11.6796
▁285	-11.6797
▁What	-11.6798
/100	-11.6799
▁Bu	-11.6799
alkoxycarbonyl	-11.6801
▁rearrangement	-11.6801
▁dopant	-11.6801
▁8.16	-11.6801
serine	-11.6804
ek	-11.6804
CMV	-11.6805
▁terminator	-11.6806
▁Hydrogen	-11.6807
▁hepatic	-11.6808
▁CRL	-11.681
fused	-11.681
▁statistical	-11.6811
▁angle	-11.6811
-3(2	-11.6812
▁presentation	-11.6813
lon	-11.6814
▁dialyzed	-11.6815
▁CV	-11.6815
▁lipophilic	-11.6817
LI	-11.6818
▁bifunctional	-11.6818
Mo	-11.6821
▁94°	-11.6822
▁belonging	-11.6823
▁Merck	-11.6824
imidazolidin	-11.6825
▁FcRn	-11.683
▁4.17	-11.683
St	-11.6833
▁radiolabeled	-11.6834
ni	-11.6835
▁Delivery	-11.6839
▁2.93	-11.684
fluoren	-11.6842
▁Prior	-11.6844
▁permeability	-11.6844
lithium	-11.6845
▁cosmetic	-11.6845
▁changing	-11.6846
▁titers	-11.6847
▁isotope	-11.685
▁United	-11.6851
▁deep	-11.6851
Ga	-11.6852
▁fluorophore	-11.6852
▁Her	-11.6852
▁degenerate	-11.6853
▁pathology	-11.6855
-70	-11.6857
ram	-11.686
ren	-11.6864
▁Probes	-11.6865
▁Clinical	-11.6866
:20	-11.687
dicyclohexyl	-11.6871
▁Genetics	-11.6873
▁(48	-11.6873
▁prop	-11.6874
▁responsive	-11.6877
mat	-11.6877
phosphoryl	-11.6878
▁regimens	-11.6878
▁limitations	-11.6879
▁2.66	-11.6884
▁0.42	-11.6886
▁FA	-11.6888
sequence	-11.6892
▁4.11	-11.6893
▁MTBE	-11.6897
▁2.09	-11.69
▁Multi	-11.6903
▁physically	-11.6903
▁3.22	-11.6903
▁(0.11	-11.6904
▁DA	-11.6906
hy	-11.6909
▁androgen	-11.691
▁miRNA	-11.6913
▁interfering	-11.6913
film	-11.6918
▁(0.13	-11.6919
▁0.80	-11.6921
ory	-11.6925
▁findings	-11.6926
oxymethyl	-11.6927
▁3.47	-11.6928
▁AS	-11.6928
▁implicated	-11.6929
▁0.84	-11.6931
▁complexed	-11.6931
▁2.68	-11.6932
▁limits	-11.6934
▁8.14	-11.6935
▁dosed	-11.6937
clone	-11.6939
▁178	-11.694
7-1	-11.6942
▁Cap	-11.695
▁visualized	-11.6952
van	-11.6952
▁2.45	-11.6953
sulfo	-11.6954
▁Referring	-11.6957
▁FIGS	-11.6961
available	-11.6963
▁(22	-11.6964
▁unbound	-11.6965
5′	-11.6969
▁captured	-11.6971
▁pathogens	-11.6972
▁lowered	-11.6972
180	-11.6974
▁1.82	-11.698
▁1.54	-11.6981
▁sacrificed	-11.6982
▁Wash	-11.6984
▁suspected	-11.6985
147	-11.6986
▁motor	-11.6987
▁3.03	-11.6989
▁Salts	-11.699
enol	-11.6991
oxadiazole	-11.6991
▁interacting	-11.6992
▁Or	-11.6992
chlor	-11.6993
dihydrobenzo	-11.6994
FC	-11.6995
3'	-11.6995
▁1.03	-11.6996
168	-11.6997
morph	-11.6999
lation	-11.7
▁plural	-11.7002
▁cartilage	-11.7002
▁2.97	-11.7004
▁biosynthesis	-11.7006
(9	-11.7008
▁building	-11.7008
ylation	-11.701
▁methylamine	-11.7011
▁CDK	-11.7011
▁1.67	-11.7012
hole	-11.7012
▁knowledge	-11.7013
▁describing	-11.7015
]-7-	-11.7015
▁HindIII	-11.7018
▁Taq	-11.7018
175	-11.7019
▁550	-11.702
▁Hybridization	-11.702
▁Vivo	-11.7024
{2-[(	-11.7025
▁5.9	-11.7027
▁disposed	-11.7027
▁mobility	-11.7027
▁milligrams	-11.7028
▁thiazole	-11.703
▁disrupt	-11.7031
COOR	-11.7033
▁(38	-11.7034
▁slides	-11.7034
▁XIII	-11.7035
onitrile	-11.7035
▁1.01	-11.7036
▁5.00	-11.7036
cyclobutane	-11.7037
▁triphenyl	-11.7038
▁10.8	-11.7039
▁Hence	-11.7039
▁6.79	-11.7041
:13	-11.7041
hexan	-11.7043
▁NY	-11.7047
▁2.86	-11.7054
otic	-11.7054
tuzumab	-11.7056
▁35,	-11.7056
▁Saccharomyces	-11.7059
▁197	-11.7062
ele	-11.7063
,13-	-11.7064
▁tetrazolyl	-11.7067
▁−80°	-11.7069
ido	-11.707
FF	-11.707
▁manipulation	-11.707
▁(28	-11.7072
▁hundred	-11.7073
▁extracting	-11.7073
▁2.56	-11.7074
▁2.96	-11.7074
▁encapsulated	-11.7074
▁colored	-11.7075
▁correlated	-11.7076
▁Pure	-11.7076
▁Base	-11.7076
▁middle	-11.708
-45	-11.7081
▁3.02	-11.7083
▁6.78	-11.7083
▁scientific	-11.7087
▁Particular	-11.7089
▁2.74	-11.7089
▁Ko	-11.709
▁1991,	-11.709
▁1.78	-11.7091
▁1989,	-11.7092
▁2.57	-11.7093
177	-11.7093
LF	-11.7093
▁0.31	-11.7095
butynyl	-11.7096
▁4.13	-11.7097
[2-(4-	-11.7097
lane	-11.7098
▁ethylbenzene	-11.71
▁mbar	-11.7101
salt	-11.7103
)+,	-11.7103
butylphenyl	-11.7106
▁2.54	-11.7109
▁3.46	-11.711
▁8.20	-11.7111
▁2.41	-11.7113
0.01	-11.7114
pol	-11.7117
▁Benzyl	-11.7118
▁sulphur	-11.7121
▁approx	-11.7122
▁Freund	-11.7122
pot	-11.7124
▁1.72	-11.7125
▁(2.8	-11.7127
[3	-11.7128
▁kinetics	-11.7129
▁DME	-11.7133
=9.6	-11.7135
▁Structural	-11.7136
234	-11.7137
▁GI	-11.7138
▁2.89	-11.7139
▁31,	-11.7143
116	-11.7144
−1,	-11.7146
De	-11.7147
▁herbicidal	-11.7147
▁1995,	-11.7149
▁BD	-11.7149
rc	-11.7153
1=	-11.7155
VD	-11.7156
catalyst	-11.7157
▁excised	-11.7158
▁diisocyanate	-11.716
CAS	-11.7161
▁complications	-11.7161
▁basified	-11.7162
▁lectin	-11.7162
▁3.10	-11.7162
▁mimic	-11.7163
139	-11.7164
▁synergistic	-11.7165
▁3.56	-11.7167
▁(2004)	-11.7167
▁DH	-11.7169
▁cycloheptyl	-11.7172
▁2011	-11.7173
▁homolog	-11.7173
▁na	-11.7174
▁disodium	-11.7176
4-(4,4,5,5-	-11.7179
▁DM	-11.7181
▁0.46	-11.7182
TV	-11.7187
▁Selection	-11.7187
▁reason	-11.7187
butyryl	-11.7193
▁AT	-11.7193
-3,3-	-11.7195
▁pS	-11.7196
=0.8	-11.7201
▁(1.9	-11.7201
▁(26	-11.7202
▁tandem	-11.7204
▁compete	-11.7205
quinolyl	-11.7206
neu	-11.721
ular	-11.7212
▁Red	-11.7212
benzylamino	-11.7212
254	-11.7213
=4.9	-11.7213
CV	-11.7214
statin	-11.7216
▁6.76	-11.7218
▁DP	-11.7218
substantially	-11.722
▁stabilization	-11.7222
-5′-	-11.7223
carboxyl	-11.7223
▁quickly	-11.723
ori	-11.7231
▁vesicles	-11.7231
▁1.59	-11.7233
oxetan	-11.7237
hexanoic	-11.7237
methoxyethoxy	-11.7238
▁character	-11.7238
▁2.47	-11.7241
▁successful	-11.7241
▁CYP	-11.7242
▁overexpression	-11.7243
ones	-11.7243
▁fractionated	-11.7243
)-2-[(	-11.7245
▁EMBO	-11.7247
▁carcinomas	-11.7248
UV	-11.7249
ethanamine	-11.7251
▁abundance	-11.7251
14)	-11.7253
▁ubiquitin	-11.7255
▁5-(2-	-11.7256
▁Lane	-11.7257
phy	-11.7257
pyrimido	-11.7258
▁collecting	-11.7261
]+,	-11.7262
▁understand	-11.7266
▁primate	-11.7268
▁3.37	-11.727
-12-	-11.727
▁2.02	-11.727
▁Eur	-11.727
ook	-11.727
site	-11.7271
▁1995	-11.7272
naphth	-11.7272
▁cl	-11.7273
diethoxy	-11.7273
▁antifungal	-11.7274
)-1,2,4-	-11.7275
-17-	-11.7275
▁4.65	-11.7275
▁2.03	-11.7276
bottomed	-11.7277
WO	-11.7279
▁1-(5-	-11.728
▁immunoconjugate	-11.7281
ifying	-11.7282
▁MAb	-11.7282
sing	-11.7287
enoate	-11.7287
▁setting	-11.7288
▁matched	-11.7288
▁ultra	-11.7291
▁Vitro	-11.7294
▁Raney	-11.7295
▁3.01	-11.7296
▁pi	-11.7297
▁275	-11.7297
▁configured	-11.7298
▁kanamycin	-11.73
▁2.76	-11.7303
ech	-11.7304
▁map	-11.7305
▁ret	-11.7306
BuLi	-11.7308
▁ATG	-11.7308
▁3.14	-11.7309
MW	-11.7309
▁CpG	-11.731
▁subtype	-11.7315
▁Ang	-11.7316
▁Four	-11.7317
▁COOH	-11.7319
▁Approximately	-11.732
dy	-11.7321
isocyanato	-11.7323
102	-11.7327
▁2.77	-11.7327
▁1.06	-11.7328
135	-11.7329
▁tr	-11.7331
▁patch	-11.7332
▁3'-	-11.7332
▁Ten	-11.7334
▁flasks	-11.7336
▁cleave	-11.7337
▁UK	-11.7337
▁8.21	-11.7339
▁scored	-11.7339
▁3.49	-11.7339
ple	-11.7341
▁rac	-11.7341
▁(0.20	-11.7342
indan	-11.7342
▁diverse	-11.7342
ral	-11.7344
▁capability	-11.7346
▁3.54	-11.7346
▁arylene	-11.7347
▁1.53	-11.7352
hydr	-11.7352
treating	-11.7353
Asn	-11.7354
▁12-	-11.7356
▁phenols	-11.7358
LS	-11.736
MV	-11.736
▁siNA	-11.736
▁manual	-11.736
-[4-(3-	-11.7362
glutamine	-11.7368
Hex	-11.737
▁1.74	-11.7373
▁tautomeric	-11.7375
▁aggregates	-11.7377
)-4-(2-	-11.7377
▁4.22	-11.7378
▁approved	-11.7378
▁enteric	-11.738
▁1.97	-11.7381
▁triazolyl	-11.7381
▁butter	-11.7381
▁window	-11.7382
▁Purity	-11.7382
▁butanol	-11.7385
▁abbreviations	-11.7385
▁ME	-11.7386
nal	-11.7386
▁proximity	-11.7389
▁2.49	-11.7391
▁3.04	-11.7392
▁clinically	-11.7394
▁synthesizer	-11.7394
▁somatic	-11.7397
▁hairpin	-11.7398
004	-11.7398
▁verified	-11.74
▁progenitor	-11.7403
▁TG	-11.7403
▁dopamine	-11.7404
▁2.61	-11.7405
▁2.81	-11.7406
conservative	-11.7406
▁Active	-11.7408
▁2.59	-11.7408
▁8.22	-11.7408
▁0.48	-11.7409
=4.4	-11.7412
▁constituent	-11.7414
▁emulsifiers	-11.7422
▁3.55	-11.7422
▁AND	-11.7424
▁4.19	-11.7424
▁RE	-11.7425
rist	-11.7426
▁pests	-11.7426
▁guanine	-11.7427
▁aromatics	-11.743
hydrazino	-11.7432
▁Nucl	-11.7432
▁3.08	-11.7432
▁dust	-11.7437
glucose	-11.7438
▁2.71	-11.7441
▁4.21	-11.7443
▁portionwise	-11.7443
=17	-11.7443
▁randomly	-11.7444
▁count	-11.745
▁States	-11.7451
▁stripping	-11.7451
▁saturation	-11.7453
fluorene	-11.7454
lac	-11.7456
▁possesses	-11.7458
▁3.13	-11.7462
▁mixer	-11.7462
▁2.01	-11.7465
CG	-11.7466
▁accompanying	-11.7466
▁concerns	-11.7469
2,3-	-11.7473
▁(34	-11.7474
▁MO	-11.7475
▁LT	-11.7475
nitrile	-11.7477
az	-11.7478
=1.4	-11.7479
tract	-11.7479
▁ethanolamine	-11.7481
▁6.77	-11.7485
▁2.79	-11.7485
▁DMA	-11.7487
▁4.24	-11.7487
▁Aspergillus	-11.7488
▁establish	-11.7488
▁Antisense	-11.7488
▁paraffins	-11.7489
▁Acta	-11.749
▁2.06	-11.749
mid	-11.7491
▁Multiple	-11.7494
endo	-11.7494
▁(−	-11.75
▁recent	-11.7501
▁CXCR	-11.7501
fect	-11.7503
▁1.07	-11.7506
ual	-11.7506
▁BACKGROUND	-11.7506
ster	-11.7507
methyloxy	-11.7507
20-	-11.7508
▁compartment	-11.751
▁objects	-11.7511
▁1.63	-11.7512
benzamido	-11.7513
▁4.23	-11.7513
-(2,2-	-11.7514
▁(0.16	-11.7514
▁4.06	-11.7515
▁8.19	-11.7516
▁ee	-11.7517
▁3.39	-11.7519
mic	-11.752
▁fever	-11.7522
▁tip	-11.7524
onyl	-11.7525
▁plaques	-11.7528
▁acyclic	-11.7529
158	-11.7531
▁tosylate	-11.7532
▁4.38	-11.7533
NG	-11.7534
2'	-11.7534
▁1993,	-11.7534
-[2-(4-	-11.7535
▁exchanged	-11.7535
:16	-11.7538
filled	-11.754
platin	-11.7541
▁hydroxides	-11.7545
selective	-11.7545
▁versions	-11.7545
▁0.39	-11.7546
▁anticancer	-11.7546
sulphonyl	-11.7547
▁222	-11.7548
Dimethylamino	-11.7549
▁3.19	-11.755
▁lateral	-11.7551
131	-11.7552
}-4-	-11.7552
che	-11.7553
126	-11.7554
▁3.27	-11.7555
=0.5	-11.7558
▁8.23	-11.7563
▁link	-11.7564
▁contaminants	-11.7564
▁70,	-11.7565
anol	-11.7567
Pharmacia	-11.7569
▁Hydrochloride	-11.7569
▁denote	-11.757
▁3.21	-11.7571
yr	-11.7571
▁410	-11.7572
▁polyether	-11.7572
▁1.66	-11.7573
▁6.65	-11.7573
▁Enzyme	-11.7574
▁conductivity	-11.7577
▁lane	-11.7577
▁subgroup	-11.758
▁enter	-11.758
▁waxes	-11.7582
▁11.0	-11.7583
▁4.32	-11.7583
▁Over	-11.7586
▁1.80	-11.7586
▁2.53	-11.7587
▁4.30	-11.7588
▁flushed	-11.7589
)-1-(3-	-11.7591
▁platform	-11.7592
▁disruption	-11.7593
dioxa	-11.7593
▁4.42	-11.7595
▁macrophage	-11.76
]-1,3-	-11.7601
▁234	-11.7603
▁alginic	-11.7603
▁MT	-11.7604
pentene	-11.7604
▁neoplastic	-11.7605
169	-11.7606
RK	-11.7606
sense	-11.7608
220	-11.7608
▁2005	-11.761
▁intradermal	-11.7611
▁95:5	-11.7611
▁shaker	-11.7611
▁1.09	-11.7613
▁unnatural	-11.7615
ver	-11.7617
au	-11.7618
VE	-11.7618
fluorophenoxy	-11.762
▁metabolites	-11.762
▁calculate	-11.7622
▁running	-11.7622
stein	-11.7623
▁268	-11.7623
▁Agrobacterium	-11.7625
▁aptamer	-11.7626
ck	-11.7627
▁Volume	-11.7628
cel	-11.7629
▁10.7	-11.763
▁26.	-11.763
▁nylon	-11.7633
▁8.17	-11.7633
▁(2005)	-11.7635
▁2.91	-11.7639
BSA	-11.764
▁3.53	-11.764
benzophenone	-11.7641
▁Section	-11.7641
▁3.40	-11.7642
▁(21	-11.7643
ng	-11.7643
▁urinary	-11.7644
▁acylamino	-11.7646
▁3.36	-11.7646
▁delivering	-11.7647
▁stands	-11.7649
▁Lab	-11.765
fin	-11.7651
[4-(2-	-11.7651
▁2.46	-11.7655
Synthesis	-11.7656
▁acylating	-11.7656
35,	-11.7657
therapeutically	-11.7659
triol	-11.7661
▁Applications	-11.7665
▁0.83	-11.7669
▁leave	-11.7669
▁Ill	-11.7669
-90	-11.767
▁269	-11.7671
▁hybrids	-11.7671
▁7%	-11.7672
:1.	-11.7675
morpholinyl	-11.7678
▁glyc	-11.7679
▁Pi	-11.768
▁su	-11.768
alkylthio	-11.7681
▁embryo	-11.7682
▁Notch	-11.7683
fluoropyridin	-11.7683
▁hydroxymethyl	-11.7684
▁counts	-11.7685
▁6.70	-11.7686
▁2.92	-11.7688
▁diethylamine	-11.7689
▁4.60	-11.7691
▁SF	-11.7691
▁antioxidant	-11.7691
▁caspase	-11.7693
▁(2×50	-11.7693
actin	-11.7695
emic	-11.7696
▁dt	-11.7697
▁CP	-11.7698
▁4.27	-11.77
air	-11.7701
▁implantation	-11.7701
▁1999,	-11.7703
phosphoric	-11.7704
▁193	-11.7706
cellulose	-11.771
NV	-11.7713
pyridinium	-11.772
king	-11.772
▁DO	-11.772
562	-11.7723
▁lac	-11.7724
Life	-11.7724
▁2.04	-11.7728
▁179	-11.7729
▁ointment	-11.7732
chem	-11.7734
{[2-(	-11.7734
▁phospholipids	-11.7736
▁furanyl	-11.7738
▁3.17	-11.774
:19	-11.7743
▁lowest	-11.7743
▁pos	-11.7744
▁HRP	-11.7746
propylamine	-11.7752
▁3.43	-11.7752
▁aminoalkyl	-11.7753
▁Str	-11.7753
▁(1:1	-11.7754
Amersham	-11.7758
yellow	-11.7758
UC	-11.776
▁residence	-11.7761
▁3.29	-11.7762
phenoxyphenyl	-11.7763
▁solubilized	-11.7764
▁(6.0	-11.7765
ace	-11.7768
▁polymorphism	-11.777
▁fifth	-11.777
▁crops	-11.7771
IE	-11.7772
▁Ka	-11.7773
▁1.96	-11.7773
▁inoculation	-11.7775
▁cancerous	-11.7775
▁destruction	-11.7776
benzoylamino	-11.7776
▁public	-11.7779
▁pressurized	-11.7779
▁1.64	-11.7781
▁sulfhydryl	-11.7783
▁0.78	-11.7784
)-6,7-	-11.7784
glycol	-11.7786
▁ph	-11.7788
ack	-11.779
▁nitrocellulose	-11.7792
either	-11.7793
▁Kd	-11.7797
▁3.11	-11.7798
▁Chart	-11.7798
▁ophthalmic	-11.7798
▁satisfactory	-11.7798
▁interference	-11.7799
▁detergents	-11.7799
alkane	-11.7799
-4(3	-11.7801
▁pol	-11.7802
▁multivalent	-11.7803
▁Preparative	-11.7804
▁lubricating	-11.7806
▁1.11	-11.7807
=2.8	-11.7808
▁2.69	-11.7808
▁Consequently	-11.781
ave	-11.781
PB	-11.7814
▁EMBODIMENTS	-11.7817
▁4.36	-11.7817
▁quenching	-11.7818
▁arterial	-11.7821
amines	-11.7822
▁epidermal	-11.7825
loc	-11.7826
-[(2-	-11.7827
▁Oil	-11.7831
)-7	-11.7833
▁anhydrides	-11.7834
▁290	-11.7834
▁mouth	-11.7836
▁alkoxide	-11.7839
Nujol	-11.784
methylbenzyl	-11.7841
BM	-11.7842
▁alkyne	-11.7842
▁oleic	-11.7844
▁Bar	-11.7848
”).	-11.7848
quinolinyl	-11.7848
uridine	-11.7849
▁Injection	-11.7849
▁movement	-11.7853
[2-(	-11.7853
50)	-11.7854
▁titration	-11.7856
▁oxychloride	-11.7856
▁mill	-11.7857
amidino	-11.7859
+1)+.	-11.7863
▁Clones	-11.7866
▁2012	-11.7867
homo	-11.7868
onate	-11.7868
=3.6	-11.7869
350	-11.7873
▁3.44	-11.7873
▁TO	-11.7875
▁uniformly	-11.7875
▁(42	-11.7876
ination	-11.7877
▁1994,	-11.7879
▁cycloalkylalkyl	-11.7879
▁locations	-11.788
▁TF	-11.7881
dehydro	-11.7884
EGFR	-11.7884
-500	-11.7884
lambda	-11.7885
▁266	-11.7886
▁4.26	-11.7886
▁Conversion	-11.7886
▁HOBt	-11.7888
[4-(4-	-11.7888
▁disclosures	-11.789
▁FCS	-11.7892
=9.3	-11.7892
)-2,6-	-11.7893
▁vertebrate	-11.7896
▁dropping	-11.7898
Cr	-11.7899
pl	-11.7899
▁pC	-11.7901
▁TS	-11.7906
▁adequate	-11.7906
▁cocoa	-11.7907
▁Elmer	-11.7908
=0.9	-11.7911
administration	-11.7912
fil	-11.7917
▁Sa	-11.7917
TMS	-11.7918
▁0.44	-11.7918
rt	-11.7924
▁LDL	-11.7925
0.001	-11.7927
2=	-11.7928
=9.1	-11.7931
▁facilitates	-11.7932
▁driving	-11.7932
▁conducting	-11.7933
Bi	-11.7933
▁(12)	-11.7937
▁3.51	-11.7938
CX	-11.7938
▁diester	-11.7939
▁mast	-11.7939
▁265	-11.794
rol	-11.7943
▁maleimide	-11.7944
▁Ringer	-11.7946
▁Animal	-11.7947
▁coefficient	-11.7947
▁synthetase	-11.7948
29,	-11.7949
▁pot	-11.7949
octanoic	-11.7952
carboxaldehyde	-11.7952
▁daltons	-11.7953
butadiene	-11.7957
▁239	-11.7957
)-1,2,3,4-	-11.7959
▁differentiated	-11.7959
▁33%	-11.7962
▁galactose	-11.7965
▁lost	-11.7965
▁(0.18	-11.7965
▁row	-11.7966
TTG	-11.7967
▁267	-11.7967
▁sleep	-11.7967
▁(27	-11.7969
=1.3	-11.798
▁2.84	-11.7981
-3′-	-11.7981
▁junction	-11.7982
▁Jun	-11.7983
thiadiazole	-11.7984
del	-11.7985
ATP	-11.7986
dba	-11.7986
▁1,8-	-11.7993
115	-11.7994
▁shell	-11.7997
▁Study	-11.7998
▁vaccinia	-11.7998
▁1996,	-11.7999
YT	-11.8001
-4,5,6,7-	-11.8002
▁phosphates	-11.8003
▁3.05	-11.8003
▁(37	-11.8005
arw	-11.8007
▁Addition	-11.8007
170	-11.8009
ethanolamine	-11.8009
imidazolyl	-11.801
▁186	-11.8014
▁nontoxic	-11.8016
uch	-11.8018
rum	-11.8018
▁6.68	-11.8019
154	-11.8019
▁(0.1%	-11.8019
▁2.82	-11.8019
155	-11.8021
▁affinities	-11.8021
▁fish	-11.8025
▁question	-11.8025
Fe	-11.8027
▁relate	-11.8027
▁blots	-11.8028
▁catalytically	-11.803
▁Oral	-11.8031
▁2.99	-11.8032
olefins	-11.8033
▁quantification	-11.8033
:21	-11.8035
4'-	-11.8036
▁determinant	-11.8036
▁alginate	-11.8036
▁Enzymology	-11.8037
▁isolates	-11.804
▁demonstrating	-11.8041
▁mo	-11.8041
▁dimerization	-11.8043
▁NIH	-11.8044
▁trial	-11.8048
▁finding	-11.8048
thiazolidin	-11.8049
(1):	-11.8049
Cu	-11.8049
cysteine	-11.805
297	-11.805
▁1990,	-11.805
▁borane	-11.8052
dihydropyridin	-11.8052
▁presenting	-11.8053
▁clo	-11.8055
1,3-	-11.8056
▁veterinary	-11.8056
Fab	-11.8057
lot	-11.8058
▁polysaccharides	-11.8058
▁clay	-11.8058
▁text	-11.806
▁Stirring	-11.806
▁redissolved	-11.8061
▁bs	-11.8064
▁Studies	-11.8064
▁pUC	-11.8065
bearing	-11.8066
2,2-	-11.8067
▁PPAR	-11.8068
▁port	-11.8068
▁impaired	-11.807
ala	-11.8073
▁pores	-11.8075
▁ordinarily	-11.8076
▁gain	-11.8078
ett	-11.8079
▁1.60	-11.8079
▁electrodes	-11.808
▁FITC	-11.8081
ENT	-11.8081
▁packing	-11.8082
lumin	-11.8083
▁1.55	-11.8083
dioxolan	-11.8084
-1,3,5-	-11.8088
immuno	-11.809
▁thioether	-11.8101
▁operatively	-11.8102
idic	-11.8102
▁Madison	-11.8104
▁lipase	-11.8105
[1,4]	-11.8105
▁chromosomes	-11.8106
159	-11.8108
▁phosphoramidite	-11.8111
▁document	-11.8111
▁monostearate	-11.8112
▁1.92	-11.8112
)2—	-11.8114
ened	-11.8114
-6-(4-	-11.8116
▁interacts	-11.8118
▁enzymatically	-11.8118
methylpyrrolidin	-11.8121
▁292	-11.8124
▁elemental	-11.8125
▁repertoire	-11.8127
▁1.51	-11.8131
▁tagged	-11.8132
▁pET	-11.8132
▁progressive	-11.8133
(8-	-11.8133
2-(3-	-11.8134
dihydropyridine	-11.8134
▁phenethyl	-11.8135
▁affects	-11.8142
amic	-11.8142
▁Sur	-11.8143
rap	-11.8146
▁650	-11.8146
124	-11.8152
▁arrays	-11.8152
-2-(1-	-11.8155
▁3.09	-11.8156
▁SFC	-11.8157
▁sesame	-11.8158
▁2.94	-11.816
▁turned	-11.8163
2-10	-11.8167
=4.0	-11.817
▁relating	-11.8171
▁crosslinked	-11.8171
▁4.35	-11.8172
▁intramuscularly	-11.8173
ki	-11.8173
▁plays	-11.8175
▁candidates	-11.8175
)-4-((	-11.8175
▁protons	-11.8175
▁cyto	-11.8177
33,	-11.8179
▁3.41	-11.8182
▁sulphuric	-11.8184
▁chelate	-11.8186
Rad	-11.8189
=20	-11.8189
▁Chiral	-11.819
▁suited	-11.819
▁compression	-11.819
▁practiced	-11.8192
▁1.69	-11.8193
▁Chinese	-11.8194
50%	-11.8195
chromen	-11.8195
]+:	-11.8197
bl	-11.8201
sulfide	-11.8201
▁modes	-11.8203
indene	-11.8203
ina	-11.8203
▁#2	-11.8204
ras	-11.8205
▁188	-11.8206
▁traditional	-11.8209
quinoxalin	-11.8211
▁cisplatin	-11.8211
-{2-	-11.8213
▁208	-11.8216
▁osmotic	-11.8221
▁triazole	-11.8222
activity	-11.8225
worm	-11.8225
▁platelets	-11.8225
90,	-11.8226
▁1.57	-11.8227
sia	-11.8227
▁disclose	-11.8228
▁MUC	-11.8228
▁Sn	-11.8228
▁default	-11.823
tre	-11.8232
DMA	-11.8232
▁amination	-11.8232
▁cats	-11.8233
▁trait	-11.8234
▁wise	-11.8234
CHF	-11.8236
▁Dr	-11.8242
375	-11.8242
▁alkenylene	-11.8242
▁0.000	-11.8244
▁ADC	-11.8244
143	-11.8246
▁disintegrating	-11.825
▁true	-11.825
▁(3×50	-11.8251
480	-11.8252
TD	-11.8253
▁kinetic	-11.8254
▁Do	-11.8254
{[(1	-11.8254
▁310	-11.8257
▁Greene	-11.8258
460	-11.826
▁alcoholic	-11.826
butanoate	-11.826
▁Staphylococcus	-11.8261
hydrazide	-11.8262
▁1997,	-11.8263
CE	-11.8264
▁lengths	-11.8265
268	-11.8268
esterification	-11.8269
cro	-11.8271
▁carbodiimide	-11.8273
▁bioactive	-11.8274
▁anxiety	-11.8276
▁pyruvate	-11.8278
▁About	-11.8278
osa	-11.8278
▁dog	-11.8278
methoxypyridin	-11.8279
▁dynamic	-11.8282
▁(110	-11.8284
▁octa	-11.8284
▁blend	-11.8289
▁thrombosis	-11.8289
▁obvious	-11.829
▁come	-11.8291
Cy	-11.8294
▁polysorbate	-11.8297
▁analyzing	-11.8297
▁originally	-11.8298
XX	-11.8299
▁Potassium	-11.8301
▁Pharmacia	-11.8301
chloropyridin	-11.8303
▁0.70	-11.8304
▁FVIII	-11.8304
▁0.43	-11.8304
6-14	-11.8309
AI	-11.8309
▁herbicide	-11.831
▁exclude	-11.8311
▁allergen	-11.8312
-3'-	-11.8313
VR	-11.8316
▁Bis	-11.8322
regulated	-11.8322
▁1.61	-11.8323
DCI	-11.8323
▁1.88	-11.8325
LG	-11.8325
▁(0.17	-11.8325
tron	-11.8325
▁lymphoid	-11.8326
enantiomer	-11.8327
▁6.72	-11.8329
240	-11.833
▁bottoms	-11.8331
cf	-11.8331
▁pcDNA	-11.8332
▁neopentyl	-11.8332
▁solubilizing	-11.8335
▁tower	-11.8336
▁glycosyl	-11.8337
thiazolidine	-11.8337
50°	-11.8338
atch	-11.8339
Ti	-11.8339
lactone	-11.8339
▁percentages	-11.8339
▁render	-11.834
▁trityl	-11.8343
Qiagen	-11.8343
▁purge	-11.8345
▁accessible	-11.8346
enzyme	-11.8347
:17	-11.8347
▁1.86	-11.8348
▁11.6	-11.8349
=1.1	-11.8351
gradient	-11.8351
▁(10)	-11.8352
−/−	-11.8354
▁Meth	-11.8354
▁4,4	-11.8354
▁(800	-11.8355
▁ameliorate	-11.8355
▁Photo	-11.8358
ACC	-11.8358
▁patches	-11.8359
ski	-11.8359
▁9:1	-11.8361
LU	-11.8363
▁Yet	-11.8364
▁(39	-11.8364
▁×	-11.8365
culture	-11.8366
▁discharged	-11.8366
phosphonic	-11.8367
▁herbicides	-11.8369
190	-11.8369
▁expressly	-11.837
DO	-11.837
ida	-11.8373
▁microliters	-11.8373
▁7.4)	-11.8374
▁none	-11.8374
▁counting	-11.8378
oro	-11.8378
halide	-11.838
cyanoborohydride	-11.838
ations	-11.8382
response	-11.8383
▁monkeys	-11.8385
▁mmHg	-11.8385
▁microspheres	-11.8389
▁attenuated	-11.8389
1-12	-11.8389
▁Indeed	-11.839
▁quinolinyl	-11.839
=3.0	-11.839
▁1.84	-11.8391
▁sol	-11.8391
-37	-11.8391
trop	-11.8391
▁reasons	-11.8392
)-3,5-	-11.8393
)-3-((	-11.8394
▁1.91	-11.8395
Ci	-11.8397
▁Due	-11.8398
▁APCI	-11.8398
▁Measurement	-11.8399
▁FT	-11.8399
▁nutrient	-11.8401
▁yellowish	-11.8401
179	-11.8402
arr	-11.8403
:30	-11.8403
DG	-11.8411
rom	-11.8411
oxazine	-11.8414
▁ionization	-11.8414
▁conductive	-11.8416
choline	-11.8416
era	-11.8417
▁schematic	-11.8417
oxi	-11.842
▁peanut	-11.8422
▁arylthio	-11.8422
▁Isolated	-11.8426
▁mercaptan	-11.8427
ethylenediamine	-11.843
)-3-(3-	-11.8431
▁1.90	-11.8432
236	-11.8432
▁denaturation	-11.8434
▁schizophrenia	-11.8434
{2-	-11.8436
-7-(	-11.8437
alkanoyl	-11.8438
▁1200	-11.8441
▁customary	-11.8442
-(2-(	-11.8444
▁plot	-11.8444
▁examine	-11.8446
arm	-11.8447
isoindoline	-11.8447
par	-11.8449
▁likewise	-11.8449
▁oligopeptide	-11.8449
▁insects	-11.8449
▁serotonin	-11.8452
▁untranslated	-11.8453
▁filler	-11.8453
butylamino	-11.8454
chemiluminescent	-11.8454
ari	-11.8456
cresol	-11.8456
methylbutyl	-11.8456
▁4.39	-11.8457
187	-11.8457
▁4′-	-11.846
▁mellitus	-11.8463
▁Transformation	-11.8463
▁pairing	-11.8466
▁Fluor	-11.8469
ylated	-11.8471
▁lesion	-11.8473
▁mucosal	-11.8479
▁spraying	-11.8481
▁1.76	-11.8481
-5,7-	-11.8481
▁duplexes	-11.8482
▁0.82	-11.8482
phi	-11.8482
▁avidin	-11.8483
phosphinyl	-11.8484
▁paclitaxel	-11.8485
▁agricultural	-11.8487
▁concurrently	-11.8489
▁opioid	-11.8489
▁214	-11.849
▁256	-11.8491
▁insecticidal	-11.8491
▁lyophilization	-11.8491
eck	-11.8491
▁pneumoniae	-11.8494
▁osteoporosis	-11.8495
▁principles	-11.85
)-5-(4-	-11.8502
▁circuit	-11.8503
▁Du	-11.8504
Benzo	-11.8505
▁Su	-11.8505
▁placebo	-11.8508
acetal	-11.8511
▁2000,	-11.8513
▁2.83	-11.8514
▁FL	-11.8515
▁(270	-11.8515
▁4.58	-11.8519
[3-(	-11.8519
vo	-11.852
▁trifluoride	-11.8521
hydroxybenzoate	-11.8522
▁depicts	-11.8522
370	-11.8523
▁Vector	-11.8524
▁(23	-11.8525
ylcarbamate	-11.8527
▁8.9	-11.8528
▁year	-11.8529
carboxymethyl	-11.853
Tri	-11.853
239	-11.8532
▁predict	-11.8537
▁0.66	-11.8537
▁(0.50	-11.8539
▁cascade	-11.854
118	-11.8542
▁Schemes	-11.8544
▁met	-11.8546
196	-11.8549
TGA	-11.8551
▁8.35	-11.8552
▁Dev	-11.8552
▁edema	-11.8553
157	-11.8553
▁Thermo	-11.8554
infected	-11.8555
▁partners	-11.8555
▁trauma	-11.8556
▁underlying	-11.8557
Tetrahydro	-11.8558
ei	-11.8559
top	-11.856
volume	-11.8561
▁NT	-11.8561
▁0.67	-11.8561
▁209	-11.8561
bodies	-11.8562
1-20	-11.8562
cyclophosphamide	-11.8565
▁12%	-11.8565
Rx	-11.8567
▁distilling	-11.857
301	-11.857
▁Kinase	-11.8574
18-	-11.8574
▁undergoing	-11.8576
)-1,4-	-11.8577
▁PBMCs	-11.8577
▁3.07	-11.8581
led	-11.8581
▁unbranched	-11.8581
▁8.27	-11.8582
=2.6	-11.8583
156	-11.8583
▁hemi	-11.8583
▁2004	-11.8585
▁−10°	-11.8586
uk	-11.8586
=15	-11.8587
▁hydrazide	-11.8588
azol	-11.8589
stimulatory	-11.859
▁8.28	-11.8591
lizumab	-11.8591
▁(3.2	-11.8593
oside	-11.8594
rk	-11.8595
yd	-11.8597
▁9:	-11.8597
,21-	-11.8598
methoxyimino	-11.8601
▁acylated	-11.8601
▁cure	-11.8602
▁1.83	-11.8602
ico	-11.8602
pA	-11.8604
▁Ho	-11.8605
▁dehydrated	-11.8606
▁suppressing	-11.8607
▁rec	-11.8612
WT	-11.8613
▁Pichia	-11.8614
meter	-11.8614
xy	-11.8615
▁4.41	-11.8619
▁DL	-11.8619
phenylpropyl	-11.862
▁Only	-11.8621
194	-11.8621
▁neither	-11.8622
▁8.30	-11.8623
▁own	-11.8624
oxyethyl	-11.8625
▁summary	-11.8626
pir	-11.863
▁luminescence	-11.8632
-[2	-11.8632
▁hepta	-11.8633
▁termini	-11.8636
▁0.47	-11.864
▁dominant	-11.8643
▁pest	-11.8645
▁83%	-11.8645
enoyl	-11.8645
▁transformant	-11.8646
▁square	-11.8647
▁utilizes	-11.8647
amid	-11.8647
▁Os	-11.8647
▁neuropathy	-11.8647
4(	-11.8648
▁2.87	-11.8648
tetrazole	-11.8649
illi	-11.865
▁8.24	-11.865
▁persons	-11.865
▁histamine	-11.8651
▁needles	-11.8651
}-5-	-11.8651
▁Chain	-11.8655
▁ready	-11.8655
▁dropped	-11.8655
▁VEGFR	-11.8658
1.40	-11.8658
butanoyl	-11.8662
▁characterize	-11.8662
▁Ther	-11.8663
/0.1%	-11.8666
▁sulf	-11.8666
mod	-11.8667
3,4-	-11.8667
methylsulfanyl	-11.8671
immunodeficiency	-11.8672
▁impairment	-11.8672
▁236	-11.8673
sal	-11.8673
+1]+	-11.8674
6,8-	-11.8676
2-(	-11.8676
▁tubular	-11.8676
heterocycle	-11.8676
styrene	-11.8676
▁antisera	-11.8676
′),	-11.8677
▁promotes	-11.8679
▁238	-11.868
Max	-11.8682
bath	-11.8682
ula	-11.8683
glyc	-11.8684
▁enrichment	-11.8684
▁Rx	-11.8687
-2(3	-11.8692
][	-11.8692
▁calcination	-11.8693
▁1998,	-11.8697
▁sold	-11.8698
▁driven	-11.8699
▁8.29	-11.8699
▁SN	-11.8701
▁1.89	-11.8702
▁advanced	-11.8703
▁pmol	-11.8704
▁carbocycle	-11.8706
-55	-11.8706
▁2-[	-11.8707
dimethoxyethane	-11.8707
▁siloxane	-11.8708
▁England	-11.8714
▁regardless	-11.8714
OT	-11.8716
▁cocktail	-11.8718
▁retinopathy	-11.8718
▁1.87	-11.8718
▁choline	-11.872
▁1.70	-11.872
×50	-11.8721
▁4.34	-11.8723
EK	-11.8723
GI	-11.8724
▁11.8	-11.8725
550	-11.8727
-1,8-	-11.8728
▁carbo	-11.8729
▁6.74	-11.8729
XL	-11.873
ita	-11.8731
:3)	-11.8732
▁82%	-11.8732
1000	-11.8733
CB	-11.8734
006	-11.8735
▁stretch	-11.8738
▁0.72	-11.8741
▁1,2,3-	-11.8743
▁possessing	-11.8746
vert	-11.8747
▁displays	-11.8747
AE	-11.8748
Phos	-11.8748
▁elute	-11.8751
▁taught	-11.8751
▁dipeptide	-11.8754
▁37%	-11.8755
▁pyr	-11.8758
▁BB	-11.8758
▁incomplete	-11.876
ORF	-11.8761
▁pyro	-11.8762
▁viewpoint	-11.8768
▁schedule	-11.8772
-3,6-	-11.8772
▁264	-11.8776
▁ameliorating	-11.8776
phenylenediamine	-11.8777
vir	-11.8778
230	-11.878
▁1.99	-11.8781
▁beam	-11.8783
vin	-11.8783
▁Lo	-11.8786
succinimidyl	-11.8786
▁4'-	-11.8786
otropic	-11.8786
thione	-11.8787
▁microarray	-11.8789
DB	-11.8789
-4′-	-11.8791
1.35	-11.8792
▁traits	-11.8792
ff	-11.8793
▁neural	-11.8793
▁Gra	-11.8793
▁(13)	-11.8794
▁ALK	-11.8794
▁3.31	-11.8795
▁Te	-11.8796
reaction	-11.8797
▁lungs	-11.8798
oxime	-11.8798
▁DPP	-11.8801
▁gentle	-11.8801
132	-11.8803
▁(160	-11.8807
uff	-11.8808
▁1:10	-11.881
▁connecting	-11.8812
▁4.80	-11.8816
19-	-11.8818
270	-11.882
▁6.67	-11.8822
▁intrinsic	-11.8822
▁meet	-11.8823
anilide	-11.8824
metric	-11.8826
KA	-11.8827
▁Patients	-11.8828
▁1981	-11.8831
▁nucleobase	-11.8831
Ru	-11.8834
-300	-11.8837
▁quench	-11.8839
▁butadiene	-11.884
nis	-11.8841
▁nonionic	-11.8842
▁microplate	-11.8844
▁narrow	-11.8845
RED	-11.8845
pen	-11.8846
▁flowing	-11.8846
▁(130	-11.8847
▁hexamethyl	-11.8849
quinazolinyl	-11.8854
▁%.	-11.8854
long	-11.8854
▁intrathecal	-11.8856
▁randomized	-11.8858
▁diethylene	-11.886
▁1.77	-11.8861
▁Silica	-11.8863
toluenesulfonate	-11.8864
▁publicly	-11.8864
▁Different	-11.8864
▁families	-11.8865
75°	-11.8865
▁6.73	-11.8867
▁Mab	-11.8868
▁Present	-11.8869
▁technologies	-11.8869
2,4-	-11.8869
▁Lu	-11.887
etro	-11.887
4,5-	-11.8871
▁tetramer	-11.8872
▁folding	-11.8873
▁benign	-11.8873
▁face	-11.8874
▁dishes	-11.8875
267	-11.888
▁Sepharose	-11.8883
▁cytoplasm	-11.8884
▁fibronectin	-11.8886
▁arrest	-11.8886
[1,2,4]	-11.8888
▁(0.22	-11.8889
NI	-11.889
anth	-11.889
▁3.38	-11.8891
▁apart	-11.8891
bar	-11.8892
▁Bcl	-11.8892
▁ErbB	-11.8893
shi	-11.8893
amate	-11.8893
189	-11.8893
Tr	-11.8894
)-5-(2-	-11.8896
▁benzyloxy	-11.8898
▁checkpoint	-11.8899
▁entireties	-11.8899
▁weighing	-11.8899
▁user	-11.8899
Butoxycarbonyl	-11.8901
▁(20%	-11.8901
▁retrovirus	-11.8902
succin	-11.8903
defined	-11.8904
▁TNFR	-11.8905
carbo	-11.8906
▁report	-11.8906
anyl	-11.8909
1.30	-11.891
hel	-11.8911
1.10	-11.8911
ectin	-11.8911
▁sandwich	-11.8916
[1	-11.8916
cip	-11.8916
hydroformylation	-11.8924
EB	-11.8924
▁(44	-11.8925
BV	-11.8925
▁azo	-11.8927
0-2	-11.8928
▁diversity	-11.8928
▁2001	-11.8928
▁glioma	-11.8929
▁Five	-11.8929
▁isothiazolyl	-11.893
targeting	-11.8933
▁transiently	-11.8933
▁macro	-11.8936
▁furthermore	-11.8937
▁Po	-11.8938
▁checked	-11.8939
▁exothermic	-11.894
complex	-11.894
▁PH	-11.8943
▁node	-11.8944
(4-(	-11.8945
▁triacetoxyboro	-11.8946
▁297	-11.8948
▁monomethyl	-11.8948
▁3.06	-11.895
▁trichloride	-11.8953
▁inserting	-11.8954
▁digest	-11.8954
▁adjustment	-11.8956
▁Ha	-11.896
▁adversely	-11.8961
▁224	-11.8962
▁Salmonella	-11.8962
0.2,	-11.8964
▁5.10	-11.8964
▁HGF	-11.8965
saturated	-11.8966
▁luminescent	-11.8967
35°	-11.897
▁accompanied	-11.8971
▁glioblastoma	-11.8971
2.50	-11.8973
precipitation	-11.8975
-(4-(	-11.8975
▁(85	-11.8977
▁3×	-11.8978
second	-11.8981
ich	-11.8984
▁steric	-11.8988
▁lacks	-11.8991
▁suppressed	-11.8993
23,	-11.8993
▁48%	-11.8999
▁neutrophils	-11.8999
▁perfume	-11.9001
▁Reagent	-11.9002
uck	-11.9002
▁276	-11.9003
:40	-11.9004
imidazolidine	-11.9005
XIII	-11.9006
▁lineage	-11.9007
▁SD	-11.9008
tus	-11.9009
static	-11.9013
▁intervening	-11.9014
FI	-11.9014
▁constituents	-11.9014
two	-11.9016
AMP	-11.9017
lite	-11.9018
bromide	-11.9018
▁analyze	-11.9019
ima	-11.902
▁tetramethyl	-11.902
▁TAT	-11.9021
▁Streptomyces	-11.9022
▁incidence	-11.9022
▁Apo	-11.9023
ott	-11.9024
ART	-11.9025
▁380	-11.9031
aga	-11.9034
undec	-11.9034
▁227	-11.9034
▁availability	-11.9035
▁AMP	-11.9036
▁8.45	-11.9038
▁continuation	-11.904
188	-11.904
histidine	-11.904
▁phosgene	-11.9044
▁4.75	-11.9047
▁macular	-11.9049
affinity	-11.905
UT	-11.9051
▁unlabeled	-11.9051
▁plotted	-11.9053
+/−	-11.9053
▁constants	-11.9053
sulph	-11.9054
▁4.46	-11.9056
▁229	-11.9056
set	-11.9057
deficient	-11.9063
▁0.56	-11.9065
▁(41	-11.9066
▁Generation	-11.9066
▁impregnated	-11.9066
ulin	-11.9066
▁ketal	-11.9067
▁thereon	-11.9069
▁1.94	-11.907
scale	-11.907
prophylactically	-11.9071
din	-11.9072
▁(180	-11.9073
sion	-11.9073
▁MASP	-11.9074
▁fruit	-11.9074
benzylamine	-11.9075
▁AM	-11.9077
0.5%	-11.9077
▁cleaning	-11.9079
▁0.49	-11.9079
▁rep	-11.9081
ition	-11.9082
trin	-11.9086
▁denaturing	-11.909
▁quite	-11.9091
▁dimethylamine	-11.9094
▁glyco	-11.9095
▁8.26	-11.9095
rib	-11.9096
▁Primary	-11.9096
NHS	-11.91
▁36,	-11.9102
▁cleaving	-11.9104
▁immunizing	-11.9104
▁ultrafiltration	-11.9104
▁8.50	-11.9105
▁biomarker	-11.9106
▁chicken	-11.9106
▁2-[(	-11.9107
▁transmission	-11.9109
▁streptomycin	-11.9111
▁dia	-11.9112
▁Host	-11.9116
tan	-11.9116
ade	-11.9116
▁400°	-11.9117
inal	-11.9118
strom	-11.912
▁SB	-11.9122
▁diluting	-11.9122
ess	-11.9124
′′′	-11.9124
fluorescence	-11.9125
▁discharge	-11.9126
thal	-11.9126
▁212	-11.9127
▁calculation	-11.9128
▁generator	-11.9129
010	-11.913
▁isopropoxy	-11.913
285	-11.9132
butyrate	-11.9133
plate	-11.9135
▁0.68	-11.9137
▁aceto	-11.9139
▁width	-11.9139
▁confers	-11.9139
TGF	-11.914
▁phenylene	-11.9142
cot	-11.9143
Ic	-11.9143
acting	-11.9143
mole	-11.9147
▁generic	-11.9147
▁Enzymol	-11.9148
▁diffuse	-11.9148
▁trichloro	-11.9148
ij	-11.9148
▁capped	-11.9149
▁8.38	-11.915
Roche	-11.9151
▁diagnosing	-11.9152
▁MCP	-11.9153
▁ter	-11.9154
▁equally	-11.9155
[2-(2-	-11.9155
vent	-11.9156
008	-11.9157
▁exons	-11.9158
)-1,3,4-	-11.9158
▁analgesic	-11.9158
▁homogenized	-11.9161
ising	-11.9162
5′-	-11.9164
ud	-11.9166
▁fructose	-11.917
▁2013	-11.9171
▁magnitude	-11.9174
▁(29	-11.9174
▁Tablets	-11.9176
star	-11.9176
▁295	-11.9177
mass	-11.9177
▁42°	-11.9181
▁8.40	-11.9181
▁inserts	-11.9181
▁desirably	-11.9183
4)2	-11.9184
oxid	-11.9185
▁transferring	-11.9186
▁phospholipid	-11.9186
▁Syndrome	-11.9187
(((	-11.9188
nia	-11.9189
▁salicylic	-11.9191
▁nucleobases	-11.9191
HIV	-11.9193
▁(140	-11.9194
80°	-11.9195
▁ar	-11.9196
▁malic	-11.92
mRNA	-11.9201
2.15	-11.9202
▁SEC	-11.9202
Trifluoro	-11.9203
cum	-11.9203
265	-11.9204
▁4.31	-11.9206
▁Gas	-11.9207
)-2-(3-	-11.9207
lip	-11.9211
ono	-11.9213
benzopyran	-11.9218
▁Id	-11.9218
▁triglycerides	-11.9218
▁Inter	-11.9218
▁polycarbonate	-11.9219
butyloxycarbonyl	-11.9222
-1):	-11.9222
0.2°	-11.9223
▁12:	-11.9223
▁6,7-	-11.9223
▁Usually	-11.9226
ux	-11.9227
Pa	-11.9228
{(	-11.9231
cyte	-11.9232
▁Polymer	-11.9233
▁valence	-11.9235
▁Alk	-11.9237
uri	-11.9237
region	-11.9238
((2-(	-11.9238
▁Perkin	-11.9243
▁1980	-11.9243
▁median	-11.9245
▁PGE	-11.9246
▁dividing	-11.9247
Stratagene	-11.9248
GD	-11.925
▁filtrated	-11.9251
▁PNAS	-11.9251
▁Cyto	-11.9253
immune	-11.9254
288	-11.9255
rit	-11.9255
Hodgkin	-11.9257
▁representation	-11.9258
)-7-(	-11.9259
178	-11.926
▁alia	-11.9261
▁Coupling	-11.9261
cre	-11.9262
2-8	-11.9263
▁Hum	-11.9263
NHSO	-11.9264
▁der	-11.9265
methylbenzene	-11.9266
▁triflate	-11.9266
ethylidene	-11.9267
indeno	-11.9269
UTR	-11.9272
▁metathesis	-11.9272
▁Nuclear	-11.9273
380	-11.9273
(6-(	-11.9273
EDTA	-11.9275
dinitro	-11.9276
4.00	-11.9277
▁3.16	-11.9278
moles	-11.9279
▁homozygous	-11.9283
▁Formation	-11.929
▁ESIMS	-11.929
elli	-11.929
×250	-11.9291
-4-(1-	-11.9294
▁34,	-11.9295
▁4000	-11.9296
▁298	-11.9297
32,	-11.9298
▁scores	-11.9299
▁disrupted	-11.9301
oli	-11.9302
▁182	-11.9306
▁sprays	-11.9307
▁Pe	-11.9307
3)—	-11.9309
aralkyl	-11.9312
▁6,6	-11.9313
▁steady	-11.9314
▁ethoxide	-11.9314
▁subclass	-11.9318
▁biopsy	-11.9319
▁4.47	-11.9323
tricyclo	-11.9323
290	-11.9324
▁6.25	-11.9325
▁ACT	-11.9326
)-4,4-	-11.9326
ark	-11.9326
gr	-11.9328
▁tungsten	-11.9328
▁creating	-11.9328
▁Alkyl	-11.9329
▁extend	-11.9331
▁aminocarbonyl	-11.9332
▁Cross	-11.9333
EtOH	-11.9333
▁breeding	-11.9336
ected	-11.9337
▁(14)	-11.9338
▁bright	-11.9338
▁chilled	-11.9344
▁11.7	-11.9345
▁thickening	-11.9346
▁1988,	-11.9346
▁8.32	-11.9348
226	-11.9348
▁benzimidazolyl	-11.9352
▁li	-11.9353
py	-11.9354
▁183	-11.9354
▁Dose	-11.9354
▁printing	-11.9355
▁Male	-11.9356
▁1.52	-11.9357
▁90,	-11.9358
▁Chemicals	-11.9359
CDRs	-11.9359
▁switch	-11.9364
▁GA	-11.9365
wa	-11.9365
▁(33	-11.9366
▁configurations	-11.9368
myc	-11.937
▁SNPs	-11.9372
▁lymphomas	-11.9373
▁substitute	-11.9376
▁deleterious	-11.9376
dimethylpropyl	-11.9377
▁Especially	-11.9381
▁Suzuki	-11.9381
▁convenience	-11.9381
▁practitioner	-11.9381
▁tolerated	-11.9382
▁polymorphisms	-11.9383
micro	-11.9385
phenylthio	-11.9387
▁amplifying	-11.9387
ethylthio	-11.9388
▁pen	-11.9389
▁184	-11.9389
▁singly	-11.939
LB	-11.939
▁Pyr	-11.9391
1.45	-11.9392
▁3.28	-11.9392
-[(3-	-11.9394
▁sulfite	-11.9397
borane	-11.9398
▁pulse	-11.9398
▁exceed	-11.94
▁trigger	-11.9401
▁pools	-11.9401
▁he	-11.9403
-50%	-11.9406
▁MCF	-11.9408
cycloalkenyl	-11.941
▁maltose	-11.9412
111	-11.9413
aze	-11.9414
▁deoxy	-11.9417
-[[	-11.9417
tis	-11.942
idone	-11.9421
▁(32	-11.9423
▁192	-11.9426
▁("	-11.9429
▁00	-11.9431
ble	-11.9432
imid	-11.9433
▁Microbiol	-11.9433
state	-11.9435
▁phosphonium	-11.9436
▁SE	-11.9439
▁3-4	-11.9439
zyme	-11.9444
-[3-(4-	-11.9444
cort	-11.9444
ylcarbonyl	-11.9448
▁2′	-11.9452
▁eliminating	-11.9452
▁1.93	-11.9452
▁alkoxyl	-11.9454
▁distinguish	-11.9455
▁187	-11.9457
▁evaluating	-11.9457
▁ulcerative	-11.9457
▁Low	-11.9457
▁1.73	-11.9458
host	-11.9459
=18	-11.946
▁dot	-11.9461
rea	-11.9461
▁runs	-11.9462
▁263	-11.9463
-400	-11.9464
-{	-11.9466
▁Nano	-11.9466
▁butane	-11.9467
methylcarbamoyl	-11.9467
▁sonicated	-11.947
▁20.0	-11.9471
▁Center	-11.9472
▁(350	-11.9472
▁com	-11.9473
mmunosuppressive	-11.9473
pressure	-11.9474
▁Mixture	-11.9474
▁0;	-11.9477
anthracene	-11.9481
▁Complex	-11.9483
▁mannose	-11.9485
▁Experiment	-11.9487
▁her	-11.9492
▁glycoproteins	-11.9494
za	-11.9494
Applied	-11.9494
▁oxidant	-11.9497
▁NCH	-11.9498
-90%	-11.9499
▁0.41	-11.95
zo	-11.9502
enriched	-11.9503
▁sent	-11.9505
▁Biotage	-11.9506
fwd	-11.9507
55,	-11.9507
▁starches	-11.9507
Gene	-11.9508
▁pigments	-11.9509
▁6.71	-11.9509
▁delaying	-11.9509
▁Electro	-11.951
▁5×	-11.951
variant	-11.951
benzodiazepin	-11.9513
▁CHLOROFORM	-11.9513
version	-11.9514
▁concentrating	-11.9515
▁81%	-11.9516
0;	-11.9516
▁pyrrolidone	-11.9517
▁subtypes	-11.9517
▁CSF	-11.9517
Oxo	-11.9519
CAM	-11.952
▁colour	-11.9521
3-5	-11.9525
▁BF	-11.9526
furanyl	-11.9526
▁67%	-11.953
▁Variants	-11.953
▁defective	-11.9536
▁Carbon	-11.9539
▁PdCl	-11.9539
▁pyridinium	-11.9542
ada	-11.9544
▁regulator	-11.9545
stat	-11.9547
▁entities	-11.9547
′-(	-11.9547
bed	-11.9549
thien	-11.9549
▁fabric	-11.955
▁3.33	-11.955
▁activators	-11.9554
▁Primer	-11.9556
▁morphology	-11.9556
oph	-11.9557
▁finished	-11.9557
▁Practice	-11.9561
▁quin	-11.9562
▁1.79	-11.9564
Rc	-11.9568
▁drawings	-11.9568
▁optimize	-11.957
▁handling	-11.9571
▁(0.30	-11.9571
ATION	-11.9574
▁0.77	-11.9575
cd	-11.9576
▁Chapter	-11.9579
nucleotides	-11.9579
7.35	-11.9579
▁figures	-11.9581
▁odor	-11.9583
▁Arabidopsis	-11.9583
▁STAT	-11.9585
▁0.62	-11.9586
▁226	-11.9586
toluenesulfonyl	-11.9586
162	-11.9587
=0.3	-11.9587
▁Weight	-11.959
▁susceptibility	-11.9592
▁Thio	-11.9593
▁194	-11.9593
▁uM	-11.9596
▁multimer	-11.9597
propen	-11.9597
▁(46	-11.9598
▁Site	-11.96
vis	-11.9602
▁calibration	-11.9602
▁TBS	-11.9602
sorb	-11.9603
nes	-11.9603
uronium	-11.9604
▁22°	-11.9604
tens	-11.9607
▁Physiol	-11.9608
=0.7	-11.961
▁replicate	-11.9612
-120	-11.9613
▁balloon	-11.9614
pentamethyl	-11.9614
▁204	-11.9615
▁blast	-11.9617
▁te	-11.9618
▁pyrolysis	-11.962
▁Derivatives	-11.9623
normal	-11.9623
buffered	-11.9624
▁Appropriate	-11.9624
007	-11.9625
▁370	-11.9626
▁singular	-11.9629
▁3.24	-11.9633
▁Products	-11.9638
▁4.63	-11.9643
rop	-11.9643
▁canine	-11.9644
▁algorithms	-11.9645
▁Super	-11.9645
▁pretreatment	-11.9646
▁anions	-11.9646
oxopropyl	-11.9648
▁malonate	-11.9649
oids	-11.9649
▁scan	-11.9651
▁Development	-11.9651
340	-11.9652
▁Reduction	-11.9652
ceph	-11.9653
leucine	-11.9653
-((4-	-11.9655
amb	-11.9656
▁extending	-11.9656
▁EI	-11.9657
▁match	-11.9657
▁Cyclo	-11.9658
▁274	-11.966
▁mid	-11.9661
fur	-11.9662
▁horseradish	-11.9667
▁indium	-11.9667
4,4,4-	-11.9669
formed	-11.967
▁western	-11.967
Ad	-11.9671
fluor	-11.9672
×150	-11.9672
▁8.36	-11.9672
configuration	-11.9673
▁collect	-11.9674
▁releasing	-11.9675
▁fen	-11.9676
▁0.76	-11.9676
▁Hydro	-11.9678
-5-(3-	-11.9682
▁RF	-11.9684
▁6.62	-11.9685
▁requirement	-11.9685
covalent	-11.9688
▁considerable	-11.9689
▁flank	-11.9691
▁DEAE	-11.9691
-2′	-11.9691
+1]	-11.9693
▁beige	-11.9693
▁pieces	-11.9695
guanine	-11.9695
DT	-11.9695
▁1/2	-11.9696
▁2-(1-	-11.9696
▁(0.35	-11.9697
=0.4	-11.9697
▁optimization	-11.9698
▁vanadium	-11.9698
▁BSUM	-11.9698
▁deuterated	-11.9699
▁attach	-11.97
▁exit	-11.9702
▁7.36-7.	-11.9703
▁262	-11.9705
▁1.71	-11.9706
olin	-11.9707
+);	-11.9708
pyrrolyl	-11.9709
▁ending	-11.971
▁stereo	-11.9711
▁255	-11.9711
MHC	-11.9712
globin	-11.9713
5'	-11.9713
▁exo	-11.9714
▁inch	-11.9715
OEt	-11.9716
▁Experiments	-11.9717
atable	-11.9717
▁Applicants	-11.9718
▁GPR	-11.972
▁proximal	-11.9721
▁psia	-11.9722
▁Agilent	-11.9724
▁tuberculosis	-11.973
▁Separation	-11.9734
▁4.45	-11.9735
▁assessing	-11.9737
▁butene	-11.9737
propionamide	-11.9739
nicotinic	-11.974
nm	-11.9742
final	-11.9743
glycosylation	-11.9747
▁Plasma	-11.9748
▁uterine	-11.9748
207	-11.975
▁BCMA	-11.9751
▁classical	-11.9752
▁expensive	-11.9753
fluoride	-11.9753
▁Comp	-11.9754
▁dys	-11.9757
BE	-11.9761
RV	-11.9761
coupled	-11.9763
▁8.31	-11.9765
▁somewhat	-11.9767
▁Hy	-11.9768
▁TRAIL	-11.9769
▁carbonic	-11.9769
Isopropyl	-11.9775
-0.5	-11.9775
▁mu	-11.9778
mercaptoethanol	-11.9779
paraformaldehyde	-11.9779
▁specificities	-11.9781
▁5.15	-11.9782
′′-	-11.9785
▁shifts	-11.9785
ethylhexyl	-11.9785
=12.0	-11.9788
▁his	-11.9789
]:	-11.9789
▁neomycin	-11.979
▁bisphenol	-11.9791
▁ICAM	-11.9791
▁Man	-11.9795
▁SEQUENCE	-11.9795
ISP	-11.9795
▁Polynucleotides	-11.9797
▁Ver	-11.9797
▁redox	-11.9797
▁exert	-11.9798
▁0.64	-11.9798
▁AcOEt	-11.9798
▁TGA	-11.9798
phthalimide	-11.9799
▁comparisons	-11.9799
▁situations	-11.9799
▁Chimeric	-11.9799
▁6.69	-11.98
▁suppressor	-11.9801
KL	-11.9801
▁Subsequent	-11.9806
=3.5	-11.9806
▁189	-11.9808
▁implant	-11.9809
cycl	-11.981
:4)	-11.981
▁Affinity	-11.981
206	-11.9811
▁neat	-11.9813
▁flux	-11.9813
▁cassettes	-11.9815
▁Xa	-11.9817
▁aging	-11.9817
▁Inhibitors	-11.9819
409	-11.9819
methylamine	-11.9821
—1_	-11.9821
▁aggregate	-11.9821
▁325	-11.9821
▁259	-11.9823
alen	-11.9824
▁(0.75	-11.9826
▁7.5,	-11.9826
▁MIC	-11.9827
▁probability	-11.9827
▁kaolin	-11.9827
GLP	-11.983
9%).	-11.9831
▁usable	-11.9832
▁history	-11.9832
▁4.59	-11.9833
-75	-11.9835
▁6.60	-11.9835
▁hydrated	-11.9836
▁2001,	-11.9837
head	-11.984
264	-11.984
ature	-11.984
▁Rat	-11.9842
(3,4,5-	-11.9842
▁methodologies	-11.9844
167	-11.9844
▁(4.6	-11.9846
▁accepted	-11.9848
1.25	-11.9848
▁(5.5	-11.9848
determining	-11.985
▁mismatch	-11.985
▁Domain	-11.9852
6′	-11.9853
▁contamination	-11.9855
▁address	-11.9856
▁paw	-11.9857
▁associate	-11.9857
equ	-11.9858
▁Hal	-11.986
▁knockout	-11.986
▁proportional	-11.9861
▁symbol	-11.9862
=9.5	-11.9862
7%).	-11.9863
dimethoxybenzyl	-11.9864
tant	-11.9865
=0.2	-11.9866
▁lamp	-11.9866
▁332	-11.9866
-[1-(	-11.9867
isomers	-11.9868
▁4-((	-11.9868
▁micrograms	-11.9869
biotin	-11.9869
▁199	-11.9871
nzyloxycarbonyl	-11.9871
▁azeotropic	-11.9873
▁MG	-11.9874
▁iridium	-11.9874
GAT	-11.9875
▁acetaldehyde	-11.9876
440	-11.9877
▁BM	-11.9878
▁therewith	-11.9879
▁recognizing	-11.9879
▁steroids	-11.9879
▁hemagglutinin	-11.9882
▁201	-11.9882
▁dihydrate	-11.9883
ions	-11.9883
▁abovementioned	-11.9883
▁0.81	-11.9884
▁13.5	-11.9885
-[2-(2-	-11.9886
ges	-11.9886
▁propanol	-11.9887
▁begins	-11.9887
238	-11.9888
nucleoside	-11.9891
ANG	-11.9891
isocyanate	-11.9891
▁malonic	-11.9894
▁castor	-11.9897
-39	-11.9897
▁hydrophobicity	-11.99
▁8.37	-11.9901
-48	-11.9903
=4.6	-11.9904
▁medicaments	-11.9905
▁5.05	-11.9906
molar	-11.9911
▁Yeast	-11.9911
▁272	-11.9912
34,	-11.9916
mine	-11.9916
=0.1	-11.9916
▁3.23	-11.9917
thymidine	-11.9917
▁99.5%	-11.9919
pyrano	-11.992
New	-11.992
ELISA	-11.9921
▁fluorenyl	-11.9921
▁stationary	-11.9921
hexenyl	-11.9921
▁nodes	-11.9921
steroidal	-11.9922
▁defects	-11.9924
-{3-	-11.9924
▁Crude	-11.9926
ATA	-11.9926
Fv	-11.9926
ses	-11.9927
▁6.66	-11.9931
▁219	-11.9931
▁apoptotic	-11.9932
cyclopent	-11.9933
1.70	-11.9934
typically	-11.9934
▁Activation	-11.9935
▁integrity	-11.9935
141	-11.9936
▁synthetically	-11.9937
▁Ultra	-11.9937
▁distinguished	-11.9939
▁path	-11.9939
▁cytomegalovirus	-11.994
▁twelve	-11.9944
Perkin	-11.9944
▁chlorides	-11.9945
▁competent	-11.9945
▁420	-11.9946
▁pet	-11.9949
▁glycidyl	-11.995
▁egg	-11.995
(3,3-	-11.9951
▁5,6-	-11.9952
▁um	-11.9954
309	-11.9957
▁amelioration	-11.9958
▁248	-11.9964
▁(3.4	-11.9964
▁lactam	-11.9965
stan	-11.9967
CCl	-11.9967
nonan	-11.9967
[1,3]	-11.9967
▁216	-11.9968
cur	-11.997
drying	-11.9972
▁Direct	-11.9973
▁6.63	-11.9975
174	-11.9976
EST	-11.9977
=3.2	-11.9977
8%).	-11.9978
▁bo	-11.998
▁3.26	-11.998
▁rounds	-11.998
▁nmol	-11.998
An	-11.9982
▁Oxford	-11.9982
▁ABC	-11.9983
+1]+.	-11.9985
sk	-11.9986
▁3.32	-11.9986
▁acetylation	-11.9987
▁8.39	-11.9988
266	-11.9988
sky	-11.9988
▁dichloroethane	-11.9991
▁0.63	-11.9991
XIV	-11.9991
▁judgment	-11.9992
phenanthroline	-11.9992
▁7.4,	-11.9993
La	-11.9993
Con	-11.9993
▁lipo	-11.9995
reducing	-11.9997
▁mimetics	-12
▁wave	-12.0001
[2-	-12.0004
228	-12.0008
▁developmental	-12.001
▁deduced	-12.0011
(7-	-12.0011
233	-12.0012
▁MeOD	-12.0014
isothiazol	-12.0015
163	-12.0015
▁characterised	-12.0015
GCG	-12.0016
▁245	-12.0017
▁meal	-12.0018
▁cognate	-12.002
uria	-12.0025
zol	-12.0025
▁cycloaliphatic	-12.0025
butylamine	-12.003
▁mmRNA	-12.0034
char	-12.0034
▁Siva	-12.0035
▁ribozymes	-12.0038
▁condensate	-12.0038
▁mRNAs	-12.0038
lit	-12.004
aki	-12.0043
lk	-12.0043
▁Full	-12.0043
oh	-12.0043
114	-12.0044
▁utilization	-12.0044
▁Elution	-12.0044
lay	-12.0045
pentyloxy	-12.0046
-4-[(	-12.0046
hexene	-12.0047
▁figure	-12.0049
▁Carlsbad	-12.0049
▁reasonable	-12.005
▁5.25	-12.005
▁VGAM	-12.0053
▁silk	-12.0053
reg	-12.0056
▁11:	-12.0056
IDE	-12.0056
▁alkanes	-12.0057
▁evacuated	-12.0058
▁nucleophile	-12.0058
−)	-12.0061
▁GE	-12.0062
▁dibutyl	-12.0063
factor	-12.0063
▁quantitatively	-12.0065
1.60	-12.0066
▁inverted	-12.0067
▁extensively	-12.0067
▁Software	-12.0068
▁Linker	-12.0071
▁trimer	-12.0071
▁8.34	-12.0074
▁serotype	-12.0076
▁CM	-12.0077
range	-12.0077
ket	-12.0078
▁Syn	-12.0079
butanediol	-12.0081
▁203	-12.0082
cyto	-12.0083
2.30	-12.0084
▁So	-12.0085
▁(0.19	-12.0086
evi	-12.0087
ode	-12.0087
SU	-12.0089
HRP	-12.0089
▁8.33	-12.009
CTLA	-12.0092
ational	-12.0094
▁Fraction	-12.0095
248	-12.0095
aro	-12.0095
-9,10-	-12.0096
▁Surface	-12.0096
CTC	-12.0097
▁(0.24	-12.0099
▁Rep	-12.01
-%	-12.0101
▁fluidized	-12.0101
saccharide	-12.0102
atin	-12.0103
▁REFERENCE	-12.0104
▁33,	-12.0106
▁4.29	-12.0109
▁cef	-12.0109
▁recycling	-12.0111
▁Lipid	-12.0111
pyrazino	-12.0114
▁94%	-12.0114
ylthio	-12.0114
stabil	-12.0115
onin	-12.0116
▁holes	-12.0117
▁mammary	-12.012
Hexane	-12.0121
▁reversible	-12.0122
▁ox	-12.0124
▁chloromethyl	-12.0126
▁referenced	-12.0127
regulation	-12.0129
▁191	-12.013
▁whereupon	-12.013
▁0.74	-12.013
▁consequence	-12.0133
[(2-	-12.0134
▁needs	-12.0139
▁limb	-12.0139
▁osteoarthritis	-12.0139
▁0.58	-12.0139
CHR	-12.014
produced	-12.014
▁furnish	-12.0141
▁ISIS	-12.0144
▁384	-12.0145
phthal	-12.0145
▁bleeding	-12.0145
system	-12.0146
▁concentrates	-12.0146
▁BALB	-12.0146
▁erythematosus	-12.0149
▁12.4	-12.015
neo	-12.0151
▁spontaneous	-12.0152
▁salicylate	-12.0154
▁4.54	-12.0157
▁photosensitive	-12.0163
▁273	-12.0163
ency	-12.0163
)-5,6,7,8-	-12.0164
▁leg	-12.0168
▁investigate	-12.017
1.90	-12.0177
▁retro	-12.0179
▁advance	-12.0179
▁0-3	-12.0179
under	-12.018
10%	-12.018
▁28%	-12.0181
▁Therapeutics	-12.0181
▁measurable	-12.0183
BOC	-12.0184
boiling	-12.0184
+].	-12.0186
▁assaying	-12.0191
▁Reagents	-12.0191
▁4.33	-12.0192
▁14:	-12.0193
85%	-12.0193
6%).	-12.0195
▁directing	-12.0195
cyt	-12.0196
decomp	-12.0196
propanediol	-12.0198
▁206	-12.0198
vari	-12.02
-13-	-12.02
▁12.8	-12.02
▁Free	-12.02
▁heptyl	-12.0201
-4-(5-	-12.0201
▁Streptococcus	-12.0202
▁Chloroform	-12.0203
unsaturated	-12.0204
▁6.55	-12.0207
▁XIV	-12.0207
960	-12.0209
▁8.48	-12.0209
glycyl	-12.0209
dent	-12.0209
▁van	-12.021
▁207	-12.0211
237	-12.0213
▁secrete	-12.0214
(7)	-12.0215
0.000	-12.0219
Mass	-12.0219
186	-12.022
▁denoted	-12.0221
▁robust	-12.0221
▁(1979)	-12.0222
▁thermally	-12.0222
▁Procedures	-12.0223
(1)	-12.0223
angiogenic	-12.0223
bit	-12.0224
gi	-12.0225
▁methacrylic	-12.0225
▁dielectric	-12.0227
lie	-12.0233
▁8.55	-12.0236
dry	-12.0237
▁know	-12.0237
=0.6	-12.0238
▁melted	-12.0238
gram	-12.0238
366	-12.024
ural	-12.0242
▁racemate	-12.0243
▁largely	-12.0244
▁specimens	-12.0246
▁iii	-12.0246
zy	-12.0248
▁Engineering	-12.025
▁11.2	-12.0251
▁xenograft	-12.0251
277	-12.0255
▁nozzle	-12.0255
▁interior	-12.0255
▁permeate	-12.0255
▁hydrogel	-12.0256
▁trehalose	-12.0256
176	-12.0256
recombinant	-12.0258
NRa	-12.0259
genesis	-12.0261
▁PB	-12.0262
▁evidenced	-12.0263
164	-12.0263
▁Amplification	-12.0265
1—	-12.0267
▁subtilis	-12.027
AX	-12.0272
hexanoate	-12.0272
methylpiperidine	-12.0273
▁(700	-12.0274
▁BC	-12.0275
▁cy	-12.0278
reactivity	-12.0278
▁PSA	-12.0279
▁messenger	-12.028
▁Extraction	-12.028
▁meso	-12.028
benzoxazin	-12.0281
▁296	-12.0284
▁industry	-12.0285
▁metallocene	-12.0285
▁overcome	-12.0285
▁slide	-12.0288
▁peri	-12.0288
Mn	-12.0289
▁carries	-12.029
▁productivity	-12.0291
▁Tetra	-12.0292
phthalic	-12.0297
▁methylthio	-12.03
/20	-12.03
▁plane	-12.0301
▁Van	-12.0303
▁Transgenic	-12.0304
▁Definitions	-12.0306
]-2	-12.0306
▁methoxycarbonyl	-12.0307
pyridylmethyl	-12.0307
▁4.55	-12.031
ries	-12.0312
indoline	-12.0312
▁actin	-12.0312
GTT	-12.0312
{4-[	-12.0317
▁CDC	-12.0318
▁1998	-12.0319
▁Fluorescence	-12.0319
▁1.81	-12.0319
▁375	-12.032
oper	-12.032
dimethylbutyl	-12.032
▁(3.3	-12.0322
▁1987,	-12.0323
▁codes	-12.0325
rr	-12.0326
essential	-12.0327
▁12.6	-12.0328
▁(2.9	-12.0328
▁adenoviral	-12.0329
through	-12.0331
▁endotoxin	-12.0331
phospha	-12.0331
▁HSP	-12.0332
▁specimen	-12.0333
▁angiotensin	-12.0333
299	-12.0336
▁heterocycles	-12.0337
▁WW	-12.0338
▁depletion	-12.0338
▁IPTG	-12.0338
146	-12.0339
▁superfamily	-12.0343
▁Het	-12.0344
alt	-12.0345
methylpyridine	-12.0346
▁202	-12.0347
▁PAR	-12.0349
▁0.73	-12.035
No	-12.0351
▁disk	-12.0352
▁coordination	-12.0353
strand	-12.0354
(6,7-	-12.0358
▁horse	-12.0358
▁(1977)	-12.0358
://	-12.036
trimethoxy	-12.036
uron	-12.036
▁faster	-12.0361
4-(	-12.0361
hydrocarbon	-12.0363
GCC	-12.0363
▁hGH	-12.0368
▁workup	-12.037
▁wishing	-12.0373
=1,	-12.0373
cyclohexylmethyl	-12.0375
fragment	-12.0376
▁nuclei	-12.0377
oul	-12.0378
phosphono	-12.0383
229	-12.0384
▁0-2	-12.0385
▁leukocyte	-12.0385
56,	-12.0387
▁considerably	-12.0387
▁diatomaceous	-12.0388
disubstituted	-12.0388
▁broadly	-12.0388
247	-12.0389
▁ultimately	-12.0389
▁PET	-12.039
▁3.34	-12.0393
▁infra	-12.0393
▁unstable	-12.0393
:22	-12.0395
guanidine	-12.0396
var	-12.0396
▁idiopathic	-12.0397
hip	-12.0397
fr	-12.0398
▁oxadiazolyl	-12.0399
▁killed	-12.0399
ova	-12.0402
▁exposing	-12.0402
▁serious	-12.0402
▁244	-12.0403
▁1:3	-12.0405
inol	-12.0406
1-6-	-12.0407
▁4.48	-12.0407
rick	-12.041
▁oxa	-12.041
▁formats	-12.0412
▁(3.1	-12.0417
▁formalin	-12.0418
▁thiourea	-12.0418
▁Positive	-12.042
▁tables	-12.0421
etrafluoroborate	-12.0421
cla	-12.0423
▁sublingual	-12.0424
(2′-	-12.0425
▁BA	-12.0426
ys	-12.0426
▁repeatedly	-12.0427
▁ddd	-12.0428
▁triethanolamine	-12.0428
▁glycolic	-12.043
1.28	-12.043
▁AUC	-12.0431
▁blunt	-12.0432
methylenedioxy	-12.0432
▁gasoline	-12.0433
▁Genetic	-12.0435
▁Alexa	-12.0436
▁glaucoma	-12.0437
▁4.95	-12.0438
39,	-12.0442
▁prostaglandin	-12.0442
▁5,000	-12.0445
▁paragraphs	-12.0446
▁pyrazine	-12.0446
uring	-12.0447
▁249	-12.0447
▁GB	-12.0448
▁APC	-12.0449
▁OCF	-12.0449
cyanoethyl	-12.045
▁minus	-12.0452
▁exp	-12.0454
▁sulfonates	-12.0455
×104	-12.0455
▁autologous	-12.0457
▁HI	-12.0457
Pd	-12.046
umab	-12.0461
▁contrary	-12.0462
▁cultivated	-12.0462
▁10.9	-12.0463
405	-12.0463
332	-12.0466
3,5-	-12.0468
ves	-12.047
223	-12.047
subject	-12.0471
▁cyclopentane	-12.0471
▁4.85	-12.0472
▁observations	-12.0473
▁Prism	-12.0477
0.25	-12.0477
(1,4-	-12.0478
▁modulated	-12.0481
0-3	-12.0481
▁diethylether	-12.0481
▁provision	-12.0482
-3-(1-	-12.0482
▁500°	-12.0483
▁6.64	-12.0483
▁virtually	-12.0487
▁Invest	-12.0489
470	-12.049
112	-12.0493
▁briefly	-12.0494
▁FOR	-12.0494
▁fats	-12.0495
430	-12.0495
surface	-12.0495
▁immersed	-12.0496
2.25	-12.0497
38,	-12.0498
▁85,	-12.05
▁1982	-12.05
glycero	-12.05
▁Liposomes	-12.0505
▁op	-12.0507
▁2006	-12.0507
Te	-12.0507
▁Preferable	-12.0511
▁Industries	-12.0511
LCMS	-12.0512
Carboxy	-12.0513
lis	-12.0514
▁situation	-12.0515
KR	-12.0515
octene	-12.0517
▁223	-12.0517
▁NCBI	-12.0518
▁constituting	-12.052
2/0	-12.0522
atory	-12.0522
▁218	-12.0523
1.20	-12.0524
TCA	-12.0525
ulated	-12.0529
243	-12.0531
sum	-12.0533
▁237	-12.0533
ffer	-12.0533
bro	-12.0536
-(8-	-12.0536
▁0.54	-12.0537
▁Ber	-12.0537
▁concomitant	-12.0538
therapy	-12.0539
dithio	-12.054
▁quantitated	-12.0541
▁infect	-12.0541
▁actually	-12.0543
▁ti	-12.0543
▁multimeric	-12.0544
coupling	-12.0546
linear	-12.0547
-11.	-12.0549
▁8.43	-12.0549
PY	-12.0551
▁0.0001	-12.0551
▁boiled	-12.0552
▁dehydro	-12.0554
650	-12.0556
▁8.44	-12.0557
0.88	-12.0558
▁proto	-12.0559
▁15.0	-12.056
▁3-(5-	-12.0562
ben	-12.0563
GGG	-12.0564
▁syntheses	-12.0566
▁halogens	-12.0566
▁alk	-12.0568
most	-12.0568
▁CONH	-12.0569
:35	-12.057
▁benzothiazolyl	-12.0571
unt	-12.0573
ann	-12.0574
275	-12.0574
▁molding	-12.0575
▁8.52	-12.0577
▁umol	-12.0578
▁generates	-12.058
249	-12.0583
▁absorb	-12.0583
7.25	-12.0583
▁6.50	-12.0584
▁8.60	-12.0585
360	-12.0586
glycosylated	-12.0586
▁centrifugal	-12.0586
NHCO	-12.0587
▁hapten	-12.0588
▁13.2	-12.0589
▁0.53	-12.0589
▁shaped	-12.0589
▁thiadiazolyl	-12.059
transformed	-12.0592
▁pA	-12.0592
▁grafted	-12.0592
▁8.42	-12.0593
55°	-12.0593
▁ethoxycarbonyl	-12.0596
har	-12.0598
▁brief	-12.0598
methylpiperazine	-12.06
ALL	-12.06
▁former	-12.06
-(4-(2-	-12.0601
▁fibrinogen	-12.0601
▁plasmon	-12.0601
×30	-12.0602
▁217	-12.0604
5-10	-12.0604
▁4.90	-12.0605
▁ethylacetate	-12.0605
▁mimetic	-12.0606
▁virtue	-12.0606
▁cetyl	-12.0608
▁octane	-12.0609
▁TP	-12.0609
▁Ge	-12.0611
▁Summary	-12.0612
▁max	-12.0612
IIIa	-12.0613
atur	-12.0614
▁4-(5-	-12.0615
pine	-12.0615
▁CAT	-12.0615
[(4-	-12.0617
▁Molecules	-12.0618
,6,6	-12.0619
▁228	-12.0619
▁Ox	-12.0621
▁HO	-12.0623
▁233	-12.0623
▁sorting	-12.0623
▁inherent	-12.0624
4%).	-12.0626
GlcNAc	-12.0627
▁intervention	-12.0627
GEN	-12.0627
▁Small	-12.0627
▁Gu	-12.0627
▁Opti	-12.0632
▁Zr	-12.0634
▁25%,	-12.0636
▁Adv	-12.0637
brain	-12.0638
▁39,	-12.0641
lat	-12.0641
(2,4,6-	-12.0641
▁excretion	-12.0642
UL	-12.0642
phe	-12.0643
▁pyrrolo	-12.0643
▁NHS	-12.0645
▁diaryl	-12.0645
▁286	-12.0646
151	-12.0647
indolin	-12.0647
▁Fragments	-12.0648
native	-12.0649
▁defect	-12.065
▁leukocytes	-12.0652
52,	-12.0654
-125	-12.0658
=10.0	-12.0659
▁(100%)	-12.0659
▁successive	-12.0659
1.38	-12.0659
oxan	-12.0666
▁span	-12.0668
▁1-[	-12.0669
▁4,4-	-12.0671
▁intraocular	-12.0672
▁oxazole	-12.0676
▁porcine	-12.0677
▁Properties	-12.0677
▁outcome	-12.0679
▁adeno	-12.0679
Id	-12.0682
oxygen	-12.0684
ethylsulfonyl	-12.0684
—;	-12.0685
▁0.57	-12.0685
[...]
