<unk>	0
<s>	0
</s>	0
,	-2.87345
.	-3.43917
▁the	-3.62568
▁of	-3.86701
▁and	-4.1623
-	-4.17362
▁(	-4.18937
▁a	-4.28698
)	-4.31436
▁to	-4.44105
▁	-4.45563
s	-4.51285
▁in	-4.53195
H	-4.70062
▁or	-4.82891
▁is	-4.93426
),	-4.97519
▁The	-5.0846
▁was	-5.08834
▁1	-5.17717
▁with	-5.2242
▁for	-5.25773
▁as	-5.31568
2	-5.3258
▁by	-5.41934
▁be	-5.46171
:	-5.59081
▁C	-5.59185
▁at	-5.63273
▁are	-5.66697
/	-5.68827
▁an	-5.68915
1	-5.69037
▁2	-5.73267
C	-5.75254
d	-5.75929
m	-5.77051
3	-5.77246
▁from	-5.86501
;	-5.87694
▁acid	-5.87964
▁In	-5.95395
e	-5.97017
g	-6.01987
▁that	-6.02394
▁R	-6.04271
4	-6.05352
).	-6.0622
(	-6.08103
yl	-6.09694
▁A	-6.13151
▁may	-6.16055
▁can	-6.17643
▁g	-6.1786
▁3	-6.18246
▁J	-6.19847
▁compound	-6.21741
▁which	-6.23658
a	-6.24457
▁were	-6.25982
▁invention	-6.28483
▁group	-6.28667
▁such	-6.29941
S	-6.3395
▁one	-6.38758
R	-6.39005
N	-6.3909
6	-6.40323
▁mixture	-6.41525
5	-6.42984
▁reaction	-6.43849
M	-6.4501
]	-6.47173
▁Hz	-6.47346
▁used	-6.47714
▁solution	-6.4847
▁H	-6.48816
ing	-6.49189
methyl	-6.50207
▁mg	-6.50888
O	-6.51707
▁4	-6.51879
▁mmol	-6.52149
▁N	-6.53325
▁mL	-6.56638
▁5	-6.58825
▁m	-6.59841
▁about	-6.61362
or	-6.64215
▁added	-6.65231
▁Example	-6.68198
▁example	-6.68855
▁present	-6.68967
▁on	-6.69585
t	-6.70259
ed	-6.71602
7	-6.72417
▁(1	-6.76181
▁cells	-6.77278
-2-	-6.77355
8	-6.79314
▁sequence	-6.81174
▁more	-6.82312
A	-6.82362
▁using	-6.82367
▁described	-6.83826
b	-6.84983
▁amino	-6.86147
9	-6.89975
▁compounds	-6.90527
▁10	-6.91328
-1	-6.92494
▁not	-6.93183
”	-6.93555
▁6	-6.94102
c	-6.94445
▁temperature	-6.9476
▁M	-6.95438
▁B	-6.95636
▁ml	-6.9621
▁“	-6.97267
▁include	-6.98136
▁embodiments	-6.98844
▁cell	-6.99057
▁S	-7.00136
▁water	-7.01536
in	-7.02279
▁then	-7.02872
L	-7.03487
▁herein	-7.03499
i	-7.03659
phenyl	-7.05322
▁protein	-7.05716
ly	-7.05761
▁other	-7.06549
B	-7.07069
▁antibody	-7.07214
0	-7.08415
▁least	-7.08823
p	-7.09273
▁p	-7.09452
▁under	-7.10273
▁formula	-7.10449
▁also	-7.11097
▁alkyl	-7.11848
▁s	-7.12217
▁T	-7.13041
▁(2	-7.13122
I	-7.13546
▁this	-7.13979
▁ID	-7.14501
-4-	-7.15036
)-	-7.15727
l	-7.16184
▁embodiment	-7.16487
n	-7.16891
CH	-7.16907
o	-7.17816
▁—	-7.17823
D	-7.1832
amino	-7.19534
▁wherein	-7.19972
-3-	-7.20916
F	-7.20941
▁NO	-7.21881
-1-	-7.22587
▁substituted	-7.23156
▁al	-7.2326
▁stirred	-7.2348
);	-7.23541
▁above	-7.2415
▁into	-7.24215
+	-7.24713
▁preferably	-7.26046
▁I	-7.2649
▁product	-7.26971
ic	-7.27514
▁et	-7.27974
▁D	-7.29248
▁each	-7.30006
▁obtained	-7.30064
▁e	-7.30816
▁method	-7.32001
▁L	-7.32456
al	-7.33409
▁having	-7.34792
▁any	-7.35915
▁P	-7.36982
y	-7.37549
▁d	-7.3817
▁sodium	-7.3841
▁solid	-7.38701
P	-7.38893
z	-7.39152
▁F	-7.39376
▁thereof	-7.39548
▁prepared	-7.40156
▁20	-7.41033
▁organic	-7.42024
▁ethyl	-7.42995
▁μ	-7.43583
▁some	-7.44075
▁hours	-7.44436
▁selected	-7.45063
▁form	-7.45142
ethyl	-7.45603
T	-7.46394
▁E	-7.46681
r	-7.46749
▁it	-7.47443
er	-7.48031
▁than	-7.48558
1-	-7.48597
▁h	-7.49234
▁have	-7.49906
▁dried	-7.51165
▁[	-7.51272
▁solvent	-7.51584
▁2-	-7.51661
▁washed	-7.52293
▁SEQ	-7.52433
▁over	-7.52494
▁binding	-7.53053
▁but	-7.53371
▁containing	-7.53707
G	-7.5384
E	-7.54053
▁acetate	-7.54295
▁residue	-7.54369
▁has	-7.55157
▁NMR	-7.55606
▁DNA	-7.56812
▁according	-7.56904
▁concentrated	-7.5707
▁two	-7.57191
▁For	-7.57331
▁hydrogen	-7.57405
▁G	-7.57531
▁δ	-7.57619
▁comprising	-7.58206
-2	-7.59024
▁groups	-7.59854
▁further	-7.59907
▁human	-7.60236
▁carbon	-7.60376
▁following	-7.60686
▁non	-7.61049
▁room	-7.61341
▁15	-7.61994
▁(3	-7.62083
▁To	-7.62312
3,	-7.62756
'	-7.62949
▁known	-7.63136
di	-7.63684
10	-7.64035
▁purified	-7.64704
butyl	-7.65211
▁30	-7.66335
▁expression	-7.6636
▁anti	-7.66479
2,	-7.67557
▁activity	-7.68019
▁aqueous	-7.68143
▁another	-7.68213
▁7	-7.6834
alkyl	-7.68408
▁antibodies	-7.68428
▁methods	-7.68548
▁X	-7.68804
ol	-7.6907
▁polypeptide	-7.69185
▁amount	-7.70141
▁gene	-7.71121
▁same	-7.71172
ation	-7.71207
▁After	-7.71424
▁min	-7.72651
one	-7.72871
▁chloride	-7.73791
▁di	-7.74091
▁art	-7.74225
▁sequences	-7.74667
V	-7.74681
en	-7.74747
▁pressure	-7.74916
▁-	-7.74956
▁acids	-7.75741
▁column	-7.75866
▁composition	-7.76731
▁use	-7.76964
▁methyl	-7.77259
▁MHz	-7.77312
▁This	-7.77518
▁nucleic	-7.7761
-5-	-7.77705
▁addition	-7.77968
▁8	-7.77973
▁chain	-7.78872
▁chromatography	-7.79773
▁between	-7.79867
K	-7.79977
▁salt	-7.79984
▁give	-7.80284
▁will	-7.80514
▁12	-7.80663
chloro	-7.80699
▁100	-7.81576
▁agent	-7.82003
▁K	-7.82116
▁O	-7.82586
):	-7.82741
▁treatment	-7.83594
▁atoms	-7.8366
▁well	-7.8376
▁process	-7.84464
es	-7.84615
▁yield	-7.84892
▁n	-7.85588
hydroxy	-7.85619
▁t	-7.85664
ate	-7.85806
▁minutes	-7.85862
▁those	-7.85903
▁layer	-7.8662
▁4-	-7.87077
f	-7.87394
▁weight	-7.87637
▁50	-7.87911
▁preferred	-7.88048
▁peptide	-7.88198
▁including	-7.8836
20	-7.8881
▁filtered	-7.89357
▁been	-7.89397
▁these	-7.89708
▁shown	-7.90112
▁title	-7.90131
▁As	-7.90256
▁optionally	-7.904
▁reduced	-7.90567
▁PA	-7.9064
3)	-7.91361
▁like	-7.9151
▁No	-7.91548
▁16	-7.91774
▁suitable	-7.92141
amine	-7.92246
▁agents	-7.92436
▁PAC	-7.92963
▁term	-7.93455
▁CH	-7.93972
▁resulting	-7.94237
▁re	-7.94281
—	-7.9455
an	-7.94574
oxy	-7.94659
ene	-7.95484
▁gel	-7.9582
▁active	-7.95938
X	-7.96311
▁Formula	-7.9667
▁U	-7.96845
1,	-7.96856
ar	-7.96992
▁after	-7.97096
▁conditions	-7.9729
50	-7.97912
▁comprises	-7.98156
on	-7.98354
▁material	-7.98931
▁per	-8.00256
▁9	-8.0031
▁catalyst	-8.00393
methoxy	-8.00412
v	-8.00876
-7	-8.01146
h	-8.01324
▁3-	-8.01455
▁when	-8.02159
▁Compound	-8.0237
▁step	-8.02459
▁ether	-8.02693
"	-8.02752
fluoro	-8.0312
▁13	-8.03431
[	-8.03503
▁cancer	-8.03966
▁region	-8.04254
▁dissolved	-8.04574
▁limited	-8.04766
▁specific	-8.0489
▁ring	-8.05034
11	-8.05286
▁oil	-8.05354
▁ester	-8.05856
▁disease	-8.06111
▁through	-8.0635
▁all	-8.06799
▁first	-8.06912
u	-8.07256
▁time	-8.07443
▁out	-8.07472
▁certain	-8.07634
12	-8.07673
=	-8.07745
▁proteins	-8.0779
▁molecule	-8.08195
dimethyl	-8.08584
▁administration	-8.08871
4,	-8.09509
▁Examples	-8.09863
oxo	-8.10076
ated	-8.10278
▁EXAMPLE	-8.10307
▁MS	-8.10498
▁phase	-8.10834
▁particular	-8.10899
▁light	-8.11716
▁extracted	-8.11744
Cl	-8.12318
▁concentration	-8.12481
▁aryl	-8.12734
▁pH	-8.12816
▁presence	-8.12861
dd	-8.13644
30	-8.13807
▁silica	-8.13853
=1	-8.13905
▁mM	-8.14152
▁"	-8.14726
▁CD	-8.14875
▁antigen	-8.15146
▁Step	-8.15877
▁different	-8.15964
▁compositions	-8.16146
ine	-8.16459
Y	-8.16548
dihydro	-8.1733
▁liquid	-8.17411
▁where	-8.17453
▁It	-8.17535
▁poly	-8.18093
▁provided	-8.18096
▁desired	-8.18223
2-	-8.18314
▁atom	-8.18378
▁its	-8.18742
▁high	-8.19174
▁system	-8.19276
▁treated	-8.19775
▁said	-8.19884
▁acceptable	-8.19905
▁administered	-8.20753
tri	-8.20994
▁14	-8.21656
▁combined	-8.21663
▁domain	-8.22122
▁5-	-8.22201
▁defined	-8.22464
pyridin	-8.22902
▁removed	-8.23167
el	-8.23287
▁0.1	-8.23451
▁target	-8.23557
w	-8.23874
us	-8.23946
x	-8.24197
▁less	-8.24385
▁receptor	-8.2528
▁refers	-8.25641
▁second	-8.26065
as	-8.26209
14	-8.2633
▁nitrogen	-8.26367
▁consisting	-8.26532
▁pharmaceutical	-8.26832
▁within	-8.26849
propyl	-8.27019
▁single	-8.27174
et	-8.27206
13	-8.2726
▁0	-8.27572
MS	-8.27575
▁followed	-8.27614
▁independently	-8.27761
▁subject	-8.2823
-3	-8.28352
▁number	-8.2839
6)	-8.28724
3-	-8.2884
at	-8.28925
▁(5	-8.28948
▁below	-8.28964
re	-8.2923
17	-8.29276
▁8.	-8.29533
▁metal	-8.29778
18	-8.2994
▁methanol	-8.30078
▁lower	-8.30082
▁found	-8.30092
15	-8.30468
▁both	-8.307
(1	-8.30916
▁W	-8.30973
40	-8.30977
▁procedure	-8.31572
▁tri	-8.31606
▁control	-8.31619
%)	-8.32078
▁25	-8.3224
▁17	-8.32276
▁Table	-8.32285
▁general	-8.32392
▁V	-8.32398
6-	-8.32399
▁18	-8.32892
▁their	-8.3302
▁Preparation	-8.33122
▁cooled	-8.33557
▁0.5	-8.34249
▁c	-8.34362
um	-8.34708
k	-8.34789
it	-8.35048
▁salts	-8.35179
▁includes	-8.35187
▁combination	-8.35445
▁de	-8.35703
25	-8.35834
▁three	-8.35941
)-2-	-8.36025
16	-8.36108
U	-8.36116
▁base	-8.3616
▁1-	-8.36292
▁no	-8.36715
▁fragment	-8.37035
pharmaceutically	-8.37246
▁molecules	-8.37274
▁heated	-8.37279
ase	-8.37374
▁saturated	-8.37406
-6-	-8.37458
SEQ	-8.37588
▁provides	-8.3781
-4	-8.37937
▁sample	-8.38301
▁sulfate	-8.3841
▁crude	-8.38707
▁24	-8.38799
▁=	-8.38857
▁range	-8.3896
▁examples	-8.39
▁An	-8.39067
▁results	-8.40014
▁structure	-8.40193
▁Y	-8.40762
▁--	-8.40889
▁comprise	-8.40987
▁reference	-8.41207
19	-8.4182
▁40	-8.41855
]-	-8.42013
▁without	-8.422
br	-8.42394
▁vector	-8.42638
SO	-8.42767
▁useful	-8.42892
▁mol	-8.42915
▁means	-8.43001
▁performed	-8.43007
▁carried	-8.43169
th	-8.43276
▁##	-8.43535
▁phenyl	-8.43589
▁determined	-8.43834
▁(4	-8.43867
▁(10	-8.4387
▁being	-8.43876
▁encoding	-8.4424
▁buffer	-8.44546
-(	-8.44704
▁RNA	-8.44878
▁assay	-8.45797
▁either	-8.46969
-5	-8.47187
▁medium	-8.47242
60	-8.4728
▁evaporated	-8.47757
▁provide	-8.47809
▁produced	-8.47829
▁isolated	-8.48244
▁manner	-8.4854
▁similar	-8.4871
2)	-8.48949
▁various	-8.49071
▁11	-8.49093
5,	-8.49361
bromo	-8.49509
▁effective	-8.49671
▁unsubstituted	-8.50003
▁analysis	-8.50066
▁host	-8.50117
▁preparation	-8.51019
▁IL	-8.51442
▁These	-8.51543
▁f	-8.51544
▁therapeutic	-8.51894
▁test	-8.51902
STR	-8.5218
ml	-8.52232
▁white	-8.52253
carbonyl	-8.523
▁corresponding	-8.52301
▁surface	-8.527
il	-8.52744
NMR	-8.52804
ur	-8.52918
thio	-8.53094
II	-8.53176
▁contain	-8.53186
▁Z	-8.53192
carboxylic	-8.53204
W	-8.5348
▁i	-8.53529
▁1.5	-8.5353
:1	-8.53922
▁diluted	-8.54331
▁b	-8.54393
▁obtain	-8.54408
}	-8.54612
ion	-8.54676
CO	-8.55398
▁residues	-8.55431
▁aspect	-8.55467
7-	-8.55954
NH	-8.56198
▁disclosed	-8.56293
▁tumor	-8.57077
ul	-8.57163
▁(400	-8.57278
4-	-8.57469
▁so	-8.57755
▁nucleotide	-8.57764
le	-8.58187
benzyl	-8.58323
▁site	-8.58498
▁co	-8.5857
▁ethanol	-8.5859
▁halogen	-8.58702
▁%	-8.58715
6,	-8.5872
▁type	-8.58976
%	-8.59336
-3.	-8.59489
ter	-8.59838
▁stirring	-8.60086
90	-8.60254
▁up	-8.60304
28	-8.60334
able	-8.60406
▁pre	-8.60488
to	-8.60697
▁complex	-8.60808
▁Pat	-8.60919
carboxylate	-8.61293
pyridine	-8.61324
▁appropriate	-8.61504
▁recombinant	-8.6163
▁only	-8.6191
▁ppm	-8.62105
▁fragments	-8.62163
▁afford	-8.62253
Z	-8.62408
▁synthesis	-8.62441
▁represented	-8.62451
▁anhydrous	-8.62749
▁particularly	-8.62794
NR	-8.63128
▁19	-8.63458
▁II	-8.63533
▁DMSO	-8.63613
tetrahydro	-8.638
▁separated	-8.63817
▁Such	-8.6393
▁portion	-8.63976
▁0°	-8.64112
-6	-8.64573
▁additional	-8.64623
tert	-8.64644
ized	-8.65029
▁tert	-8.65116
▁modified	-8.65183
▁Synthesis	-8.65234
▁set	-8.6526
▁tissue	-8.65459
▁dose	-8.65526
▁hour	-8.65558
▁etc	-8.65674
▁vacuo	-8.65675
ity	-8.65677
trifluoromethyl	-8.65701
α	-8.6602
35	-8.66397
▁growth	-8.66572
▁alcohol	-8.66618
▁fusion	-8.66884
ive	-8.66893
5-	-8.66898
▁ratio	-8.6711
▁heteroaryl	-8.67287
▁carbonate	-8.67303
▁yellow	-8.67362
id	-8.67711
▁brine	-8.67836
▁aromatic	-8.67872
70	-8.68117
▁alkoxy	-8.68287
▁gas	-8.6835
▁effect	-8.68391
▁overnight	-8.68396
▁position	-8.68581
▁production	-8.68617
▁mice	-8.68682
ide	-8.68684
▁dichloromethane	-8.68881
▁HPLC	-8.69329
▁if	-8.69695
▁represents	-8.69829
▁starting	-8.69854
▁60	-8.69957
J	-8.70098
▁via	-8.70113
▁un	-8.70207
21	-8.70327
27	-8.70393
▁formed	-8.70623
ethoxy	-8.70645
)-1	-8.7067
▁forms	-8.7076
24	-8.70774
80	-8.711
▁polypeptides	-8.71234
8-	-8.71357
▁1.0	-8.71597
▁potassium	-8.71602
▁EtOAc	-8.71607
▁mono	-8.71663
▁Na	-8.72677
min	-8.72813
ia	-8.72996
▁times	-8.73268
▁employed	-8.73353
▁THF	-8.73803
OH	-8.73896
▁based	-8.741
▁rate	-8.74102
▁0.2	-8.74173
▁most	-8.74339
▁NUM	-8.74386
)-3-	-8.74411
ac	-8.74543
▁200	-8.74589
▁Thus	-8.74807
▁moiety	-8.74899
Q	-8.75113
38	-8.75185
ium	-8.75309
▁standard	-8.75385
▁generally	-8.75535
alpha	-8.75706
amide	-8.7584
26	-8.75865
▁reactor	-8.75901
1-6	-8.75933
▁days	-8.75958
▁hydroxide	-8.75971
is	-8.76055
▁variable	-8.76056
▁derivatives	-8.76101
CD	-8.7616
kg	-8.76164
▁derived	-8.7629
▁incorporated	-8.76391
29	-8.76477
CDCl	-8.76488
▁cycloalkyl	-8.7649
▁purification	-8.76525
▁heavy	-8.76526
▁molecular	-8.76551
7,	-8.76588
▁made	-8.76692
▁2.5	-8.77139
▁(20	-8.77429
▁patient	-8.77906
▁pro	-8.78124
▁claim	-8.78293
▁10%	-8.78339
▁peptides	-8.78389
un	-8.78536
▁materials	-8.78811
co	-8.789
ating	-8.78971
▁part	-8.79215
▁suspension	-8.79418
▁CDCl	-8.79716
▁free	-8.79811
8,	-8.7982
▁total	-8.79859
▁oligonucleotide	-8.79935
▁there	-8.80193
▁vacuum	-8.80327
▁disclosure	-8.80397
▁chemical	-8.80544
▁low	-8.80947
st	-8.80956
▁off	-8.81052
▁dosage	-8.81122
OR	-8.81321
▁mixed	-8.81415
▁When	-8.81545
▁measured	-8.8165
ESI	-8.82265
▁techniques	-8.82366
▁compared	-8.82391
▁derivative	-8.82392
▁virus	-8.82857
▁culture	-8.82912
▁promoter	-8.83283
▁6-	-8.83418
5°	-8.83475
ant	-8.84081
▁expressed	-8.84138
▁(100	-8.84269
000	-8.84272
▁case	-8.84354
▁response	-8.84364
▁nm	-8.84471
▁blood	-8.84564
−	-8.84576
▁Re	-8.84666
ally	-8.84779
45	-8.84929
▁substituents	-8.84956
▁respectively	-8.85079
▁enzyme	-8.85079
▁hydrochloride	-8.8513
ro	-8.85241
00	-8.8527
▁level	-8.86396
▁levels	-8.86432
▁PCR	-8.86502
▁drug	-8.86578
22	-8.86715
▁collected	-8.8699
▁magnesium	-8.8726
benzo	-8.87399
▁available	-8.87424
▁order	-8.87561
▁carrier	-8.87869
▁against	-8.87967
▁volume	-8.8814
▁iso	-8.88627
▁products	-8.88652
▁produce	-8.88778
sulfonyl	-8.89001
▁flow	-8.89042
phenoxy	-8.89107
▁functional	-8.89284
9-	-8.89331
▁regions	-8.89495
▁associated	-8.8959
▁end	-8.89604
23	-8.89699
▁specifically	-8.89703
▁they	-8.90191
▁thus	-8.90391
te	-8.90457
▁while	-8.90591
▁skilled	-8.90639
▁together	-8.90735
ex	-8.90918
▁(50	-8.91031
)-4-	-8.91661
▁mass	-8.91808
▁genes	-8.9196
▁condition	-8.91984
▁(6	-8.92013
▁oxygen	-8.92096
q	-8.92104
39	-8.92105
▁toluene	-8.92115
37	-8.92303
ment	-8.92313
▁mm	-8.92365
▁allowed	-8.92909
pyrimidin	-8.92976
ir	-8.93198
▁bond	-8.9321
(2	-8.93229
▁cDNA	-8.93245
ap	-8.9359
see	-8.93969
▁HCl	-8.94027
▁line	-8.94038
im	-8.94049
ab	-8.94392
ra	-8.94679
▁stream	-8.94695
75	-8.94977
ization	-8.94998
▁contains	-8.95012
bis	-8.95068
▁WO	-8.9523
▁2.0	-8.95278
▁data	-8.95308
▁polymer	-8.9534
▁length	-8.95403
×	-8.95512
▁during	-8.9562
▁polynucleotide	-8.9564
▁greater	-8.95809
▁ligand	-8.95915
▁plant	-8.95916
▁point	-8.95961
▁hydroxy	-8.96018
▁amine	-8.96081
34	-8.96193
33	-8.96228
▁filtrate	-8.96332
ent	-8.96676
36	-8.96796
▁signal	-8.96824
beta	-8.96867
9,	-8.97109
▁function	-8.97288
▁treating	-8.9729
▁filtration	-8.97373
▁ice	-8.97394
▁phosphate	-8.97399
▁identified	-8.97405
▁period	-8.97424
▁typically	-8.97467
ite	-8.97598
▁conventional	-8.97667
▁dropwise	-8.98037
▁IgG	-8.98148
________________	-8.9821
-7-	-8.98568
▁_______________	-8.98843
▁result	-8.99151
▁NH	-8.99211
acetyl	-8.99338
▁Fc	-8.99355
▁affinity	-8.99549
▁powder	-8.99836
▁higher	-9.00521
▁application	-9.00596
▁incubated	-9.00753
▁cm	-9.0076
▁synthesized	-9.00881
▁dry	-9.0115
▁given	-9.01152
▁small	-9.01185
ri	-9.01214
48	-9.01288
▁21	-9.01425
substituted	-9.01437
▁Ar	-9.0152
▁substrate	-9.01762
▁animal	-9.01852
▁v	-9.02191
▁diseases	-9.02277
de	-9.0243
benzene	-9.02448
ous	-9.02509
ut	-9.02533
49	-9.02561
▁increase	-9.02663
▁value	-9.02686
pro	-9.03084
▁r	-9.03194
▁Q	-9.03515
▁35	-9.0356
▁formation	-9.03703
▁unit	-9.04064
Hz	-9.04077
age	-9.04195
▁glycol	-9.04304
TM	-9.04326
▁biological	-9.04356
▁micro	-9.04359
▁0.3	-9.04677
▁22	-9.04731
▁acetic	-9.04825
▁trans	-9.04876
▁samples	-9.05086
)-1-	-9.05162
▁synthetic	-9.05196
▁alkenyl	-9.05272
AP	-9.05363
65	-9.05366
▁vectors	-9.05479
▁tetrahydrofuran	-9.05576
▁percent	-9.05576
31	-9.05629
▁observed	-9.05661
▁bind	-9.05726
95	-9.05825
▁serum	-9.05829
▁attached	-9.05895
▁500	-9.05976
▁increased	-9.06223
containing	-9.06229
▁indicated	-9.06247
▁substantially	-9.06305
▁injection	-9.06483
▁inhibitors	-9.06485
▁hydrocarbon	-9.06581
▁DMF	-9.06611
▁size	-9.06726
▁capable	-9.06872
▁DCM	-9.06945
ose	-9.06958
ch	-9.06972
nitro	-9.07035
▁intermediate	-9.07272
▁substituent	-9.07372
▁membrane	-9.0747
mer	-9.07481
▁relates	-9.07837
▁immune	-9.07858
▁before	-9.07922
▁flask	-9.08072
specific	-9.08131
carboxamide	-9.08192
per	-9.08201
0.0	-9.08216
▁reflux	-9.08357
▁inhibitor	-9.08448
47	-9.08463
▁day	-9.0887
li	-9.09079
▁side	-9.0917
▁properties	-9.09301
▁mouse	-9.09357
▁LC	-9.09392
4)	-9.09594
▁con	-9.09821
▁ammonium	-9.09886
32	-9.10083
▁components	-9.10331
▁solvents	-9.10454
for	-9.10473
em	-9.10546
binding	-9.11342
▁acetonitrile	-9.11367
▁upon	-9.11467
DMSO	-9.11638
▁eq	-9.11656
▁CDR	-9.11871
▁assays	-9.11982
▁(300	-9.12025
▁disorder	-9.1257
68	-9.12597
lo	-9.12746
0%	-9.12934
aryl	-9.13002
▁26	-9.13002
piperidin	-9.13177
-(3-	-9.13249
▁28	-9.13259
▁Chem	-9.13578
▁5%	-9.13852
ne	-9.13899
▁prior	-9.14039
-10	-9.14367
▁oxide	-9.14535
46	-9.14565
▁diethyl	-9.14642
85	-9.14764
▁linked	-9.14798
▁species	-9.14847
▁had	-9.14877
▁ex	-9.15081
▁w	-9.15251
▁3.0	-9.15282
▁relative	-9.15556
▁α	-9.15703
99	-9.15871
▁component	-9.15926
▁resin	-9.15929
▁possible	-9.16136
▁Alternatively	-9.16265
▁should	-9.1668
up	-9.16738
)-5-	-9.16744
1-4	-9.16768
la	-9.16795
▁However	-9.16967
est	-9.16989
▁wt	-9.17004
▁23	-9.17055
▁vivo	-9.17071
▁mRNA	-9.17079
▁Cl	-9.17091
5%	-9.17113
▁four	-9.17226
con	-9.17389
▁PAL	-9.17479
▁reacted	-9.1757
▁constant	-9.17591
▁80	-9.17681
▁monoclonal	-9.17745
▁individual	-9.17769
▁50%	-9.17783
▁29	-9.17817
▁variety	-9.17928
▁introduced	-9.17935
▁CO	-9.17984
▁LCMS	-9.18078
▁directly	-9.18093
mu	-9.18184
′	-9.18184
_______	-9.18268
▁approximately	-9.18364
▁taken	-9.18495
55	-9.18495
▁final	-9.18756
and	-9.18771
▁0.4	-9.18815
os	-9.18863
ry	-9.18887
ub	-9.19299
44	-9.19557
▁l	-9.19621
III	-9.19799
▁factor	-9.19941
▁atmosphere	-9.2012
tic	-9.20193
▁bound	-9.2035
▁formulation	-9.20359
mL	-9.20411
▁ion	-9.20447
▁plasmid	-9.2056
▁normal	-9.20633
-(2-	-9.20647
▁methylene	-9.20655
▁300	-9.20659
▁would	-9.20764
78	-9.20859
▁ability	-9.21025
▁body	-9.21085
▁45	-9.21093
▁sites	-9.21131
▁layers	-9.21152
▁8.0	-9.21159
delta	-9.21301
▁48	-9.21371
▁PRO	-9.2148
▁hydrochloric	-9.21705
▁nucleotides	-9.21714
▁plate	-9.21768
pyrazol	-9.21795
▁fraction	-9.21823
▁procedures	-9.21884
▁animals	-9.21975
▁MeOH	-9.22048
▁disorders	-9.22065
▁intended	-9.22102
▁27	-9.22131
lu	-9.22162
▁90	-9.22331
▁branched	-9.22385
▁RT	-9.22401
▁mole	-9.22437
▁Preferably	-9.22514
57	-9.22646
▁variant	-9.22696
the	-9.231
▁Co	-9.23152
▁identity	-9.2323
▁do	-9.23287
ance	-9.23407
▁until	-9.23459
▁1.8	-9.23494
acetic	-9.23505
88	-9.23903
▁III	-9.24459
▁(0.1	-9.24794
98	-9.24873
67	-9.24924
▁150	-9.24997
-(4-	-9.25051
▁identical	-9.25295
▁otherwise	-9.255
▁parts	-9.25571
cyclohexyl	-9.25577
▁sub	-9.2569
ES	-9.25881
]+	-9.25886
tin	-9.26028
79	-9.26078
▁tested	-9.26116
uc	-9.26153
hexane	-9.26157
▁calcium	-9.26189
▁1.6	-9.26229
type	-9.26237
▁effects	-9.26282
CF	-9.26332
▁Other	-9.26489
▁Compounds	-9.26637
▁hydroxyl	-9.27017
▁calculated	-9.27092
59	-9.27139
69	-9.27171
▁content	-9.27207
▁required	-9.2742
he	-9.27476
▁inhibition	-9.27518
▁0.6	-9.27535
ot	-9.27537
▁3.5	-9.27557
77	-9.27598
bi	-9.27673
▁radical	-9.27679
mol	-9.27754
▁Cell	-9.27915
ill	-9.28059
ting	-9.28069
▁immunoglobulin	-9.28434
▁benzyl	-9.28439
▁2.8	-9.28466
96	-9.28645
▁support	-9.28723
▁One	-9.28813
▁esters	-9.2882
▁steps	-9.2887
▁concentrations	-9.28936
▁multiple	-9.29005
▁70	-9.29119
▁way	-9.29153
▁several	-9.29219
▁double	-9.29291
▁(1)	-9.29388
IV	-9.2955
58	-9.29559
76	-9.29714
terminal	-9.29935
iso	-9.30096
(3	-9.30122
▁shows	-9.30202
▁media	-9.30225
enyl	-9.30251
▁domains	-9.30279
▁referred	-9.30388
▁complete	-9.30445
▁feed	-9.30456
89	-9.30772
oid	-9.3088
▁values	-9.30962
▁precipitate	-9.31042
▁therapy	-9.31062
▁filter	-9.31074
▁does	-9.31205
▁positive	-9.31241
▁4.0	-9.31471
▁Suitable	-9.31477
ta	-9.31545
▁All	-9.3163
cyano	-9.31702
▁400	-9.31772
▁primary	-9.32169
▁linker	-9.32205
▁4.5	-9.32209
▁32	-9.32243
▁terms	-9.3232
▁halo	-9.32449
87	-9.32465
▁nM	-9.32479
ical	-9.32502
CN	-9.32524
▁reduction	-9.32539
▁binds	-9.32598
▁x	-9.32736
01	-9.32745
▁1.2	-9.32756
_	-9.3276
▁100%	-9.33066
▁interest	-9.33079
▁cooling	-9.33108
▁vitro	-9.33152
▁probe	-9.33311
▁subjected	-9.33342
66	-9.33483
▁1.7	-9.3373
▁solutions	-9.33823
▁reagent	-9.3389
▁tetra	-9.33904
ph	-9.33938
▁flash	-9.34206
▁variants	-9.34306
▁accordance	-9.34349
▁release	-9.34464
▁scope	-9.34675
▁pure	-9.34731
▁except	-9.34773
56	-9.34776
▁heterocyclic	-9.34782
yloxy	-9.34805
▁understood	-9.34806
gen	-9.34862
▁could	-9.35354
▁De	-9.35364
▁immuno	-9.35637
▁mixtures	-9.35694
▁applied	-9.35703
▁forth	-9.35895
▁dd	-9.35907
▁1.1	-9.3592
▁0.8	-9.35946
▁coding	-9.36193
▁Pro	-9.36231
pyrimidine	-9.36285
ox	-9.36329
▁placed	-9.36443
▁chloroform	-9.36483
▁separation	-9.36484
▁0.9	-9.36533
imidazol	-9.36537
▁included	-9.36548
▁Further	-9.36703
▁large	-9.36888
▁formulations	-9.37019
▁Intermediate	-9.37217
form	-9.37246
difluoro	-9.37268
▁determine	-9.37302
▁2.7	-9.37361
dichloro	-9.37404
▁purity	-9.37527
▁systems	-9.37549
▁dimethyl	-9.37572
-1,3-	-9.3768
▁dis	-9.37851
▁conversion	-9.37898
▁previously	-9.37933
▁crystal	-9.37939
well	-9.38017
cyclo	-9.38039
100	-9.38172
pyrrolo	-9.38184
▁2.4	-9.3825
▁ingredient	-9.38339
fluorophenyl	-9.38342
▁hexane	-9.38354
▁follows	-9.38572
▁5.0	-9.38589
▁33	-9.38739
▁state	-9.38743
▁Methods	-9.38872
▁long	-9.38881
▁(200	-9.38882
ted	-9.39073
▁skill	-9.39079
▁viral	-9.3908
lin	-9.39145
-12	-9.39271
▁extract	-9.39615
OD	-9.39648
▁37°	-9.39709
▁detection	-9.39834
cyclopropyl	-9.39861
line	-9.39917
fold	-9.40125
▁kinase	-9.40133
▁patients	-9.40184
▁analyzed	-9.40352
▁showed	-9.4038
dimethylamino	-9.40455
97	-9.40501
▁(0.5	-9.40523
▁even	-9.40823
▁plates	-9.40923
▁7-	-9.41026
-8	-9.41047
alkoxy	-9.4116
ip	-9.41403
▁triethylamine	-9.41582
43	-9.41595
pyrrolidin	-9.41595
′-	-9.41653
po	-9.41698
biphenyl	-9.41769
▁36	-9.41796
▁need	-9.41945
4.4	-9.4195
▁2.2	-9.42003
▁administering	-9.42146
▁oral	-9.42153
isopropyl	-9.42175
86	-9.42214
▁detected	-9.42247
▁gradient	-9.42408
▁producing	-9.42489
▁fluid	-9.42588
Chloro	-9.42605
▁pyridine	-9.42673
▁generated	-9.42727
▁distillation	-9.42877
j	-9.42986
▁Then	-9.42996
▁linear	-9.43337
ial	-9.43344
▁benzene	-9.4341
▁reacting	-9.43421
▁converted	-9.43424
▁(9	-9.43443
▁(30	-9.4346
▁2.6	-9.43642
▁thereby	-9.43701
▁contained	-9.43903
carbamoyl	-9.44163
oxa	-9.44165
▁alkynyl	-9.44178
piperidine	-9.44204
▁infection	-9.44242
▁distilled	-9.44549
▁thio	-9.44693
[2,3-	-9.44717
▁According	-9.44761
▁By	-9.44767
200	-9.44786
▁34	-9.45061
▁sp	-9.45215
▁thereto	-9.45226
▁acyl	-9.45247
2—	-9.4526
64	-9.45312
94	-9.4535
▁equivalent	-9.4545
▁cyclo	-9.45552
TA	-9.45852
-8-	-9.45858
41	-9.45858
▁ch	-9.45891
▁br	-9.45964
▁11.	-9.45966
methanol	-9.4609
▁full	-9.46122
▁amounts	-9.4624
ers	-9.46342
▁activation	-9.4647
▁VH	-9.46522
▁necessary	-9.46542
▁(8	-9.46588
PA	-9.46596
▁related	-9.46643
▁usually	-9.46732
▁bath	-9.46733
▁fused	-9.46804
▁1.9	-9.47049
▁plants	-9.47063
acetate	-9.47079
▁charged	-9.4708
▁reverse	-9.47085
3):	-9.471
▁Scheme	-9.47432
ET	-9.47503
trans	-9.47506
▁cyano	-9.47558
▁0.7	-9.47575
▁lines	-9.47603
▁Inc	-9.47649
▁primer	-9.47729
▁remove	-9.4773
▁inhibit	-9.47782
▁(0.2	-9.47812
▁bis	-9.47852
2;	-9.479
▁epitope	-9.4799
▁bromide	-9.47995
▁acetone	-9.48129
membered	-9.48157
▁31	-9.48177
▁cross	-9.48274
▁reactions	-9.48303
▁bi	-9.48328
▁device	-9.4833
▁inert	-9.48377
▁natural	-9.48433
▁novel	-9.48492
'-	-9.48528
▁3.2	-9.48628
ED	-9.48633
▁tube	-9.4867
▁ethylene	-9.48704
▁substance	-9.48732
▁replaced	-9.48735
▁3.3	-9.4898
▁processes	-9.49063
2.9	-9.49145
▁fatty	-9.49154
▁heat	-9.49168
fer	-9.49178
▁construct	-9.49179
▁carboxylic	-9.49428
lic	-9.49444
▁crystals	-9.49457
▁transcription	-9.49494
▁spectrum	-9.4955
▁If	-9.49617
▁bio	-9.49643
▁nitro	-9.49727
▁crystalline	-9.49866
▁hr	-9.49936
OC	-9.49973
▁PBS	-9.49999
imidazo	-9.50062
ary	-9.50208
-(5-	-9.50215
▁37	-9.50325
7.5	-9.50325
ca	-9.50555
▁(500	-9.50567
▁alkali	-9.50603
-9	-9.50668
water	-9.50689
ak	-9.50848
▁film	-9.51203
4.0	-9.5123
▁particles	-9.51231
▁soluble	-9.51285
▁excess	-9.51294
▁coli	-9.5132
▁cyclic	-9.51336
▁primers	-9.51431
▁3.4	-9.51449
▁modifications	-9.51468
▁sufficient	-9.51484
ure	-9.51608
based	-9.51628
ix	-9.51638
)—	-9.51651
tion	-9.51691
phenol	-9.51846
▁positions	-9.51924
io	-9.51927
▁represent	-9.52059
▁k	-9.52062
▁250	-9.52086
imethylformamide	-9.52112
such	-9.52136
human	-9.52165
oma	-9.52188
▁characterized	-9.52293
▁−	-9.52481
▁At	-9.52492
op	-9.52511
)+	-9.52604
peptide	-9.52643
izing	-9.52647
Na	-9.52791
3;	-9.53035
trifluoro	-9.53038
▁due	-9.53043
▁Di	-9.53059
▁conducted	-9.53225
▁delivery	-9.5344
like	-9.53485
▁expressing	-9.53686
▁4.6	-9.53716
4.3	-9.53862
▁6.7	-9.53867
benzoyl	-9.53882
▁inter	-9.5391
▁structural	-9.53944
▁0.01	-9.54058
▁Bio	-9.541
▁substitution	-9.54111
▁St	-9.54126
▁(15	-9.54153
▁Gene	-9.54161
RNA	-9.54593
74	-9.54669
▁hydro	-9.5472
▁equiv	-9.54956
▁receptors	-9.55079
▁4.2	-9.55107
▁hybridization	-9.55322
−1	-9.55371
▁significant	-9.55372
IL	-9.55397
▁cleavage	-9.555
▁6.6	-9.55519
53	-9.55532
▁labeled	-9.55585
▁38	-9.55596
ane	-9.55658
▁gave	-9.55742
▁Br	-9.56039
54	-9.5608
▁lithium	-9.5615
▁cases	-9.56168
ative	-9.56354
73	-9.56476
▁TFA	-9.5648
pyran	-9.56483
▁especially	-9.56494
0-	-9.56638
7.2	-9.56694
▁ambient	-9.568
thiazol	-9.56843
▁Found	-9.56868
▁fractions	-9.56895
benzyloxy	-9.56897
ray	-9.56902
▁adding	-9.56909
▁isopropyl	-9.57025
▁anhydride	-9.57106
▁IV	-9.57123
▁mammalian	-9.57374
▁o	-9.57427
▁aliphatic	-9.5755
▁6.5	-9.57554
NO	-9.57608
▁model	-9.5762
▁reducing	-9.57794
-15	-9.57795
▁(1.0	-9.57863
▁poured	-9.57912
▁activated	-9.57937
▁2.1	-9.57945
▁protecting	-9.58012
▁class	-9.58092
▁still	-9.58119
8%	-9.58498
▁reagents	-9.58538
carbamate	-9.58554
▁post	-9.58587
ies	-9.58654
=2	-9.58745
42	-9.58789
▁stability	-9.58853
▁alone	-9.58866
acetamide	-9.58927
▁alpha	-9.58953
▁75	-9.59097
▁chains	-9.59116
sp	-9.59132
▁mentioned	-9.59216
▁Method	-9.59263
05	-9.59398
val	-9.59501
▁therefore	-9.59578
all	-9.59614
AL	-9.59648
▁library	-9.59688
sis	-9.59714
▁1:	-9.59749
▁heterocyclyl	-9.59859
▁chloro	-9.599
indole	-9.59939
fect	-9.59954
tetra	-9.60357
▁sterile	-9.6042
Compound	-9.60426
▁prevent	-9.60458
=3	-9.60643
ist	-9.60768
▁encoded	-9.60985
4.1	-9.61088
iv	-9.61108
benzoic	-9.61118
02	-9.61164
+)	-9.61209
▁many	-9.61292
2.1	-9.61321
▁chimeric	-9.61376
▁heating	-9.614
▁readily	-9.61424
▁molar	-9.61434
▁factors	-9.61452
▁twice	-9.61477
ii	-9.61606
7.3	-9.61727
▁naturally	-9.61853
▁sulfur	-9.62001
▁Biol	-9.62004
▁adjusted	-9.62166
▁resistance	-9.62195
pyridyl	-9.62269
ni	-9.62271
-20	-9.62285
▁198	-9.62332
der	-9.62336
tra	-9.62386
84	-9.62414
ton	-9.62551
▁transfer	-9.62558
▁50°	-9.62597
▁place	-9.62618
ell	-9.62672
str	-9.62694
-11	-9.62832
▁bicarbonate	-9.62849
pentyl	-9.62881
▁combinations	-9.62923
09	-9.62948
▁maintained	-9.63053
chlorophenyl	-9.63119
▁depending	-9.63126
▁amide	-9.63166
▁20%	-9.63294
indol	-9.63323
▁USA	-9.63395
▁eluting	-9.6342
▁tissues	-9.63421
(2-	-9.63509
▁preparing	-9.63539
AC	-9.63618
▁stable	-9.63673
▁°	-9.63674
08	-9.6369
=4	-9.63756
furan	-9.63812
-(1-	-9.6385
SV	-9.63868
93	-9.63888
▁See	-9.63901
▁VL	-9.63936
▁cellulose	-9.63985
▁plasma	-9.64086
2.2	-9.64135
cell	-9.64155
▁coupling	-9.64254
▁3.1	-9.64264
1;	-9.64285
▁units	-9.64362
▁IR	-9.64478
▁bases	-9.64482
▁colorless	-9.64552
0°	-9.64676
ylmethyl	-9.6468
▁photo	-9.64713
oxide	-9.64785
▁OF	-9.64851
▁source	-9.64936
]-2-	-9.64986
▁—(	-9.65114
▁quenched	-9.65144
▁+	-9.65218
63	-9.65227
aza	-9.65243
▁equal	-9.653
▁onto	-9.65398
▁acetyl	-9.6541
propan	-9.65491
meth	-9.65501
▁lung	-9.65544
piperazine	-9.6556
}-	-9.65656
▁Another	-9.65716
▁multi	-9.65731
1.0	-9.65755
▁Using	-9.65867
▁Yield	-9.65878
end	-9.65889
▁very	-9.659
dione	-9.65942
▁Rf	-9.65943
propane	-9.66153
▁carcinoma	-9.66345
▁separate	-9.66348
itis	-9.66615
but	-9.6668
▁polynucleotides	-9.66685
CR	-9.66718
92	-9.66755
▁100°	-9.66875
▁new	-9.66929
▁weeks	-9.66951
▁antisense	-9.66966
▁kit	-9.66983
▁membered	-9.67051
▁st	-9.67113
▁element	-9.67149
▁Sci	-9.67236
▁2.3	-9.67259
▁washing	-9.673
▁moieties	-9.67322
▁NaCl	-9.67392
methoxyphenyl	-9.67414
▁secondary	-9.6748
phosphate	-9.67529
-[	-9.67599
MP	-9.67667
▁Also	-9.67698
▁five	-9.67716
▁Cells	-9.67739
▁carriers	-9.67776
▁Pd	-9.67836
▁basic	-9.67986
▁(0.3	-9.68017
▁extraction	-9.68086
▁types	-9.6813
▁catalytic	-9.68141
▁mutant	-9.68189
▁strain	-9.68344
om	-9.68353
▁9.	-9.68425
ish	-9.6844
▁substitutions	-9.68643
ence	-9.68658
7%	-9.68691
▁palladium	-9.68778
▁elements	-9.68802
▁amplification	-9.68817
▁express	-9.68856
na	-9.68963
ce	-9.68994
ppm	-9.6906
(3-	-9.69227
▁absence	-9.69245
▁inorganic	-9.6928
MA	-9.69378
▁formulated	-9.69396
▁39	-9.69422
▁wild	-9.69427
-[(	-9.69448
Me	-9.69464
▁population	-9.69496
0.00	-9.6953
7.0	-9.69588
▁cellular	-9.69658
▁Acad	-9.69666
10,	-9.6967
▁Al	-9.69728
▁direct	-9.69809
▁Form	-9.69824
times	-9.69836
07	-9.69879
chain	-9.69932
CA	-9.70065
▁exemplary	-9.7008
▁Following	-9.70172
1.9	-9.70212
▁structures	-9.70229
man	-9.703
▁block	-9.70346
▁Analysis	-9.70409
AT	-9.70552
▁glucose	-9.70556
▁electron	-9.70573
prop	-9.70574
▁Patent	-9.70664
▁Me	-9.70696
ens	-9.70757
▁25°	-9.70942
-1,2-	-9.71049
▁exchange	-9.71138
7.4	-9.71203
▁commercially	-9.71257
▁dryness	-9.71286
sulfonamide	-9.71327
▁extracts	-9.71388
ester	-9.71431
PO	-9.71458
▁enzymes	-9.71563
▁aspects	-9.71569
▁Reference	-9.71796
▁potential	-9.71855
04	-9.71871
ti	-9.71974
▁42	-9.71985
▁intra	-9.72054
0.2	-9.72061
▁(2)	-9.7215
]+.	-9.72152
▁bacterial	-9.72216
▁development	-9.7229
ast	-9.72312
▁Accordingly	-9.72336
▁decrease	-9.72341
▁8.5	-9.72373
mo	-9.72422
▁selection	-9.72443
▁pattern	-9.72491
▁yeast	-9.72661
Br	-9.72668
be	-9.72719
▁negative	-9.72843
▁resultant	-9.72867
eg	-9.7292
son	-9.72947
▁native	-9.73023
▁complementary	-9.73053
▁study	-9.73115
▁vessel	-9.73354
▁screening	-9.73359
ates	-9.73503
▁Human	-9.73528
hydr	-9.73569
▁because	-9.73684
▁2-(	-9.73687
imino	-9.73772
6;	-9.73839
▁(7	-9.7385
▁yet	-9.73863
▁glass	-9.73997
▁4.7	-9.74194
▁instance	-9.74261
ling	-9.74266
2°	-9.74267
benzamide	-9.7428
▁repeated	-9.74352
▁complexes	-9.74353
▁polyethylene	-9.74378
▁therapeutically	-9.74469
▁slowly	-9.74527
-1,4-	-9.74608
▁ca	-9.74634
▁60°	-9.74659
ang	-9.74758
▁show	-9.74794
tetramethyl	-9.74806
ue	-9.74823
:1)	-9.74855
▁unsaturated	-9.74875
press	-9.75001
▁occurring	-9.75032
▁1%	-9.75038
▁conjugate	-9.75062
▁80°	-9.75085
▁Res	-9.75099
tro	-9.75145
▁NaHCO	-9.75155
[1,2-	-9.75163
▁zone	-9.75217
silane	-9.75264
carboxy	-9.75282
▁TLC	-9.75359
▁90%	-9.75373
▁Ser	-9.75401
83	-9.75406
no	-9.75448
▁portions	-9.75535
▁isomer	-9.75571
▁marker	-9.75625
▁hydride	-9.75628
ve	-9.75808
▁fluoro	-9.7584
▁Ex	-9.75865
▁phenol	-9.76007
▁en	-9.76007
▁protease	-9.76017
-17	-9.7605
2.8	-9.76087
▁0.1%	-9.76217
▁Li	-9.76227
ho	-9.76227
including	-9.76273
▁1,4-	-9.76298
▁95	-9.7633
▁55	-9.76342
▁average	-9.76469
▁alkylene	-9.76486
RP	-9.7651
▁isomers	-9.76574
▁Fab	-9.76618
▁polymers	-9.76618
▁oxidation	-9.76627
▁six	-9.76663
▁hetero	-9.76739
2%	-9.76744
61	-9.76829
▁4.8	-9.76841
▁lipid	-9.76887
91	-9.77008
4;	-9.77019
▁Each	-9.77093
quinoline	-9.77133
2.0	-9.77162
Amino	-9.77193
▁Furthermore	-9.77216
2(	-9.77276
▁incubation	-9.77334
ack	-9.77337
▁achieved	-9.7736
▁removal	-9.77456
▁whether	-9.77474
▁changes	-9.77559
▁directed	-9.77619
▁Con	-9.77647
OCH	-9.77676
▁polymerase	-9.77815
▁8.4	-9.77821
▁8.3	-9.77854
ran	-9.7787
▁once	-9.77889
1.1	-9.77889
bs	-9.77923
▁44	-9.77937
ci	-9.78005
▁ketone	-9.78104
▁eluted	-9.78152
03	-9.78188
6.9	-9.78253
ov	-9.78256
AS	-9.78259
▁tablets	-9.78263
▁(19	-9.78286
cin	-9.78317
pyrazolo	-9.78449
▁internal	-9.78487
pyrrolidine	-9.78636
▁transformed	-9.78692
butoxycarbonyl	-9.78921
dimethoxy	-9.78946
piperazin	-9.79025
▁recovered	-9.79029
▁straight	-9.79106
▁99	-9.79109
▁Acid	-9.79147
ect	-9.79165
▁however	-9.79303
▁forming	-9.79334
▁skin	-9.79346
IC	-9.79365
▁instead	-9.79379
(4-	-9.79441
▁On	-9.79481
▁5.1	-9.79501
8;	-9.79549
▁next	-9.79692
8°	-9.79705
iodo	-9.79737
▁reduce	-9.79771
▁Science	-9.79785
9;	-9.79794
▁tumors	-9.79861
ER	-9.79894
▁mutation	-9.79929
▁color	-9.79964
▁NR	-9.79973
%,	-9.79985
vi	-9.80035
▁refer	-9.80041
62	-9.80091
▁catalysts	-9.80132
0.1	-9.80162
ole	-9.80176
▁restriction	-9.80183
▁reported	-9.80329
IP	-9.80365
▁experiments	-9.80411
▁genetic	-9.8046
▁95%	-9.80481
▁5′	-9.80509
▁5.5	-9.80511
▁carboxy	-9.80529
▁fluorescent	-9.80634
▁Preferred	-9.80657
if	-9.80701
▁q	-9.80718
sh	-9.8077
6%	-9.8081
ick	-9.80849
▁5.2	-9.80854
▁analogous	-9.80871
▁43	-9.80893
▁IC	-9.80895
▁4-(	-9.80976
methylene	-9.81128
5;	-9.81197
▁highly	-9.81239
▁46	-9.81264
mit	-9.81293
rin	-9.81335
0.5	-9.81364
▁mutations	-9.81408
7.1	-9.81441
▁proliferation	-9.81443
▁respect	-9.81468
▁studies	-9.81512
bo	-9.81543
06	-9.81568
▁starch	-9.81607
▁saline	-9.81625
ct	-9.81637
×10	-9.81654
ities	-9.81662
▁transferred	-9.81669
▁beta	-9.81678
▁aluminum	-9.8171
▁reactive	-9.81715
▁half	-9.81777
▁Ch	-9.81789
GF	-9.8188
▁treat	-9.81909
AD	-9.81931
▁12.	-9.8203
▁(25	-9.82066
▁comparison	-9.82166
alkenyl	-9.82233
PD	-9.82242
▁alternatively	-9.82373
▁1:1	-9.8247
▁integer	-9.82492
▁area	-9.82521
▁Protein	-9.82602
7;	-9.8264
lower	-9.8267
▁THE	-9.82793
-2,4-	-9.82815
71	-9.8285
pyrazole	-9.82968
▁iodide	-9.8298
▁pain	-9.83002
▁Ra	-9.83116
▁modification	-9.83154
▁bone	-9.83182
▁brain	-9.83183
ler	-9.83201
TP	-9.83224
▁equivalents	-9.83277
▁precursor	-9.83326
AA	-9.83358
-9-	-9.83477
▁ELISA	-9.83564
)(	-9.83677
▁ESI	-9.83702
▁strand	-9.83749
IT	-9.83794
81	-9.83795
▁clinical	-9.83886
▁generate	-9.83903
▁120	-9.83944
Example	-9.83959
▁description	-9.83977
limiting	-9.83996
▁insulin	-9.84002
▁inflammatory	-9.84036
eno	-9.84041
act	-9.84082
▁suspended	-9.84108
▁MgSO	-9.84323
▁protected	-9.84347
▁improved	-9.84382
▁dioxane	-9.844
▁6.0	-9.84434
1.8	-9.84437
mal	-9.84448
▁Mass	-9.84519
3%	-9.84581
5.0	-9.84596
▁ingredients	-9.84691
2.3	-9.84727
position	-9.84748
▁72	-9.84753
pyrido	-9.84907
3.5	-9.84951
▁99%	-9.84966
pos	-9.84989
1.2	-9.85011
methane	-9.85056
▁change	-9.85091
▁mean	-9.85121
▁ng	-9.85145
▁induced	-9.85169
8.0	-9.85253
phosph	-9.85294
▁6.8	-9.85344
▁syndrome	-9.85383
▁argon	-9.85403
let	-9.85427
▁transport	-9.85573
▁utilized	-9.85579
ear	-9.85662
mp	-9.85691
▁More	-9.85698
▁we	-9.8576
▁specificity	-9.85785
▁sugar	-9.85803
▁TNF	-9.8583
▁Ma	-9.85865
VI	-9.85917
▁PEG	-9.85924
)-6-	-9.85969
▁rt	-9.86094
▁fluorescence	-9.86122
▁96	-9.86127
▁47	-9.86135
6):	-9.86177
pent	-9.86218
▁doses	-9.86242
▁interaction	-9.86266
▁FIG	-9.86274
▁probes	-9.86275
▁41	-9.86358
ind	-9.8644
Pro	-9.86446
▁inhibiting	-9.86486
▁see	-9.86508
▁alkaline	-9.86572
▁significantly	-9.86617
▁0.05	-9.8679
▁supernatant	-9.868
▁NaOH	-9.86802
▁hydrocarbons	-9.86835
▁carboxyl	-9.86838
▁Proc	-9.86875
▁induce	-9.86893
-4-(	-9.86933
▁drying	-9.87024
ants	-9.87039
▁purposes	-9.87101
▁clear	-9.87135
▁completion	-9.87218
▁genome	-9.87218
72	-9.87223
▁(0.4	-9.87319
▁phage	-9.87343
▁characteristics	-9.87376
▁air	-9.87419
gene	-9.87425
▁chlorine	-9.87464
▁CF	-9.87476
▁liver	-9.87478
▁make	-9.87524
▁family	-9.87587
▁absorption	-9.87634
▁conjugated	-9.87754
▁electro	-9.87874
cycloalkyl	-9.87883
▁expected	-9.87932
▁bottom	-9.87989
▁4.9	-9.88179
av	-9.8821
▁important	-9.8835
▁Chemical	-9.88446
▁3′	-9.88476
DA	-9.88559
-2,3-	-9.88588
heterocycloalkyl	-9.88607
▁short	-9.8862
▁particle	-9.88674
51	-9.88727
▁ammonia	-9.88865
7.7	-9.88954
quinolin	-9.89037
▁preferable	-9.89065
1-3	-9.89264
▁Reaction	-9.89298
500	-9.89353
▁pair	-9.89366
▁Nos	-9.89421
8)	-9.89438
▁designed	-9.89501
▁49	-9.8953
▁round	-9.8956
▁humanized	-9.89573
▁Therefore	-9.89606
1.6	-9.89637
▁Poly	-9.89679
oct	-9.89687
▁contact	-9.89721
▁Mol	-9.8981
1%	-9.89815
▁PD	-9.89876
3.2	-9.89916
▁route	-9.89979
▁action	-9.90041
▁propylene	-9.90044
3.1	-9.9012
ric	-9.90128
▁3.6	-9.90141
PE	-9.9019
▁peak	-9.902
▁essentially	-9.90204
)-2-(	-9.90227
7.6	-9.90285
▁stage	-9.90289
amido	-9.90345
=8	-9.90349
▁down	-9.90355
propoxy	-9.9039
[3,4-	-9.90392
▁drugs	-9.90394
part	-9.90396
▁substances	-9.90533
▁HIV	-9.9059
▁symptoms	-9.90615
▁allow	-9.90708
▁clones	-9.9073
ible	-9.90739
▁indicates	-9.90801
oc	-9.90815
4.2	-9.90824
hexyl	-9.9087
pa	-9.90939
▁illustrated	-9.9095
▁bacteria	-9.90978
▁60%	-9.9099
▁alternative	-9.90991
▁temperatures	-9.91
▁loss	-9.91075
CL	-9.91093
▁SO	-9.91117
▁brown	-9.91139
ard	-9.9117
▁subsequent	-9.91256
▁1,2-	-9.91333
▁Water	-9.91369
Methyl	-9.9144
ness	-9.91472
SP	-9.91626
▁mammal	-9.91753
poly	-9.91967
▁6.4	-9.92015
1.7	-9.92079
▁comp	-9.92173
ether	-9.92199
pl	-9.92239
▁antigens	-9.92259
▁considered	-9.92266
▁specification	-9.92303
▁determining	-9.92373
MH	-9.92381
BP	-9.92514
▁30%	-9.92529
3.8	-9.9256
9%	-9.92606
▁mixing	-9.92622
non	-9.92636
▁antagonist	-9.92639
▁display	-9.92789
′,	-9.92834
▁grams	-9.92882
▁bonds	-9.93043
deoxy	-9.93296
(4	-9.93347
▁program	-9.93378
▁TBL	-9.93398
ver	-9.93401
carbon	-9.93454
▁bar	-9.93455
▁genomic	-9.93462
▁act	-9.93602
AR	-9.9363
▁halide	-9.93727
▁preparations	-9.93779
▁limitation	-9.93789
▁chronic	-9.93821
terminus	-9.93895
dioxo	-9.93982
▁Exemplary	-9.93993
▁contacting	-9.94062
▁among	-9.94081
▁kg	-9.94104
▁physical	-9.94126
▁ordinary	-9.94215
tal	-9.9427
▁Calif	-9.94272
ize	-9.94282
▁partially	-9.94423
)+.	-9.94424
pi	-9.94458
▁prepare	-9.94458
-13	-9.94514
▁presented	-9.94569
▁Ac	-9.94583
▁parent	-9.94638
▁targeting	-9.94651
▁1.3	-9.94684
ogen	-9.94692
▁evaporation	-9.94717
2′	-9.94753
82	-9.94916
-2-(	-9.94992
vinyl	-9.95011
▁degree	-9.95133
▁cultured	-9.9514
2.7	-9.95144
=8.4	-9.95149
ay	-9.95198
▁(40	-9.95204
▁vary	-9.9521
meter	-9.95391
=9	-9.95432
▁confirmed	-9.9556
methylphenyl	-9.95575
den	-9.95629
▁mp	-9.95645
▁identify	-9.95848
idine	-9.9591
▁desirable	-9.95994
▁applications	-9.96007
▁OH	-9.96044
▁refluxed	-9.96066
=5	-9.96088
▁coating	-9.96106
▁increasing	-9.9617
▁clone	-9.96176
4.5	-9.96213
▁fluorine	-9.96221
▁5.3	-9.96224
ber	-9.96316
▁rat	-9.96326
ow	-9.9638
▁1000	-9.96413
▁preparative	-9.96437
ile	-9.96476
own	-9.96567
▁Ca	-9.96598
qui	-9.96628
′′	-9.96664
protein	-9.96666
▁polar	-9.96673
▁third	-9.96676
▁occur	-9.96692
▁neuro	-9.96741
▁subsequently	-9.9675
▁radicals	-9.96792
ron	-9.96807
2.5	-9.96815
-1,2,4-	-9.96816
IN	-9.96827
ator	-9.96848
3°	-9.96867
ability	-9.96939
pr	-9.96986
PP	-9.9699
▁injected	-9.97008
hydro	-9.97012
length	-9.97069
▁#	-9.97163
]-3-	-9.97196
3.3	-9.97232
butoxy	-9.97302
ult	-9.97331
-3-(	-9.97383
▁promoters	-9.97423
▁En	-9.9754
▁7,	-9.97622
ru	-9.97738
______________	-9.97881
▁matrix	-9.97898
chi	-9.97939
ethylamine	-9.97999
thiophene	-9.98011
4.6	-9.98026
▁aldehyde	-9.98083
4%	-9.9814
▁ligands	-9.98215
▁transfected	-9.98247
6.0	-9.98253
▁8-	-9.98256
lut	-9.98283
▁codon	-9.98292
▁spray	-9.98373
ring	-9.98431
▁albumin	-9.98622
8.1	-9.98682
▁7.5	-9.98715
▁Ab	-9.98749
SA	-9.98798
naphthyl	-9.98819
▁CR	-9.98821
▁listed	-9.98847
ba	-9.98919
ster	-9.99054
imidazole	-9.99159
▁haloalkyl	-9.99189
▁density	-9.99199
hydroxymethyl	-9.99205
▁la	-9.99221
5)	-9.99234
AG	-9.9924
▁hydrolysis	-9.9928
-14	-9.99358
▁mode	-9.99388
▁initial	-9.99518
52	-9.99525
benzoate	-9.99532
▁red	-9.99546
▁analogs	-9.99586
▁involved	-9.99712
au	-9.99714
▁dye	-9.99729
▁8.6	-9.99744
▁react	-9.99866
11,	-9.99935
▁Tris	-9.9994
3),	-9.99941
triazol	-9.99987
IS	-9.99999
▁terminal	-9.99999
ha	-10.0006
▁Anti	-10.0009
1.3	-10.0015
1.4	-10.0017
▁melting	-10.0041
glyc	-10.005
▁transgenic	-10.0053
▁nature	-10.0057
▁65	-10.0058
alk	-10.0069
▁125	-10.007
▁(1.5	-10.0071
▁cysteine	-10.0073
▁selective	-10.0077
▁acidic	-10.0077
▁Natl	-10.0078
Ra	-10.0078
)-3-(	-10.008
▁apparent	-10.0081
▁remaining	-10.0082
our	-10.0099
▁Antibodies	-10.0103
cis	-10.0106
sion	-10.0109
▁affect	-10.0115
=8.0	-10.0116
3.0	-10.0118
mediated	-10.0119
ylamino	-10.0129
▁monomer	-10.0129
AM	-10.0131
3.9	-10.0133
ock	-10.0138
▁Med	-10.014
▁unless	-10.014
▁Si	-10.0143
TG	-10.0146
▁Am	-10.015
chrom	-10.0154
▁There	-10.0154
mon	-10.0157
8.2	-10.0167
▁Press	-10.0172
silyl	-10.0177
▁leukemia	-10.0178
▁context	-10.018
▁80%	-10.0181
rad	-10.0182
▁hydrate	-10.0195
▁specified	-10.0203
▁1,3-	-10.0207
▁again	-10.0211
▁85	-10.0218
▁claims	-10.0225
max	-10.0231
ification	-10.0242
▁Pharmaceutical	-10.0247
▁propyl	-10.0248
▁vaccine	-10.0249
▁im	-10.0256
ther	-10.026
7.9	-10.0261
▁carbonyl	-10.0265
3.7	-10.027
log	-10.0274
▁We	-10.0282
▁zinc	-10.0282
BS	-10.0288
ept	-10.0288
▁tag	-10.0289
hi	-10.0295
▁coated	-10.0297
▁Molecular	-10.0297
▁precipitated	-10.0309
▁capsules	-10.031
▁Non	-10.0315
▁toxin	-10.0316
▁General	-10.0317
▁strong	-10.0318
RS	-10.0331
dependent	-10.0331
EA	-10.0332
▁vehicle	-10.0336
▁rings	-10.0336
▁olefin	-10.0342
ethanol	-10.0343
2),	-10.0355
▁libraries	-10.0356
▁4°	-10.0374
ward	-10.0375
ethylene	-10.0376
▁SDS	-10.0379
▁exist	-10.0383
▁UV	-10.0384
dent	-10.0384
NA	-10.0387
▁common	-10.0391
▁object	-10.0396
osis	-10.04
ll	-10.0403
=7.2	-10.0409
trimethyl	-10.0411
▁preventing	-10.0413
cc	-10.0413
oxycarbonyl	-10.0416
▁40°	-10.0421
ten	-10.0423
HCl	-10.0426
ty	-10.0429
thi	-10.0429
▁limit	-10.0434
pe	-10.0436
▁entire	-10.044
▁Purification	-10.046
▁chosen	-10.0474
yr	-10.0477
▁benzo	-10.0487
1.5	-10.0493
▁evaluated	-10.0497
▁alcohols	-10.0499
▁whole	-10.0507
▁56	-10.051
▁vial	-10.0516
bu	-10.0519
OS	-10.052
▁excipients	-10.052
▁polymerization	-10.0521
▁container	-10.0523
▁experiment	-10.0523
ven	-10.0526
▁extracellular	-10.0535
▁signaling	-10.0547
▁butyl	-10.0548
va	-10.0549
▁demonstrated	-10.0549
▁often	-10.0559
▁siRNA	-10.0562
▁hyper	-10.0562
ically	-10.0563
▁controlled	-10.0565
Fc	-10.0571
▁inserted	-10.0579
▁Nature	-10.0582
▁cation	-10.0585
ethane	-10.0586
▁6.3	-10.0587
▁copper	-10.059
2.6	-10.0592
▁52	-10.0592
▁operation	-10.0595
▁detectable	-10.0596
▁regulatory	-10.0597
▁vinyl	-10.0599
▁detail	-10.0603
ob	-10.0612
-16	-10.0613
▁(2×	-10.0613
ano	-10.0615
▁scheme	-10.0619
TE	-10.0636
-18	-10.0636
▁every	-10.0651
ice	-10.0656
cyclohex	-10.0675
anti	-10.0677
wherein	-10.0683
2.4	-10.0686
propionic	-10.069
ral	-10.0696
cyclic	-10.0699
▁coupled	-10.07
▁engineered	-10.0701
▁constructs	-10.0711
▁chiral	-10.0711
▁Embodiment	-10.0714
=0	-10.0717
▁purpose	-10.0726
▁5.4	-10.0727
▁template	-10.0729
▁must	-10.0729
▁design	-10.0742
▁gelatin	-10.0742
▁sec	-10.0747
▁pathway	-10.0755
ology	-10.076
free	-10.0763
▁efficiency	-10.0764
AB	-10.077
GT	-10.0775
su	-10.0776
▁5.6	-10.0777
▁cloned	-10.0784
▁stem	-10.0787
▁INVENTION	-10.0788
ax	-10.0791
0.8	-10.0801
rain	-10.0801
0.9	-10.0802
▁enhance	-10.0803
▁left	-10.0815
ning	-10.0829
aniline	-10.083
▁percentage	-10.0832
amp	-10.0834
▁since	-10.0841
▁warm	-10.0846
TR	-10.0862
▁charge	-10.0866
▁EP	-10.0868
▁hydrophobic	-10.0878
dihydroxy	-10.0906
▁inhibitory	-10.0914
▁patent	-10.0923
3.4	-10.0926
art	-10.0926
▁diameter	-10.0927
▁suspensions	-10.0931
▁donor	-10.0938
LC	-10.094
▁3-(	-10.0942
▁homologous	-10.0943
▁partial	-10.0947
▁AD	-10.0947
▁6.2	-10.0954
▁54	-10.0955
▁para	-10.0958
▁electrode	-10.0959
▁cold	-10.0961
▁designated	-10.0966
▁noted	-10.0966
▁grown	-10.097
pen	-10.0975
▁label	-10.0979
3.6	-10.0979
▁Mo	-10.0991
▁hydrogenation	-10.0993
▁Expression	-10.1003
diol	-10.1004
ins	-10.1005
RA	-10.1005
▁homology	-10.1007
nd	-10.1027
▁rats	-10.1035
▁stand	-10.1036
▁relatively	-10.1042
amin	-10.106
med	-10.1061
▁methoxy	-10.107
pyridinyl	-10.1076
▁cyclohexyl	-10.1077
▁facilitate	-10.1078
oyl	-10.1081
▁providing	-10.1091
sil	-10.1094
▁trifluoroacetic	-10.1097
tu	-10.1098
▁pale	-10.1101
▁13.	-10.1103
emia	-10.1105
▁series	-10.1108
led	-10.1108
mentioned	-10.1108
▁Trans	-10.1109
▁New	-10.111
▁51	-10.1118
▁entirety	-10.1128
▁amines	-10.113
ost	-10.1132
IA	-10.1133
▁diagnostic	-10.1133
▁7.	-10.1133
3)2	-10.1134
▁energy	-10.1146
In	-10.1146
▁achieve	-10.1147
▁configuration	-10.116
▁moles	-10.1163
Butyl	-10.1168
nu	-10.1169
gluc	-10.1171
▁aralkyl	-10.1174
▁antagonists	-10.1185
Di	-10.1185
fen	-10.1188
▁continued	-10.1198
▁98	-10.1201
▁intravenous	-10.1202
▁0.02	-10.1206
▁amplified	-10.1211
▁5.8	-10.1214
▁caused	-10.1221
DI	-10.1223
nucleotide	-10.1223
▁agonist	-10.1224
▁commonly	-10.1227
▁heteroatoms	-10.1243
▁exhibit	-10.1261
res	-10.1267
▁breast	-10.1273
(5-	-10.1275
▁contemplated	-10.1284
do	-10.1284
▁hybrid	-10.1298
▁eluent	-10.1301
4),	-10.1303
▁Et	-10.1303
rol	-10.1309
OX	-10.1319
▁cis	-10.1323
▁dispersion	-10.1324
▁complement	-10.1331
▁calcd	-10.1333
▁cycle	-10.1337
▁work	-10.1339
benz	-10.134
BA	-10.1343
path	-10.1347
7.8	-10.1352
▁substituting	-10.1357
about	-10.1364
▁run	-10.1372
▁se	-10.1373
of	-10.1375
EP	-10.1378
late	-10.1378
▁processing	-10.1394
cm	-10.1396
Bromo	-10.1397
hex	-10.1401
=8.8	-10.1403
▁58	-10.1405
▁(3×	-10.1405
▁5.7	-10.1407
ST	-10.1407
▁slurry	-10.1407
▁framework	-10.1407
octyl	-10.1421
▁encodes	-10.1421
▁IFN	-10.1422
▁origin	-10.1423
)-7-	-10.143
CI	-10.1433
▁intracellular	-10.1436
▁channel	-10.144
MeOH	-10.1448
port	-10.1449
▁DESCRIPTION	-10.1452
▁Ethyl	-10.1455
halo	-10.1461
4,5-	-10.1465
▁optical	-10.1466
▁technique	-10.1473
GA	-10.1484
▁53	-10.1485
7)	-10.1492
▁phases	-10.1497
ction	-10.1498
▁fold	-10.15
BD	-10.1511
benzofuran	-10.1513
▁apparatus	-10.1522
DNA	-10.1533
▁20°	-10.1539
▁hormone	-10.1542
IR	-10.1543
▁course	-10.1547
▁sulfuric	-10.1555
▁transformation	-10.1559
▁diluent	-10.1559
urea	-10.156
▁located	-10.1561
▁le	-10.1573
▁accomplished	-10.1573
▁Procedure	-10.1581
6°	-10.1584
▁broad	-10.1585
▁Pa	-10.1588
#	-10.1589
▁boiling	-10.1595
RI	-10.16
▁57	-10.1603
▁stored	-10.1604
active	-10.1605
▁solubility	-10.1606
▁sh	-10.1617
▁Specific	-10.1618
▁detecting	-10.1629
▁li	-10.1634
bicyclo	-10.1635
▁vapor	-10.1636
propanol	-10.1638
EC	-10.1642
col	-10.1643
▁efficacy	-10.1644
▁40%	-10.1645
▁(0.6	-10.1647
▁mAb	-10.1649
50°	-10.1656
▁hybridoma	-10.1662
emb	-10.1669
▁magnetic	-10.167
▁making	-10.167
▁pellet	-10.1674
cyclohexane	-10.1675
▁daily	-10.1678
▁While	-10.1679
▁discussed	-10.1685
▁major	-10.1689
EM	-10.1689
▁Application	-10.1708
—,	-10.1711
related	-10.1714
onic	-10.1715
tract	-10.1721
alkylene	-10.1722
Fluoro	-10.1724
▁Moreover	-10.1726
hy	-10.1732
LA	-10.1735
▁cause	-10.1735
▁foam	-10.1738
▁Although	-10.1744
5.5	-10.1745
ID	-10.1749
[1,5-	-10.1751
▁endogenous	-10.1753
7°	-10.1755
sulf	-10.1761
cyan	-10.1763
[3,2-	-10.177
°	-10.1772
▁person	-10.1773
4°	-10.1775
▁parenteral	-10.1786
PC	-10.1791
▁fully	-10.1796
thiazole	-10.1799
▁replication	-10.1809
▁(3)	-10.181
▁cap	-10.1817
serv	-10.1818
▁tr	-10.1821
CP	-10.1824
▁monitored	-10.1826
▁bonded	-10.1828
▁heterologous	-10.1841
▁member	-10.1842
arg	-10.1846
▁detect	-10.1846
hydroxyethyl	-10.1856
▁possess	-10.1856
carbo	-10.1857
▁Methyl	-10.186
▁ne	-10.1863
▁continuous	-10.1863
▁serve	-10.1867
CSF	-10.1874
▁(12	-10.1876
reg	-10.1877
▁CAR	-10.188
ood	-10.1887
)-4-(	-10.1887
▁effector	-10.1893
til	-10.1894
▁acute	-10.1898
▁activities	-10.1901
Al	-10.1907
▁bromine	-10.1911
▁selectivity	-10.1915
▁Rt	-10.192
pH	-10.1926
cap	-10.1933
4.7	-10.1933
stranded	-10.1941
morpholino	-10.1944
▁wide	-10.1958
5.2	-10.1961
DP	-10.1963
▁zeolite	-10.1966
idin	-10.1968
aR	-10.1968
linked	-10.1969
▁centrifugation	-10.1979
▁US	-10.1996
▁Any	-10.2013
▁curve	-10.2017
▁insertion	-10.2022
▁cloning	-10.2024
▁heterocycle	-10.2033
▁Group	-10.2037
hel	-10.2038
▁lymphoma	-10.2059
▁hand	-10.2062
len	-10.2063
▁section	-10.2063
▁able	-10.208
▁7.4	-10.2081
▁age	-10.2083
genic	-10.2085
red	-10.2095
▁intermediates	-10.2096
▁parameters	-10.2097
hexahydro	-10.21
inal	-10.2107
inyl	-10.212
mod	-10.2127
▁strains	-10.2132
5.1	-10.2134
cept	-10.2138
▁wells	-10.2144
▁Th	-10.2145
butanol	-10.2145
spiro	-10.2147
lan	-10.2147
+).	-10.2154
▁consists	-10.2158
acyl	-10.216
▁developed	-10.2162
▁59	-10.2175
▁transfection	-10.218
▁require	-10.218
▁muscle	-10.218
ations	-10.2181
toxic	-10.2182
6.8	-10.2187
▁translation	-10.2199
▁dilution	-10.22
acetamido	-10.2215
▁1.4	-10.2215
▁maximum	-10.222
=7.5	-10.2223
▁Anal	-10.2223
]-1	-10.2226
butane	-10.2227
▁supra	-10.2232
ade	-10.2233
▁VEGF	-10.2236
▁members	-10.2246
▁(150	-10.2247
thiadiazol	-10.2248
▁enhanced	-10.225
▁partitioned	-10.2261
6.5	-10.2263
▁kidney	-10.2266
▁did	-10.228
▁improve	-10.2282
▁ed	-10.2296
sulfonic	-10.2302
▁protocol	-10.2305
methylamino	-10.2311
oxazol	-10.2314
▁(2.0	-10.2316
]-4-	-10.232
▁now	-10.2322
▁solvate	-10.2328
pt	-10.233
▁murine	-10.2335
iii	-10.2336
omer	-10.2345
▁candidate	-10.2353
▁Production	-10.2354
▁foregoing	-10.2364
diphenyl	-10.2368
▁profile	-10.2371
▁homo	-10.2374
▁role	-10.2379
▁Typically	-10.2382
oli	-10.2382
ull	-10.2383
tr	-10.2385
PS	-10.2386
▁corn	-10.2399
▁although	-10.2409
▁Ph	-10.2413
thr	-10.2419
▁recrystallized	-10.2422
Hydroxy	-10.2425
▁disulfide	-10.2427
▁75%	-10.243
▁8.7	-10.2433
2'-	-10.2435
dec	-10.2435
▁information	-10.2436
cycl	-10.2442
▁recognize	-10.2445
▁occurs	-10.2445
EtOAc	-10.2446
▁Additionally	-10.2449
6.1	-10.2454
▁crystallization	-10.2454
induced	-10.246
pyrazin	-10.2463
hydroxyphenyl	-10.2463
▁insert	-10.2472
silica	-10.2477
▁2000	-10.2481
▁instances	-10.2482
▁fixed	-10.2483
▁open	-10.2483
-3,4-	-10.2485
▁table	-10.2488
▁nano	-10.249
μ	-10.2504
▁epi	-10.2511
[4,5-	-10.2512
▁64	-10.2516
fil	-10.2522
▁tertiary	-10.2526
▁(“	-10.2527
:10	-10.2528
▁band	-10.2535
▁seen	-10.2544
▁targeted	-10.2549
Method	-10.2552
▁hrs	-10.256
▁66	-10.2563
ef	-10.2564
▁Assay	-10.2567
=7	-10.2582
▁measuring	-10.2584
▁Sh	-10.2591
cre	-10.2591
day	-10.2593
▁ten	-10.2599
▁therein	-10.2599
UC	-10.2601
▁hole	-10.2603
-5-(	-10.2604
cr	-10.2609
▁hexanes	-10.2612
▁6.1	-10.2614
ised	-10.2618
▁enzymatic	-10.2625
▁Sequence	-10.2627
bacter	-10.2641
▁respective	-10.2649
dr	-10.2649
▁car	-10.265
ner	-10.2651
▁measurement	-10.2658
▁regard	-10.2669
phen	-10.2673
▁8,	-10.2673
▁glycerol	-10.2673
=7.6	-10.2675
▁dimer	-10.2676
▁approach	-10.2677
▁monocyclic	-10.2683
▁proportion	-10.2686
rot	-10.2688
▁experimental	-10.2699
▁Generally	-10.27
ME	-10.2701
ans	-10.2705
cent	-10.2705
8.5	-10.2706
▁epitopes	-10.2708
▁wash	-10.2714
CDR	-10.2729
▁solids	-10.2738
▁dioxide	-10.2739
omycin	-10.2745
▁beads	-10.2749
hr	-10.2752
▁segment	-10.2754
▁interact	-10.2756
ie	-10.2759
carbonate	-10.2765
▁mineral	-10.2771
▁adjacent	-10.2772
▁indicate	-10.2774
polymer	-10.2777
transferase	-10.2779
▁0.25	-10.2782
LL	-10.2787
▁mature	-10.2791
▁phospho	-10.2792
▁organism	-10.28
▁equipped	-10.2809
▁Where	-10.2812
▁allows	-10.2813
nitrophenyl	-10.2816
cul	-10.2818
▁diisopropyl	-10.2822
ata	-10.2823
oxid	-10.2824
yn	-10.2829
▁5.9	-10.283
▁functions	-10.2831
EL	-10.2835
HPLC	-10.2835
▁completely	-10.2836
▁Cancer	-10.2839
▁seed	-10.2843
▁prevention	-10.2849
ign	-10.2851
▁measure	-10.2858
▁viruses	-10.2859
▁contrast	-10.286
▁features	-10.286
flu	-10.2861
▁elution	-10.2863
▁decreased	-10.2863
▁Publication	-10.2864
▁AB	-10.2865
▁oils	-10.2868
▁transition	-10.2868
▁Of	-10.2875
rit	-10.2876
▁basis	-10.2883
SR	-10.2891
▁8.8	-10.2893
▁70°	-10.2896
▁(0.7	-10.2898
▁HLA	-10.2904
▁chemically	-10.2905
2-6	-10.2906
ism	-10.2908
dioxane	-10.292
▁com	-10.2924
▁30°	-10.2927
▁anion	-10.293
▁practice	-10.2933
▁assessed	-10.2936
▁storage	-10.2939
▁77	-10.2945
ert	-10.2946
▁easily	-10.2949
▁mediated	-10.2955
vent	-10.2957
▁analog	-10.2962
▁random	-10.2967
4.8	-10.297
SC	-10.2971
TL	-10.2975
▁minute	-10.2979
▁afforded	-10.298
diamine	-10.2983
▁endo	-10.2983
—(	-10.299
Ac	-10.3
▁2,6-	-10.3003
▁meant	-10.3003
▁thin	-10.3007
idene	-10.3009
▁back	-10.3009
▁heart	-10.301
▁70%	-10.3014
▁blocking	-10.3014
my	-10.3016
▁Peptide	-10.3017
methoxycarbonyl	-10.3019
go	-10.3025
▁sequencing	-10.3027
xi	-10.3031
▁pp	-10.3034
6.2	-10.3038
▁transcript	-10.3038
ides	-10.3039
9.1	-10.3039
▁aforementioned	-10.3043
▁68	-10.3043
▁enter	-10.3051
▁10-	-10.3052
3).	-10.3052
pp	-10.3053
▁97	-10.3055
pha	-10.3055
ular	-10.3056
▁thermal	-10.306
▁Immunol	-10.3063
▁altered	-10.3066
▁warmed	-10.3068
▁90%,	-10.3072
▁encode	-10.3076
12,	-10.3079
▁neutral	-10.308
decyl	-10.3084
▁cat	-10.3085
eal	-10.3086
▁sucrose	-10.3087
▁62	-10.3089
cal	-10.3099
▁emission	-10.3109
▁bromo	-10.311
▁sealed	-10.311
▁lysine	-10.3111
▁67	-10.3112
▁image	-10.3112
▁score	-10.3125
▁inflammation	-10.3125
pyrrol	-10.3127
gram	-10.3132
▁Test	-10.3136
ian	-10.314
▁Part	-10.3147
▁prostate	-10.3148
tain	-10.3149
inate	-10.315
ual	-10.3152
qu	-10.3153
▁dec	-10.3159
▁week	-10.3161
▁alignment	-10.3161
9.5	-10.3162
rea	-10.3172
phenylphosphine	-10.3173
lytic	-10.3173
▁lo	-10.3174
▁motif	-10.3185
▁turn	-10.3188
plasm	-10.3193
▁Additional	-10.3197
▁loop	-10.3197
labeled	-10.3201
ero	-10.3201
▁markers	-10.3202
▁good	-10.3202
▁immobilized	-10.3203
0.7	-10.3223
mic	-10.3231
▁formulae	-10.3239
ably	-10.326
rich	-10.3262
=10	-10.3272
azo	-10.3278
▁phosphorus	-10.3281
300	-10.3281
▁7.0	-10.3284
▁Fe	-10.329
▁responses	-10.3291
wise	-10.3293
old	-10.3294
▁arthritis	-10.3297
▁blot	-10.3298
▁organ	-10.3299
ato	-10.3303
each	-10.331
▁Se	-10.331
400	-10.3321
▁plurality	-10.3323
▁extent	-10.3327
blast	-10.3332
out	-10.3337
▁5′-	-10.334
▁current	-10.3353
▁variations	-10.3355
▁core	-10.3357
▁(1.2	-10.3362
▁urea	-10.3363
(1-	-10.3364
▁humans	-10.3364
▁With	-10.337
▁drop	-10.337
-4,5-	-10.3378
=8.5	-10.338
▁stir	-10.3386
▁along	-10.339
ces	-10.3391
▁passed	-10.3391
▁hypo	-10.3391
▁immediately	-10.3395
NT	-10.3396
▁retention	-10.3397
▁risk	-10.3398
pur	-10.3399
2/	-10.3403
▁fluoride	-10.3418
▁exposure	-10.3418
▁Similarly	-10.3419
▁Some	-10.3423
derived	-10.3425
▁generation	-10.3432
benzaldehyde	-10.3434
ency	-10.3434
▁depend	-10.3437
▁cool	-10.3438
1°	-10.3444
▁bovine	-10.3446
▁isolation	-10.3452
▁9.0	-10.3453
Gly	-10.3453
que	-10.3455
▁theory	-10.3465
▁tyrosine	-10.3469
fin	-10.3482
ud	-10.3483
▁chromatographed	-10.3486
▁residual	-10.3494
▁secretion	-10.3494
oxadiazol	-10.3504
▁reporter	-10.3509
anyl	-10.351
▁thiol	-10.3511
▁ranging	-10.3516
des	-10.3516
▁earth	-10.3521
thieno	-10.3522
mid	-10.3529
TT	-10.3529
▁cyclopropyl	-10.3531
2+	-10.3535
▁insect	-10.3538
▁2,4-	-10.354
acid	-10.3541
PCR	-10.3544
her	-10.3546
over	-10.3546
phase	-10.3547
▁diabetes	-10.3547
▁69	-10.3552
acetoxy	-10.3557
aromatic	-10.3557
9.0	-10.356
▁isobutyl	-10.3566
Table	-10.3569
▁FR	-10.3588
▁CDRs	-10.3598
alt	-10.3604
▁rabbit	-10.361
▁Nucleic	-10.361
▁physiological	-10.3612
▁involves	-10.3615
▁bispecific	-10.3617
EN	-10.3618
ani	-10.362
▁Tri	-10.3623
ient	-10.3625
▁Gly	-10.3625
▁stearate	-10.3628
10-	-10.3633
▁prodrug	-10.3634
▁differ	-10.3637
▁iron	-10.3639
▁NOs	-10.3642
▁peroxide	-10.3646
▁centrifuged	-10.3646
▁110	-10.3647
phy	-10.3654
▁Laboratory	-10.3656
IF	-10.3657
LE	-10.3659
Si	-10.3676
described	-10.3679
ries	-10.3679
ight	-10.3681
fl	-10.3684
lot	-10.3688
▁suppress	-10.369
▁197	-10.3691
▁VI	-10.3697
11-	-10.3699
naphthalene	-10.3707
▁acidified	-10.3715
▁61	-10.3716
IG	-10.3717
▁fed	-10.3727
0.6	-10.373
▁gum	-10.3731
▁(0.8	-10.3736
▁subcutaneous	-10.3741
associated	-10.3745
▁cultures	-10.375
▁distribution	-10.3757
carbonitrile	-10.3764
▁Pre	-10.3765
SS	-10.3766
ject	-10.3772
▁toxicity	-10.3772
life	-10.3784
ified	-10.3791
▁lactose	-10.3794
▁degradation	-10.3801
MgSO	-10.3802
OP	-10.3805
piperidinyl	-10.3805
▁78	-10.381
▁cytotoxic	-10.381
▁14.	-10.381
▁pump	-10.3818
Dimethyl	-10.3819
▁later	-10.3824
▁Le	-10.3829
▁staining	-10.3832
▁130	-10.3841
▁powders	-10.3841
6.7	-10.3843
▁divided	-10.3844
=7.8	-10.3845
lane	-10.3852
)-(	-10.3854
▁1-(	-10.3855
-(6-	-10.3859
▁76	-10.3861
▁yields	-10.3864
▁quantity	-10.387
)2,	-10.3879
▁constructed	-10.3887
ach	-10.3887
butan	-10.3896
ger	-10.3899
▁bicyclic	-10.3905
{[	-10.391
▁From	-10.3914
▁rpm	-10.3915
gel	-10.3915
▁radiation	-10.3919
8.3	-10.3937
oxi	-10.3938
▁semi	-10.3947
4'-	-10.3949
▁2%	-10.3954
▁(60	-10.3959
▁potent	-10.3967
ough	-10.397
eo	-10.3973
▁radio	-10.3975
clu	-10.3984
▁recognized	-10.3988
ges	-10.3989
▁kDa	-10.3991
methylsulfonyl	-10.4004
crystallization	-10.4006
Ar	-10.401
▁removing	-10.4013
chemical	-10.4017
lation	-10.4022
ode	-10.4028
▁94	-10.4033
▁software	-10.4035
▁attachment	-10.4036
▁25%	-10.404
▁conjugates	-10.4049
sulfanyl	-10.4051
▁auto	-10.4054
▁infected	-10.4063
1-2	-10.4064
▁nucleoside	-10.4068
▁electrophoresis	-10.4071
▁difference	-10.4076
naphthalen	-10.4077
▁73	-10.4077
▁linkage	-10.4085
▁penta	-10.4086
▁63	-10.4092
trop	-10.4093
▁sc	-10.4098
9.9	-10.4102
▁recovery	-10.411
RE	-10.4114
Invitrogen	-10.4114
▁74	-10.4118
Ph	-10.4118
▁strength	-10.4124
▁−78°	-10.4135
▁2,3-	-10.4139
▁(4)	-10.4143
Arg	-10.4148
emic	-10.4148
▁stated	-10.4149
▁normally	-10.4149
tre	-10.4154
▁loaded	-10.4156
▁exposed	-10.4162
NHC	-10.4163
▁occurrence	-10.4171
▁(2.5	-10.4172
▁TR	-10.4174
bodies	-10.4175
phthal	-10.4176
▁manufacture	-10.418
▁claimed	-10.4182
▁dependent	-10.4183
▁seconds	-10.4183
▁intramuscular	-10.4196
▁isolate	-10.4197
▁encompasses	-10.42
▁carrying	-10.4205
-[1	-10.4209
▁ranges	-10.4211
solv	-10.4213
meric	-10.4217
▁(1.1	-10.4218
yield	-10.4221
nal	-10.4223
▁counter	-10.423
▁exemplified	-10.4231
▁CHO	-10.4232
▁eukaryotic	-10.4238
▁flu	-10.4249
▁600	-10.4252
▁80%,	-10.4252
▁modulate	-10.4253
▁bp	-10.4257
cyclopentyl	-10.4262
▁adjuvant	-10.4263
▁EDTA	-10.4263
▁commercial	-10.4266
quin	-10.4269
▁Results	-10.4274
▁silicon	-10.4283
▁trifluoromethyl	-10.4285
pyrrole	-10.4288
▁meaning	-10.4292
▁itself	-10.4292
▁OD	-10.4296
-[2-(	-10.4298
▁find	-10.4301
BI	-10.4305
▁vol	-10.4308
-2-(2-	-10.4312
▁90°	-10.4312
▁scale	-10.4313
▁intensity	-10.4316
▁sense	-10.4317
▁association	-10.4322
14,	-10.4326
▁database	-10.4327
▁longer	-10.433
▁oily	-10.433
can	-10.4331
▁mutagenesis	-10.4334
5.6	-10.4335
ulation	-10.4335
functional	-10.4336
sorb	-10.4338
ination	-10.4344
with	-10.4344
{[(	-10.4347
5.3	-10.435
ana	-10.4353
-2.0	-10.4354
▁Thr	-10.4358
alkynyl	-10.4363
fa	-10.437
▁chromosome	-10.4374
▁VIII	-10.4379
▁condensation	-10.4379
▁agonists	-10.4382
▁selectively	-10.4383
▁Un	-10.4387
▁elevated	-10.4391
ound	-10.4391
fi	-10.4394
9°	-10.4397
ka	-10.4397
▁retain	-10.4398
▁pore	-10.4411
CT	-10.4423
PI	-10.4427
▁backbone	-10.443
▁autoimmune	-10.4432
▁typical	-10.4434
▁field	-10.4436
toluene	-10.4442
ann	-10.4449
6.6	-10.4454
▁cut	-10.4458
▁membranes	-10.4461
▁insoluble	-10.4462
▁Organic	-10.4468
9.2	-10.4469
treated	-10.4471
rate	-10.4473
▁increases	-10.4476
-100	-10.4477
▁topical	-10.4478
-((	-10.4481
▁calc	-10.4483
▁scFv	-10.4486
IM	-10.4487
DS	-10.4495
▁j	-10.4498
0.3	-10.4502
▁EtOH	-10.4506
▁Calcd	-10.4507
sulph	-10.4511
rs	-10.4514
tern	-10.4516
ome	-10.4516
8.4	-10.4518
indazol	-10.4522
6.4	-10.4528
▁kept	-10.4529
heteroaryl	-10.4532
▁Antibody	-10.4532
lysis	-10.4534
▁deletion	-10.454
piperazinyl	-10.4542
▁resulted	-10.4546
pentane	-10.4546
▁Lys	-10.4547
cyclopropane	-10.4552
▁permit	-10.4553
dbd	-10.4554
▁120°	-10.4556
▁mechanism	-10.4558
cancer	-10.4559
▁des	-10.4568
{	-10.4571
▁glycine	-10.4579
CG	-10.458
▁original	-10.4587
MT	-10.4592
cyclopenta	-10.4601
▁survival	-10.4602
-1,2,3,4-	-10.4604
LP	-10.4606
▁cancers	-10.4615
▁ethoxy	-10.4625
▁composed	-10.4628
▁York	-10.4633
▁racemic	-10.4634
hydrate	-10.4635
ethoxycarbonyl	-10.4635
▁chamber	-10.4635
▁collagen	-10.4635
cl	-10.4638
▁tetrahydro	-10.4641
▁orally	-10.4642
▁whereas	-10.4643
▁recognition	-10.4649
▁clo	-10.4649
▁inventors	-10.465
▁contents	-10.4651
compound	-10.4653
▁2:	-10.4653
IX	-10.4657
VA	-10.4658
▁covalently	-10.4659
=7.0	-10.466
▁citrate	-10.4664
▁screen	-10.4666
▁interactions	-10.4666
rine	-10.4673
▁71	-10.4673
cur	-10.4674
▁precipitation	-10.469
▁95%,	-10.469
▁literature	-10.47
▁pairs	-10.4701
▁promote	-10.4703
▁allyl	-10.4706
▁naphthyl	-10.4712
dt	-10.4713
▁Two	-10.4714
▁imaging	-10.4718
▁done	-10.472
[4-(	-10.4722
▁optically	-10.4724
▁thermo	-10.4725
[4,3-	-10.4726
▁91	-10.4729
aw	-10.4734
Ab	-10.4734
cle	-10.4736
5.4	-10.4737
pho	-10.4738
▁sat	-10.4739
trimethylsilyl	-10.4739
▁bed	-10.474
pyridazin	-10.4744
EX	-10.4747
▁man	-10.4748
▁introducing	-10.4751
ke	-10.4756
▁peripheral	-10.4756
=6	-10.4771
COOH	-10.4777
▁serine	-10.4778
▁subjects	-10.4781
▁Exp	-10.4783
ulated	-10.4785
▁plasmids	-10.4786
▁performance	-10.4786
▁environment	-10.479
▁frame	-10.4793
▁connected	-10.4794
lumin	-10.4796
▁simultaneously	-10.4799
▁VII	-10.48
▁devices	-10.4802
▁Since	-10.4803
9.3	-10.4804
white	-10.4806
4.9	-10.4807
▁monomers	-10.4807
▁Dis	-10.4807
▁uses	-10.481
ulating	-10.4816
penta	-10.4823
▁start	-10.4827
▁cytokine	-10.4833
0.4	-10.4837
)-5-(	-10.4842
▁Ed	-10.4846
isoxazol	-10.4848
ethynyl	-10.4849
cyte	-10.4849
-2,6-	-10.4851
18,	-10.4852
ulate	-10.4852
▁carbohydrate	-10.4854
isomer	-10.4863
▁colon	-10.4865
benzonitrile	-10.4867
mann	-10.4871
▁months	-10.4873
▁screened	-10.4876
▁iodine	-10.4876
▁vi	-10.4884
▁cleaved	-10.4884
ido	-10.4886
▁signals	-10.4887
af	-10.4888
▁amorphous	-10.4897
▁biologically	-10.4897
▁tablet	-10.4899
▁Comp	-10.4908
▁excipient	-10.4909
▁medicament	-10.4911
▁microwave	-10.4914
▁batch	-10.4915
▁determination	-10.4917
etic	-10.4917
diene	-10.492
com	-10.4922
▁peaks	-10.4924
1-10	-10.4924
▁PCT	-10.4932
Phe	-10.4935
▁cyto	-10.4936
tent	-10.4939
▁overall	-10.494
▁Vol	-10.4941
hexa	-10.4954
[1	-10.4955
▁79	-10.4957
ug	-10.4961
▁testing	-10.4962
-{	-10.4962
▁0.03	-10.4963
▁suitably	-10.4964
activated	-10.4966
▁wavelength	-10.4967
▁Cu	-10.4969
osyl	-10.4969
▁quantitative	-10.4969
▁damage	-10.4971
▁death	-10.4974
saccharide	-10.4976
PEG	-10.4976
▁EXAMPLES	-10.4977
und	-10.4977
-3,5-	-10.4982
har	-10.4983
NP	-10.4987
▁whose	-10.4991
azetidin	-10.4991
-(3-(	-10.4993
▁antigenic	-10.4996
han	-10.4999
▁technology	-10.5
PT	-10.5001
▁lead	-10.5001
-4-(4-	-10.5001
▁depicted	-10.5004
MD	-10.5005
▁metals	-10.5018
diyl	-10.5019
▁alkylation	-10.5027
)-1-(	-10.5027
▁consist	-10.5029
▁describes	-10.5029
soluble	-10.5033
▁infusion	-10.5036
palladium	-10.5038
Lys	-10.504
▁DETAIL	-10.5044
)-3	-10.5044
thia	-10.5049
amyl	-10.5049
▁injectable	-10.506
▁manufacturer	-10.5061
nic	-10.5063
▁xylene	-10.5065
▁whereby	-10.5071
Ala	-10.5072
▁ES	-10.508
▁Micro	-10.5086
▁Glu	-10.5088
▁ethers	-10.5088
▁array	-10.5096
▁syn	-10.5102
hexanes	-10.5103
carbonylamino	-10.5105
ess	-10.5111
dia	-10.5112
▁2-(4-	-10.5114
6.3	-10.5118
VIII	-10.5118
▁aq	-10.5119
▁identification	-10.5119
▁Per	-10.5131
▁ATCC	-10.5133
off	-10.5135
[3	-10.5138
▁systemic	-10.5139
▁deposited	-10.514
▁read	-10.5143
methylthio	-10.5145
heptane	-10.515
ogenic	-10.5151
▁capture	-10.5153
▁concentrate	-10.5154
▁examined	-10.5156
carbodiimide	-10.5161
▁isopropanol	-10.5162
▁1,1-	-10.5163
thienyl	-10.5164
▁supplemented	-10.5165
▁93	-10.5167
ju	-10.5167
phosphoryl	-10.5169
electric	-10.5169
rom	-10.5176
▁dark	-10.5177
RT	-10.5182
tetrazol	-10.5182
▁characteristic	-10.5183
Leu	-10.5188
ple	-10.519
▁protective	-10.5193
▁Immuno	-10.5198
▁digested	-10.5201
▁larger	-10.5203
▁z	-10.5209
▁medical	-10.5211
▁controls	-10.5212
AK	-10.5218
▁injury	-10.5224
KBr	-10.5224
▁immunogenic	-10.5225
▁food	-10.5226
▁oxo	-10.5227
▁(1991)	-10.5229
▁mix	-10.5234
▁heteroatom	-10.5234
▁phosphoric	-10.5235
▁regimen	-10.5239
TI	-10.5242
▁maintain	-10.5255
▁computer	-10.5256
formyl	-10.5257
▁96%	-10.5259
ai	-10.526
azabicyclo	-10.526
▁harvested	-10.5261
▁140	-10.5264
▁believed	-10.5272
▁tautomer	-10.5274
▁CN	-10.5276
pyrazine	-10.528
valent	-10.528
▁linking	-10.5289
aldehyde	-10.5295
▁96-	-10.5296
=8.1	-10.5302
eth	-10.5303
▁ions	-10.5306
ological	-10.5307
▁location	-10.5316
ration	-10.5317
▁ortho	-10.5325
▁avoid	-10.5326
▁reading	-10.5327
isation	-10.5332
▁protection	-10.5337
equ	-10.5343
▁1.00	-10.5343
tetrahydropyran	-10.5349
▁86	-10.5352
▁local	-10.5358
isoquinolin	-10.536
ren	-10.5369
▁likely	-10.5389
δ	-10.5392
VII	-10.5395
▁emulsion	-10.5396
▁SP	-10.5396
▁5,6	-10.5397
6,7	-10.5399
▁green	-10.5407
ark	-10.5409
▁obtaining	-10.5418
Aldrich	-10.5421
▁lyophilized	-10.5422
▁nitrate	-10.5423
table	-10.5423
▁89	-10.5426
▁degrees	-10.5428
]-5-	-10.5428
ili	-10.543
=6.8	-10.5433
▁simple	-10.5433
▁citric	-10.5442
▁eye	-10.5445
onium	-10.5445
▁liter	-10.5446
Re	-10.5448
AF	-10.5452
▁appreciated	-10.5453
70,	-10.5458
lactone	-10.5459
▁instructions	-10.5459
che	-10.5462
long	-10.5463
▁sulf	-10.5465
-2,5-	-10.5465
80,	-10.5475
▁EC	-10.5483
▁Spring	-10.5491
▁0,	-10.5495
hen	-10.5497
aster	-10.5497
▁allele	-10.5498
pyr	-10.5498
thiophen	-10.5498
▁capacity	-10.5503
▁PE	-10.5505
▁requires	-10.5506
▁comprised	-10.5509
▁Comparative	-10.5509
car	-10.551
▁interferon	-10.5512
trifluoromethoxy	-10.5513
-6-(	-10.5514
10)	-10.5521
][1,4]	-10.5522
Cyclo	-10.5527
=8.7	-10.5528
low	-10.5533
sulfinyl	-10.5536
▁induction	-10.5541
known	-10.5543
▁fat	-10.5547
▁hexa	-10.5549
5.8	-10.5549
▁MHC	-10.555
▁conc	-10.5552
morph	-10.5552
▁delivered	-10.5554
20,	-10.5554
▁sources	-10.5556
PAGE	-10.5557
▁pharmacological	-10.5566
▁unique	-10.5574
rap	-10.5575
▁who	-10.5578
eli	-10.5578
▁introduction	-10.5579
pre	-10.5581
▁undergo	-10.5583
hepta	-10.5585
▁(0.9	-10.5593
=8.3	-10.5598
SE	-10.5599
▁sulphate	-10.56
lated	-10.5605
▁vascular	-10.5608
▁severity	-10.5611
▁84	-10.5615
▁absolute	-10.5615
YL	-10.5619
▁Sp	-10.562
8.6	-10.5623
▁TA	-10.5628
BL	-10.5628
octane	-10.5629
difluorophenyl	-10.563
▁surfactant	-10.5631
para	-10.5635
nt	-10.5635
▁2′-	-10.5639
▁meta	-10.5639
▁alumina	-10.5642
▁demonstrate	-10.5645
mers	-10.5646
onate	-10.565
▁Leu	-10.5654
FA	-10.5655
▁enable	-10.5655
▁mmole	-10.5657
▁OCH	-10.566
ases	-10.5661
▁central	-10.5664
▁Vi	-10.5665
ocytes	-10.5666
▁polymeric	-10.5669
▁ob	-10.567
-1-(	-10.5678
▁resuspended	-10.5683
▁They	-10.5685
▁160	-10.5686
tolyl	-10.5689
chloride	-10.5689
pir	-10.569
▁Boc	-10.5691
▁Ig	-10.5693
-1)	-10.5693
furyl	-10.5694
▁inhibits	-10.5697
PR	-10.5698
DM	-10.5699
=7.3	-10.57
▁center	-10.57
▁op	-10.57
▁covalent	-10.5702
▁slow	-10.5702
▁liposomes	-10.5704
app	-10.5707
▁Binding	-10.5712
▁oligo	-10.5718
atch	-10.5719
▁consistent	-10.5721
▁allowing	-10.5732
▁much	-10.5735
▁GC	-10.5736
▁0.5%	-10.5739
propionate	-10.5745
aminomethyl	-10.5745
▁sequentially	-10.5756
les	-10.5757
static	-10.5767
arr	-10.5772
▁Sodium	-10.5772
dy	-10.5774
ros	-10.5778
▁advantageous	-10.5783
▁(250	-10.5789
methoxybenzyl	-10.5789
▁alkoxycarbonyl	-10.5795
▁glycosylation	-10.5797
▁thickness	-10.5797
lk	-10.58
▁exp	-10.58
▁numbers	-10.5801
-23	-10.5801
▁self	-10.5803
rac	-10.5811
▁MA	-10.5813
▁150°	-10.5813
ynyl	-10.5823
=8.2	-10.5825
▁AAV	-10.5826
▁silver	-10.5827
▁hydrophilic	-10.5828
▁TCR	-10.5829
-3-(3-	-10.5833
uracil	-10.5837
_______________	-10.5842
-3′	-10.5842
topic	-10.5846
▁diluents	-10.5849
IB	-10.5851
2##	-10.5852
morpholin	-10.5866
inflammatory	-10.5869
▁TABLE	-10.5872
▁proceed	-10.5878
▁La	-10.5878
▁limiting	-10.5883
▁pyridyl	-10.5888
pot	-10.5891
kin	-10.5891
▁NK	-10.5892
▁(1989)	-10.5897
emitting	-10.5902
isoquinoline	-10.5902
▁copolymer	-10.5903
▁hybridize	-10.5904
▁dihydro	-10.5905
atic	-10.5909
▁wet	-10.5909
▁HA	-10.591
ope	-10.5919
▁88	-10.5922
▁cycl	-10.5923
▁initiation	-10.593
▁indicating	-10.5932
▁sieve	-10.5937
DL	-10.5939
▁Factor	-10.594
▁raw	-10.5944
▁nor	-10.595
product	-10.5954
4,5	-10.5957
allyl	-10.5957
Glu	-10.5961
-21	-10.5963
▁manufactured	-10.5966
xanth	-10.5967
▁granules	-10.5968
▁cassette	-10.5969
▁platinum	-10.597
▁spectra	-10.5974
▁sol	-10.5976
▁assayed	-10.5983
OL	-10.5989
▁92	-10.5991
▁HF	-10.5991
▁lymph	-10.5995
FR	-10.5996
]-1-	-10.5996
▁trimethyl	-10.5998
▁predicted	-10.6001
oside	-10.6002
▁HRMS	-10.6009
▁enantiomers	-10.6012
atur	-10.6012
cer	-10.6026
uter	-10.603
aS	-10.6032
▁substrates	-10.6035
ink	-10.604
▁apoptosis	-10.6041
ake	-10.6044
▁head	-10.6046
▁neo	-10.6047
▁TGF	-10.6047
▁orange	-10.6052
+1)	-10.6053
▁Sch	-10.6054
3##	-10.6057
▁stock	-10.6059
LT	-10.6061
▁heptane	-10.6073
▁metabolic	-10.6074
▁throughout	-10.6081
▁phosphorylation	-10.6082
▁stop	-10.6082
▁aliquot	-10.6084
Ia	-10.6085
▁Ba	-10.6087
40,	-10.609
▁fi	-10.6091
▁correct	-10.6093
▁differentiation	-10.6095
▁polyclonal	-10.6097
▁corresponds	-10.6098
morpholine	-10.6099
▁improvement	-10.6099
ik	-10.6101
▁(1992)	-10.6106
▁(1993)	-10.6111
▁sulfonyl	-10.6113
▁emulsions	-10.6114
pyrrolidinyl	-10.6115
▁segments	-10.6115
▁impurities	-10.6116
▁Unless	-10.6117
▁proton	-10.6125
mark	-10.6128
choline	-10.6129
▁pyr	-10.6131
12-	-10.6133
ble	-10.6133
▁Po	-10.6142
▁hot	-10.6143
ammonium	-10.6144
▁nuclear	-10.6145
fac	-10.6148
▁isocyanate	-10.6149
▁variation	-10.6149
▁(1.3	-10.6151
▁leaving	-10.6151
5.7	-10.6151
▁2,2-	-10.6153
▁neutralized	-10.6155
chlor	-10.6157
int	-10.6163
▁7.2	-10.6169
TS	-10.6169
ATCC	-10.6173
▁Gra	-10.6175
▁PS	-10.6175
▁Type	-10.618
dichlorophenyl	-10.6187
▁phen	-10.6188
propenyl	-10.6189
▁published	-10.6193
ectin	-10.6194
▁confirm	-10.6197
ung	-10.6205
▁lysate	-10.6205
▁Treatment	-10.6207
▁contiguous	-10.6211
▁(80	-10.6212
▁Ni	-10.6212
▁formic	-10.6217
▁105	-10.6218
statin	-10.6219
▁81	-10.6219
9.4	-10.622
Rb	-10.6222
▁monovalent	-10.6226
▁super	-10.6227
▁petroleum	-10.6231
▁correspond	-10.6233
▁cyclopentyl	-10.6235
-(1	-10.6237
▁128	-10.6238
ener	-10.6241
▁15%	-10.6242
▁matter	-10.6244
▁Specifically	-10.6245
▁dosing	-10.6248
▁nickel	-10.625
ino	-10.6253
other	-10.6255
▁halogenated	-10.6258
60°	-10.626
▁Drug	-10.6267
1-8	-10.6268
▁called	-10.6277
▁utilizing	-10.6283
▁(75	-10.6284
▁Plant	-10.6289
▁tail	-10.6291
▁transmembrane	-10.6294
▁involve	-10.6296
-[2-	-10.6298
▁distinct	-10.6304
ory	-10.6304
fluor	-10.6304
vers	-10.6307
1##	-10.6312
target	-10.6313
▁3:	-10.6314
▁latter	-10.6315
treatment	-10.6316
▁representative	-10.6317
▁Among	-10.6319
▁psi	-10.632
▁viscosity	-10.6322
▁frequency	-10.6323
purine	-10.6323
▁space	-10.6323
▁subunit	-10.6324
▁index	-10.6325
pan	-10.6329
▁lack	-10.633
Methoxy	-10.6332
phenylalanine	-10.6334
▁models	-10.6338
▁Biochem	-10.6338
▁here	-10.6342
butene	-10.6345
▁uptake	-10.635
▁repeat	-10.6354
US	-10.6357
PG	-10.637
-30	-10.6372
▁gram	-10.6373
ace	-10.6375
5.9	-10.6379
-3-(2-	-10.6383
▁effected	-10.6387
▁additives	-10.6388
▁cyclohexane	-10.6389
▁filed	-10.6392
▁excellent	-10.6395
way	-10.64
▁resistant	-10.64
imide	-10.6404
chem	-10.6407
DR	-10.6415
▁9-	-10.6415
enic	-10.6425
▁bridge	-10.6426
▁life	-10.6426
▁infections	-10.643
▁Ltd	-10.643
▁previous	-10.643
▁cer	-10.6431
▁lymphocytes	-10.6433
▁divalent	-10.6436
▁secreted	-10.6436
pentan	-10.6439
clo	-10.6446
chol	-10.6452
ons	-10.6452
▁established	-10.6452
▁3,4-	-10.6454
▁chemistry	-10.646
MB	-10.6461
diethyl	-10.6462
lac	-10.6464
azido	-10.6473
▁illustrative	-10.6476
▁tubes	-10.6479
600	-10.6479
▁surfactants	-10.6482
▁lipo	-10.6485
▁few	-10.6491
vol	-10.6491
▁main	-10.6492
=8.6	-10.6493
▁paraffin	-10.6502
▁sulfonate	-10.6504
:1,	-10.6511
▁toxic	-10.6512
▁9,	-10.6513
8.8	-10.6514
oxazin	-10.6514
▁influenza	-10.6515
4##	-10.6515
azine	-10.6516
▁code	-10.6519
-[(1	-10.6521
3,5-	-10.6527
▁alkylamino	-10.6529
agg	-10.6532
▁consensus	-10.6532
vir	-10.6533
▁downstream	-10.6534
▁upper	-10.6537
▁98%	-10.6547
amycin	-10.655
▁(1994)	-10.6551
▁BSA	-10.6552
▁volumes	-10.6553
ethanolamine	-10.6554
▁male	-10.6564
▁dissolving	-10.6568
▁arginine	-10.6568
siloxane	-10.6582
▁critical	-10.6586
azole	-10.6587
▁differences	-10.6587
▁293	-10.6588
▁blend	-10.6589
▁abnormal	-10.6601
▁Met	-10.6601
▁denotes	-10.6604
EI	-10.6607
hal	-10.6607
▁Va	-10.661
▁hydrogenated	-10.6611
▁fresh	-10.6617
isobutyl	-10.6624
-25	-10.6625
▁sulfoxide	-10.6626
▁Arg	-10.6627
forming	-10.6627
▁renal	-10.6627
+1).	-10.6628
▁employing	-10.6629
ddd	-10.6631
▁Data	-10.6633
▁property	-10.6633
▁funnel	-10.6634
9.8	-10.6635
lipid	-10.6638
▁points	-10.6639
▁inhibited	-10.6639
▁imidazole	-10.6641
▁near	-10.6648
thiazolyl	-10.6649
DE	-10.6654
▁targets	-10.6658
acetone	-10.6659
▁cytokines	-10.6669
▁Ag	-10.6669
▁syringe	-10.667
lip	-10.6671
5′-	-10.6675
▁rectal	-10.6684
▁diffraction	-10.6685
land	-10.6688
▁87	-10.6692
▁name	-10.6704
13,	-10.6707
▁0.04	-10.6708
▁better	-10.6711
▁Various	-10.6715
120	-10.672
▁condensed	-10.6723
▁cycles	-10.6729
▁stimulation	-10.673
▁syrup	-10.6731
amic	-10.6731
▁intact	-10.674
▁Wiley	-10.6743
▁eight	-10.6749
▁Representative	-10.6758
-1.5	-10.6761
16,	-10.6764
▁compatible	-10.6766
▁efficient	-10.6767
▁Fmoc	-10.6768
▁endothelial	-10.677
vo	-10.677
▁8.9	-10.6773
ylation	-10.6775
▁1-(4-	-10.6776
triazolo	-10.6778
3′-	-10.6782
hept	-10.6788
▁benefit	-10.6792
Et	-10.6798
[(4-	-10.6798
▁hard	-10.6799
molecular	-10.68
8.7	-10.68
cit	-10.6801
▁myeloma	-10.6803
dioxaborolan	-10.6815
triazole	-10.6817
0.1%	-10.6819
▁(1990)	-10.6821
-19	-10.6823
▁Use	-10.6832
▁separately	-10.6841
ute	-10.6849
▁assess	-10.6851
▁pM	-10.6859
▁Ga	-10.6862
▁disc	-10.6865
cro	-10.6866
-22	-10.6868
indolyl	-10.6868
(2,3-	-10.6871
▁seven	-10.6877
▁replacement	-10.6878
▁Cy	-10.6884
▁condenser	-10.6885
▁(1988)	-10.6885
▁last	-10.689
ility	-10.6898
▁crystallized	-10.69
125	-10.6901
methanesulfonyl	-10.6904
▁top	-10.6908
propionyl	-10.6914
-6,7-	-10.6915
▁prop	-10.6919
▁azide	-10.6922
SF	-10.6923
ition	-10.6923
3-6	-10.6932
hetero	-10.6932
rd	-10.6932
▁conserved	-10.6936
▁plus	-10.6936
▁HCV	-10.6939
▁silyl	-10.694
▁Calc	-10.6952
▁PI	-10.6953
=7.1	-10.6954
▁kind	-10.6957
▁Bi	-10.6957
▁mutants	-10.6958
▁stress	-10.696
The	-10.6961
▁digestion	-10.6963
▁alkylthio	-10.6965
Bio	-10.6968
▁macro	-10.6969
apped	-10.6971
ella	-10.6978
▁recombination	-10.6979
acrylate	-10.6981
▁platelet	-10.6983
▁CA	-10.6991
▁Harbor	-10.6992
▁spp	-10.6994
▁82	-10.6997
▁Val	-10.7
▁resins	-10.7004
▁needed	-10.7008
▁Under	-10.7008
▁cycloalkenyl	-10.7009
▁situ	-10.701
▁Prepared	-10.7013
▁cationic	-10.7016
use	-10.7016
▁10.0	-10.7019
▁rotary	-10.702
▁Next	-10.702
oil	-10.7023
Sigma	-10.7026
▁early	-10.7027
sulfate	-10.703
comp	-10.7033
[2-(	-10.7036
▁reactants	-10.7039
naphthyridin	-10.704
▁Column	-10.7043
▁maintaining	-10.7045
▁exon	-10.7047
▁(1.4	-10.7047
▁ligated	-10.7053
5##	-10.7056
▁ionic	-10.7056
▁difficult	-10.706
▁70%,	-10.7061
▁alter	-10.7061
butyric	-10.7062
▁essential	-10.7062
▁blue	-10.7063
▁count	-10.7065
▁International	-10.7066
▁steam	-10.7066
▁resonance	-10.707
GS	-10.707
▁illustrate	-10.7072
▁His	-10.7073
NK	-10.7073
▁imp	-10.7076
▁rather	-10.7081
ff	-10.7082
vari	-10.7082
▁operably	-10.7085
▁cholesterol	-10.7087
▁identifying	-10.7088
▁locus	-10.7088
19,	-10.709
uridine	-10.7093
-[4-	-10.7106
▁contacted	-10.7107
▁Both	-10.7109
▁enantiomer	-10.7118
sulfonate	-10.712
tur	-10.7121
▁partner	-10.7121
▁0.15	-10.7123
mercapto	-10.7124
▁shift	-10.713
▁2-(2-	-10.713
▁aryloxy	-10.7133
▁hereby	-10.7134
70°	-10.7135
▁melanoma	-10.7136
ris	-10.7137
▁conservative	-10.7143
▁optimal	-10.7147
▁kb	-10.7147
ening	-10.715
▁Process	-10.7151
-[4-(	-10.7151
which	-10.7152
▁Soc	-10.7155
FP	-10.7157
▁polyvinyl	-10.7157
▁83	-10.716
▁rec	-10.716
▁agarose	-10.7161
▁BLAST	-10.7162
▁detailed	-10.7163
VL	-10.7164
▁Upon	-10.7165
3/	-10.7168
▁HB	-10.7171
▁processed	-10.7173
▁pathogen	-10.7176
leu	-10.7178
duct	-10.718
▁Acids	-10.7191
▁cl	-10.7192
TAT	-10.7192
▁4-(4-	-10.7193
ful	-10.7193
quinazolin	-10.7196
actin	-10.7202
heptyl	-10.7204
imine	-10.7207
▁panel	-10.7225
inden	-10.7227
rib	-10.7229
ze	-10.723
Ser	-10.7234
eq	-10.7237
TB	-10.7238
▁Western	-10.7241
▁around	-10.7241
▁references	-10.7245
▁San	-10.7248
▁gamma	-10.7248
▁progression	-10.7254
▁pulmonary	-10.7255
EF	-10.7267
▁algorithm	-10.7268
tis	-10.7276
▁homogeneous	-10.7278
▁sensitivity	-10.7279
▁become	-10.7282
▁continuously	-10.7286
king	-10.729
▁bo	-10.7295
▁transgene	-10.7296
ker	-10.7303
ylene	-10.7306
spect	-10.7311
ivity	-10.7313
▁revealed	-10.7316
tag	-10.7317
tax	-10.7318
preferably	-10.7318
8.9	-10.732
▁circ	-10.7324
▁rac	-10.7332
80°	-10.7334
last	-10.7334
Dichloro	-10.7338
▁adult	-10.734
van	-10.734
DCM	-10.7343
-[3-	-10.7344
▁diphenyl	-10.7347
gamma	-10.7348
▁106	-10.7352
ham	-10.7359
▁recorded	-10.7361
×2	-10.7362
▁85%,	-10.7363
▁oligomer	-10.7363
▁carbons	-10.7365
we	-10.7366
mato	-10.7368
▁plastic	-10.7368
(6-	-10.7369
▁na	-10.7372
▁heteroalkyl	-10.7373
▁confer	-10.7382
duced	-10.7386
met	-10.7387
morpholinyl	-10.7391
+):	-10.7391
▁olefins	-10.7395
▁view	-10.7397
CE	-10.7403
Boc	-10.7403
regulated	-10.7404
▁triturated	-10.7404
▁instant	-10.7408
BB	-10.7409
▁Once	-10.7409
▁advantage	-10.741
▁generating	-10.7411
crystal	-10.7411
▁rapid	-10.7412
trityl	-10.7413
body	-10.7418
phenethyl	-10.7419
current	-10.742
olefin	-10.7422
▁reactant	-10.7424
layer	-10.7429
Bu	-10.7429
▁methane	-10.7432
▁deletions	-10.7434
▁OR	-10.7439
)-6-(	-10.744
diamino	-10.7442
▁dihydrochloride	-10.7445
▁(5)	-10.7446
RD	-10.7449
▁10°	-10.7451
aminocarbonyl	-10.7453
▁1-3	-10.7459
▁(0.05	-10.7459
ele	-10.746
▁genetically	-10.7461
▁acceptor	-10.7462
-[3-(	-10.7465
acet	-10.7467
▁pass	-10.7471
▁conjunction	-10.7473
4+	-10.7475
▁duplex	-10.7477
▁Ala	-10.7483
▁volatile	-10.7486
▁wound	-10.7487
▁biotin	-10.7489
PV	-10.7489
▁Briefly	-10.7495
PL	-10.7499
▁spacer	-10.75
carbamic	-10.75
▁appended	-10.7505
▁piperidine	-10.7506
OAc	-10.7506
Ig	-10.7507
9.6	-10.7512
▁(18	-10.7513
metric	-10.7517
See	-10.7519
▁CHCl	-10.7529
▁buffers	-10.7534
▁Solvent	-10.7538
▁(16	-10.754
itol	-10.7541
▁minimum	-10.7545
▁fetal	-10.7548
▁dosages	-10.7551
▁1-(2-	-10.7555
▁aerosol	-10.7565
▁extension	-10.7565
▁Rb	-10.7565
epi	-10.7565
6##	-10.7567
▁definition	-10.7568
▁mechanical	-10.757
▁glyco	-10.7576
9.7	-10.7582
less	-10.7594
▁Subsequently	-10.7596
▁suspending	-10.7599
▁RP	-10.76
polar	-10.76
Step	-10.7601
▁fact	-10.7602
▁Car	-10.7607
atin	-10.761
▁conveniently	-10.7615
CMV	-10.7615
ture	-10.7615
▁Culture	-10.7618
2-4	-10.7618
furo	-10.762
▁supplied	-10.7628
▁3'	-10.7634
positive	-10.7635
-1,3,2-	-10.7642
mg	-10.7649
▁reason	-10.7651
▁PC	-10.7659
▁pad	-10.7661
▁cover	-10.7667
▁activator	-10.767
▁relevant	-10.7672
borate	-10.7673
hydrogen	-10.7673
▁deliver	-10.7674
boronic	-10.7676
-(3,4-	-10.768
rel	-10.7685
ier	-10.7685
succinimide	-10.7689
▁successively	-10.7692
qua	-10.7695
▁incorporation	-10.7697
▁organo	-10.7703
are	-10.7703
haloalkyl	-10.7703
▁list	-10.7704
▁1991	-10.7705
▁%,	-10.7708
▁PT	-10.7713
by	-10.7715
▁gives	-10.7716
)—,	-10.7717
▁7.40	-10.7721
▁tR	-10.7723
▁Celite	-10.7723
osa	-10.7724
cells	-10.7726
▁immunization	-10.7727
izer	-10.7731
▁DC	-10.7735
▁85%	-10.7736
▁version	-10.7738
▁Ad	-10.7746
▁linkages	-10.7746
▁180	-10.7748
1-5	-10.7756
▁develop	-10.7758
▁released	-10.7768
▁bu	-10.7768
phenylene	-10.777
▁mammals	-10.7773
-2-(4-	-10.7773
=2.0	-10.7774
▁[(	-10.7774
▁take	-10.7775
▁sulfonic	-10.7778
-[[	-10.7782
▁cream	-10.7783
methylcellulose	-10.7787
101	-10.7788
▁completed	-10.779
▁effluent	-10.7791
oxazolidin	-10.7791
▁IX	-10.7792
▁showing	-10.7792
▁advantageously	-10.7794
▁weak	-10.7795
▁(1.6	-10.7798
-2(1	-10.7798
also	-10.7805
nicotin	-10.7807
▁Cold	-10.781
▁independent	-10.7814
▁RA	-10.7817
ising	-10.782
PBS	-10.7823
▁Research	-10.7824
cat	-10.7825
▁changed	-10.7836
▁1995	-10.7836
▁elicit	-10.7845
,4′-	-10.7846
▁High	-10.7848
▁illustrates	-10.7851
)-8-	-10.7858
▁phenotype	-10.7859
drug	-10.7861
▁implant	-10.7861
▁7.35	-10.7862
▁match	-10.7864
▁create	-10.7864
SK	-10.7865
acetonitrile	-10.7866
201	-10.7868
tau	-10.7873
▁absorbance	-10.7875
▁cited	-10.7876
▁pig	-10.7878
▁PR	-10.7879
▁mobile	-10.788
▁transcriptional	-10.7881
▁0.06	-10.7881
▁boron	-10.7881
▁routes	-10.7883
naphtho	-10.7886
▁ATP	-10.7889
▁individually	-10.7889
▁exhibited	-10.7894
▁carbamate	-10.7898
▁stirrer	-10.7898
=7.9	-10.7898
mono	-10.79
▁Therapeutic	-10.7903
thiol	-10.7907
▁dyes	-10.7908
▁titer	-10.7914
▁additionally	-10.7919
▁7.30	-10.792
▁employ	-10.7921
▁cr	-10.7927
▁PK	-10.7931
▁glycoprotein	-10.7931
▁alanine	-10.7937
▁mutated	-10.7941
GL	-10.7941
ami	-10.7942
ich	-10.7946
ribo	-10.7952
▁(0.01	-10.7952
ulin	-10.7955
amo	-10.7955
myc	-10.7956
▁Activity	-10.7957
130	-10.7957
▁Chemistry	-10.7963
ffer	-10.7963
▁soft	-10.7965
▁might	-10.7973
▁pri	-10.7978
phospho	-10.798
anol	-10.7984
▁DE	-10.7985
▁Be	-10.7985
▁organisms	-10.7994
▁exhibits	-10.7995
▁7.20	-10.7996
fu	-10.7997
diazepin	-10.7997
▁separating	-10.8005
=6.6	-10.8011
not	-10.8013
brs	-10.8018
=9.0	-10.8019
=7.4	-10.8025
▁prophylactic	-10.8026
▁emitting	-10.803
▁autoclave	-10.8033
▁substantial	-10.8035
▁terminus	-10.8036
-24	-10.8037
▁129	-10.8042
▁format	-10.8042
inter	-10.8042
▁pancreatic	-10.8043
▁ST	-10.8043
▁iodo	-10.8044
ionic	-10.8045
▁quaternary	-10.8046
expressing	-10.8047
LD	-10.8047
▁histidine	-10.8051
4′	-10.8053
▁Ti	-10.8053
▁describe	-10.8057
▁voltage	-10.8064
▁prodrugs	-10.8067
aqueous	-10.8068
▁feedstock	-10.807
▁GP	-10.8073
▁phosphatase	-10.8075
-50	-10.8081
cu	-10.809
▁adverse	-10.8091
▁sustained	-10.8096
▁developing	-10.8097
eck	-10.8103
▁0.001	-10.8109
▁unreacted	-10.8119
▁potency	-10.8123
▁stained	-10.8124
▁3,5-	-10.813
▁cluster	-10.8131
▁Those	-10.8131
7##	-10.814
phosphine	-10.8143
▁Mar	-10.8148
▁(14	-10.8153
▁Cloning	-10.816
▁polyol	-10.8162
▁replacing	-10.8166
step	-10.8172
virus	-10.8172
▁EL	-10.8173
kine	-10.8173
▁predetermined	-10.8177
FAB	-10.8183
▁micron	-10.8188
phenylamino	-10.8193
att	-10.8194
▁oxidized	-10.8197
▁OC	-10.8205
ense	-10.821
▁reached	-10.8211
▁tests	-10.8212
▁immunized	-10.8213
▁1999	-10.8213
-2.5	-10.8215
▁stereoisomer	-10.8226
▁NP	-10.8228
▁1992	-10.8228
▁activate	-10.823
▁select	-10.8233
mmol	-10.8234
▁gap	-10.8236
olic	-10.8236
▁analytical	-10.8239
CAM	-10.8242
-4-(2-	-10.8244
▁ends	-10.825
ou	-10.825
yne	-10.8252
▁wall	-10.8252
tumor	-10.8259
▁deuterium	-10.8259
▁clean	-10.8259
▁John	-10.8263
▁1-4	-10.8265
halogen	-10.8265
lev	-10.8269
pregn	-10.8269
GE	-10.8269
▁adenovirus	-10.8275
=2.4	-10.8276
▁already	-10.8278
cla	-10.8284
▁activating	-10.8285
▁evaluation	-10.8286
Benzyl	-10.8289
▁preservatives	-10.829
metabolite	-10.8291
▁115	-10.8292
▁detergent	-10.8294
▁7.25	-10.8294
▁extend	-10.8295
▁pigment	-10.8295
▁inventive	-10.8295
▁HER	-10.8296
▁Org	-10.8298
tetrahydrofuran	-10.8301
▁rates	-10.8302
[4-(2-	-10.8308
▁yielding	-10.8311
aging	-10.8315
load	-10.8315
chemotherapeutic	-10.832
▁diastereomers	-10.8321
▁smaller	-10.8322
ema	-10.8322
▁little	-10.8328
▁1994	-10.833
▁physiologically	-10.8336
▁degassed	-10.8337
ret	-10.8338
▁Effect	-10.8339
ank	-10.8339
▁1998	-10.834
nia	-10.8344
▁1.25	-10.8348
decane	-10.835
(4-(	-10.8355
▁slightly	-10.8358
ong	-10.8366
ement	-10.8368
chloroform	-10.8373
▁5°	-10.8378
▁EGFR	-10.8381
15,	-10.8385
▁ligation	-10.8388
▁(0.02	-10.8388
enol	-10.8393
fusion	-10.8398
▁gels	-10.8399
▁atmospheric	-10.8403
ethylamino	-10.8404
methanone	-10.8411
translational	-10.8414
▁1993	-10.8421
3′	-10.8423
▁transdermal	-10.8424
▁play	-10.8425
▁ratios	-10.8425
▁oven	-10.8435
matic	-10.8437
nor	-10.8439
▁purchased	-10.8441
atory	-10.8446
▁carb	-10.845
ale	-10.8456
-4(	-10.8457
▁article	-10.8458
▁Kit	-10.8458
▁melt	-10.8458
▁evidence	-10.8463
▁800	-10.8463
▁labeling	-10.8465
▁initially	-10.8467
[(2-	-10.8467
-2,2-	-10.847
pping	-10.8471
▁arylalkyl	-10.8474
-1,6-	-10.8474
▁collect	-10.848
▁encompassed	-10.8482
zo	-10.8482
▁direction	-10.8483
▁involving	-10.8485
▁extended	-10.8486
▁upstream	-10.8496
▁fermentation	-10.8497
▁pool	-10.8502
▁luciferase	-10.8514
8##	-10.8521
uction	-10.8525
▁rapidly	-10.8525
▁proper	-10.8526
▁filled	-10.8534
▁binder	-10.8535
platin	-10.8542
CONH	-10.8545
aliphatic	-10.8546
sulfamoyl	-10.8548
▁inducing	-10.8549
▁joined	-10.8549
imidazolidin	-10.8549
▁oxy	-10.855
▁transduction	-10.856
▁produces	-10.8563
▁0.07	-10.8565
TF	-10.8568
▁(5.0	-10.8572
activation	-10.8574
▁loading	-10.8576
▁diagnosis	-10.8578
▁Biology	-10.858
▁individuals	-10.858
▁adapt	-10.8581
▁blocked	-10.8584
▁(70	-10.8588
ENT	-10.8595
▁hydrazine	-10.8599
▁convert	-10.8601
lig	-10.8604
,5,6-	-10.8604
▁(1995)	-10.8604
▁Invention	-10.8605
term	-10.8608
▁influence	-10.861
triazin	-10.861
▁PG	-10.8614
▁hold	-10.8614
▁discloses	-10.8616
30°	-10.8617
▁borohydride	-10.8619
from	-10.8622
sensitive	-10.8625
▁asymmetric	-10.8626
oxazole	-10.863
▁exogenous	-10.8631
▁minimal	-10.8631
▁Phase	-10.8632
vis	-10.8633
▁uniform	-10.8633
",	-10.8633
▁linkers	-10.8636
antibody	-10.864
▁Most	-10.8641
cyto	-10.8649
▁outlined	-10.8653
point	-10.8656
-1-(2-	-10.8657
Val	-10.8661
uro	-10.8665
▁paper	-10.8666
2)2	-10.8667
eta	-10.8667
metry	-10.8676
-40	-10.8676
script	-10.868
ise	-10.8683
Ethyl	-10.8686
▁65°	-10.8687
▁Or	-10.8692
▁SA	-10.8693
▁108	-10.8695
▁titanium	-10.8695
▁purged	-10.8696
LV	-10.8701
propanoic	-10.8708
▁tend	-10.871
▁fast	-10.8711
lus	-10.8711
cho	-10.8712
▁carry	-10.8716
▁sufficiently	-10.8717
omy	-10.872
▁7.3	-10.872
▁stereoisomers	-10.8724
▁kits	-10.8729
▁Product	-10.8729
SG	-10.8733
ves	-10.8737
ones	-10.8738
▁asthma	-10.8749
Ch	-10.8751
▁methionine	-10.8751
▁Because	-10.8751
▁spin	-10.8751
▁tract	-10.8753
▁Flow	-10.8757
▁enriched	-10.8759
▁tris	-10.876
/10	-10.8762
▁cytotoxicity	-10.8764
▁measurements	-10.8765
▁adjuvants	-10.8766
▁differential	-10.8771
▁enhancer	-10.8771
erythro	-10.8771
▁external	-10.8773
▁spleen	-10.8773
▁soybean	-10.8776
row	-10.8776
=6.0	-10.8778
▁search	-10.8782
▁inlet	-10.8783
uff	-10.8783
-[5-	-10.8789
▁1997	-10.879
genesis	-10.879
▁FGF	-10.8792
900	-10.8803
SPC	-10.8805
▁evaporator	-10.8805
3-4	-10.8808
tinib	-10.8815
oth	-10.8816
▁yielded	-10.882
▁Sub	-10.8822
▁immunological	-10.8822
trifluoroacetate	-10.8823
tens	-10.8824
▁350	-10.8826
▁leader	-10.8826
▁encompass	-10.8827
▁agar	-10.8829
▁effectively	-10.8829
umab	-10.8831
▁110°	-10.8834
▁ovarian	-10.8837
▁104	-10.8847
▁solvates	-10.8848
-2.6	-10.8854
▁cost	-10.8854
▁varying	-10.8855
▁4-(2-	-10.8855
yo	-10.8856
▁shape	-10.8856
ori	-10.8858
▁adhesion	-10.886
▁1996	-10.8864
▁7.45	-10.8865
▁female	-10.887
comb	-10.887
▁ensure	-10.8871
time	-10.8873
▁fl	-10.8875
▁close	-10.8875
▁glu	-10.8877
▁hinge	-10.8877
sch	-10.8877
benzimidazol	-10.8879
293	-10.8888
shi	-10.8898
▁absent	-10.89
(+)	-10.89
▁sensitive	-10.8902
▁labels	-10.8905
quinone	-10.8905
110	-10.8909
dibromo	-10.891
▁7.38	-10.891
▁mesh	-10.8914
▁5-(	-10.8916
His	-10.8917
▁rest	-10.8924
3);	-10.8925
▁nitrile	-10.8931
▁(1996)	-10.8936
▁rise	-10.8937
▁duration	-10.894
=6.9	-10.8941
▁received	-10.8945
▁advantages	-10.8945
somal	-10.8947
▁deposition	-10.8947
=6.4	-10.8949
9##	-10.8956
bl	-10.8957
▁2,5-	-10.8958
▁alkane	-10.8961
-5,6-	-10.8961
▁drops	-10.8962
▁1990	-10.8963
▁HEK	-10.8964
▁sulfide	-10.8973
ylidene	-10.8977
▁92%	-10.8979
▁embryo	-10.8979
▁Control	-10.8982
▁adduct	-10.8986
▁artificial	-10.8989
lar	-10.8989
+]	-10.899
uron	-10.8991
▁9.5	-10.8992
▁220	-10.8992
lactam	-10.8992
▁converting	-10.8993
▁DIPEA	-10.8993
acrylamide	-10.8995
▁cesium	-10.8996
5,6	-10.9002
▁Mice	-10.9003
▁dilute	-10.9006
▁fibrosis	-10.9007
BT	-10.901
▁lipids	-10.9012
▁lysis	-10.9012
▁minor	-10.902
rator	-10.9021
▁cake	-10.9022
▁buffered	-10.9026
trichloro	-10.9027
▁Rev	-10.9028
▁(3.0	-10.9035
▁conformation	-10.9036
▁97%,	-10.9037
▁across	-10.9037
▁65%	-10.9039
coding	-10.9042
tech	-10.9044
▁optional	-10.9047
thrombo	-10.9051
where	-10.9051
-2′-	-10.9067
-(4-(	-10.9069
▁antibiotic	-10.907
dose	-10.9075
products	-10.9077
▁Particularly	-10.9077
link	-10.9077
▁kill	-10.9078
▁therapies	-10.9081
▁celite	-10.9084
▁delay	-10.9087
isopropoxy	-10.9089
▁(1987)	-10.909
▁Compositions	-10.9094
▁background	-10.9095
▁combining	-10.91
▁graft	-10.91
ected	-10.9102
▁Cys	-10.9102
▁0.08	-10.9107
▁Amino	-10.9112
▁copolymers	-10.9113
cytosine	-10.9114
▁meanings	-10.9116
▁utilize	-10.9117
-10-	-10.9117
▁Appl	-10.9118
▁That	-10.912
▁conjugation	-10.9129
▁y	-10.9129
ethan	-10.913
▁right	-10.9131
700	-10.9131
uk	-10.9132
triazine	-10.9135
galact	-10.9139
▁benzoyl	-10.914
▁PO	-10.9141
▁Calculated	-10.9144
(3,5-	-10.9155
▁frozen	-10.916
▁clearly	-10.9161
-2.4	-10.9164
mouse	-10.917
chloromethyl	-10.9173
enoic	-10.9175
(2,2-	-10.9176
▁comparing	-10.9176
▁reflect	-10.9182
toxin	-10.9189
▁98%,	-10.9191
▁freeze	-10.9195
▁reactivity	-10.9197
▁prep	-10.9203
base	-10.9203
▁deprotection	-10.9217
)-1,3-	-10.9218
(=	-10.922
▁sorbitol	-10.9225
heptan	-10.9229
▁capsule	-10.9229
▁causes	-10.9229
▁Samples	-10.9231
▁triple	-10.9234
butyryl	-10.9234
nitrile	-10.924
▁years	-10.9241
▁Alzheimer	-10.9244
▁reach	-10.9245
▁rheumatoid	-10.9258
▁sensor	-10.9259
▁similarity	-10.926
▁quench	-10.9262
▁immunoassay	-10.9263
▁Tween	-10.9264
▁inhalation	-10.9264
alkylamino	-10.9264
(2,6-	-10.9264
▁zero	-10.9266
▁Thereafter	-10.9275
▁codons	-10.9277
▁beneficial	-10.9278
onitrile	-10.9285
▁hepatitis	-10.9289
▁7.32	-10.9292
thy	-10.9292
▁vegetable	-10.9293
4).	-10.9296
▁fall	-10.9296
{(	-10.9297
▁quantities	-10.9299
graphic	-10.93
▁connection	-10.9301
APCI	-10.9301
▁Iso	-10.9303
prepared	-10.9304
{3-	-10.9305
diisopropyl	-10.9308
▁isotope	-10.9308
▁Buffer	-10.9316
▁amides	-10.9318
▁adsorption	-10.9321
▁brs	-10.9325
▁analyses	-10.9326
{2-[	-10.9329
▁similarly	-10.933
▁protocols	-10.9333
▁During	-10.9334
▁Hu	-10.9334
▁intraperitoneal	-10.9338
angio	-10.9343
▁Manual	-10.9349
purin	-10.9349
▁111	-10.9356
-[1,2,4]	-10.936
▁separator	-10.9361
loc	-10.9362
▁predict	-10.9367
▁construction	-10.9368
▁200°	-10.937
1′	-10.9371
▁dys	-10.9373
benzimidazole	-10.9374
▁cal	-10.9374
▁benz	-10.9374
▁1-2	-10.9376
tive	-10.9379
▁fibroblast	-10.9381
verse	-10.9383
▁Da	-10.9385
cip	-10.9388
ethylenediamine	-10.9388
▁Bo	-10.939
try	-10.939
▁cobalt	-10.9391
ok	-10.9395
▁170	-10.9397
butenyl	-10.9397
1/2	-10.9397
105	-10.9398
▁Lett	-10.9399
aga	-10.941
▁7.6	-10.9411
▁recipient	-10.9412
▁First	-10.9414
azol	-10.9414
imid	-10.9415
cot	-10.9419
carb	-10.9419
quinolinyl	-10.9423
▁appropriately	-10.9425
benzothiazol	-10.9427
▁complementarity	-10.9429
▁MO	-10.9436
▁homolog	-10.9437
obil	-10.9439
▁3%	-10.944
▁real	-10.944
▁5'	-10.9443
▁94%	-10.9449
▁bulk	-10.9452
omb	-10.9452
▁7.26	-10.9457
plast	-10.9458
800	-10.9458
▁7.33	-10.9459
protected	-10.9463
▁deposit	-10.9465
▁107	-10.9467
labelled	-10.9471
▁wetting	-10.9474
XXX	-10.9474
anth	-10.9478
▁vehicles	-10.9481
▁grade	-10.9484
▁(1.8	-10.9489
▁phrase	-10.9492
sorption	-10.9496
▁Ro	-10.9512
′)	-10.9517
▁visual	-10.952
▁affected	-10.9522
▁7.28	-10.9522
▁infectious	-10.9523
▁Fv	-10.9524
dithio	-10.9532
▁Proteins	-10.9538
ura	-10.954
reactive	-10.9543
▁immunogen	-10.9545
▁stereo	-10.9546
ACC	-10.9551
phi	-10.9554
granul	-10.9558
▁monkey	-10.956
▁rinsed	-10.956
benzenesulfonyl	-10.9562
lit	-10.9562
SiO	-10.9564
▁aid	-10.9567
▁analyte	-10.9572
▁epithelial	-10.9572
▁controlling	-10.9574
▁resolution	-10.9578
globulin	-10.9579
▁7.15	-10.958
IgG	-10.9584
▁epoxy	-10.9585
▁spectrometry	-10.9587
▁Figure	-10.9589
-3-(4-	-10.9589
[4-(4-	-10.9594
▁3-(4-	-10.9596
▁2004	-10.9598
▁brought	-10.96
Intermediate	-10.9603
-1,3,4-	-10.9612
ali	-10.9613
▁11,	-10.9613
▁93%	-10.9614
▁hydrocarbyl	-10.9614
▁Animal	-10.9615
▁marrow	-10.9618
▁nitric	-10.9621
▁7.42	-10.9621
▁additive	-10.9626
▁radioactive	-10.9631
modified	-10.9639
▁trace	-10.9639
▁7.34	-10.9645
▁Melting	-10.9652
▁failure	-10.9655
▁nasal	-10.9655
▁Tyr	-10.9656
▁hemo	-10.9657
ica	-10.9665
RII	-10.967
pyrrolidone	-10.9674
cephem	-10.9676
▁Finally	-10.9677
▁HP	-10.9678
▁colonies	-10.9678
▁needle	-10.9685
▁acrylate	-10.9685
▁convenient	-10.9687
{2-	-10.9689
▁pooled	-10.969
5′	-10.9692
▁instrument	-10.9694
ever	-10.9694
(((	-10.9695
octahydro	-10.9697
▁artisan	-10.9697
▁acrylic	-10.9698
10%	-10.9699
▁vaccines	-10.9705
propanoate	-10.9705
acc	-10.9705
EG	-10.9708
▁dispersed	-10.9708
▁fuel	-10.971
▁highest	-10.9711
cyclobutyl	-10.9713
▁actual	-10.9714
Trp	-10.9728
Phenyl	-10.9733
▁talc	-10.9734
-(2,6-	-10.9734
receptor	-10.9739
▁126	-10.9742
▁(1.7	-10.9746
ureido	-10.9747
▁Tables	-10.9747
sulphonyl	-10.9749
▁graph	-10.975
▁chromatographic	-10.975
▁(1997)	-10.9752
deriv	-10.9756
▁subcutaneously	-10.9756
▁drive	-10.9761
▁Cyto	-10.9764
▁angiogenesis	-10.9764
▁7.55	-10.9775
-(2-(	-10.9776
▁Su	-10.9787
quinolyl	-10.9793
▁isotonic	-10.9794
methanesulfonate	-10.9796
glycine	-10.9797
▁fibro	-10.9798
▁leucine	-10.98
▁System	-10.9802
▁industrial	-10.9802
▁stimulate	-10.9806
▁exact	-10.981
ern	-10.9811
oic	-10.9815
▁event	-10.9815
▁metabolism	-10.9816
▁2005	-10.9816
mine	-10.982
ote	-10.9822
▁(4-	-10.9824
▁Gen	-10.9828
▁regulation	-10.9828
▁selectable	-10.9829
del	-10.9833
-[(2	-10.9834
▁malignant	-10.9835
▁.+-.	-10.9835
▁Solution	-10.9847
-1,1-	-10.9848
:20	-10.9848
ethanone	-10.9848
▁0.05%	-10.985
▁def	-10.9852
▁goat	-10.9854
▁causing	-10.9857
▁MgCl	-10.9857
tant	-10.9858
ING	-10.9861
GD	-10.9861
▁intron	-10.9862
▁quality	-10.9863
oci	-10.9863
▁hexyl	-10.9865
▁cartridge	-10.9866
ko	-10.9868
dex	-10.9871
▁ER	-10.9871
azepin	-10.9873
▁Tumor	-10.9876
decan	-10.9876
▁7.37	-10.9879
▁onset	-10.9879
▁HVR	-10.988
ologic	-10.9884
▁defect	-10.9885
-5-(2-	-10.9887
ival	-10.989
LU	-10.9891
▁vitamin	-10.9892
▁sugars	-10.9893
▁assigned	-10.9893
stimulatory	-10.9894
▁precursors	-10.9895
[4	-10.9899
▁raised	-10.99
95%	-10.9901
ACT	-10.9903
▁arm	-10.9907
ire	-10.991
▁2×	-10.991
▁formaldehyde	-10.9914
dioxolan	-10.9918
syn	-10.992
▁sections	-10.9921
▁Based	-10.9924
▁0.10	-10.9928
▁inside	-10.9932
imate	-10.9938
▁sum	-10.9939
ifying	-10.994
▁operating	-10.9941
alanine	-10.9945
ett	-10.9945
001	-10.9946
hexan	-10.9947
▁microorganisms	-10.9948
ential	-10.9951
optionally	-10.9953
house	-10.9956
▁7.60	-10.9958
▁Certain	-10.9958
▁dichloro	-10.9962
▁EQU	-10.9966
1,2,3	-10.9968
▁7.22	-10.9968
:15	-10.9971
▁bearing	-10.998
FN	-10.9981
▁Clone	-10.9984
GGG	-10.9985
250	-10.9986
▁Typical	-10.9988
[2-(4-	-10.999
arch	-10.9992
▁transient	-11.0002
=7.7	-11.0005
[2-(2-	-11.0008
▁fashion	-11.0013
▁isoform	-11.0014
▁mannitol	-11.0014
▁NOS	-11.0016
▁9.1	-11.002
GP	-11.002
THF	-11.0023
▁plated	-11.0023
40°	-11.003
▁giving	-11.0034
▁transformant	-11.0038
cellular	-11.0043
▁Disease	-11.0045
▁dissociation	-11.005
▁collection	-11.0052
▁monohydrate	-11.0054
▁interfere	-11.0058
▁2001	-11.0061
▁antibiotics	-11.0063
▁liquor	-11.0063
▁ointment	-11.0063
oster	-11.0063
phosphonium	-11.0067
▁prokaryotic	-11.0068
[5-(	-11.0069
azepine	-11.0075
▁Many	-11.008
▁construed	-11.008
SSC	-11.0082
Acet	-11.0085
▁isolating	-11.0087
▁9.2	-11.0088
▁perfluoro	-11.0094
▁113	-11.0096
▁7.39	-11.0097
▁leads	-11.0097
▁varied	-11.01
▁nervous	-11.0101
aff	-11.0106
cine	-11.0106
sodium	-11.011
▁sclerosis	-11.0111
▁Salt	-11.0115
solid	-11.0115
▁decomposition	-11.0118
▁disrupt	-11.0122
dichloromethane	-11.0124
ature	-11.0125
▁termination	-11.0135
bac	-11.0137
ography	-11.0137
dicarboxylic	-11.0138
sylate	-11.0138
▁allergic	-11.0139
▁Nat	-11.0139
▁triethyl	-11.014
▁supported	-11.0145
▁challenge	-11.015
▁(600	-11.0151
dried	-11.0151
▁stranded	-11.0155
▁synthase	-11.0157
XI	-11.0158
▁cardiac	-11.0158
hydride	-11.0161
methoxymethyl	-11.0164
▁trypsin	-11.0168
▁fiber	-11.017
▁124	-11.0171
▁7.48	-11.0179
▁7.31	-11.0182
▁preceding	-11.0183
▁amplify	-11.0184
▁7.18	-11.0189
▁1-(3-	-11.0195
▁Sons	-11.0197
VD	-11.0198
dimensional	-11.0199
▁choice	-11.0202
▁7.24	-11.0212
▁untreated	-11.0213
▁multimer	-11.0214
▁Asp	-11.0216
▁assembly	-11.0217
▁7.10	-11.0217
▁steroid	-11.0222
▁absorb	-11.0223
▁Here	-11.0223
eve	-11.0224
conjugated	-11.0227
TGA	-11.0228
▁91%	-11.0235
Life	-11.0236
▁isotype	-11.0237
hereinafter	-11.024
▁estimated	-11.0248
formed	-11.0248
coated	-11.0255
icular	-11.0264
neu	-11.0267
▁Optionally	-11.0268
lam	-11.027
▁450	-11.0274
evi	-11.0275
▁7.27	-11.0277
strict	-11.028
▁connect	-11.028
▁poor	-11.0281
▁109	-11.0282
▁hair	-11.0288
ave	-11.0293
▁Technologies	-11.0296
▁myo	-11.0298
thiazolidin	-11.0299
octan	-11.0304
▁pyrimidine	-11.0305
▁epoxide	-11.0312
glycan	-11.0313
glycol	-11.0313
▁recycled	-11.0316
▁black	-11.0321
diazabicyclo	-11.0322
▁dispersing	-11.0322
▁analogues	-11.0324
carbazole	-11.0329
▁rh	-11.0329
[2-	-11.0333
-1,2,3-	-11.0336
thymidine	-11.0339
▁oligomers	-11.0341
▁cannot	-11.0344
▁oxidizing	-11.0344
ethylenedioxy	-11.0344
▁gp	-11.0344
▁sulfo	-11.0345
ima	-11.0345
antigen	-11.0351
▁123	-11.0356
▁gaseous	-11.0359
▁heterodimer	-11.0362
isoindol	-11.0368
▁7.29	-11.0368
▁NaH	-11.0371
igu	-11.0373
▁leading	-11.0375
▁scaffold	-11.0375
▁bladder	-11.0377
(2,2,2-	-11.0381
▁127	-11.0383
▁PNA	-11.0386
▁inclusion	-11.0387
-5-(4-	-11.0392
oph	-11.0394
▁7.41	-11.0399
dichloroethane	-11.04
Asp	-11.0401
▁irradiation	-11.0402
▁Recombinant	-11.0404
▁7.23	-11.0408
▁7.43	-11.0409
▁power	-11.041
▁oxime	-11.0411
▁performing	-11.0417
▁functionality	-11.0417
▁transplant	-11.0421
ama	-11.0423
▁modulating	-11.0424
▁114	-11.0427
▁Administration	-11.0439
▁crop	-11.0442
immuno	-11.0443
quinazoline	-11.0447
▁IgE	-11.0452
▁routine	-11.0454
▁seeded	-11.0455
▁oxides	-11.0459
▁classes	-11.046
▁Sigma	-11.046
viral	-11.0461
▁halides	-11.0462
ley	-11.0466
▁0.000	-11.0467
90%	-11.0472
▁131	-11.0477
2,4-	-11.0478
▁Pharm	-11.0479
▁(0.03	-11.048
▁Zn	-11.0484
▁integrated	-11.0484
NHR	-11.0485
▁EMBO	-11.0489
group	-11.0491
PPh	-11.0492
ify	-11.0492
prot	-11.0494
▁isomerization	-11.0494
▁(1985)	-11.0496
▁135	-11.0497
▁FACS	-11.0499
[1-(	-11.0501
▁milk	-11.0503
▁depends	-11.0504
onal	-11.0506
[2,1-	-11.0506
▁word	-11.0511
cel	-11.0513
▁fine	-11.0514
▁injections	-11.0515
▁Blood	-11.0523
▁RPMI	-11.0525
▁versus	-11.0528
▁analogy	-11.0529
▁aggregate	-11.053
▁health	-11.0534
▁constitute	-11.0537
▁polyester	-11.0539
▁mmoles	-11.0541
▁appears	-11.0541
▁tin	-11.0549
▁MeCN	-11.055
▁applicable	-11.0552
isoindolin	-11.0554
▁carbocyclic	-11.0555
▁share	-11.0556
-(2,4-	-11.0557
▁hereinafter	-11.0567
▁145	-11.0567
stim	-11.0568
▁monitoring	-11.0571
▁held	-11.0571
indazole	-11.0573
▁foreign	-11.0581
▁maleic	-11.0603
▁render	-11.0604
140	-11.0606
▁perform	-11.0609
▁binders	-11.0609
gastrointestinal	-11.0609
▁filler	-11.0609
▁1×	-11.061
{4-[	-11.0611
▁access	-11.0612
▁neutralizing	-11.0616
▁intravenously	-11.062
▁Experimental	-11.062
450	-11.062
▁deleted	-11.0621
bromophenyl	-11.0628
▁enhancing	-11.0632
aria	-11.0634
▁exceed	-11.0635
RK	-11.0644
▁IGF	-11.0645
▁cyclobutyl	-11.065
3-8	-11.065
solvent	-11.0653
▁sarcoma	-11.0653
▁ORF	-11.0654
PK	-11.0657
▁9.3	-11.0663
ech	-11.0665
▁spirit	-11.0666
berg	-11.0667
vert	-11.0668
methylpropyl	-11.0671
lambda	-11.0671
▁flavoring	-11.0672
organ	-11.0673
▁tank	-11.0676
▁PL	-11.0677
▁efficiently	-11.0682
▁glycols	-11.0686
iod	-11.0687
oper	-11.069
cycle	-11.0701
▁Polymer	-11.0701
×106	-11.0702
fluorobenzyl	-11.0706
▁our	-11.0708
▁chip	-11.0711
GFP	-11.0716
amid	-11.0726
▁dialkyl	-11.0728
XIII	-11.0728
ime	-11.0729
▁observation	-11.0731
▁112	-11.0733
sec	-11.0741
▁2003	-11.0742
▁7.52	-11.0743
▁severe	-11.0747
▁0.09	-11.0748
▁700	-11.0751
▁vessels	-11.0752
tru	-11.0752
▁composite	-11.0757
▁thionyl	-11.076
]-6-	-11.0761
▁SNP	-11.0762
▁7.49	-11.0763
domain	-11.0765
▁TEA	-11.0769
(1,3-	-11.077
pine	-11.077
▁7.21	-11.0775
▁tolerance	-11.0776
adenosine	-11.0776
▁pathways	-11.0783
▁tetrakis	-11.0783
psin	-11.0788
▁orientation	-11.0795
▁7.44	-11.0796
mimetic	-11.0797
ovirus	-11.0799
lie	-11.0801
GenBank	-11.0807
olate	-11.0808
▁Immun	-11.0808
stein	-11.0811
▁appear	-11.0812
▁aggregation	-11.0812
pri	-11.0815
▁7.05	-11.0815
▁publications	-11.0817
calc	-11.0822
▁reduces	-11.0823
▁7.65	-11.0823
▁Opti	-11.0824
)-2-(4-	-11.0827
▁tan	-11.083
omic	-11.0831
kinase	-11.0832
▁spot	-11.0835
▁naphthalene	-11.0836
osome	-11.0841
(2)	-11.0845
methoxyethyl	-11.0846
▁Hydro	-11.0848
▁Catalyst	-11.0849
▁118	-11.0849
▁extra	-11.0853
oy	-11.086
▁supernatants	-11.086
▁monoxide	-11.0866
▁[3	-11.0867
▁plaque	-11.0872
cum	-11.0875
▁surgery	-11.0879
▁IN	-11.0881
▁consecutive	-11.0884
vision	-11.0887
▁stringency	-11.0889
phor	-11.0894
MEM	-11.0894
▁3′-	-11.0895
▁polycyclic	-11.0895
▁Lo	-11.0896
▁late	-11.0898
▁undesirable	-11.09
▁Inhibition	-11.0903
▁respiratory	-11.0903
▁carbamoyl	-11.0903
▁thick	-11.0906
▁4,4	-11.0907
axis	-11.0917
CAT	-11.0921
rr	-11.0922
-(3,5-	-11.0922
▁polysaccharide	-11.0922
▁116	-11.0923
sensi	-11.0927
▁contribute	-11.0928
dibenzo	-11.0929
0.05	-11.093
▁spectroscopy	-11.0931
nucleoside	-11.0932
▁culturing	-11.094
▁numerous	-11.094
nitrobenzene	-11.0941
▁{	-11.0942
▁pseudo	-11.0942
TNF	-11.0943
▁adapted	-11.0945
minute	-11.0946
otoxin	-11.0946
OCF	-11.0947
▁alkanoyl	-11.0948
▁symptom	-11.095
++	-11.095
▁Accession	-11.0952
▁polymorph	-11.0954
▁Structure	-11.0959
▁Current	-11.0967
TU	-11.0967
tagged	-11.0968
Tyr	-11.097
▁far	-11.0971
▁XI	-11.0973
dynamic	-11.0979
▁glutamic	-11.0979
▁1987	-11.0979
▁PBMC	-11.098
▁7.19	-11.0985
▁utility	-11.0986
yrimidinediamine	-11.0987
bound	-11.0988
▁organs	-11.0994
▁keto	-11.0996
▁Hep	-11.0997
acceptable	-11.1007
[3-(	-11.101
▁stopped	-11.1011
▁evaluate	-11.1011
phos	-11.1012
▁strands	-11.1014
ural	-11.1016
▁Phe	-11.1019
▁porous	-11.102
ively	-11.1022
guanine	-11.1023
▁titled	-11.1032
Li	-11.1036
)-3-(4-	-11.1036
deficient	-11.1037
▁pipe	-11.1042
butyldimethylsil	-11.1043
OEt	-11.1044
keto	-11.1045
▁7.47	-11.1047
107	-11.1048
▁hemi	-11.1049
▁put	-11.1051
▁suggest	-11.1054
pyrimidinyl	-11.1056
▁healthy	-11.1056
▁35%	-11.1057
3-10	-11.1066
▁HEPES	-11.1066
▁equation	-11.1071
bromomethyl	-11.1079
▁7.16	-11.1086
6-10	-11.1086
cort	-11.1086
plasia	-11.1087
▁hydroxyalkyl	-11.1089
pyridazine	-11.109
▁break	-11.1091
▁Neuro	-11.1093
▁usual	-11.1098
▁7.8	-11.1098
▁hydroxypropyl	-11.11
▁Solid	-11.11
▁EST	-11.1101
uch	-11.1101
▁trichloro	-11.1101
▁stabilizers	-11.1102
▁Cap	-11.1102
▁protect	-11.1103
▁2.00	-11.111
▁events	-11.1112
▁mild	-11.1122
butoxide	-11.1124
▁Vector	-11.1125
▁definitions	-11.1125
aminoethyl	-11.1139
raw	-11.1144
▁Gu	-11.1144
hydroxypropyl	-11.1147
manufactured	-11.115
▁primarily	-11.1152
▁fourth	-11.1153
106	-11.1153
Perkin	-11.1155
▁pan	-11.1155
▁Man	-11.1156
salicyl	-11.1157
centr	-11.116
▁passage	-11.1161
▁becomes	-11.1165
▁FBS	-11.1169
▁7.70	-11.1172
itor	-11.1172
light	-11.1176
▁3.80	-11.1176
▁regulate	-11.118
(3,4-	-11.1181
KK	-11.1181
(2,4-	-11.1181
ook	-11.1181
×50	-11.1185
▁correlate	-11.1186
▁therefrom	-11.1188
▁stringent	-11.119
▁formamide	-11.119
▁illustration	-11.1191
▁problem	-11.1194
butyrate	-11.1196
some	-11.1199
▁microorganism	-11.1199
indolin	-11.1201
▁240	-11.1201
tron	-11.1201
▁KD	-11.1207
▁exclude	-11.1208
spers	-11.1209
rating	-11.1209
▁selecting	-11.121
▁valve	-11.1211
▁conduct	-11.1213
▁Rh	-11.1214
▁subunits	-11.1219
▁7.56	-11.122
▁7.58	-11.1221
▁progress	-11.1232
stitut	-11.1233
▁seeds	-11.1237
▁Bu	-11.1242
▁55°	-11.1243
▁shaken	-11.1244
Tetra	-11.1247
1,2,3,4	-11.125
)-3,4-	-11.125
octadec	-11.1252
toluenesulfonic	-11.1255
▁GM	-11.1258
phenylethyl	-11.1258
▁memory	-11.1258
aluminum	-11.1259
rop	-11.1262
▁1.50	-11.1263
▁MP	-11.1263
▁9.6	-11.127
▁glutamine	-11.1274
pore	-11.1277
▁mechanisms	-11.1278
▁spiro	-11.1278
opt	-11.1281
▁osteo	-11.1281
▁stimulated	-11.1284
▁root	-11.1286
25°	-11.1289
encoding	-11.1292
▁suffering	-11.1295
▁7.12	-11.13
factor	-11.1301
Met	-11.1301
▁applying	-11.1302
▁relationship	-11.1302
▁finally	-11.1311
▁peroxidase	-11.1313
ux	-11.1314
ional	-11.1315
▁7.53	-11.1315
▁3.75	-11.1318
▁Monoclonal	-11.1318
▁nuclease	-11.1319
ocal	-11.132
▁0.75	-11.132
-1-(3-	-11.1321
Select	-11.1326
difluoromethyl	-11.1328
▁diabetic	-11.1328
▁TLR	-11.1329
▁neurons	-11.133
▁gastric	-11.1331
benzotriazole	-11.1334
XXI	-11.1334
▁7.51	-11.1343
▁ethane	-11.1344
▁ribozyme	-11.1344
-2,3,4,5-	-11.1346
▁serial	-11.1346
butadiene	-11.1347
▁Corporation	-11.1348
idase	-11.1348
▁intervals	-11.1353
][	-11.1353
▁interchangeably	-11.1353
hydrazide	-11.1355
▁modulator	-11.136
fused	-11.1361
▁Lab	-11.1363
▁stages	-11.137
bromide	-11.1373
▁phosphine	-11.1378
▁2006	-11.1381
▁objective	-11.1382
-3'	-11.1382
▁7.62	-11.1386
proline	-11.1387
▁proliferative	-11.1387
)-2,3-	-11.1388
conjugate	-11.139
▁widely	-11.1392
dimethylphenyl	-11.1392
▁coatings	-11.1394
▁Dev	-11.1395
-4-(3-	-11.1396
rubicin	-11.1403
protecting	-11.1404
▁equilibrium	-11.1405
▁45°	-11.1405
▁cytometry	-11.1407
▁outside	-11.1407
▁benzoic	-11.1411
negative	-11.1413
carbaldehyde	-11.1417
▁liposome	-11.1419
guanidine	-11.1431
▁formate	-11.1432
dimethoxyphenyl	-11.1437
▁hu	-11.1437
▁Hetero	-11.144
=4.8	-11.1441
glycosylated	-11.1442
-5,6,7,8-	-11.1443
EK	-11.1445
▁amyloid	-11.1445
▁responsible	-11.1447
▁moderate	-11.1448
▁indirectly	-11.1449
osine	-11.1451
▁(1998)	-11.1451
tail	-11.1454
▁feature	-11.1455
▁diet	-11.1455
amb	-11.1458
graph	-11.1463
▁supply	-11.147
▁fungal	-11.1475
2,3,4	-11.1476
▁psig	-11.1477
▁95°	-11.1481
▁baseline	-11.1481
linker	-11.1482
carbonyloxy	-11.1483
▁Mu	-11.1486
Thr	-11.1488
▁introduce	-11.1488
▁Systems	-11.1491
▁DMEM	-11.1492
▁American	-11.1492
▁IgM	-11.1496
oh	-11.1498
▁Day	-11.1499
propylene	-11.1499
▁principle	-11.1501
▁paragraph	-11.1502
▁Detection	-11.1506
osin	-11.1508
▁optimized	-11.151
▁gradually	-11.1516
▁HATU	-11.152
▁2-(3-	-11.1523
▁document	-11.1527
▁stably	-11.1531
istic	-11.1533
▁hereinbefore	-11.1533
succin	-11.1534
ref	-11.1539
phosphatidyl	-11.1544
{4-	-11.1546
▁splice	-11.1548
phosphonate	-11.155
▁sulphur	-11.155
cyt	-11.1551
escent	-11.1552
▁accumulation	-11.1555
GCC	-11.1557
▁7.1	-11.1558
▁shaking	-11.1561
▁best	-11.1561
▁CTL	-11.1564
alkane	-11.1568
-((1	-11.1568
▁196	-11.157
▁7.17	-11.157
▁analogously	-11.1577
▁kinetic	-11.158
▁key	-11.158
▁suction	-11.1581
8+	-11.1586
▁germ	-11.1588
erman	-11.1591
glutamate	-11.1606
▁discovered	-11.1621
▁thienyl	-11.1624
control	-11.1624
▁succinic	-11.1629
(−)	-11.163
▁eliminate	-11.1631
▁minimize	-11.1631
▁dissolution	-11.1633
)-2-((	-11.1634
Hexane	-11.1635
(2,5-	-11.1639
▁alkylating	-11.1643
ophil	-11.1645
ova	-11.1646
▁modifying	-11.1647
▁detector	-11.1648
▁pentyl	-11.1648
▁9.4	-11.1653
▁laboratory	-11.1653
▁SiO	-11.1655
▁viability	-11.1656
▁2002	-11.1656
undec	-11.1657
▁Lewis	-11.1661
▁bonding	-11.1664
ACE	-11.1664
▁sex	-11.1671
▁exchanger	-11.1672
▁7.75	-11.1674
▁kPa	-11.1676
oul	-11.1676
▁old	-11.1676
▁electroporation	-11.1678
AMP	-11.1678
hole	-11.1679
▁thereafter	-11.169
carbox	-11.1691
linking	-11.1695
▁Spectrum	-11.1695
▁research	-11.1695
▁1,000	-11.1695
▁dichloride	-11.1697
▁nanoparticles	-11.1697
▁7.54	-11.1698
▁remains	-11.1698
▁patents	-11.1708
uri	-11.171
▁bottle	-11.1723
ida	-11.1725
▁modulators	-11.1726
expression	-11.1731
▁(1999)	-11.1731
▁paste	-11.1737
▁speed	-11.1739
▁1.45	-11.174
▁hydrolyzed	-11.1742
trate	-11.1744
dehydro	-11.1744
Bis	-11.1745
▁regeneration	-11.1748
DMA	-11.1754
▁4%	-11.1755
philic	-11.1756
▁dissolve	-11.1756
▁Receptor	-11.1758
▁Ester	-11.1758
▁CTLA	-11.1758
otic	-11.1761
▁Groups	-11.1768
137	-11.1777
Applied	-11.1777
▁7.59	-11.1779
▁summarized	-11.1781
▁IgA	-11.1782
▁Target	-11.1786
▁bubble	-11.179
emi	-11.1792
carboxamido	-11.1793
3,3,3-	-11.1794
▁comparable	-11.1796
▁280	-11.1796
▁12.5	-11.1797
top	-11.1797
▁modulation	-11.18
▁5'-	-11.1808
direct	-11.1811
adenine	-11.1813
▁tumour	-11.1815
▁7.14	-11.1816
ocyte	-11.1818
▁Clin	-11.1821
hu	-11.1827
▁cyanide	-11.1827
▁anionic	-11.1828
▁barrier	-11.1828
▁problems	-11.183
cyclopentane	-11.183
▁flavor	-11.183
▁University	-11.183
5,000	-11.1831
imethylsulfoxide	-11.1833
picolin	-11.1833
=1.8	-11.1834
Pharmacia	-11.1838
=1.5	-11.184
▁7.80	-11.1843
GEN	-11.1845
)2—	-11.1854
▁subset	-11.1854
sulfon	-11.1854
▁Ste	-11.1861
▁7.61	-11.1864
Tri	-11.1867
fluorenyl	-11.187
exchange	-11.1871
160	-11.1871
nate	-11.1881
▁polyoxyethylene	-11.1883
▁stimulating	-11.1886
-1,5-	-11.19
TK	-11.1904
-1(2	-11.1906
▁inclusive	-11.1908
▁synthesizing	-11.1912
▁extensive	-11.1915
inhibit	-11.1917
▁quantified	-11.1919
endo	-11.1923
▁towards	-11.1923
Alkyl	-11.1924
block	-11.1925
(6-(	-11.1928
▁copies	-11.1929
benzoxazol	-11.1931
▁machine	-11.1931
▁2,2,2-	-11.1935
′)2	-11.1937
azetidine	-11.1937
GAT	-11.1941
▁fabric	-11.1943
fluorescein	-11.1945
▁parenterally	-11.1945
▁147	-11.1947
enter	-11.195
▁Mobile	-11.1952
▁chloroformate	-11.1954
Phos	-11.1954
▁proviso	-11.1958
▁guide	-11.1962
▁rodent	-11.1964
▁module	-11.1964
▁nerve	-11.1972
▁7.13	-11.1973
▁aniline	-11.1974
glyceride	-11.1979
▁Protocols	-11.1981
▁symbol	-11.1982
molar	-11.1987
▁-78°	-11.1988
▁2:1	-11.1988
▁3.85	-11.199
oxymethyl	-11.1992
▁remainder	-11.1994
▁competitive	-11.1999
▁cyst	-11.2003
▁(120	-11.2003
neoplastic	-11.2007
propynyl	-11.2007
tBu	-11.2014
,6,7,8	-11.2014
+1)+	-11.2015
chroman	-11.2019
▁soil	-11.2021
▁endonuclease	-11.2025
}-2-	-11.2028
either	-11.2031
▁how	-11.2031
3,4-	-11.2033
▁shock	-11.2034
▁bowel	-11.2034
▁4,6	-11.2039
▁imidazolyl	-11.204
Difluoro	-11.204
▁7.57	-11.2041
▁7.63	-11.2044
▁136	-11.2045
▁packed	-11.2048
▁3.90	-11.2049
▁lactic	-11.2049
eluent	-11.2051
▁Synthetic	-11.2052
▁7.00	-11.2057
ket	-11.2062
▁Model	-11.2069
=8.9	-11.2069
▁inner	-11.2072
thal	-11.2075
ski	-11.2075
▁numbering	-11.2079
plant	-11.2083
▁constituent	-11.2092
▁GFP	-11.2099
sulfonamido	-11.2102
0-100%	-11.211
luminescent	-11.2112
▁Sambrook	-11.2114
▁133	-11.2117
imido	-11.2117
▁switch	-11.2117
Trifluoro	-11.2119
ious	-11.2122
▁(2000)	-11.2131
▁almost	-11.2131
▁created	-11.2132
197	-11.2132
Cyano	-11.2133
▁benzoate	-11.2133
▁threonine	-11.2134
▁7.08	-11.2136
▁rubber	-11.2137
▁7.64	-11.214
▁1.20	-11.214
vin	-11.2142
▁Str	-11.2144
▁sweet	-11.2147
▁Germany	-11.2149
▁necessarily	-11.2149
▁parallel	-11.2153
-3.5	-11.2156
UL	-11.2167
alo	-11.2171
▁emulsifying	-11.2171
▁interleukin	-11.2177
▁wax	-11.2178
acrylic	-11.2181
▁cardiovascular	-11.2181
-3-[	-11.2183
▁constitutive	-11.2183
▁inoculated	-11.2185
▁cytoplasmic	-11.2185
▁retained	-11.2185
=5.6	-11.2186
sulfonyloxy	-11.2186
▁(7)	-11.2189
▁chlor	-11.2191
▁obesity	-11.2193
▁sera	-11.2194
lysine	-11.2195
Spec	-11.2195
▁(1986)	-11.2195
▁inducible	-11.2199
▁Crystal	-11.2205
OMe	-11.2208
▁acetal	-11.221
▁public	-11.2212
▁55%	-11.2214
▁Total	-11.2215
▁scan	-11.2216
▁10,000	-11.2223
▁viscous	-11.2225
▁Plasmid	-11.2237
:2)	-11.2241
▁dilutions	-11.2243
▁7.50	-11.2243
proliferative	-11.2248
5'-	-11.2248
▁herbicide	-11.2249
nitr	-11.2249
raft	-11.2254
FIG	-11.2259
▁behavior	-11.2263
hydrazine	-11.2263
Benzo	-11.2264
▁subtype	-11.2268
heterocyclyl	-11.2268
▁Several	-11.2271
▁indication	-11.2275
▁1.40	-11.2278
method	-11.2279
nucleic	-11.2281
▁details	-11.2284
▁chromosomal	-11.2285
naturally	-11.2289
metal	-11.2292
▁diamine	-11.2298
▁chromium	-11.2299
▁demonstrates	-11.23
▁migration	-11.2303
pept	-11.2308
▁EDC	-11.2313
▁gold	-11.2318
▁log	-11.2319
▁(0.04	-11.2322
▁strongly	-11.2328
▁gland	-11.2328
▁7.11	-11.2328
▁mimic	-11.2329
▁10.5	-11.2332
▁distinguish	-11.2335
▁BMP	-11.2336
▁pyro	-11.2336
▁though	-11.2343
▁3.95	-11.2345
phil	-11.2345
▁modifier	-11.2346
▁Mono	-11.2347
ogy	-11.2359
oxetan	-11.236
pentafluoro	-11.236
▁mercapto	-11.2364
pentenyl	-11.237
▁truncated	-11.237
▁psoriasis	-11.2374
▁diol	-11.2375
iga	-11.2376
▁3-(2-	-11.238
▁immunogenicity	-11.238
▁transporter	-11.238
bio	-11.238
▁methacrylate	-11.2382
▁Kabat	-11.239
pharma	-11.2391
ligand	-11.2391
▁suppositories	-11.2392
▁3.00	-11.2397
▁colony	-11.2397
]+=	-11.2399
cellulose	-11.2404
Technology	-11.2405
▁pharmacokinetic	-11.2405
vascular	-11.2405
magnesium	-11.2408
▁macrophages	-11.2414
▁trait	-11.2417
▁proteolytic	-11.2417
▁Asn	-11.2418
▁theoretical	-11.2419
=6.5	-11.242
pyridinium	-11.2423
[3.2.1]	-11.2423
TTC	-11.2424
▁special	-11.2438
-3.0	-11.2438
▁slide	-11.2438
▁Journal	-11.2441
,6,6	-11.2442
▁Adv	-11.2445
Nitro	-11.2451
avi	-11.2451
▁mother	-11.2453
▁polymorphism	-11.2454
LY	-11.2459
▁Virus	-11.246
▁germline	-11.2461
▁biochemical	-11.2461
▁superior	-11.2466
▁Syn	-11.2467
▁Wis	-11.2471
sorbent	-11.2471
▁Add	-11.2474
▁milli	-11.2476
tartrate	-11.2476
bottom	-11.2478
▁4.00	-11.2479
diaza	-11.248
▁oxidative	-11.248
▁nucleus	-11.2482
AAA	-11.2483
▁thyroid	-11.2486
▁analogue	-11.2489
▁Assays	-11.2496
▁sheet	-11.2499
▁leaf	-11.25
piperidino	-11.25
▁hypertension	-11.2501
▁morpholine	-11.2504
▁great	-11.2507
alcohol	-11.2513
benzylidene	-11.2516
▁45%	-11.2517
benzofuranyl	-11.2522
▁chemotherapy	-11.2525
war	-11.2526
▁automated	-11.253
TX	-11.2539
therapy	-11.2542
naphth	-11.2542
▁outlet	-11.2547
sarcoma	-11.2553
▁Pyr	-11.2556
▁recited	-11.2559
▁7.68	-11.2568
▁Ann	-11.2571
ophy	-11.2573
pair	-11.2573
▁7.73	-11.2574
▁Escherichia	-11.2575
▁biotinylated	-11.2575
idium	-11.2578
Ex	-11.258
Acetyl	-11.2599
▁advance	-11.2602
▁(1:1)	-11.2608
IFN	-11.2609
▁97%	-11.261
▁penicillin	-11.261
borane	-11.2613
wing	-11.2615
▁254	-11.2616
▁enhancers	-11.2622
▁enantiomeric	-11.2625
▁cerebral	-11.2627
EV	-11.2629
▁denote	-11.2636
▁build	-11.2638
▁Ox	-11.2639
▁decreasing	-11.2642
liquid	-11.2643
CHCl	-11.2645
▁7.72	-11.2645
▁antibacterial	-11.2646
▁streptavidin	-11.2648
▁discharge	-11.2648
ules	-11.2655
▁tetrachloride	-11.2658
VP	-11.2658
-4,6-	-11.2661
mission	-11.2665
▁hematopoietic	-11.2669
▁1.35	-11.2674
▁flo	-11.2678
zy	-11.268
butylammonium	-11.268
ethenyl	-11.2683
▁0.45	-11.2683
▁studied	-11.2683
▁lacking	-11.2685
▁frequently	-11.2686
born	-11.2688
▁manganese	-11.2694
methylpiperazin	-11.2694
▁proline	-11.2695
piperidyl	-11.2696
▁joint	-11.2696
}-1	-11.27
▁parental	-11.271
illi	-11.2711
▁3.70	-11.2719
▁strategy	-11.2719
▁7.78	-11.2721
▁steel	-11.2723
epsilon	-11.2728
▁pyrimidinyl	-11.2729
▁solubilize	-11.2732
▁integration	-11.2736
▁replace	-11.2737
108	-11.274
▁CLMS	-11.2741
ift	-11.2743
▁dialkylamino	-11.2744
▁takes	-11.2745
▁distance	-11.2747
▁7.09	-11.2748
▁balance	-11.2753
▁primate	-11.2761
▁approaches	-11.2766
▁DETD	-11.277
▁dysfunction	-11.2774
▁(10%	-11.2775
▁manufacturing	-11.2778
▁consideration	-11.2787
▁gases	-11.2792
▁remain	-11.2793
▁3.78	-11.2795
▁vigorously	-11.2797
▁Three	-11.2802
▁Edition	-11.2804
tetrafluoro	-11.2805
▁microtiter	-11.2806
▁elimination	-11.2812
)-2,2-	-11.2819
▁anchor	-11.282
[1,1′-	-11.2821
▁biomass	-11.2825
▁Formulations	-11.2827
expressed	-11.2829
▁Fractions	-11.2829
ush	-11.2831
▁2007	-11.2832
▁7.67	-11.2834
▁trimethylsilyl	-11.2842
dominant	-11.2842
▁(1984)	-11.2844
▁vein	-11.2845
▁equipment	-11.2846
▁admixture	-11.2855
▁broth	-11.2859
▁hydrobromic	-11.2861
▁growing	-11.2863
thiomethyl	-11.2869
180	-11.2873
▁suggests	-11.2875
▁counted	-11.2876
▁stomach	-11.288
▁departing	-11.2882
▁7.85	-11.2883
▁colourless	-11.2885
▁2.50	-11.2885
▁7.71	-11.2887
diethylamino	-11.2889
▁effectiveness	-11.289
▁metastasis	-11.2893
▁CCR	-11.2901
CTC	-11.2909
▁fibers	-11.291
▁STM	-11.291
isoxazole	-11.2912
Qu	-11.2913
▁thiazolyl	-11.2917
▁Biosystems	-11.2917
▁nucleobase	-11.2919
▁lubricants	-11.292
isocyanate	-11.2924
▁dendritic	-11.2925
nitrobenzyl	-11.2928
▁6.95	-11.2929
occurring	-11.2933
)-1-(4-	-11.2933
▁just	-11.2934
ologies	-11.294
▁expresses	-11.2942
▁retroviral	-11.2942
▁Company	-11.2942
▁displayed	-11.2947
version	-11.2948
▁improving	-11.2951
▁copy	-11.2954
▁working	-11.2956
▁ug	-11.2957
▁7.04	-11.2957
▁Ver	-11.2958
199	-11.2963
(0)	-11.2963
▁bring	-11.2964
dioxide	-11.2967
▁potentially	-11.2969
XIV	-11.297
▁aptamer	-11.2973
lateral	-11.2974
▁neutralization	-11.2976
▁7.74	-11.2977
▁modify	-11.2977
▁1.75	-11.2978
trifluoroethyl	-11.2979
oxoethyl	-11.2983
▁existing	-11.2983
▁restricted	-11.2983
petroleum	-11.2987
peptidase	-11.2988
▁6.90	-11.299
▁7.07	-11.2994
uric	-11.2994
▁laser	-11.2995
plex	-11.2996
▁2.25	-11.3
▁mill	-11.3002
▁mediate	-11.3002
99%	-11.3002
=6.3	-11.3006
▁initiator	-11.3009
▁spread	-11.3009
▁preferentially	-11.3016
▁7.66	-11.3018
(1,1-	-11.3025
stat	-11.303
▁emulsifier	-11.3033
15°	-11.3034
▁assembled	-11.3038
][1,3]	-11.3038
color	-11.3041
▁boronic	-11.3042
unt	-11.3044
▁144	-11.3044
▁tartaric	-11.3045
▁marked	-11.3051
▁7.06	-11.3051
▁account	-11.3055
▁ruthenium	-11.3055
▁Colo	-11.3056
▁(0.25	-11.3063
▁outer	-11.3063
▁European	-11.3066
9,10-	-11.3066
▁intestinal	-11.307
▁rhodium	-11.307
[3-(4-	-11.3075
109	-11.3076
[(3-	-11.3078
phosphorothioate	-11.3079
-(7-	-11.3079
eep	-11.308
GCG	-11.3081
▁Laboratories	-11.3081
▁proposed	-11.3081
indan	-11.3084
▁styrene	-11.3094
▁GLP	-11.3098
▁dextran	-11.3098
▁thrombin	-11.3101
▁silicate	-11.3105
▁2.20	-11.3106
▁moisture	-11.3108
ORa	-11.3109
▁WT	-11.3109
▁Biotechnology	-11.3112
directed	-11.3115
▁ischemia	-11.3116
▁esterification	-11.3117
xylene	-11.3118
▁aprotic	-11.3118
▁chemokine	-11.312
phosphono	-11.3132
▁1.30	-11.3132
TCA	-11.3139
▁stabilizing	-11.314
▁antimicrobial	-11.3144
nicotinic	-11.3145
stabil	-11.3147
▁MW	-11.3152
strom	-11.3156
▁Liquid	-11.3158
▁genotype	-11.3158
20°	-11.3164
▁Chromatography	-11.3169
azi	-11.3174
3-5	-11.3176
+1]+	-11.3176
▁coat	-11.3177
[4.5]	-11.3177
▁accession	-11.3178
lib	-11.3183
▁COS	-11.3185
▁intranasal	-11.3188
▁RNAi	-11.3189
▁doublet	-11.3189
▁oligosaccharide	-11.3193
FU	-11.3197
▁Prep	-11.3198
Promega	-11.32
▁pills	-11.3205
▁TMS	-11.3205
▁Electro	-11.3206
▁criteria	-11.3213
▁130°	-11.3214
Thermo	-11.3217
▁follow	-11.3218
▁(0.06	-11.3218
▁pulse	-11.322
▁adsorbent	-11.322
▁MMP	-11.3223
leucine	-11.3226
▁unmodified	-11.3228
▁Bacillus	-11.3233
▁asparagine	-11.3235
▁packaging	-11.3235
sense	-11.3235
▁text	-11.3237
▁cathode	-11.3237
▁dehydrogenation	-11.3237
▁integrin	-11.3244
homo	-11.3249
▁Ligand	-11.3253
▁−20°	-11.3262
▁3.60	-11.3263
▁digest	-11.3268
azaspiro	-11.3274
CONR	-11.3275
▁oxalate	-11.3277
▁interface	-11.3281
amidine	-11.3282
star	-11.3285
▁metastatic	-11.3289
▁sometimes	-11.3294
▁Second	-11.3299
▁7.76	-11.33
▁chelating	-11.3301
▁replicate	-11.3305
▁0.20	-11.3307
▁7.03	-11.3307
GAG	-11.331
▁reader	-11.331
▁Similar	-11.3311
100%	-11.3311
▁alterations	-11.3314
▁methoxide	-11.3315
▁spinal	-11.3315
▁Virol	-11.3317
zyme	-11.3317
▁box	-11.3321
▁precise	-11.3324
cillin	-11.3325
▁incorporating	-11.3326
▁fluorinated	-11.3327
▁respond	-11.3335
▁antioxidants	-11.3335
▁anode	-11.3339
▁7.36	-11.3342
rat	-11.3345
▁stroke	-11.3346
▁dehydrogenase	-11.3355
▁ascorbic	-11.3357
▁circulating	-11.3358
catalyzed	-11.3362
▁eluate	-11.3362
▁initiated	-11.3362
▁maintenance	-11.3366
▁9.7	-11.3369
▁grow	-11.337
▁define	-11.3375
▁haloalkoxy	-11.3381
1000	-11.3385
deca	-11.3386
▁care	-11.3386
▁1985	-11.3388
liter	-11.3388
electro	-11.3389
▁comparative	-11.3391
▁phosphonate	-11.3393
CoA	-11.3396
Thi	-11.3398
carbazol	-11.3403
▁tryptophan	-11.3404
necked	-11.3404
▁pyrazolyl	-11.3406
▁evolution	-11.3409
rk	-11.341
▁monomeric	-11.3415
filtration	-11.3418
▁determinant	-11.342
▁recycle	-11.3421
▁3.82	-11.3422
▁Materials	-11.3422
▁Japanese	-11.3423
▁shall	-11.3423
dioxa	-11.3424
Cys	-11.3427
▁mis	-11.3429
▁fungi	-11.3432
AAG	-11.3433
▁9.8	-11.3435
ipp	-11.344
▁mismatch	-11.3441
▁transcribed	-11.3447
=1.2	-11.3448
phosphonic	-11.3454
aq	-11.3455
▁7.77	-11.3456
▁1.05	-11.3462
▁thoroughly	-11.3463
▁nine	-11.3464
▁occurred	-11.3465
▁split	-11.3467
▁polystyrene	-11.3468
6′	-11.3469
▁lys	-11.3473
quinoxaline	-11.3473
natural	-11.3474
▁agitation	-11.3475
▁hexafluoro	-11.3475
(4,4,5,5-	-11.3478
▁Reagent	-11.3489
▁heterocyclo	-11.349
vastatin	-11.349
UT	-11.349
▁heparin	-11.3493
azone	-11.3494
▁appreciate	-11.35
▁supplement	-11.3501
VEGF	-11.3502
characterization	-11.3503
▁polypropylene	-11.3505
▁carboxymethyl	-11.3509
▁vesicle	-11.3513
CAR	-11.3513
broad	-11.3514
▁explained	-11.3521
formation	-11.3524
AGE	-11.3529
otropic	-11.3533
▁electrical	-11.3537
yco	-11.3539
▁overhead	-11.3541
▁susceptible	-11.3543
▁7.69	-11.3547
▁resist	-11.355
-1-(4-	-11.3554
cyanophenyl	-11.3554
▁3.20	-11.3554
▁exception	-11.3555
▁capsid	-11.3557
▁Over	-11.3562
▁transduce	-11.3564
▁1.65	-11.3569
Sulf	-11.3575
opathy	-11.3576
▁3.65	-11.3577
▁themselves	-11.3579
▁Isolation	-11.358
cytidine	-11.3582
▁HPV	-11.3585
▁lymphocyte	-11.3592
▁7.82	-11.3595
▁engineering	-11.3598
azepan	-11.3598
▁Biotech	-11.36
▁suggested	-11.3604
=2.1	-11.3606
▁2-((	-11.3611
genous	-11.3612
selective	-11.3616
▁multiplet	-11.3617
▁physician	-11.3618
▁Oligonucleotide	-11.3619
▁2.10	-11.3619
▁cleave	-11.3619
▁adjust	-11.3627
amate	-11.3632
▁2008	-11.3642
▁practical	-11.3646
chromen	-11.3647
▁88%	-11.3647
▁microbial	-11.3649
▁rejection	-11.3653
▁antiviral	-11.3655
resistant	-11.366
▁neck	-11.3663
▁safety	-11.3665
▁diazo	-11.3674
▁sorbitan	-11.3676
▁mucosa	-11.3677
benzodiazepine	-11.3683
▁7.79	-11.3686
▁help	-11.3686
culture	-11.369
▁atomic	-11.3695
▁fitted	-11.3706
▁2.30	-11.3707
▁carefully	-11.3711
▁figure	-11.3718
▁Xaa	-11.372
range	-11.3721
ketone	-11.3725
plate	-11.3725
=9.2	-11.3732
▁Biological	-11.3732
amidino	-11.3742
kel	-11.3745
tention	-11.3746
▁lesions	-11.3746
▁3.88	-11.3747
olytic	-11.3747
134	-11.3749
activity	-11.3749
Merck	-11.375
▁7.02	-11.3752
▁ACN	-11.3752
▁3.76	-11.3753
olysis	-11.3756
▁neutrophil	-11.3757
[2.2.1]	-11.3767
▁impact	-11.3778
▁consider	-11.378
▁6.98	-11.378
▁alkene	-11.3781
sulfide	-11.3782
iphenylphosphino	-11.3786
▁Depending	-11.3786
=1.6	-11.3787
▁ground	-11.379
PRO	-11.3793
▁140°	-11.3801
arco	-11.3802
NHCH	-11.3804
▁aligned	-11.3807
▁(2001)	-11.3807
▁neuronal	-11.3808
▁Corp	-11.3808
▁receive	-11.3811
▁spectrometer	-11.3811
▁plot	-11.3815
amylase	-11.3817
▁3.50	-11.3819
▁EGF	-11.3824
fur	-11.3828
=5.5	-11.3831
▁establish	-11.3832
▁3.92	-11.3835
▁differentiate	-11.3837
▁weighed	-11.3837
▁functionally	-11.3842
▁mito	-11.3853
▁prophylaxis	-11.3854
▁smooth	-11.3856
=2.2	-11.3868
▁palm	-11.3875
izable	-11.3878
idone	-11.3881
GCT	-11.3883
covalent	-11.3884
▁remained	-11.3888
▁ampicillin	-11.3889
▁named	-11.3893
(2-((	-11.3895
ifier	-11.3898
▁compartment	-11.3898
▁Taq	-11.3902
▁report	-11.3905
▁scanning	-11.3906
▁passing	-11.3908
▁flanking	-11.3909
▁entry	-11.3909
▁aspartic	-11.391
▁angle	-11.3913
▁contemplates	-11.3915
▁meso	-11.3916
-2,3	-11.3921
▁progeny	-11.3922
Gibco	-11.3925
▁Standard	-11.3925
▁dodecyl	-11.3933
Formula	-11.3935
▁Within	-11.3943
react	-11.3947
▁0.88	-11.3947
▁pathological	-11.3951
▁crosslinking	-11.3952
▁package	-11.3955
▁3.84	-11.3958
▁biomarker	-11.396
▁leaves	-11.3963
▁3.81	-11.3965
ifies	-11.3971
cooling	-11.3974
▁circulation	-11.3975
▁deionized	-11.3977
▁(0.15	-11.3978
▁KOH	-11.398
▁prevented	-11.3983
▁consumption	-11.3984
-6-(4-	-11.3986
centrifuge	-11.3995
▁investigated	-11.4004
▁1.38	-11.4005
▁MPa	-11.4009
▁Concentration	-11.401
▁atherosclerosis	-11.4015
▁Number	-11.4017
▁7.88	-11.4023
▁charcoal	-11.4027
▁excessive	-11.4028
DELTA	-11.4029
▁7.95	-11.4031
▁7.46	-11.4034
▁valine	-11.4035
▁7.90	-11.4037
▁currently	-11.4038
)-1-((	-11.4038
▁killing	-11.404
▁manual	-11.404
{5-	-11.4043
ital	-11.4045
▁triglyceride	-11.4047
tuzumab	-11.4049
▁succinate	-11.4049
acetylamino	-11.4052
▁Antigen	-11.4053
▁3.72	-11.4055
=5.2	-11.4055
▁incorporate	-11.4058
▁Growth	-11.4061
=2.3	-11.4061
▁3.30	-11.4066
▁DIEA	-11.4075
nucleo	-11.4079
▁receiving	-11.408
▁flank	-11.4082
▁3.86	-11.4087
▁closed	-11.4092
test	-11.4097
▁situation	-11.4098
▁EcoRI	-11.4099
▁Free	-11.4101
regulation	-11.4103
release	-11.4105
▁localization	-11.4107
▁1.48	-11.4111
▁Pharmacol	-11.4111
cutaneous	-11.4113
▁repair	-11.4113
maleimide	-11.4118
▁Gln	-11.4118
▁lauryl	-11.4119
▁dextrose	-11.4121
▁methanesulfonic	-11.4122
butanoic	-11.4124
▁7.83	-11.4125
▁heterogeneous	-11.4131
▁1.44	-11.4132
-4,4-	-11.4136
▁exclusion	-11.4138
▁alteration	-11.4142
Sepharose	-11.4148
▁2.60	-11.4154
▁fewer	-11.4155
▁stabilized	-11.4159
▁1.15	-11.4162
▁colorectal	-11.4162
▁unknown	-11.4164
iff	-11.4171
(4-(4-	-11.4173
▁7.81	-11.4178
▁GST	-11.4181
▁Still	-11.4181
2/0	-11.4181
▁fluorophore	-11.4182
▁transplantation	-11.4184
▁7.92	-11.4185
amel	-11.4186
▁PDGF	-11.4187
▁microscope	-11.4191
▁suggesting	-11.4193
nicotinamide	-11.4194
TFA	-11.4196
▁purifying	-11.4196
▁specimen	-11.4199
Amersham	-11.4199
▁electrolyte	-11.4201
thiazin	-11.4202
▁live	-11.4203
▁pneumonia	-11.4208
▁urine	-11.4209
state	-11.4212
▁2.35	-11.4215
enoate	-11.4216
▁Parkinson	-11.4218
ada	-11.4219
▁acyloxy	-11.4219
scribe	-11.4228
▁retrovirus	-11.4228
▁BoNT	-11.4231
▁incubating	-11.4233
▁2.05	-11.4233
hybrid	-11.4235
=5.0	-11.4242
pyrid	-11.4243
▁glacial	-11.4245
=6.7	-11.4245
anthracene	-11.4248
▁synthesize	-11.425
aze	-11.4252
▁Starting	-11.4252
dimethoxyethane	-11.4255
luminescence	-11.4255
▁rotation	-11.4255
▁pyrazinyl	-11.4259
▁4.05	-11.4267
▁hereinabove	-11.4267
hour	-11.4269
▁1.10	-11.427
▁0.95	-11.4272
▁distillate	-11.4272
effective	-11.4275
▁setting	-11.4275
quinoxalin	-11.4276
▁fumarate	-11.4277
▁blotting	-11.4277
▁shorter	-11.4279
▁3.87	-11.428
▁750	-11.4286
▁GPCR	-11.4289
▁isomeric	-11.43
▁suppression	-11.4302
fluorene	-11.4303
▁6.92	-11.4305
▁enough	-11.4306
▁error	-11.4307
▁eluant	-11.4309
▁alkylsulfonyl	-11.4312
▁cleavable	-11.4312
▁review	-11.4314
acetaldehyde	-11.4321
▁Likewise	-11.4321
▁manipulation	-11.4321
[1,4]	-11.4331
▁humidity	-11.4331
benzophenone	-11.4331
▁1.28	-11.4332
▁(0.07	-11.4332
▁lactate	-11.4336
cular	-11.4339
Preparation	-11.4342
▁exhibiting	-11.4345
malonate	-11.4346
▁2.40	-11.4347
▁3.77	-11.4347
▁million	-11.4347
atom	-11.4349
▁3.40	-11.4351
Roche	-11.4353
▁taste	-11.4354
phosphino	-11.4355
▁discarded	-11.4358
▁10.4	-11.4359
propene	-11.4359
basic	-11.436
▁1.37	-11.4367
▁retard	-11.4371
▁reductase	-11.4371
▁7.84	-11.4375
▁dsRNA	-11.4381
▁2009	-11.4382
▁10:1	-11.4383
▁degeneration	-11.4383
dioxol	-11.4384
▁3.79	-11.4384
▁month	-11.4385
▁phosphorylated	-11.4386
acryloyl	-11.4386
aceous	-11.4386
▁hydroxylamine	-11.4388
▁egg	-11.4394
▁hamster	-11.4396
▁responsive	-11.4396
▁recording	-11.4398
▁2.75	-11.4399
▁simply	-11.4401
glycidyl	-11.4401
▁mainly	-11.4402
▁Gel	-11.4407
▁trimer	-11.441
▁dogs	-11.4416
▁compete	-11.4417
▁FGFR	-11.4418
neat	-11.4418
▁Dosage	-11.4421
▁leukocyte	-11.4423
▁embryonic	-11.4424
▁adenocarcinoma	-11.4426
▁coordinate	-11.4428
▁equilibrated	-11.4428
▁attach	-11.443
▁3.83	-11.4431
▁0.90	-11.4431
▁7.86	-11.4435
▁circular	-11.4436
rack	-11.444
▁Different	-11.4441
tetrazole	-11.4446
▁1.42	-11.4446
flow	-11.445
synthetic	-11.445
▁1.26	-11.4452
▁publication	-11.4454
▁brief	-11.4455
▁Tissue	-11.4458
▁promoting	-11.4458
quinazolinyl	-11.4458
▁recover	-11.446
▁VP	-11.4463
▁8.00	-11.4466
▁Hydrogen	-11.4467
▁0.35	-11.4469
▁pyrrolyl	-11.4469
▁what	-11.4473
▁rice	-11.4477
ocytic	-11.4481
▁shell	-11.4482
▁success	-11.4483
serine	-11.4488
▁87%	-11.4491
▁character	-11.4491
▁stoichiometric	-11.4493
▁3.15	-11.4494
▁Single	-11.4499
▁became	-11.4501
▁threshold	-11.4503
phenylboronic	-11.4503
▁taking	-11.4508
▁diastereomeric	-11.4511
▁2.15	-11.4513
[[(	-11.4514
▁#1	-11.452
▁3.94	-11.4521
▁safe	-11.4523
▁myocardial	-11.4523
▁3.25	-11.4525
▁namely	-11.4527
▁carbocyclyl	-11.4528
▁7.87	-11.4534
isothiazol	-11.4535
=2.5	-11.4538
▁herpes	-11.4538
▁1.46	-11.454
▁Diego	-11.4543
▁6.85	-11.4544
▁deficiency	-11.455
Carb	-11.4553
Hodgkin	-11.4556
▁adsorbed	-11.4564
-2-(1-	-11.4567
▁dehydration	-11.4569
▁maleate	-11.4574
▁fumaric	-11.4576
-4,5,6,7-	-11.4581
▁6.96	-11.4583
oxadiazole	-11.4583
▁2.90	-11.4585
UTR	-11.4586
▁3.89	-11.4587
itation	-11.4593
cross	-11.4593
But	-11.4595
▁intestine	-11.4597
1.60	-11.4598
▁hybridized	-11.46
▁Four	-11.46
▁CNS	-11.4603
▁cup	-11.4604
▁horse	-11.4604
▁10.3	-11.4606
▁baculovirus	-11.4612
▁uL	-11.4612
▁1.36	-11.4613
▁89%	-11.4615
view	-11.4616
▁2.65	-11.4622
lementary	-11.4626
▁velocity	-11.463
▁3.73	-11.463
▁stretch	-11.4632
▁3.98	-11.4635
▁conformational	-11.4648
×105	-11.4649
1.70	-11.4649
▁extremely	-11.4651
▁spec	-11.4651
▁1.95	-11.4657
[2.2.2]	-11.4658
80%	-11.4662
▁3.93	-11.4669
▁dicyclohexyl	-11.4678
▁sulfone	-11.4682
▁(1983)	-11.4686
▁ligase	-11.4688
vac	-11.4689
▁MAb	-11.4691
anilide	-11.4692
▁hexamethyl	-11.4698
▁indicator	-11.4699
▁Methanol	-11.47
▁4.20	-11.47
▁4.10	-11.4702
▁LPS	-11.4702
=5.4	-11.4711
▁86%	-11.4714
▁delayed	-11.4717
ribonucleotide	-11.4718
▁earlier	-11.4724
▁6.97	-11.4727
▁1.90	-11.4728
Qiagen	-11.4729
▁3.55	-11.4732
▁(0.08	-11.4733
ECT	-11.4734
▁0.85	-11.4738
lay	-11.474
▁derivatized	-11.4742
▁geometric	-11.4742
ATP	-11.4745
▁dual	-11.4746
▁3.96	-11.4749
phthalazin	-11.4752
cyst	-11.4757
▁3.74	-11.4758
▁Scientific	-11.476
▁lupus	-11.4765
▁6.99	-11.477
▁lysed	-11.4772
▁visible	-11.4776
▁methotrexate	-11.4778
EQU	-11.478
▁possibility	-11.4784
▁Low	-11.4787
▁living	-11.4794
▁technical	-11.4796
▁What	-11.4796
[1-(4-	-11.4806
▁regulator	-11.4808
▁clay	-11.4811
▁adhesive	-11.4815
▁ultraviolet	-11.482
▁2.95	-11.4822
▁Primer	-11.483
▁basal	-11.483
▁varies	-11.483
▁Class	-11.4838
▁cyclization	-11.4839
▁2.45	-11.4839
high	-11.484
▁implement	-11.4841
▁nitrite	-11.4843
▁Coll	-11.4844
acetophenone	-11.4846
▁incubator	-11.4848
ocyanin	-11.4851
producing	-11.4853
▁3.91	-11.4855
▁alkoxide	-11.4864
{1-[	-11.4865
phthalic	-11.4866
-[2-[	-11.4866
▁72°	-11.487
▁calculation	-11.4875
▁3,3-	-11.488
▁aberrant	-11.4882
▁bivalent	-11.4884
▁7.89	-11.4886
▁repeating	-11.4886
GCA	-11.4887
▁arrangement	-11.4887
▁regression	-11.4887
▁polyacrylamide	-11.489
cyclodextrin	-11.489
▁his	-11.4891
▁3.68	-11.4892
▁1.43	-11.49
▁depression	-11.4903
▁maximal	-11.4903
▁0.01%	-11.4904
▁tobacco	-11.4906
▁capillary	-11.4908
▁-20°	-11.4908
10°	-11.4912
▁(0.10	-11.4918
▁Elemental	-11.4919
▁vaginal	-11.4919
EST	-11.4919
▁oligomeric	-11.4921
▁agitated	-11.4924
▁artery	-11.4924
▁temp	-11.4928
▁nutrient	-11.4929
▁coloring	-11.4933
▁methodology	-11.4936
▁Japan	-11.4937
▁bead	-11.4938
assay	-11.4942
▁Without	-11.4946
vinylpyrrolidone	-11.495
▁1.33	-11.495
▁schematic	-11.495
ATION	-11.4953
((2-(	-11.4954
epoxy	-11.4957
▁3.45	-11.4957
micro	-11.4959
ceph	-11.4966
▁excitation	-11.4966
miscible	-11.4969
▁analyze	-11.4971
[1-(2-	-11.4978
▁Collection	-11.4985
▁glycerin	-11.4985
▁XRPD	-11.4985
▁4.15	-11.4987
▁4.25	-11.4989
▁operated	-11.499
▁packaged	-11.499
▁hydrobromide	-11.4994
▁Phys	-11.4994
-1,3,5-	-11.4994
▁2.28	-11.4995
pher	-11.4999
-4-[(	-11.5002
▁Institute	-11.5003
▁alternate	-11.5003
thiourea	-11.5004
oke	-11.5006
▁overlapping	-11.5019
▁7.01	-11.5019
fibril	-11.5021
▁relation	-11.5022
▁3.10	-11.503
COOR	-11.5032
▁putative	-11.5033
▁proteo	-11.5035
▁0.005	-11.5035
▁terminator	-11.504
▁classified	-11.5045
▁6.80	-11.5046
▁silicone	-11.5046
▁twenty	-11.5051
▁impart	-11.5051
▁eliminated	-11.5055
▁glutathione	-11.5059
▁reductive	-11.5059
▁catalyze	-11.5059
▁cord	-11.5059
▁transparent	-11.5062
▁boost	-11.5065
▁dementia	-11.5067
▁aureus	-11.5067
▁piece	-11.5069
oxime	-11.507
▁0.2%	-11.5071
butyllithium	-11.5071
agonist	-11.5072
▁6.93	-11.5073
sym	-11.5079
PEA	-11.5079
▁environmental	-11.508
uck	-11.5085
▁subclass	-11.5085
▁overlap	-11.5088
▁1.27	-11.5088
-3-(1-	-11.5095
▁8.05	-11.5096
PGE	-11.5101
▁1.47	-11.5101
▁transcriptase	-11.5104
change	-11.5111
nuclease	-11.5113
▁Techniques	-11.5115
▁sheep	-11.5118
▁7.93	-11.512
▁miRNA	-11.512
▁finger	-11.5129
▁sequential	-11.5133
▁aluminium	-11.5139
▁ocular	-11.514
▁attack	-11.5144
▁sperm	-11.515
▁stearic	-11.5152
▁clearance	-11.5155
AGA	-11.5158
thione	-11.5164
▁substitute	-11.5168
▁(2002)	-11.517
▁output	-11.5174
▁Mouse	-11.5175
▁Formulation	-11.5175
DMF	-11.5177
▁oxazolyl	-11.5181
▁deprotected	-11.5183
▁heteroaromatic	-11.5194
▁1.85	-11.5197
▁oxalic	-11.5198
guan	-11.5202
▁ADCC	-11.5204
microcrystalline	-11.5206
▁recovering	-11.5211
chy	-11.5217
▁hypervariable	-11.5217
arily	-11.5221
sulphonic	-11.5223
XVII	-11.5228
(4-((	-11.523
benzylamine	-11.5233
▁1.39	-11.5234
▁coronary	-11.5236
-5-(3-	-11.5236
▁triplet	-11.5239
▁flav	-11.5241
▁cognitive	-11.5241
▁resolved	-11.5241
▁Note	-11.5241
▁3.71	-11.5243
▁indicative	-11.5244
▁nanoparticle	-11.5248
aker	-11.5255
▁homologue	-11.5258
▁(60%	-11.5263
▁0.30	-11.5265
dermal	-11.527
▁ZSM	-11.5271
phosphoramidite	-11.5274
hist	-11.5278
▁concept	-11.5282
print	-11.5282
▁rare	-11.5289
succinimidyl	-11.529
▁oligopeptide	-11.5297
▁infrared	-11.5298
benzopyran	-11.53
▁input	-11.5302
▁drawing	-11.5312
elli	-11.5312
▁6.88	-11.5314
TCT	-11.5329
▁viable	-11.5329
▁colitis	-11.5333
▁equimolar	-11.5333
TGG	-11.5334
▁ulcer	-11.5336
▁Pseudomonas	-11.5342
▁7.98	-11.5344
▁PREPARATION	-11.5344
▁contaminant	-11.5344
▁potato	-11.5344
▁myeloid	-11.5347
GGT	-11.5352
▁Chrom	-11.5358
stream	-11.5358
ibility	-11.5359
dodeca	-11.5362
pentene	-11.5364
▁optimum	-11.5372
▁pancreas	-11.5375
thiazolo	-11.5375
▁closely	-11.5377
▁NaBH	-11.5381
▁Enzyme	-11.5383
▁majority	-11.5384
▁bacterium	-11.5386
dioxan	-11.5392
▁3.35	-11.5393
▁Super	-11.5393
▁immunity	-11.5394
▁DMAP	-11.5394
▁cosmetic	-11.5396
plication	-11.5397
▁acylation	-11.5397
▁newly	-11.54
=5.7	-11.5402
=1.0	-11.5402
bilities	-11.5402
-3,6-	-11.5415
{4-[(	-11.5421
▁Said	-11.5422
▁ultra	-11.5422
glycolic	-11.5424
▁ovary	-11.5424
uit	-11.5424
▁1.34	-11.5428
GGA	-11.543
catalyst	-11.5433
▁Louis	-11.5443
galactosidase	-11.5446
▁Triton	-11.5448
▁necrosis	-11.5449
▁cavity	-11.5449
▁3.97	-11.5452
▁Variant	-11.5452
▁Aqueous	-11.5454
therapeutic	-11.5457
=6.2	-11.5466
ette	-11.5467
▁glucagon	-11.5468
(4,4-	-11.5469
▁Biosciences	-11.5474
▁electronic	-11.5477
▁7.91	-11.5481
burg	-11.5481
▁helper	-11.5481
▁calcined	-11.5482
sphere	-11.5487
{[2-(	-11.5487
Pharmaceutically	-11.5488
▁assessment	-11.5488
ART	-11.5489
apoptotic	-11.5493
▁envelope	-11.5496
▁Lipo	-11.5496
lithium	-11.5497
▁kappa	-11.5507
▁surgical	-11.5513
phenanthren	-11.5524
dinitro	-11.5528
▁SUMMARY	-11.5529
▁molybdenum	-11.5529
▁polyadenylation	-11.5529
[4-[	-11.5531
▁functionalized	-11.5532
▁cAMP	-11.5533
▁diagnosed	-11.5533
▁branch	-11.5539
CCC	-11.554
▁microscopy	-11.554
▁acacia	-11.5543
▁Design	-11.5543
pril	-11.5544
▁economic	-11.5546
diisopropylethyl	-11.5547
called	-11.5548
▁6.94	-11.5564
▁spontaneous	-11.5566
▁3.67	-11.557
▁beginning	-11.5571
▁Modified	-11.5574
▁sweetening	-11.5574
▁monitor	-11.5575
▁degrade	-11.5576
dam	-11.5577
4-(3,4-	-11.5578
▁adjusting	-11.5578
▁DTT	-11.5579
▁steric	-11.558
▁CaCl	-11.5583
[3-(2-	-11.5589
▁bile	-11.5589
▁trap	-11.5591
trifluoromethane	-11.5595
▁progenitor	-11.5616
▁phosphodiester	-11.5627
▁appearance	-11.5629
▁HBV	-11.563
hemat	-11.564
▁preservative	-11.565
glycerol	-11.5655
alumina	-11.5656
▁stainless	-11.5658
▁washes	-11.5664
▁2.18	-11.5673
▁Tetrahedron	-11.5675
▁maize	-11.5675
▁BamHI	-11.5678
▁regulating	-11.5687
▁merely	-11.5689
▁interval	-11.569
angiogenic	-11.5693
▁7.94	-11.5694
azin	-11.5699
▁8.10	-11.57
▁Publishing	-11.5703
▁retinal	-11.5706
▁thought	-11.5709
▁plug	-11.5712
▁started	-11.5714
▁7.96	-11.5715
▁fruit	-11.5715
▁expansion	-11.5718
▁dopamine	-11.5718
▁3.58	-11.5722
▁National	-11.5724
small	-11.5726
▁bronchi	-11.5735
▁PDE	-11.5737
▁Inhibit	-11.5738
▁normalized	-11.5745
▁tricyclic	-11.5746
hydrazino	-11.5746
▁arranged	-11.5746
eurodegenerative	-11.5749
▁undesired	-11.5752
present	-11.5753
specifically	-11.5756
▁opening	-11.5764
lizumab	-11.5766
▁junction	-11.5769
transfected	-11.5771
weight	-11.5774
Substituted	-11.5775
=1.7	-11.5776
[1,3]	-11.578
(2-(4-	-11.578
psi	-11.578
traperitoneally	-11.5783
▁bacteriophage	-11.5783
▁lipophilic	-11.5783
▁returned	-11.5792
▁2.38	-11.5792
neck	-11.5795
▁immunoprecipit	-11.58
coagul	-11.5806
▁hence	-11.5806
=5.1	-11.5807
solution	-11.5807
▁compressed	-11.5809
▁acquired	-11.5812
▁finely	-11.5812
injection	-11.5814
▁Evaluation	-11.5815
Dihydro	-11.5816
▁3.99	-11.5816
▁hemoglobin	-11.5818
▁6.75	-11.5818
▁polymerizable	-11.5819
oxin	-11.5822
▁lignin	-11.5823
▁Wash	-11.5826
purified	-11.5827
▁destroy	-11.5829
▁strip	-11.5835
▁83%	-11.5838
▁isoleucine	-11.5839
▁analysed	-11.584
+/−	-11.584
▁spectral	-11.5841
▁Mixture	-11.5843
▁parameter	-11.5845
clone	-11.5846
▁Illustrative	-11.5846
▁oxidase	-11.5849
▁polymorphic	-11.5857
▁stabilizer	-11.5869
▁300°	-11.5871
▁Fusion	-11.5872
bond	-11.5876
▁assist	-11.5877
bridge	-11.5881
BLAST	-11.5886
▁altering	-11.5886
▁discovery	-11.5889
▁Construction	-11.5891
difluoromethoxy	-11.5892
tuximab	-11.5892
▁0.98	-11.5893
▁3.69	-11.5897
▁covered	-11.5903
▁infarction	-11.5907
▁height	-11.5907
TTT	-11.591
organic	-11.5912
styrene	-11.5913
methanamine	-11.5925
▁bioavailability	-11.5927
mustine	-11.5939
▁adopt	-11.594
▁Section	-11.594
▁synergistic	-11.5941
▁preference	-11.5944
▁serotype	-11.5947
▁Analytical	-11.5947
TRA	-11.5948
▁item	-11.5951
▁ribosome	-11.5953
izo	-11.5956
▁expanded	-11.5956
▁admixed	-11.5959
▁cerevisiae	-11.5959
align	-11.596
moto	-11.5962
▁hydrogel	-11.5964
▁0.89	-11.5966
arginine	-11.5969
isolated	-11.5974
▁Neu	-11.5977
▁numerical	-11.5979
▁LRMS	-11.598
▁Northern	-11.5982
▁3.66	-11.5982
▁1.49	-11.5984
▁usage	-11.5986
=5.8	-11.5991
▁cotton	-11.5994
prep	-11.5995
▁consumed	-11.6
▁auxiliary	-11.6003
anilino	-11.6003
rabi	-11.6003
▁lubricant	-11.6004
Benzyloxy	-11.6004
▁statistically	-11.601
rist	-11.6012
transport	-11.6013
][1,2,4]	-11.6014
XVIII	-11.6015
▁1.18	-11.602
pression	-11.6023
▁82%	-11.6028
▁4.30	-11.6028
▁6.89	-11.6039
7.40	-11.6043
▁(+)-	-11.6044
▁couple	-11.6048
▁mask	-11.6051
▁RNase	-11.606
hydrochloride	-11.606
=1.9	-11.6072
anisole	-11.6074
▁2.36	-11.6078
worm	-11.608
complete	-11.6084
▁reveal	-11.6087
phosphoric	-11.6089
-3-[(	-11.609
▁Ham	-11.6092
adamantyl	-11.6094
▁healing	-11.6097
▁Even	-11.61
▁simultaneous	-11.6103
▁dialysis	-11.6105
enzyme	-11.6106
▁curing	-11.6112
viruses	-11.6113
itch	-11.6113
▁localized	-11.6119
▁harvest	-11.612
▁spectrophotomet	-11.612
stage	-11.6121
plastic	-11.6129
▁competition	-11.6141
▁diastereoisomer	-11.6141
alkoxycarbonyl	-11.6146
▁nucleophilic	-11.6147
▁Description	-11.615
▁mitochondrial	-11.615
▁Endo	-11.6152
▁1.29	-11.6154
streptomycin	-11.6156
▁Nucl	-11.6159
▁translated	-11.6159
GGC	-11.616
benzenesulfonate	-11.616
▁elsewhere	-11.6165
▁alginate	-11.6174
▁DSC	-11.6176
▁coagulation	-11.6176
▁intradermal	-11.6177
▁exert	-11.6179
▁appeared	-11.6179
pass	-11.6183
▁Para	-11.6183
dihydrobenzo	-11.6188
▁Meth	-11.6191
label	-11.6192
▁AIDS	-11.6194
propanoyl	-11.6196
▁prolonged	-11.6197
-4-(1-	-11.6203
▁seal	-11.6204
▁Retention	-11.6205
▁scintillation	-11.6206
▁tragacanth	-11.6206
Combi	-11.6207
▁Gradient	-11.6209
▁7.99	-11.6211
itter	-11.6214
▁medicine	-11.6215
[5,4-	-11.6218
▁discrete	-11.623
▁PCSK	-11.6231
▁chelate	-11.6231
dienyl	-11.6234
▁miR	-11.6235
propanamide	-11.6244
▁6.86	-11.6245
▁significance	-11.6245
▁topically	-11.6248
▁evident	-11.6248
benzothiophen	-11.6248
▁thermometer	-11.6252
▁HeLa	-11.6257
lapse	-11.6268
eath	-11.627
▁6.87	-11.6272
▁coefficient	-11.6275
▁Oct	-11.628
▁withdrawn	-11.6281
▁Ausubel	-11.6284
▁tRNA	-11.629
▁Measurement	-11.6293
▁vertebrate	-11.6296
▁3.18	-11.6299
▁aceto	-11.6301
▁4.18	-11.6302
▁easy	-11.6302
▁2.17	-11.6304
protection	-11.6305
▁combinatorial	-11.6311
▁condensing	-11.6311
▁loci	-11.6313
▁Medium	-11.6316
methano	-11.6326
▁White	-11.6329
▁neural	-11.6333
▁(1980)	-11.6333
bottomed	-11.6338
▁mesylate	-11.6338
▁routinely	-11.6339
releasing	-11.6344
▁unwanted	-11.6344
▁dermatitis	-11.635
▁stain	-11.6352
90°	-11.6358
▁semiconductor	-11.6359
▁Biophys	-11.6359
▁genus	-11.636
▁regenerated	-11.6365
corr	-11.6371
pentanoic	-11.6378
▁Isomer	-11.638
▁successfully	-11.6388
triaza	-11.639
-[6-	-11.639
Cyclopropyl	-11.6401
▁buccal	-11.6402
Stratagene	-11.6405
▁favor	-11.6406
dppf	-11.6417
mount	-11.642
TAG	-11.6426
GlcNAc	-11.6426
▁irradiated	-11.6426
total	-11.6428
▁LDL	-11.6431
▁cracking	-11.6432
▁apply	-11.6439
▁experimentation	-11.6441
▁Combination	-11.6441
▁Determination	-11.6444
▁4.08	-11.6445
▁edition	-11.6449
▁focus	-11.6451
▁Serum	-11.6451
▁Again	-11.6457
▁Therapy	-11.6457
▁oxalyl	-11.6463
labile	-11.6466
▁dust	-11.6466
▁Screening	-11.6469
▁entity	-11.6469
▁burn	-11.647
▁consisted	-11.6473
▁84%	-11.6476
competent	-11.6476
▁cured	-11.6479
glutar	-11.6482
▁7.97	-11.6483
available	-11.6485
▁Grignard	-11.6493
-((4-	-11.6495
▁night	-11.6495
▁purify	-11.65
▁biology	-11.65
▁status	-11.6506
▁4.35	-11.6522
▁8.15	-11.6522
▁ischemic	-11.6526
▁attempt	-11.653
▁sterilized	-11.653
▁lact	-11.6533
▁recently	-11.6536
▁alicyclic	-11.654
adin	-11.6542
▁Remington	-11.6552
▁possibly	-11.6552
sulfur	-11.6559
▁Purified	-11.6561
▁metallic	-11.6564
▁1,2,4-	-11.6564
▁milliliter	-11.6571
scopic	-11.6571
treating	-11.6575
▁freshly	-11.6575
benzotriazol	-11.6578
▁pertains	-11.6586
▁REFERENCE	-11.6592
▁ameliorate	-11.6592
▁combine	-11.6595
▁Plates	-11.6599
Dimethoxy	-11.66
▁weekly	-11.66
▁mutein	-11.6608
phthalimide	-11.6609
▁analgesic	-11.6611
▁cervical	-11.6611
▁Biochemistry	-11.6611
▁microarray	-11.6617
▁81%	-11.6617
▁impurity	-11.6623
-[4-(3-	-11.6623
▁4,4'-	-11.6629
▁correlation	-11.6635
▁progressive	-11.6657
ferrocene	-11.6657
genetic	-11.6663
TOF	-11.6663
▁enhancement	-11.6664
▁address	-11.667
▁Fragment	-11.6679
yno	-11.668
fluoren	-11.6688
▁Evaporation	-11.6692
▁flexible	-11.6692
comprising	-11.6692
▁square	-11.6695
▁trigger	-11.6704
▁surrounding	-11.6707
▁understanding	-11.6708
▁Temperature	-11.6714
▁chicken	-11.6714
androst	-11.6715
infected	-11.6718
▁mapping	-11.6726
meta	-11.673
1.25	-11.6734
cyclopentadienyl	-11.6736
agi	-11.6737
▁4.40	-11.6738
▁transforming	-11.674
Pierce	-11.6742
Biotage	-11.6743
▁absorbed	-11.6743
cysteine	-11.6749
adamantan	-11.6751
▁Immunology	-11.6753
TTG	-11.6754
shaped	-11.6758
Cyc	-11.6759
▁Removal	-11.6764
▁prostaglandin	-11.6764
affinity	-11.6765
▁wheat	-11.6767
=6.1	-11.6768
Characterization	-11.677
▁valuable	-11.6776
▁distributed	-11.678
-2-(5-	-11.678
Tech	-11.6782
ANG	-11.6785
▁silencing	-11.6789
example	-11.6791
=5.9	-11.6792
▁radioactivity	-11.6799
▁Light	-11.6804
▁denatured	-11.6805
paraben	-11.6805
▁(2003)	-11.6807
▁schedule	-11.6808
sep	-11.6811
▁adequate	-11.6814
▁matrices	-11.6818
▁gently	-11.6818
▁vigorous	-11.6822
▁LiOH	-11.683
-4′-	-11.6832
ococcus	-11.6833
▁calf	-11.6836
dioxin	-11.6837
▁arrest	-11.684
arabino	-11.6841
acridin	-11.6841
▁diagram	-11.6843
section	-11.6846
▁Derivative	-11.6849
▁Auto	-11.685
dodecyl	-11.6856
▁phosphorous	-11.6859
week	-11.6861
▁exit	-11.6862
butyro	-11.6865
trophic	-11.6872
lactic	-11.6873
▁always	-11.6875
▁vaccination	-11.6878
ville	-11.688
▁neutralize	-11.6882
compatible	-11.6887
▁2.37	-11.6888
butanoyl	-11.6898
administered	-11.69
▁catheter	-11.69
Isopropyl	-11.6904
nonane	-11.6904
▁Chiral	-11.6907
▁entitled	-11.691
▁radioisotope	-11.6916
▁dimension	-11.6916
▁suppository	-11.6919
▁hybridizing	-11.692
▁barium	-11.6922
▁displacement	-11.6924
▁Time	-11.6931
▁signs	-11.6933
▁stabilize	-11.6933
▁Complex	-11.6939
▁pathogenic	-11.6941
▁isoxazolyl	-11.6941
▁stereochemistry	-11.6945
AGG	-11.6948
▁predominantly	-11.6951
throughput	-11.6953
▁gain	-11.6955
▁allelic	-11.6955
obtained	-11.6968
▁biodegradable	-11.6971
▁compare	-11.6973
camphor	-11.6974
-7,8-	-11.6977
▁vaso	-11.6977
▁alkanol	-11.6978
lysin	-11.698
▁manifest	-11.698
alkanoyl	-11.6981
field	-11.6991
Quant	-11.6993
▁squamous	-11.6993
▁drawn	-11.6993
▁embrace	-11.7003
scFv	-11.7004
▁accumulate	-11.7006
▁doxorubicin	-11.7009
▁skeleton	-11.7009
lymph	-11.7013
▁issued	-11.7013
▁immunotherapy	-11.7014
▁Useful	-11.7017
▁pyridazinyl	-11.7018
▁xenograft	-11.7026
▁examination	-11.7035
▁greatly	-11.7039
(4′-	-11.7043
Gln	-11.7047
Tetrahydro	-11.7047
heterocyclic	-11.7048
butanoate	-11.7048
▁(0.09	-11.7051
Nujol	-11.7055
▁4.16	-11.7058
▁lecithin	-11.7058
▁colloidal	-11.7061
▁diffusion	-11.7061
=2.7	-11.7063
▁administer	-11.7066
▁fix	-11.7079
acetal	-11.7083
[3.1.0]	-11.7097
▁approximate	-11.7098
▁Flash	-11.7117
▁neurological	-11.7117
▁antitumor	-11.7121
▁persist	-11.7123
▁diminish	-11.7123
▁mediator	-11.7123
▁importance	-11.7126
▁multispecific	-11.7132
▁bolus	-11.7134
▁discussion	-11.7136
▁lymphocytic	-11.714
▁oleate	-11.7143
▁Biotechnol	-11.7144
acrylonitrile	-11.7156
icidal	-11.7164
▁obvious	-11.7169
▁Conjugate	-11.7169
benzoxazin	-11.7182
▁flat	-11.7184
▁decompose	-11.7185
▁Signal	-11.7185
(3,3-	-11.7186
methoxyimino	-11.7187
immune	-11.7198
▁histone	-11.7209
▁(1981)	-11.7219
▁Wnt	-11.722
▁conduit	-11.7222
▁subcloned	-11.7222
▁chlorinated	-11.7225
▁nearly	-11.723
Molecular	-11.7232
Yield	-11.7232
▁mononuclear	-11.7233
▁referring	-11.7241
▁Curr	-11.7247
unsaturated	-11.7247
▁disadvantage	-11.7255
▁kilogram	-11.7265
Carboxy	-11.7268
▁Microbiol	-11.7271
▁Southern	-11.7271
▁Composition	-11.7271
ventricular	-11.7281
▁penetration	-11.7281
▁continue	-11.7286
ethanesulfonic	-11.7292
▁GDF	-11.7292
▁hydroperoxide	-11.7298
▁Conditions	-11.7301
▁Sample	-11.7305
porphyrin	-11.7308
charge	-11.731
grade	-11.731
▁Instrument	-11.7314
magnetic	-11.7316
polypeptide	-11.7327
▁crystallize	-11.7327
▁Crohn	-11.7334
▁annealing	-11.7338
▁decanted	-11.7338
▁(1982)	-11.7338
▁skeletal	-11.7341
▁translocation	-11.7348
▁HDAC	-11.7362
Agilent	-11.7365
Scheme	-11.7367
=4.5	-11.7367
▁strategies	-11.7368
Iso	-11.7368
INE	-11.737
▁Identification	-11.7371
▁Health	-11.7378
▁homodimer	-11.7378
GRP	-11.738
grass	-11.7384
▁cyclohexanone	-11.7391
▁opposite	-11.7391
▁recommended	-11.7391
approximately	-11.7397
▁phthalate	-11.7402
▁division	-11.7407
cooled	-11.7411
▁-10°	-11.7417
toxicity	-11.7419
▁monolayer	-11.7429
Millipore	-11.7435
▁reservoir	-11.7438
▁Functional	-11.7445
▁surprisingly	-11.7451
▁triplicate	-11.7455
oxygenase	-11.7458
▁2.98	-11.7462
ozo	-11.7463
▁esterified	-11.7464
▁Agents	-11.7465
column	-11.7472
[6-(	-11.7473
▁duplicate	-11.7479
(2-(2-	-11.7481
▁favorable	-11.7484
▁oligomerization	-11.7486
▁AcOH	-11.7487
oda	-11.7495
▁chlorobenzene	-11.7497
▁secretory	-11.7499
▁olive	-11.75
▁zirconium	-11.7503
▁Modification	-11.7503
▁initiate	-11.7505
▁maturation	-11.7506
diazaspiro	-11.7507
▁requiring	-11.7509
omega	-11.7509
▁flame	-11.7509
▁slight	-11.7515
particle	-11.7523
navir	-11.7536
▁guinea	-11.7537
▁Healthcare	-11.754
▁stripped	-11.7543
▁keeping	-11.7547
▁2,4,6-	-11.7547
▁Comparison	-11.755
▁mortality	-11.755
▁network	-11.755
=5.3	-11.7554
Fisher	-11.7563
▁transform	-11.7565
▁1989,	-11.7581
▁reconstituted	-11.7581
▁UPLC	-11.7581
PHA	-11.7583
▁immediate	-11.7587
▁organometallic	-11.7588
structure	-11.7589
▁consequence	-11.7592
▁4.17	-11.7594
▁injecting	-11.7599
▁join	-11.7599
▁bifunctional	-11.7632
▁Stage	-11.764
=0.8	-11.7641
▁rearrangement	-11.7643
▁dopant	-11.7643
▁unexpected	-11.7646
▁94°	-11.7647
▁statistical	-11.7648
▁hepatic	-11.765
{[4-(	-11.7653
▁dialyzed	-11.7656
▁FcRn	-11.7657
▁belonging	-11.7664
▁colour	-11.7667
symmetric	-11.7671
dideoxy	-11.7671
▁radiolabeled	-11.7675
▁Delivery	-11.7681
▁permeability	-11.7681
▁Probes	-11.7681
▁peptidomimetic	-11.7684
▁Prior	-11.7684
biotic	-11.7686
▁degenerate	-11.7688
▁changing	-11.7688
▁pathology	-11.7688
sequence	-11.7688
▁United	-11.7691
triisopropyl	-11.7701
▁deep	-11.7708
Chem	-11.7722
wash	-11.7725
▁MTBE	-11.7726
▁Clinical	-11.7726
▁Multi	-11.7726
propargyl	-11.7726
www	-11.774
▁interfering	-11.7746
▁polyether	-11.7764
▁2.97	-11.7769
▁implicated	-11.7771
(3-(4-	-11.7781
decahydro	-11.7789
guanosine	-11.7792
▁visualized	-11.7792
▁Referring	-11.7799
mass	-11.7802
grafted	-11.7803
′′′	-11.7808
▁unbound	-11.7809
coumarin	-11.7816
▁motor	-11.7817
▁suspected	-11.7827
fluoride	-11.783
indolizin	-11.7834
3.00	-11.7836
▁Homo	-11.7837
butynyl	-11.7837
filled	-11.784
▁propellant	-11.7841
▁plural	-11.7843
▁cartilage	-11.7844
▁HindIII	-11.7844
▁milligrams	-11.7848
▁biosynthesis	-11.7848
▁describing	-11.7851
▁parasite	-11.7852
▁knowledge	-11.7855
▁Hybridization	-11.7862
▁quantitate	-11.7865
▁Vivo	-11.7867
phosphoro	-11.7867
▁disposed	-11.7869
▁mobility	-11.7869
▁Domain	-11.7876
▁Publ	-11.7882
igh	-11.7882
▁ascertain	-11.7886
▁tetrazolyl	-11.7888
▁Saccharomyces	-11.7901
▁accelerate	-11.7901
▁encapsulated	-11.7901
cyclobutane	-11.7905
decomp	-11.791
▁−80°	-11.7913
▁hundred	-11.7915
▁experience	-11.7918
▁middle	-11.7922
reactivity	-11.7922
▁Particular	-11.7924
guanidino	-11.7925
▁scientific	-11.7929
oxazepin	-11.7935
escence	-11.7941
▁muco	-11.7943
Benz	-11.7957
rhodamine	-11.7961
▁Freund	-11.7964
▁chimera	-11.7971
▁Structural	-11.7975
ifiable	-11.7975
▁complications	-11.7986
▁cycloheptyl	-11.7988
▁herbicidal	-11.7989
▁azeotropic	-11.7989
▁diisocyanate	-11.7989
▁excised	-11.8
▁deviation	-11.8
=9.6	-11.8002
▁basified	-11.8003
second	-11.8006
▁lectin	-11.8007
permeable	-11.8011
substantially	-11.8017
▁disodium	-11.8024
▁(2004)	-11.8028
▁Selection	-11.8029
=4.9	-11.8031
histidine	-11.8036
lacto	-11.8036
▁deoxyribo	-11.8038
▁tandem	-11.8046
▁accurate	-11.8054
hydroxyphosphin	-11.8054
▁stabilization	-11.8064
▁CYP	-11.8066
▁quickly	-11.8071
hexanoic	-11.8076
▁successful	-11.8078
▁overexpression	-11.8085
▁abundance	-11.8093
knock	-11.8093
▁understand	-11.8096
Bridge	-11.8111
▁lipoprotein	-11.8113
▁antifungal	-11.8115
▁immunoconjugate	-11.8115
ethanamine	-11.8116
▁azeotrope	-11.8126
▁kanamycin	-11.8129
▁vortex	-11.8129
inositol	-11.813
▁Raney	-11.8137
▁configured	-11.814
▁Vitro	-11.8146
▁Candida	-11.8147
BuLi	-11.8151
▁CpG	-11.8153
glutamine	-11.8159
▁Approximately	-11.8162
Asn	-11.8163
isocyanato	-11.8165
▁inherent	-11.8165
▁triazolyl	-11.8179
7,8,9,10	-11.8181
pending	-11.8181
PGF	-11.8185
▁hapten	-11.8187
▁capability	-11.819
-5,5-	-11.8192
▁diverse	-11.8194
▁siNA	-11.8202
conservative	-11.8203
▁abbreviations	-11.821
▁approved	-11.8213
▁attribute	-11.8213
▁4.19	-11.8213
▁furnish	-11.8216
▁pipette	-11.8217
▁cef	-11.8217
=1.4	-11.8218
▁window	-11.8223
▁Purity	-11.8224
▁proximity	-11.8231
▁hairpin	-11.8231
radio	-11.8233
glucose	-11.8235
▁question	-11.8238
▁AND	-11.8239
▁verified	-11.8242
▁synthesizer	-11.8243
▁somatic	-11.8243
addition	-11.8243
nuclear	-11.8245
▁Active	-11.825
referred	-11.8251
▁bright	-11.8253
benzamido	-11.8257
pyrimido	-11.827
work	-11.827
▁States	-11.8281
▁saturation	-11.8282
ostatin	-11.8283
▁portionwise	-11.829
▁concerns	-11.8293
▁stripping	-11.8293
▁Phosphor	-11.8297
leuc	-11.8297
▁accompanying	-11.8308
EGFR	-11.8318
▁Acta	-11.8324
▁Aspergillus	-11.833
▁CXCR	-11.833
▁Antisense	-11.8331
▁BACKGROUND	-11.8348
▁Multiple	-11.8349
▁fever	-11.8368
▁macrophage	-11.8368
▁rule	-11.8369
quart	-11.837
Anti	-11.8371
▁quantify	-11.8374
▁subtilis	-11.8374
▁airway	-11.8391
(6,7-	-11.8395
▁Oligo	-11.8399
▁ferment	-11.8402
critical	-11.8407
complex	-11.8412
▁Hydrochloride	-11.8412
▁subgroup	-11.8413
▁conductivity	-11.8419
▁tetramer	-11.8423
▁flushed	-11.843
▁waxes	-11.843
anthryl	-11.8433
▁platform	-11.8434
▁disruption	-11.8438
▁alginic	-11.8445
▁leave	-11.8448
Synthesis	-11.8453
▁shaker	-11.8453
▁calculate	-11.8455
▁unnatural	-11.8457
▁running	-11.8466
▁Agrobacterium	-11.8467
therapeutically	-11.847
▁Volume	-11.8472
▁nylon	-11.8475
▁antioxidant	-11.8481
rrh	-11.8482
▁outcome	-11.8482
▁urinary	-11.8486
▁(2005)	-11.8487
acryl	-11.8494
▁Invest	-11.8498
precipitation	-11.8499
piperid	-11.8504
▁Notch	-11.8512
▁caspase	-11.8527
▁phospholipids	-11.8527
▁Physiol	-11.8545
▁implantation	-11.8548
yellow	-11.8555
cyclohexanol	-11.8562
▁Mini	-11.8569
▁relax	-11.858
▁blank	-11.858
▁polyurethane	-11.8584
enantiomer	-11.8593
▁residence	-11.8603
stained	-11.8603
▁fifth	-11.8606
BRL	-11.861
▁inoculation	-11.861
▁preserve	-11.8613
▁destruction	-11.8618
▁pressurized	-11.8621
▁sulfhydryl	-11.8625
▁Chart	-11.8629
glycero	-11.863
-((5-	-11.8633
▁nitrocellulose	-11.8634
▁Preparative	-11.864
▁interference	-11.864
▁ophthalmic	-11.864
▁satisfactory	-11.864
▁arterial	-11.8644
▁multivalent	-11.8647
▁lubricating	-11.8648
▁Consequently	-11.8652
▁mouth	-11.8667
▁epidermal	-11.8668
▁alkyne	-11.8671
▁Carbon	-11.8685
▁Injection	-11.8686
▁oleic	-11.8687
globin	-11.8694
▁movement	-11.8694
▁titration	-11.8698
▁oxychloride	-11.8698
produced	-11.8705
Enantiomer	-11.8705
▁FCS	-11.8706
▁bag	-11.8707
administration	-11.8709
▁HOBt	-11.8713
depleted	-11.8717
▁Conversion	-11.8729
▁dropping	-11.874
science	-11.8744
,4,5,5	-11.8749
4-(4,4,5,5-	-11.8769
▁Ringer	-11.8771
▁cocoa	-11.8771
▁driving	-11.8774
▁Work	-11.8775
▁galactose	-11.8782
▁Nucleotide	-11.8786
operative	-11.8788
▁concomitant	-11.879
▁daltons	-11.879
▁synthetase	-11.879
octanoic	-11.8794
carboxaldehyde	-11.8794
hexanoate	-11.8798
▁operate	-11.8809
▁sleep	-11.8809
▁lost	-11.8822
abbreviation	-11.8835
▁Study	-11.884
▁vaccinia	-11.884
▁Addition	-11.8844
▁partition	-11.8852
▁alloy	-11.8859
bearing	-11.8861
▁affinities	-11.8863
fibro	-11.8873
▁quantification	-11.8875
▁Enzymology	-11.8879
▁demonstrating	-11.8883
activating	-11.8885
▁dimerization	-11.8889
invasive	-11.8891
▁veterinary	-11.8898
▁Bacteria	-11.8898
▁Stirring	-11.8902
▁redissolved	-11.8905
1.50	-11.8906
▁Studies	-11.8906
▁PPAR	-11.8906
▁impaired	-11.891
▁ordinarily	-11.8918
▁glycoside	-11.8918
▁operatively	-11.893
▁Madison	-11.8938
▁amplicon	-11.8941
▁lipase	-11.8946
[1,2,4]	-11.8947
▁thioether	-11.8947
▁monostearate	-11.8953
▁cisplatin	-11.8954
gress	-11.8961
▁enzymatically	-11.8965
▁SFC	-11.8966
-(4-(2-	-11.8967
▁repertoire	-11.8969
▁biomolecule	-11.8969
silicate	-11.8985
▁sesame	-11.9
▁crosslinked	-11.9001
▁1989)	-11.9005
▁disclose	-11.9009
▁glycosyl	-11.9009
▁relating	-11.9012
Martin	-11.9029
▁suited	-11.9032
▁compression	-11.9032
head	-11.9033
▁Chinese	-11.9036
Clontech	-11.9036
Protective	-11.9044
▁amination	-11.9048
▁traditional	-11.9048
▁osmotic	-11.9056
esterification	-11.9067
▁default	-11.9072
▁eosinophil	-11.9087
sclero	-11.909
▁bleach	-11.9091
▁disintegrating	-11.9092
▁true	-11.9096
▁Staphylococcus	-11.9103
▁Photo	-11.9104
▁anxiety	-11.9107
▁sublingual	-11.9107
trained	-11.911
▁regular	-11.9111
▁medication	-11.9115
▁bioactive	-11.912
▁About	-11.9122
▁thrombosis	-11.9131
▁analyzing	-11.9139
▁polysorbate	-11.9139
▁neopentyl	-11.9142
▁Potassium	-11.9143
gradient	-11.9148
▁allergen	-11.9149
▁adhere	-11.9155
▁lymphoid	-11.9171
▁solubilizing	-11.9171
▁pcDNA	-11.9171
oxepin	-11.9172
▁Normal	-11.9176
response	-11.918
▁accessible	-11.918
▁tower	-11.9181
▁keratin	-11.9183
▁microliters	-11.9195
−/−	-11.9196
halide	-11.9198
cyanoborohydride	-11.9199
▁patches	-11.9199
benzodioxol	-11.9205
▁return	-11.922
▁microspheres	-11.922
50,000	-11.9223
▁mmHg	-11.9228
▁Indeed	-11.9232
reperfusion	-11.9244
▁conductive	-11.9248
▁exhaust	-11.9252
▁Ultra	-11.9256
▁peanut	-11.9264
▁Isolated	-11.9265
▁lesion	-11.9268
▁denaturation	-11.9276
▁schizophrenia	-11.9276
▁untranslated	-11.9284
▁dispersant	-11.9284
▁customary	-11.9285
▁shear	-11.9287
▁serotonin	-11.9288
▁year	-11.9295
chemiluminescent	-11.9296
▁saliva	-11.9296
▁avidin	-11.9297
cresol	-11.9298
abbreviated	-11.9304
▁mellitus	-11.9304
biotin	-11.9305
▁Transformation	-11.9305
suspend	-11.9314
▁opioid	-11.9321
▁Analog	-11.9326
▁agricultural	-11.9329
-5,7-	-11.9331
▁insecticidal	-11.9333
▁lyophilization	-11.9334
▁trauma	-11.9336
▁osteoporosis	-11.9337
▁lyophil	-11.9338
▁arise	-11.934
▁circuit	-11.9341
quadr	-11.9349
porous	-11.9349
▁placebo	-11.9355
▁trifluoride	-11.9364
▁cascade	-11.9382
volume	-11.9383
emulsion	-11.9386
Ethoxy	-11.9392
▁edema	-11.9396
▁underlying	-11.94
Cbz	-11.9402
tyrosine	-11.9403
cyclophosphamide	-11.9407
▁Kinase	-11.9415
▁unbranched	-11.9424
▁−10°	-11.9428
▁termini	-11.9444
▁dehydrated	-11.9448
▁Pichia	-11.9456
through	-11.9462
▁summary	-11.9468
▁histamine	-11.9468
heterocycle	-11.9474
mega	-11.9481
▁neuropathy	-11.9489
▁characterize	-11.9496
▁dropped	-11.9497
chlorination	-11.9499
reaction	-11.9503
-1,1′-	-11.9507
immunodeficiency	-11.9514
▁impairment	-11.9514
ocytosis	-11.9518
▁tubular	-11.9518
▁antisera	-11.9518
▁wave	-11.9521
▁Express	-11.9521
▁carbocycle	-11.9522
▁enrichment	-11.9526
▁anthra	-11.9533
▁overhang	-11.9535
▁calcination	-11.9536
▁reticul	-11.9538
▁ampoule	-11.9547
cholesterol	-11.9548
▁England	-11.9555
▁regardless	-11.9557
▁cocktail	-11.956
▁retinopathy	-11.956
furfuryl	-11.956
gregat	-11.956
adrenergic	-11.9564
two	-11.9571
▁1,2,3-	-11.9586
carbaz	-11.9588
▁taught	-11.9593
▁elute	-11.9594
▁silk	-11.9606
▁ActRII	-11.961
▁viewpoint	-11.961
phenylenediamine	-11.9611
▁ameliorating	-11.9618
agent	-11.9632
receiver	-11.9633
▁gentle	-11.9643
▁Patients	-11.9648
▁oxidant	-11.9652
iodide	-11.9659
▁intrinsic	-11.9664
▁macromolecule	-11.9664
▁meet	-11.9666
▁radionuclide	-11.9669
▁stack	-11.9674
▁narrow	-11.9685
Butoxycarbonyl	-11.9686
▁Radio	-11.9687
▁microplate	-11.9688
▁Silica	-11.9692
toluenesulfonate	-11.9693
▁intrathecal	-11.9698
defined	-11.9701
▁cytoplasm	-11.9703
▁families	-11.9707
▁technologies	-11.9711
▁Present	-11.9711
▁benign	-11.9715
▁naphtha	-11.9717
▁monosaccharide	-11.9726
▁fibronectin	-11.9728
▁checkpoint	-11.974
▁entireties	-11.974
▁weighing	-11.974
▁sandwich	-11.9745
▁investigation	-11.9749
▁principal	-11.9749
igra	-11.9756
saturated	-11.9762
hydroformylation	-11.9766
▁diversity	-11.977
▁glioma	-11.977
×150	-11.9779
▁triacetoxyboro	-11.9787
sulphonate	-11.9797
▁adjustment	-11.9798
▁Salmonella	-11.9804
▁accompanied	-11.9813
▁glioblastoma	-11.9813
decanoic	-11.9814
▁recruit	-11.983
▁perfume	-11.9843
▁intervening	-11.9856
(4,6-	-11.9859
▁Streptomyces	-11.9864
▁incidence	-11.9864
▁availability	-11.9877
▁placenta	-11.9881
▁continuation	-11.9881
▁ketal	-11.9882
ortho	-11.9882
scale	-11.9884
▁phosgene	-11.9886
▁vertical	-11.9889
▁macular	-11.989
▁Percent	-11.9892
typic	-11.9893
▁plotted	-11.9896
▁impregnated	-11.9899
▁Heat	-11.9906
▁Generation	-11.991
▁MASP	-11.9914
▁denaturing	-11.992
fluorescence	-11.9922
growth	-11.9926
▁Region	-11.993
vapor	-11.9933
▁cleaving	-11.9933
▁quite	-11.9933
▁Primary	-11.9938
▁immunizing	-11.9946
▁ultrafiltration	-11.9946
▁letter	-11.9946
▁transmission	-11.9953
▁diluting	-11.9964
viridae	-11.9969
decanoyl	-11.9977
Water	-11.9981
benzhydryl	-11.9982
▁disintegrant	-11.999
▁Enzymol	-11.999
▁diffuse	-11.999
▁diagnosing	-11.9994
mmunosuppressive	-12.0003
▁homogenized	-12.0003
▁fructose	-12.0003
▁cryo	-12.0005
orphin	-12.0008
▁magnitude	-12.0016
▁Tablets	-12.0021
▁desirably	-12.0024
prophylactically	-12.0028
▁Syndrome	-12.0029
activate	-12.0036
▁malic	-12.0044
parent	-12.0045
esophageal	-12.0059
stimulated	-12.0068
▁Usually	-12.0068
pyrimid	-12.0073
▁dividing	-12.0077
▁valence	-12.0077
▁phenotypic	-12.0077
azulen	-12.0077
psychotic	-12.0088
▁cardio	-12.0101
▁Coupling	-12.0103
▁metathesis	-12.0103
▁Nuclear	-12.0104
▁triflate	-12.0108
0.2°	-12.0109
▁displace	-12.0111
▁dNTP	-12.0117
▁homozygous	-12.0125
withdrawing	-12.013
responsive	-12.0134
camptothecin	-12.0134
carcinoma	-12.0147
▁Diagnostic	-12.0152
▁steady	-12.0156
▁ethoxide	-12.0156
process	-12.0161
▁biopsy	-12.0161
chemistry	-12.0169
▁breeding	-12.017
▁tungsten	-12.017
▁creating	-12.017
▁benzimidazolyl	-12.0171
▁Cross	-12.0176
▁chilled	-12.0178
▁automatic	-12.0179
▁dissociate	-12.0183
▁thickening	-12.0188
▁printing	-12.0197
▁deleterious	-12.0218
▁tolerated	-12.0219
▁Especially	-12.0223
▁Suzuki	-12.0223
▁convenience	-12.0223
▁practitioner	-12.0223
▁singly	-12.0234
-2,2,2-	-12.0241
▁maltose	-12.0254
▁alleviate	-12.0254
▁subsequence	-12.0255
methacrylate	-12.0262
▁Genomic	-12.0272
▁spatial	-12.0281
▁eliminating	-12.0294
▁evaluating	-12.0299
▁ulcerative	-12.03
enriched	-12.03
▁mannose	-12.0303
nzyloxycarbonyl	-12.0306
citabine	-12.0308
▁sonicated	-12.0312
▁participate	-12.0317
fucosyl	-12.0317
ptera	-12.032
▁restore	-12.0324
ophore	-12.0325
▁Construct	-12.0333
reference	-12.0337
fwd	-12.0349
▁suffer	-12.0351
▁concentrating	-12.0357
4,4,4-	-12.0362
▁ortholog	-12.0365
lactide	-12.0373
Oxo	-12.0378
▁entities	-12.0389
▁finished	-12.0398
▁morphology	-12.0398
typically	-12.0402
▁Practice	-12.0403
▁optimize	-12.0403
▁OLED	-12.0416
▁Arabidopsis	-12.0421
▁Chapter	-12.0421
▁mutagen	-12.0421
normal	-12.0422
frame	-12.0424
▁Weight	-12.0432
▁Vaccine	-12.0434
▁susceptibility	-12.0434
permea	-12.0443
▁balloon	-12.0444
▁calibration	-12.0444
coccal	-12.0448
anthraquinone	-12.0452
▁harbor	-12.0453
▁pyrolysis	-12.0463
▁Appropriate	-12.0466
configuration	-12.047
amidate	-12.047
▁singular	-12.0471
▁Development	-12.0489
▁Reduction	-12.0494
carbamyl	-12.0496
▁horseradish	-12.0503
▁western	-12.0512
▁7.36-7.	-12.0518
▁beige	-12.0522
erythritol	-12.0526
glutamic	-12.053
▁DEAE	-12.053
▁BSUM	-12.054
▁optimization	-12.054
▁vanadium	-12.054
insulin	-12.0541
glycosylation	-12.0544
coupled	-12.0558
▁proximal	-12.0558
▁BCMA	-12.0568
▁Separation	-12.0576
ficiency	-12.0579
propionamide	-12.0581
▁Plasma	-12.059
▁TRAIL	-12.059
▁uterine	-12.059
▁expensive	-12.0595
paraformaldehyde	-12.06
▁somewhat	-12.0609
mercaptoethanol	-12.0617
incubated	-12.0623
▁Inhibitors	-12.0628
▁plasticizer	-12.0628
(3,4,5-	-12.063
▁neomycin	-12.0634
▁SEQUENCE	-12.0637
▁Chimeric	-12.0641
▁Subsequent	-12.0642
▁Affinity	-12.0646
determining	-12.0647
▁granulocyte	-12.0651
—1_	-12.066
▁Detect	-12.0663
▁kaolin	-12.0669
▁probability	-12.0669
aziridin	-12.067
▁history	-12.0674
▁usable	-12.0675
▁lethal	-12.068
1,3,5	-12.0682
▁associate	-12.0684
Altschul	-12.0688
▁accepted	-12.0688
▁iridium	-12.0692
▁cannula	-12.0693
fraction	-12.0694
▁contamination	-12.0697
dissolved	-12.07
▁knockout	-12.0702
▁malonic	-12.0711
New	-12.0717
ELISA	-12.0718
▁recognizing	-12.072
sacchar	-12.0725
▁hepatocyte	-12.0725
Beckman	-12.073
▁homogenate	-12.073
trypt	-12.0739
▁Membrane	-12.0739
▁Yeast	-12.0753
▁99.5%	-12.0758
▁stationary	-12.0763
drying	-12.0766
▁Crude	-12.0767
▁Berg	-12.0775
▁Activation	-12.0777
▁integrity	-12.0777
▁cytomegalovirus	-12.0782
▁dramatic	-12.0782
▁twelve	-12.0786
reducing	-12.0794
▁fibrin	-12.0795
▁amelioration	-12.08
Piperidin	-12.0805
condition	-12.0808
cinnolin	-12.081
▁inhaler	-12.0811
▁Oxford	-12.0815
▁Direct	-12.0816
▁Promoter	-12.0819
▁rotamer	-12.0819
phenanthroline	-12.0833
▁judgment	-12.0833
{3-[(	-12.0842
▁characterised	-12.0858
▁cognate	-12.0862
▁condensate	-12.0871
▁Carlsbad	-12.0881
paraffin	-12.0885
ornithine	-12.0886
▁utilization	-12.0886
▁Elution	-12.0886
▁Fraction	-12.0886
CTLA	-12.0887
▁fluorinat	-12.0889
▁VGAM	-12.0895
▁evacuated	-12.09
▁nucleophile	-12.09
▁inverted	-12.09
▁Software	-12.0909
▁Alexa	-12.0912
ONE	-12.0914
▁hematologic	-12.0923
cardia	-12.0938
▁Surface	-12.0938
system	-12.0943
styryl	-12.0949
▁recycling	-12.0953
▁Lipid	-12.0953
▁mammary	-12.0962
▁front	-12.0962
▁whereupon	-12.0972
▁salicylate	-12.0977
▁osteoarthritis	-12.0981
thiadiazin	-12.0981
boiling	-12.0981
▁bleeding	-12.0986
▁BALB	-12.0986
▁ISIS	-12.0986
▁erythematosus	-12.0991
▁investigate	-12.1003
▁measurable	-12.1025
▁rigid	-12.1034
▁Chloroform	-12.1039
▁Streptococcus	-12.1044
▁secrete	-12.1046
▁methacrylic	-12.1054
recombinant	-12.1055
▁phyto	-12.1059
▁robust	-12.1063
▁(1979)	-12.1064
▁know	-12.1075
Jackson	-12.1078
▁Component	-12.1092
▁Engineering	-12.1092
▁trehalose	-12.1092
▁nozzle	-12.1097
▁interior	-12.1097
▁permeate	-12.1098
▁Amplification	-12.1107
▁Commun	-12.1122
▁messenger	-12.1122
essential	-12.1125
▁industry	-12.1126
▁metallocene	-12.1126
▁overcome	-12.1127
▁chromatograph	-12.1132
▁Definitions	-12.1141
▁Fluorescence	-12.1161
▁IPTG	-12.1166
▁adenoviral	-12.117
fragment	-12.1173
▁angiotensin	-12.1175
▁depletion	-12.118
▁superfamily	-12.1185
▁coordination	-12.1195
protective	-12.1198
hrys	-12.1199
▁(1977)	-12.1201
▁Initial	-12.121
▁wishing	-12.1215
▁nuclei	-12.1215
peptidyl	-12.122
potassium	-12.1222
▁diatomaceous	-12.1229
▁considerably	-12.123
▁unstable	-12.1234
▁infra	-12.1235
▁idiopathic	-12.1239
▁serious	-12.1244
▁exposing	-12.1244
▁Positive	-12.1254
▁formalin	-12.1258
subject	-12.1267
zodicarboxylate	-12.1273
▁blunt	-12.1274
▁gasoline	-12.1274
▁glaucoma	-12.1279
▁versa	-12.1282
etrafluoroborate	-12.1284
surface	-12.1292
▁autologous	-12.1299
▁cultivated	-12.1299
▁contrary	-12.1304
circle	-12.1308
emergence	-12.1308
residue	-12.1317
▁Prism	-12.1319
▁Liposomes	-12.1328
▁virtually	-12.1328
cationic	-12.133
▁immersed	-12.1338
coupling	-12.1343
▁Industries	-12.1353
▁Preferable	-12.1353
family	-12.1358
▁corticosteroid	-12.1373
Genbank	-12.1373
http	-12.1383
▁boiled	-12.1393
▁Hybridoma	-12.1398
hypertensive	-12.1403
▁syntheses	-12.1408
(2,4,6-	-12.1413
▁centrifugal	-12.1428
▁fibrinogen	-12.1434
▁cetyl	-12.1439
codon	-12.1442
▁plasmon	-12.1444
▁virtue	-12.1448
phenothiazin	-12.1448
▁Summary	-12.1453
pentanoate	-12.1459
▁sorting	-12.1464
▁intervention	-12.1469
▁Small	-12.1471
Myc	-12.1484
▁excretion	-12.1484
GalNAc	-12.1509
▁intraocular	-12.1514
▁glyceryl	-12.1514
particularly	-12.1515
▁Properties	-12.1519
▁porcine	-12.1519
▁ferric	-12.1523
▁bridging	-12.1524
▁nematode	-12.1529
▁cynomolgus	-12.1534
▁mercury	-12.1534
▁swelling	-12.1535
radioimmunoassay	-12.1539
▁7.50-7.	-12.1541
▁erbB	-12.1545
▁moist	-12.1554
▁sepsis	-12.156
▁Numerous	-12.1565
▁rapamycin	-12.157
▁sialic	-12.157
▁muscular	-12.1575
▁solely	-12.158
▁micelle	-12.1581
▁maximize	-12.1585
▁pocket	-12.159
▁electrophoretic	-12.1611
▁aeruginosa	-12.1616
membrane	-12.1622
▁Filter	-12.1626
▁survive	-12.1631
alanin	-12.1636
▁malignancies	-12.1652
▁catalog	-12.1652
▁cortex	-12.1662
maytansin	-12.1662
pharmaceutical	-12.1675
▁virion	-12.1688
parasitic	-12.1693
▁replicon	-12.1693
epitope	-12.1697
▁qualitative	-12.1698
screen	-12.1702
orbital	-12.1707
▁elongation	-12.1709
cinnamic	-12.1719
▁mounted	-12.1719
▁evaporating	-12.1734
▁cultivation	-12.175
propionitrile	-12.175
▁anesthetized	-12.176
▁moving	-12.1761
oxirane	-12.1766
▁occasion	-12.1771
▁glucocorticoid	-12.1786
molecule	-12.179
▁cylinder	-12.1792
▁metastases	-12.1797
▁placing	-12.1802
10##	-12.1807
▁obstructive	-12.1807
▁intake	-12.1808
Poly	-12.1808
▁Mutant	-12.1813
▁bisulfite	-12.1818
▁quantum	-12.1818
▁exclusively	-12.1828
0/1)	-12.1839
▁achieving	-12.1844
▁dispensed	-12.1844
▁insufficient	-12.1844
▁nomenclature	-12.1844
▁propagation	-12.1849
▁clarified	-12.1854
▁sonication	-12.186
▁refractory	-12.1865
▁Basic	-12.1884
▁alkaloid	-12.1891
histochemistry	-12.1896
▁familiar	-12.1902
▁probably	-12.1902
▁Alternative	-12.1914
▁effort	-12.1923
▁Material	-12.1924
Verlag	-12.1928
▁psycho	-12.1932
▁filling	-12.1933
▁whilst	-12.1944
▁Before	-12.1949
opyranosyl	-12.195
sample	-12.1952
▁chelator	-12.1954
▁vincristine	-12.197
▁CRISPR	-12.1981
▁stimulus	-12.1981
▁pesticidal	-12.1986
▁thiocyanate	-12.1997
▁Advantageously	-12.2002
▁thawed	-12.2002
▁scoring	-12.2002
▁microparticles	-12.2007
▁gallium	-12.2007
▁hepatocellular	-12.2008
▁nude	-12.2013
source	-12.2018
▁increment	-12.2029
selected	-12.2036
dioxido	-12.2039
oncogene	-12.204
dimethylsilyloxy	-12.2055
▁NotI	-12.2056
▁surprising	-12.2058
▁unsaturation	-12.2061
▁deemed	-12.2061
degradable	-12.2065
▁universal	-12.2066
▁Ethanol	-12.2067
▁applies	-12.2082
▁broncho	-12.2082
▁digital	-12.2082
▁recurrence	-12.2088
▁naked	-12.2088
▁DBU	-12.2088
▁adrenal	-12.2093
▁invasion	-12.2093
▁estimate	-12.2094
▁acrolein	-12.2098
▁Powder	-12.2104
▁Document	-12.2109
▁larvae	-12.2114
▁efficacious	-12.2125
Reference	-12.2129
▁urethane	-12.2131
▁ricin	-12.2132
▁reconstitution	-12.2136
Phenomenex	-12.2147
▁Release	-12.2152
▁conclusion	-12.2158
▁bentonite	-12.2163
▁strepto	-12.2168
▁granulate	-12.2168
▁Substrate	-12.2168
▁Individual	-12.2174
▁Substituent	-12.2185
▁likelihood	-12.2185
▁saccharin	-12.2187
compatibility	-12.219
▁Fischer	-12.219
▁abandoned	-12.219
▁1,1′-	-12.2192
cyclohepten	-12.2197
gauge	-12.2208
isoprene	-12.2212
▁Handbook	-12.2217
▁debris	-12.2217
▁Bruker	-12.2223
▁empirical	-12.2223
pneumo	-12.2237
▁explicitly	-12.225
▁fungus	-12.2255
▁variability	-12.2266
▁abundant	-12.2283
▁dermato	-12.2286
▁plasminogen	-12.2288
channel	-12.2293
transfection	-12.2299
▁Resonance	-12.2305
▁domestic	-12.231
▁sought	-12.231
▁Image	-12.2313
component	-12.2316
carrier	-12.2321
▁hepato	-12.2336
▁Conventional	-12.2338
▁endometrial	-12.2343
▁insecticide	-12.2343
▁Dayhoff	-12.2349
▁signature	-12.2349
vector	-12.235
▁neuroblastoma	-12.236
number	-12.236
Fmoc	-12.2383
Iodo	-12.2385
decanoate	-12.2391
Dyna	-12.2393
▁phenomenon	-12.2393
▁Panel	-12.2399
eneoxyphenyl	-12.2401
glitazone	-12.2409
▁scavenger	-12.2415
▁enabling	-12.242
Type	-12.2422
clinical	-12.2428
▁filamentous	-12.2432
▁Obtained	-12.2437
▁epoxidation	-12.2443
▁Filtration	-12.2454
capsule	-12.2467
▁topoisomerase	-12.247
▁Common	-12.2471
▁Interestingly	-12.2476
▁XhoI	-12.2476
▁aforesaid	-12.2487
▁dexamethasone	-12.2487
▁migrate	-12.2493
maleimido	-12.2493
terephthalate	-12.2498
floxacin	-12.2499
chrysen	-12.2509
▁ALIGN	-12.251
▁Huntington	-12.2515
▁preliminary	-12.2521
▁restenosis	-12.2538
tending	-12.254
fixed	-12.2543
▁occupied	-12.2543
▁thirty	-12.2543
peritoneal	-12.2548
threonine	-12.2563
intermediate	-12.2574
▁Sequencing	-12.2577
▁parathyroid	-12.2577
GraphPad	-12.2583
assemble	-12.2583
▁Response	-12.2588
▁cephalosporin	-12.2588
▁withdrawal	-12.2594
▁1,1,1-	-12.2594
▁Eagle	-12.26
▁prokaryote	-12.2605
▁demand	-12.2617
▁supplier	-12.2622
▁communication	-12.2622
▁trituration	-12.2622
▁underlined	-12.2623
glucosidase	-12.2634
luciferin	-12.2634
▁PREFER	-12.2639
▁judged	-12.2639
▁Twenty	-12.2645
Containing	-12.2645
▁etoposide	-12.2651
▁neovasculariz	-12.2651
▁Society	-12.2662
average	-12.2666
▁despite	-12.2668
▁quartz	-12.2679
▁Commercial	-12.2696
▁empty	-12.2696
temperature	-12.2701
substituent	-12.2706
▁flexibility	-12.2707
▁horizontal	-12.2719
prednisolone	-12.2719
▁Biacore	-12.2725
▁omitted	-12.2725
▁Suitably	-12.273
▁annealed	-12.273
',3'-	-12.2736
▁broken	-12.2736
▁Carrier	-12.2736
filtered	-12.2741
Packard	-12.2742
▁Increase	-12.2748
▁telomer	-12.2753
▁truncation	-12.2753
▁Statistical	-12.2765
▁intensities	-12.277
▁fungicide	-12.2771
▁Prodrugs	-12.2776
palmitoyl	-12.2782
▁Excess	-12.2782
▁combustion	-12.2788
hydantoin	-12.2805
▁chromatogram	-12.2805
▁Yellow	-12.2811
▁deficit	-12.2834
▁facilitating	-12.284
▁allosteric	-12.284
spora	-12.2841
▁discontinu	-12.2846
aceae	-12.2847
▁7.46-7.	-12.2847
▁rinse	-12.2849
cerebro	-12.2855
▁thymine	-12.2857
▁Enhance	-12.2857
caprolactam	-12.2863
especially	-12.2864
▁eukaryote	-12.2869
▁Hereinafter	-12.2869
▁antiserum	-12.2869
encapsulation	-12.288
▁diagnose	-12.2884
▁binary	-12.2892
Strep	-12.2895
▁Williams	-12.2898
▁raise	-12.2901
▁Sephadex	-12.2903
▁corrosion	-12.2903
▁beyond	-12.2903
Dawley	-12.2904
▁(1978)	-12.2911
▁Jurkat	-12.2933
▁prognosis	-12.2933
▁impregnation	-12.2938
▁stimuli	-12.2938
▁wafer	-12.295
▁liberate	-12.2956
▁nebulizer	-12.2979
▁engine	-12.298
tartaric	-12.2982
replicating	-12.2985
“	-13.3884
